<unk>	0
<s>	0
</s>	0
b'\x01'	0
b'\x02'	0
b'\x03'	0
b'\x04'	0
b'\x05'	0
b'\x06'	0
b'\x07'	0
b'\x08'	0
b'\t'	0
b'\n'	0
b'\x0b'	0
b'\x0c'	0
b'\r'	0
b'\x0e'	0
b'\x0f'	0
b'\x10'	0
b'\x11'	0
b'\x12'	0
b'\x13'	0
b'\x14'	0
b'\x15'	0
b'\x16'	0
b'\x17'	0
b'\x18'	0
b'\x19'	0
b'\x1a'	0
b'\x1b'	0
b'\x1c'	0
b'\x1d'	0
b'\x1e'	0
b'\x1f'	0
b' '	0
b'!'	0
b'"'	0
b'#'	0
b'$'	0
b'%'	0
b'&'	0
b"'"	0
b'('	0
b')'	0
b'*'	0
b'+'	0
b','	0
b'-'	0
b'.'	0
b'/'	0
b'0'	0
b'1'	0
b'2'	0
b'3'	0
b'4'	0
b'5'	0
b'6'	0
b'7'	0
b'8'	0
b'9'	0
b':'	0
b';'	0
b'<'	0
b'='	0
b'>'	0
b'?'	0
b'@'	0
b'A'	0
b'B'	0
b'C'	0
b'D'	0
b'E'	0
b'F'	0
b'G'	0
b'H'	0
b'I'	0
b'J'	0
b'K'	0
b'L'	0
b'M'	0
b'N'	0
b'O'	0
b'P'	0
b'Q'	0
b'R'	0
b'S'	0
b'T'	0
b'U'	0
b'V'	0
b'W'	0
b'X'	0
b'Y'	0
b'Z'	0
b'['	0
b'\\'	0
b']'	0
b'^'	0
b'_'	0
b'`'	0
b'a'	0
b'b'	0
b'c'	0
b'd'	0
b'e'	0
b'f'	0
b'g'	0
b'h'	0
b'i'	0
b'j'	0
b'k'	0
b'l'	0
b'm'	0
b'n'	0
b'o'	0
b'p'	0
b'q'	0
b'r'	0
b's'	0
b't'	0
b'u'	0
b'v'	0
b'w'	0
b'x'	0
b'y'	0
b'z'	0
b'{'	0
b'|'	0
b'}'	0
b'~'	0
b'\x7f'	0
b'\x80'	0
b'\x81'	0
b'\x82'	0
b'\x83'	0
b'\x84'	0
b'\x85'	0
b'\x86'	0
b'\x87'	0
b'\x88'	0
b'\x89'	0
b'\x8a'	0
b'\x8b'	0
b'\x8c'	0
b'\x8d'	0
b'\x8e'	0
b'\x8f'	0
b'\x90'	0
b'\x91'	0
b'\x92'	0
b'\x93'	0
b'\x94'	0
b'\x95'	0
b'\x96'	0
b'\x97'	0
b'\x98'	0
b'\x99'	0
b'\x9a'	0
b'\x9b'	0
b'\x9c'	0
b'\x9d'	0
b'\x9e'	0
b'\x9f'	0
b'\xa0'	0
b'\xa1'	0
b'\xa2'	0
b'\xa3'	0
b'\xa4'	0
b'\xa5'	0
b'\xa6'	0
b'\xa7'	0
b'\xa8'	0
b'\xa9'	0
b'\xaa'	0
b'\xab'	0
b'\xac'	0
b'\xad'	0
b'\xae'	0
b'\xaf'	0
b'\xb0'	0
b'\xb1'	0
b'\xb2'	0
b'\xb3'	0
b'\xb4'	0
b'\xb5'	0
b'\xb6'	0
b'\xb7'	0
b'\xb8'	0
b'\xb9'	0
b'\xba'	0
b'\xbb'	0
b'\xbc'	0
b'\xbd'	0
b'\xbe'	0
b'\xbf'	0
b'\xc0'	0
b'\xc1'	0
b'\xc2'	0
b'\xc3'	0
b'\xc4'	0
b'\xc5'	0
b'\xc6'	0
b'\xc7'	0
b'\xc8'	0
b'\xc9'	0
b'\xca'	0
b'\xcb'	0
b'\xcc'	0
b'\xcd'	0
b'\xce'	0
b'\xcf'	0
b'\xd0'	0
b'\xd1'	0
b'\xd2'	0
b'\xd3'	0
b'\xd4'	0
b'\xd5'	0
b'\xd6'	0
b'\xd7'	0
b'\xd8'	0
b'\xd9'	0
b'\xda'	0
b'\xdb'	0
b'\xdc'	0
b'\xdd'	0
b'\xde'	0
b'\xdf'	0
b'\xe0'	0
b'\xe1'	0
b'\xe2'	0
b'\xe3'	0
b'\xe4'	0
b'\xe5'	0
b'\xe6'	0
b'\xe7'	0
b'\xe8'	0
b'\xe9'	0
b'\xea'	0
b'\xeb'	0
b'\xec'	0
b'\xed'	0
b'\xee'	0
b'\xef'	0
b'\xf0'	0
b'\xf1'	0
b'\xf2'	0
b'\xf3'	0
b'\xf4'	0
b'\xf5'	0
b'\xf6'	0
b'\xf7'	0
b'\xf8'	0
b'\xf9'	0
b'\xfa'	0
b'\xfb'	0
b'\xfc'	0
b'\xfd'	0
b'\xfe'	0
b'\xff'	0
<1>	0
<2>	0
<3>	0
<4>	0
<5>	0
<6>	0
<7>	0
<8>	0
<9>	0
<10>	0
<11>	0
<12>	0
<13>	0
<14>	0
<15>	0
<16>	0
<17>	0
<18>	0
<19>	0
<20>	0
<21>	0
<22>	0
<23>	0
<24>	0
<25>	0
<26>	0
<27>	0
<28>	0
<29>	0
<30>	0
<EOS>	0
<0x00>	0
<0x01>	0
<0x02>	0
<0x03>	0
<0x04>	0
<0x05>	0
<0x06>	0
<0x07>	0
<0x08>	0
<0x09>	0
<0x0A>	0
<0x0B>	0
<0x0C>	0
<0x0D>	0
<0x0E>	0
<0x0F>	0
<0x10>	0
<0x11>	0
<0x12>	0
<0x13>	0
<0x14>	0
<0x15>	0
<0x16>	0
<0x17>	0
<0x18>	0
<0x19>	0
<0x1A>	0
<0x1B>	0
<0x1C>	0
<0x1D>	0
<0x1E>	0
<0x1F>	0
<0x20>	0
<0x21>	0
<0x22>	0
<0x23>	0
<0x24>	0
<0x25>	0
<0x26>	0
<0x27>	0
<0x28>	0
<0x29>	0
<0x2A>	0
<0x2B>	0
<0x2C>	0
<0x2D>	0
<0x2E>	0
<0x2F>	0
<0x30>	0
<0x31>	0
<0x32>	0
<0x33>	0
<0x34>	0
<0x35>	0
<0x36>	0
<0x37>	0
<0x38>	0
<0x39>	0
<0x3A>	0
<0x3B>	0
<0x3C>	0
<0x3D>	0
<0x3E>	0
<0x3F>	0
<0x40>	0
<0x41>	0
<0x42>	0
<0x43>	0
<0x44>	0
<0x45>	0
<0x46>	0
<0x47>	0
<0x48>	0
<0x49>	0
<0x4A>	0
<0x4B>	0
<0x4C>	0
<0x4D>	0
<0x4E>	0
<0x4F>	0
<0x50>	0
<0x51>	0
<0x52>	0
<0x53>	0
<0x54>	0
<0x55>	0
<0x56>	0
<0x57>	0
<0x58>	0
<0x59>	0
<0x5A>	0
<0x5B>	0
<0x5C>	0
<0x5D>	0
<0x5E>	0
<0x5F>	0
<0x60>	0
<0x61>	0
<0x62>	0
<0x63>	0
<0x64>	0
<0x65>	0
<0x66>	0
<0x67>	0
<0x68>	0
<0x69>	0
<0x6A>	0
<0x6B>	0
<0x6C>	0
<0x6D>	0
<0x6E>	0
<0x6F>	0
<0x70>	0
<0x71>	0
<0x72>	0
<0x73>	0
<0x74>	0
<0x75>	0
<0x76>	0
<0x77>	0
<0x78>	0
<0x79>	0
<0x7A>	0
<0x7B>	0
<0x7C>	0
<0x7D>	0
<0x7E>	0
<0x7F>	0
<0x80>	0
<0x81>	0
<0x82>	0
<0x83>	0
<0x84>	0
<0x85>	0
<0x86>	0
<0x87>	0
<0x88>	0
<0x89>	0
<0x8A>	0
<0x8B>	0
<0x8C>	0
<0x8D>	0
<0x8E>	0
<0x8F>	0
<0x90>	0
<0x91>	0
<0x92>	0
<0x93>	0
<0x94>	0
<0x95>	0
<0x96>	0
<0x97>	0
<0x98>	0
<0x99>	0
<0x9A>	0
<0x9B>	0
<0x9C>	0
<0x9D>	0
<0x9E>	0
<0x9F>	0
<0xA0>	0
<0xA1>	0
<0xA2>	0
<0xA3>	0
<0xA4>	0
<0xA5>	0
<0xA6>	0
<0xA7>	0
<0xA8>	0
<0xA9>	0
<0xAA>	0
<0xAB>	0
<0xAC>	0
<0xAD>	0
<0xAE>	0
<0xAF>	0
<0xB0>	0
<0xB1>	0
<0xB2>	0
<0xB3>	0
<0xB4>	0
<0xB5>	0
<0xB6>	0
<0xB7>	0
<0xB8>	0
<0xB9>	0
<0xBA>	0
<0xBB>	0
<0xBC>	0
<0xBD>	0
<0xBE>	0
<0xBF>	0
<0xC0>	0
<0xC1>	0
<0xC2>	0
<0xC3>	0
<0xC4>	0
<0xC5>	0
<0xC6>	0
<0xC7>	0
<0xC8>	0
<0xC9>	0
<0xCA>	0
<0xCB>	0
<0xCC>	0
<0xCD>	0
<0xCE>	0
<0xCF>	0
<0xD0>	0
<0xD1>	0
<0xD2>	0
<0xD3>	0
<0xD4>	0
<0xD5>	0
<0xD6>	0
<0xD7>	0
<0xD8>	0
<0xD9>	0
<0xDA>	0
<0xDB>	0
<0xDC>	0
<0xDD>	0
<0xDE>	0
<0xDF>	0
<0xE0>	0
<0xE1>	0
<0xE2>	0
<0xE3>	0
<0xE4>	0
<0xE5>	0
<0xE6>	0
<0xE7>	0
<0xE8>	0
<0xE9>	0
<0xEA>	0
<0xEB>	0
<0xEC>	0
<0xED>	0
<0xEE>	0
<0xEF>	0
<0xF0>	0
<0xF1>	0
<0xF2>	0
<0xF3>	0
<0xF4>	0
<0xF5>	0
<0xF6>	0
<0xF7>	0
<0xF8>	0
<0xF9>	0
<0xFA>	0
<0xFB>	0
<0xFC>	0
<0xFD>	0
<0xFE>	0
<0xFF>	0
▁t	-0
▁a	-1
he	-2
in	-3
re	-4
▁the	-5
on	-6
er	-7
▁o	-8
at	-9
▁s	-10
en	-11
▁c	-12
es	-13
▁w	-14
is	-15
nd	-16
it	-17
or	-18
▁p	-19
al	-20
▁b	-21
an	-22
▁f	-23
ed	-24
▁of	-25
ing	-26
▁in	-27
ou	-28
ar	-29
▁m	-30
▁and	-31
▁to	-32
ic	-33
▁d	-34
ion	-35
le	-36
ro	-37
as	-38
▁h	-39
ent	-40
▁th	-41
ct	-42
il	-43
▁e	-44
▁T	-45
▁re	-46
om	-47
ve	-48
▁l	-49
st	-50
▁n	-51
ly	-52
▁be	-53
▁is	-54
▁A	-55
ol	-56
se	-57
▁g	-58
ation	-59
id	-60
im	-61
▁S	-62
et	-63
ut	-64
ur	-65
ce	-66
▁I	-67
ot	-68
ch	-69
ra	-70
ow	-71
▁for	-72
▁C	-73
ig	-74
▁u	-75
▁on	-76
▁that	-77
▁st	-78
▁y	-79
▁The	-80
ver	-81
ir	-82
ul	-83
ay	-84
am	-85
el	-86
ith	-87
▁as	-88
ad	-89
▁pro	-90
▁are	-91
▁M	-92
her	-93
▁you	-94
▁con	-95
▁an	-96
▁with	-97
▁P	-98
if	-99
▁or	-100
▁1	-101
▁wh	-102
▁it	-103
▁al	-104
ter	-105
od	-106
▁(	-107
▁B	-108
ment	-109
ge	-110
▁W	-111
th	-112
op	-113
ate	-114
▁H	-115
ist	-116
ers	-117
▁de	-118
ill	-119
▁he	-120
ess	-121
ab	-122
ies	-123
▁ex	-124
us	-125
▁com	-126
ect	-127
ore	-128
▁D	-129
▁we	-130
▁su	-131
ity	-132
est	-133
ac	-134
res	-135
▁E	-136
▁ha	-137
ive	-138
▁-	-139
rom	-140
▁F	-141
um	-142
ke	-143
▁v	-144
▁R	-145
ld	-146
os	-147
▁by	-148
ant	-149
em	-150
qu	-151
iv	-152
ain	-153
nt	-154
▁at	-155
pp	-156
▁can	-157
igh	-158
ud	-159
▁2	-160
▁from	-161
▁ch	-162
▁was	-163
▁N	-164
oc	-165
and	-166
ort	-167
▁r	-168
▁ne	-169
▁G	-170
▁L	-171
▁se	-172
ial	-173
ure	-174
un	-175
▁le	-176
art	-177
ical	-178
▁not	-179
▁have	-180
ri	-181
og	-182
▁sh	-183
▁en	-184
▁O	-185
▁sp	-186
▁this	-187
▁In	-188
ight	-189
▁wor	-190
pt	-191
▁ab	-192
all	-193
rou	-194
red	-195
00	-196
our	-197
ich	-198
ost	-199
ions	-200
gh	-201
ther	-202
ome	-203
du	-204
ould	-205
ine	-206
▁im	-207
▁us	-208
▁pl	-209
ated	-210
per	-211
out	-212
ag	-213
ard	-214
▁U	-215
ide	-216
ell	-217
▁J	-218
ff	-219
act	-220
▁their	-221
▁your	-222
ear	-223
▁Th	-224
▁int	-225
ast	-226
pl	-227
age	-228
ans	-229
ak	-230
ust	-231
▁k	-232
▁whe	-233
ec	-234
▁which	-235
iz	-236
ood	-237
▁they	-238
ous	-239
▁will	-240
▁ad	-241
▁“	-242
ult	-243
▁inc	-244
▁all	-245
ib	-246
end	-247
▁cont	-248
cc	-249
ia	-250
▁dis	-251
ru	-252
▁more	-253
ap	-254
ew	-255
▁comp	-256
ong	-257
ip	-258
vel	-259
▁res	-260
▁has	-261
ations	-262
▁"	-263
orm	-264
ary	-265
ere	-266
so	-267
▁do	-268
ater	-269
ild	-270
are	-271
able	-272
ks	-273
▁cl	-274
ence	-275
▁man	-276
ry	-277
▁other	-278
ual	-279
ep	-280
▁te	-281
▁but	-282
ind	-283
ents	-284
ach	-285
▁imp	-286
▁per	-287
▁St	-288
▁also	-289
▁were	-290
▁me	-291
ance	-292
▁one	-293
ake	-294
reat	-295
ign	-296
ose	-297
ass	-298
ress	-299
ase	-300
av	-301
▁19	-302
▁j	-303
▁It	-304
au	-305
ber	-306
▁so	-307
▁out	-308
ice	-309
ction	-310
ition	-311
one	-312
▁about	-313
▁This	-314
ime	-315
▁K	-316
▁ar	-317
ord	-318
▁app	-319
very	-320
▁stud	-321
ok	-322
▁un	-323
ace	-324
ory	-325
▁part	-326
ount	-327
ish	-328
ack	-329
ens	-330
ire	-331
▁ev	-332
ame	-333
▁pe	-334
▁inf	-335
▁who	-336
ub	-337
▁sc	-338
ite	-339
▁sy	-340
ors	-341
▁comm	-342
ang	-343
ue	-344
▁Ch	-345
ike	-346
ces	-347
▁them	-348
▁3	-349
ound	-350
▁his	-351
ree	-352
low	-353
olog	-354
now	-355
ric	-356
).	-357
▁pre	-358
▁up	-359
▁V	-360
ays	-361
▁bec	-362
▁qu	-363
ie	-364
▁Y	-365
ile	-366
▁may	-367
▁than	-368
▁20	-369
▁year	-370
ople	-371
iff	-372
▁rec	-373
ail	-374
▁some	-375
mer	-376
▁when	-377
ates	-378
ings	-379
nder	-380
ian	-381
vers	-382
▁been	-383
ren	-384
rit	-385
▁its	-386
▁into	-387
▁work	-388
▁go	-389
ph	-390
▁tra	-391
▁there	-392
▁time	-393
ough	-394
▁ag	-395
▁how	-396
▁over	-397
erv	-398
▁people	-399
lud	-400
▁ro	-401
ons	-402
rough	-403
te	-404
▁use	-405
ll	-406
▁diff	-407
▁sa	-408
▁col	-409
▁these	-410
alth	-411
ond	-412
ally	-413
tern	-414
ove	-415
ause	-416
▁our	-417
ms	-418
▁ra	-419
▁cons	-420
ific	-421
▁tr	-422
▁like	-423
▁bl	-424
int	-425
ook	-426
▁bet	-427
▁know	-428
ys	-429
▁most	-430
we	-431
irst	-432
▁act	-433
lic	-434
ities	-435
ning	-436
row	-437
▁under	-438
les	-439
▁acc	-440
ments	-441
lect	-442
▁had	-443
ject	-444
▁new	-445
velop	-446
▁des	-447
▁Wh	-448
▁need	-449
▁.	-450
▁hel	-451
stem	-452
ious	-453
▁tw	-454
▁child	-455
▁includ	-456
ffect	-457
ient	-458
▁Un	-459
▁help	-460
▁such	-461
ational	-462
▁if	-463
▁rep	-464
▁would	-465
▁rel	-466
ob	-467
ool	-468
▁5	-469
▁any	-470
ple	-471
hed	-472
cess	-473
▁used	-474
▁4	-475
ating	-476
ative	-477
▁what	-478
ular	-479
▁gen	-480
yp	-481
▁ph	-482
ov	-483
ced	-484
▁pr	-485
▁produ	-486
▁prov	-487
▁develop	-488
▁off	-489
▁first	-490
▁As	-491
▁only	-492
▁fe	-493
▁through	-494
▁many	-495
round	-496
▁am	-497
ark	-498
ath	-499
ise	-500
▁–	-501
▁ind	-502
fter	-503
ics	-504
▁spec	-505
▁He	-506
▁no	-507
▁di	-508
uc	-509
uring	-510
▁ac	-511
),	-512
eth	-513
ne	-514
oss	-515
▁em	-516
ts	-517
ful	-518
▁201	-519
▁reg	-520
iss	-521
ink	-522
▁po	-523
▁exp	-524
▁two	-525
rib	-526
▁system	-527
erm	-528
hen	-529
oth	-530
▁differe	-531
old	-532
als	-533
rop	-534
▁add	-535
▁dec	-536
ility	-537
arch	-538
ased	-539
ange	-540
▁ass	-541
ten	-542
▁sur	-543
ible	-544
▁ob	-545
ng	-546
▁water	-547
ures	-548
▁att	-549
ife	-550
▁should	-551
ower	-552
▁fl	-553
▁health	-554
ram	-555
▁well	-556
ble	-557
ract	-558
fore	-559
▁supp	-560
▁years	-561
own	-562
aw	-563
▁rem	-564
ert	-565
▁co	-566
ween	-567
▁inv	-568
▁sm	-569
gan	-570
ade	-571
hes	-572
ick	-573
▁high	-574
▁rese	-575
▁sub	-576
cy	-577
its	-578
ied	-579
ution	-580
chool	-581
▁get	-582
▁between	-583
▁where	-584
▁If	-585
▁pres	-586
▁could	-587
▁make	-588
▁bu	-589
sel	-590
▁200	-591
ology	-592
xt	-593
▁We	-594
chn	-595
ants	-596
ily	-597
ience	-598
▁trans	-599
wn	-600
▁Re	-601
meric	-602
▁import	-603
▁ear	-604
ident	-605
ting	-606
form	-607
▁pers	-608
land	-609
ever	-610
uch	-611
▁Al	-612
▁her	-613
ural	-614
▁How	-615
▁An	-616
ited	-617
▁form	-618
ines	-619
▁lear	-620
▁num	-621
▁mod	-622
▁inst	-623
iet	-624
▁For	-625
ata	-626
ins	-627
▁6	-628
▁disc	-629
▁inter	-630
▁found	-631
ists	-632
▁exam	-633
ont	-634
ft	-635
ict	-636
▁pol	-637
▁car	-638
▁different	-639
▁18	-640
ness	-641
▁ed	-642
ivers	-643
▁Americ	-644
▁after	-645
▁exper	-646
▁world	-647
▁med	-648
▁said	-649
▁long	-650
▁”	-651
gy	-652
ually	-653
▁inform	-654
▁effect	-655
▁Pro	-656
▁sim	-657
▁just	-658
▁cent	-659
oy	-660
▁lar	-661
▁because	-662
▁typ	-663
▁count	-664
get	-665
▁then	-666
▁way	-667
aking	-668
ature	-669
▁even	-670
urn	-671
▁ke	-672
▁|	-673
▁incre	-674
▁very	-675
▁det	-676
vent	-677
ism	-678
▁Com	-679
▁see	-680
cept	-681
ollow	-682
iew	-683
▁sign	-684
▁resp	-685
ck	-686
ives	-687
other	-688
▁hum	-689
▁var	-690
▁pub	-691
ically	-692
cer	-693
ef	-694
▁prog	-695
▁ref	-696
▁children	-697
▁call	-698
▁pat	-699
▁every	-700
arm	-701
▁gener	-702
▁those	-703
ps	-704
ds	-705
ros	-706
ork	-707
▁process	-708
▁ca	-709
▁ext	-710
▁loc	-711
▁gra	-712
▁They	-713
iron	-714
ases	-715
ues	-716
▁each	-717
▁result	-718
▁There	-719
▁techn	-720
▁sec	-721
ages	-722
ody	-723
led	-724
▁important	-725
▁being	-726
▁fact	-727
▁requ	-728
ruct	-729
▁cre	-730
▁art	-731
▁mon	-732
tle	-733
▁set	-734
▁students	-735
▁read	-736
▁life	-737
▁Ar	-738
▁she	-739
▁commun	-740
▁soc	-741
▁sk	-742
ved	-743
▁information	-744
▁during	-745
▁fam	-746
▁partic	-747
▁follow	-748
▁food	-749
▁7	-750
▁much	-751
cent	-752
▁You	-753
ather	-754
▁lead	-755
▁dist	-756
imes	-757
▁dep	-758
▁def	-759
▁ent	-760
ices	-761
▁study	-762
ward	-763
▁aut	-764
▁level	-765
▁data	-766
ized	-767
▁own	-768
▁find	-769
▁my	-770
▁right	-771
▁grow	-772
▁Sp	-773
any	-774
▁10	-775
▁school	-776
vern	-777
ize	-778
gg	-779
ection	-780
io	-781
▁made	-782
▁does	-783
||	-784
▁av	-785
▁8	-786
▁cur	-787
▁person	-788
▁But	-789
▁proble	-790
▁min	-791
▁New	-792
▁back	-793
▁Sc	-794
▁same	-795
▁che	-796
▁using	-797
▁good	-798
▁Ind	-799
hip	-800
▁ins	-801
▁end	-802
viron	-803
▁str	-804
ted	-805
▁What	-806
▁hist	-807
ale	-808
und	-809
▁expl	-810
▁show	-811
orn	-812
▁test	-813
▁before	-814
▁bo	-815
stand	-816
onom	-817
▁both	-818
▁pop	-819
ality	-820
▁gl	-821
iel	-822
ock	-823
▁comple	-824
read	-825
▁treat	-826
▁small	-827
▁grou	-828
▁9	-829
▁main	-830
ars	-831
..	-832
000	-833
▁prot	-834
▁br	-835
▁sol	-836
▁dise	-837
▁day	-838
inal	-839
ially	-840
ix	-841
ergy	-842
▁research	-843
iversity	-844
ince	-845
▁often	-846
▁less	-847
▁take	-848
imate	-849
omen	-850
ished	-851
akes	-852
▁val	-853
nce	-854
ute	-855
ien	-856
ivid	-857
ined	-858
20	-859
ex	-860
▁again	-861
der	-862
ral	-863
▁ris	-864
oh	-865
▁while	-866
▁(1	-867
rol	-868
▁state	-869
ty	-870
▁now	-871
▁vis	-872
vironment	-873
▁serv	-874
▁lit	-875
ax	-876
▁number	-877
▁And	-878
▁body	-879
hers	-880
▁provid	-881
▁poss	-882
▁around	-883
ier	-884
▁design	-885
,”	-886
▁organ	-887
▁fun	-888
dition	-889
▁mem	-890
iqu	-891
▁occ	-892
▁cell	-893
▁When	-894
irect	-895
ury	-896
up	-897
▁power	-898
▁activ	-899
▁down	-900
▁Is	-901
-1	-902
▁class	-903
iving	-904
▁ec	-905
▁hand	-906
ah	-907
air	-908
▁support	-909
iety	-910
▁These	-911
▁start	-912
ulation	-913
ters	-914
▁three	-915
day	-916
▁redu	-917
▁look	-918
▁To	-919
▁common	-920
▁plan	-921
▁char	-922
▁bel	-923
ered	-924
ital	-925
ger	-926
▁Se	-927
ves	-928
▁human	-929
▁him	-930
uss	-931
▁elect	-932
▁conf	-933
ium	-934
ains	-935
ven	-936
aj	-937
rent	-938
▁cle	-939
ross	-940
ave	-941
▁est	-942
▁report	-943
▁must	-944
▁care	-945
ving	-946
▁ser	-947
▁point	-948
ouse	-949
▁writ	-950
ron	-951
▁land	-952
▁great	-953
rain	-954
▁including	-955
▁De	-956
cl	-957
ash	-958
▁Res	-959
acter	-960
ull	-961
gen	-962
▁build	-963
anc	-964
ional	-965
▁‘	-966
▁example	-967
outh	-968
▁contin	-969
▁large	-970
▁op	-971
▁cor	-972
▁educ	-973
▁Ad	-974
▁govern	-975
the	-976
▁allow	-977
iver	-978
itions	-979
▁understand	-980
▁called	-981
▁dr	-982
way	-983
▁adv	-984
0.	-985
▁known	-986
▁did	-987
ared	-988
.,	-989
▁At	-990
self	-991
The	-992
▁equ	-993
▁met	-994
ids	-995
oms	-996
aterial	-997
▁University	-998
▁ret	-999
▁cour	-1000
▁Eng	-1001
els	-1002
▁eas	-1003
▁const	-1004
me	-1005
reen	-1006
▁gu	-1007
▁Ex	-1008
▁public	-1009
▁pract	-1010
▁som	-1011
ential	-1012
▁though	-1013
lish	-1014
ets	-1015
ering	-1016
▁Con	-1017
,000	-1018
ired	-1019
▁still	-1020
▁beh	-1021
ries	-1022
oci	-1023
▁place	-1024
▁quest	-1025
ources	-1026
iven	-1027
▁learn	-1028
▁Ph	-1029
ected	-1030
iod	-1031
ording	-1032
de	-1033
▁think	-1034
raph	-1035
▁Sh	-1036
eng	-1037
▁tem	-1038
▁caus	-1039
line	-1040
▁few	-1041
▁appro	-1042
ank	-1043
▁environment	-1044
osed	-1045
ividual	-1046
inc	-1047
▁ide	-1048
▁might	-1049
▁want	-1050
▁energy	-1051
▁project	-1052
ization	-1053
▁However	-1054
▁stand	-1055
oun	-1056
erest	-1057
itive	-1058
▁chang	-1059
▁sym	-1060
ption	-1061
angu	-1062
agn	-1063
com	-1064
▁mat	-1065
bers	-1066
▁American	-1067
▁product	-1068
ination	-1069
▁change	-1070
▁impro	-1071
▁present	-1072
bs	-1073
ration	-1074
▁air	-1075
▁light	-1076
▁disease	-1077
▁play	-1078
▁iss	-1079
▁pur	-1080
▁ve	-1081
▁don	-1082
▁material	-1083
▁within	-1084
▁prof	-1085
▁development	-1086
alk	-1087
ethod	-1088
ton	-1089
▁&	-1090
ffic	-1091
▁phys	-1092
ived	-1093
ense	-1094
▁without	-1095
man	-1096
orth	-1097
▁bre	-1098
▁area	-1099
illion	-1100
ason	-1101
▁pot	-1102
▁imm	-1103
mon	-1104
ior	-1105
▁ben	-1106
esp	-1107
▁eng	-1108
▁spe	-1109
▁Cl	-1110
eral	-1111
▁Le	-1112
▁ident	-1113
▁include	-1114
iness	-1115
▁sl	-1116
▁direct	-1117
▁[	-1118
▁individual	-1119
arent	-1120
▁home	-1121
▁Be	-1122
gin	-1123
▁blood	-1124
ental	-1125
▁best	-1126
▁pass	-1127
ertain	-1128
▁sit	-1129
ner	-1130
▁cap	-1131
less	-1132
▁pain	-1133
▁risk	-1134
▁199	-1135
ield	-1136
▁meas	-1137
▁On	-1138
▁Pl	-1139
arc	-1140
ians	-1141
▁Q	-1142
ability	-1143
▁another	-1144
ug	-1145
erc	-1146
▁last	-1147
▁pos	-1148
pr	-1149
▁women	-1150
▁mus	-1151
ajor	-1152
ify	-1153
▁—	-1154
ource	-1155
az	-1156
ified	-1157
▁ant	-1158
▁program	-1159
ological	-1160
▁belie	-1161
ills	-1162
tt	-1163
rodu	-1164
atural	-1165
ik	-1166
▁bas	-1167
▁anal	-1168
ats	-1169
▁mark	-1170
▁desc	-1171
▁15	-1172
lished	-1173
▁Col	-1174
ccess	-1175
▁interest	-1176
▁social	-1177
▁old	-1178
ining	-1179
▁better	-1180
▁keep	-1181
▁become	-1182
▁cult	-1183
▁rest	-1184
hor	-1185
▁early	-1186
▁sever	-1187
▁Can	-1188
▁law	-1189
atic	-1190
▁here	-1191
▁proper	-1192
icle	-1193
▁low	-1194
▁anim	-1195
ently	-1196
▁opp	-1197
ware	-1198
ained	-1199
▁mil	-1200
▁top	-1201
ern	-1202
▁method	-1203
▁So	-1204
▁control	-1205
▁tre	-1206
▁history	-1207
ways	-1208
▁war	-1209
ision	-1210
view	-1211
▁move	-1212
▁cause	-1213
▁provide	-1214
rist	-1215
▁avail	-1216
ission	-1217
ients	-1218
▁United	-1219
▁leg	-1220
rap	-1221
▁saf	-1222
▁says	-1223
use	-1224
here	-1225
ards	-1226
▁fore	-1227
ories	-1228
▁par	-1229
▁too	-1230
▁second	-1231
▁En	-1232
amp	-1233
▁Te	-1234
▁family	-1235
▁against	-1236
▁learning	-1237
str	-1238
▁oper	-1239
▁real	-1240
▁means	-1241
ider	-1242
▁ess	-1243
▁group	-1244
▁econom	-1245
▁government	-1246
▁current	-1247
▁ele	-1248
▁near	-1249
▁major	-1250
▁percent	-1251
▁dev	-1252
▁occur	-1253
▁langu	-1254
ples	-1255
ograph	-1256
▁Z	-1257
▁perform	-1258
ote	-1259
▁ter	-1260
▁order	-1261
▁All	-1262
oid	-1263
▁scient	-1264
▁plant	-1265
▁say	-1266
▁infl	-1267
ention	-1268
▁indu	-1269
▁unt	-1270
ina	-1271
▁several	-1272
▁12	-1273
▁possible	-1274
,"	-1275
▁orig	-1276
▁invol	-1277
▁able	-1278
▁fin	-1279
irc	-1280
▁17	-1281
ww	-1282
▁benef	-1283
▁bus	-1284
br	-1285
▁particular	-1286
▁addition	-1287
▁period	-1288
ised	-1289
▁affect	-1290
▁mean	-1291
par	-1292
▁prom	-1293
▁cal	-1294
osp	-1295
▁hig	-1296
pect	-1297
▁open	-1298
ator	-1299
▁happ	-1300
▁cr	-1301
ek	-1302
▁name	-1303
▁species	-1304
▁cost	-1305
▁following	-1306
▁One	-1307
▁feel	-1308
ots	-1309
▁et	-1310
ames	-1311
urop	-1312
▁areas	-1313
▁Or	-1314
▁treatment	-1315
ogn	-1316
sy	-1317
▁since	-1318
▁God	-1319
▁National	-1320
▁available	-1321
▁men	-1322
▁mar	-1323
▁non	-1324
▁Cent	-1325
aper	-1326
ane	-1327
▁signific	-1328
▁prevent	-1329
ole	-1330
idence	-1331
▁things	-1332
▁head	-1333
▁'	-1334
▁States	-1335
une	-1336
▁el	-1337
ling	-1338
ret	-1339
ends	-1340
▁country	-1341
▁lim	-1342
▁list	-1343
ended	-1344
▁based	-1345
▁among	-1346
▁0	-1347
▁four	-1348
▁access	-1349
▁others	-1350
▁month	-1351
▁times	-1352
ocus	-1353
▁With	-1354
port	-1355
▁Some	-1356
▁fac	-1357
▁del	-1358
cing	-1359
ilar	-1360
ox	-1361
sc	-1362
▁post	-1363
mit	-1364
▁lo	-1365
▁cond	-1366
▁age	-1367
▁free	-1368
oint	-1369
▁come	-1370
▁run	-1371
ones	-1372
▁fre	-1373
though	-1374
ances	-1375
▁gr	-1376
▁Fr	-1377
▁conn	-1378
▁Wor	-1379
▁book	-1380
eg	-1381
▁type	-1382
urope	-1383
▁Bl	-1384
▁creat	-1385
▁Af	-1386
elf	-1387
▁flow	-1388
▁11	-1389
▁struct	-1390
oks	-1391
▁put	-1392
abor	-1393
▁problems	-1394
ploy	-1395
▁press	-1396
▁16	-1397
▁natural	-1398
▁problem	-1399
stit	-1400
▁impact	-1401
▁rece	-1402
urther	-1403
ope	-1404
to	-1405
▁bir	-1406
▁local	-1407
▁object	-1408
▁levels	-1409
work	-1410
▁bi	-1411
ably	-1412
▁By	-1413
__	-1414
▁hard	-1415
▁case	-1416
▁vol	-1417
▁intern	-1418
▁view	-1419
▁certain	-1420
▁let	-1421
olution	-1422
▁bro	-1423
be	-1424
▁success	-1425
▁amount	-1426
▁cells	-1427
ression	-1428
▁little	-1429
▁Christ	-1430
▁young	-1431
icult	-1432
▁making	-1433
▁Med	-1434
▁mult	-1435
▁comput	-1436
atory	-1437
▁Europe	-1438
▁sw	-1439
▁US	-1440
ething	-1441
ortun	-1442
uture	-1443
▁focus	-1444
▁until	-1445
▁heart	-1446
▁Ear	-1447
ggest	-1448
▁associ	-1449
▁later	-1450
▁short	-1451
2.	-1452
▁far	-1453
▁due	-1454
▁turn	-1455
ication	-1456
▁days	-1457
▁cho	-1458
omm	-1459
resent	-1460
▁education	-1461
ides	-1462
ately	-1463
▁significant	-1464
▁vir	-1465
por	-1466
agement	-1467
ured	-1468
ohn	-1469
▁along	-1470
yd	-1471
ledge	-1472
over	-1473
▁rad	-1474
▁given	-1475
ged	-1476
cle	-1477
hem	-1478
▁suggest	-1479
▁teac	-1480
▁invest	-1481
▁create	-1482
▁language	-1483
▁technology	-1484
▁$	-1485
aster	-1486
▁function	-1487
▁likely	-1488
▁fil	-1489
▁cancer	-1490
aken	-1491
▁determ	-1492
▁systems	-1493
▁behav	-1494
face	-1495
ring	-1496
ither	-1497
▁circ	-1498
▁comb	-1499
▁Im	-1500
isc	-1501
▁community	-1502
af	-1503
ptoms	-1504
aps	-1505
1.	-1506
ember	-1507
▁rele	-1508
▁dra	-1509
▁something	-1510
▁million	-1511
▁1.	-1512
▁Dr	-1513
ried	-1514
ead	-1515
▁course	-1516
ape	-1517
▁usually	-1518
▁increase	-1519
▁today	-1520
▁ey	-1521
▁death	-1522
▁words	-1523
▁temper	-1524
▁past	-1525
▁profess	-1526
ending	-1527
▁works	-1528
▁enc	-1529
▁researc	-1530
▁appear	-1531
▁consum	-1532
▁Afric	-1533
oph	-1534
▁needs	-1535
▁That	-1536
▁results	-1537
▁record	-1538
▁space	-1539
▁author	-1540
▁always	-1541
not	-1542
▁dam	-1543
ours	-1544
▁brain	-1545
▁Sy	-1546
▁Brit	-1547
▁parent	-1548
▁sing	-1549
ned	-1550
▁specific	-1551
▁give	-1552
ators	-1553
ecially	-1554
▁next	-1555
vious	-1556
▁special	-1557
▁across	-1558
▁difficult	-1559
▁effective	-1560
▁seem	-1561
▁why	-1562
3.	-1563
▁experience	-1564
▁century	-1565
▁Ab	-1566
▁obs	-1567
▁ill	-1568
▁conditions	-1569
idd	-1570
▁John	-1571
etic	-1572
▁applic	-1573
obal	-1574
▁clear	-1575
▁polit	-1576
▁future	-1577
min	-1578
ruction	-1579
rug	-1580
of	-1581
put	-1582
▁discuss	-1583
ored	-1584
▁describ	-1585
▁er	-1586
ode	-1587
▁team	-1588
ler	-1589
▁Gen	-1590
asing	-1591
atch	-1592
▁line	-1593
▁various	-1594
▁While	-1595
▁toget	-1596
▁together	-1597
▁above	-1598
▁similar	-1599
▁improve	-1600
orts	-1601
▁Go	-1602
ique	-1603
▁population	-1604
▁begin	-1605
aining	-1606
app	-1607
▁try	-1608
▁(2	-1609
▁plants	-1610
▁crit	-1611
▁tool	-1612
▁dem	-1613
▁mov	-1614
▁working	-1615
▁ask	-1616
especially	-1617
iation	-1618
ison	-1619
▁side	-1620
▁character	-1621
ribut	-1622
▁countries	-1623
▁changes	-1624
ilities	-1625
▁business	-1626
ateg	-1627
//	-1628
▁exist	-1629
nal	-1630
▁World	-1631
▁War	-1632
aves	-1633
▁require	-1634
4.	-1635
▁higher	-1636
▁colle	-1637
▁strong	-1638
▁least	-1639
▁Stud	-1640
ray	-1641
sw	-1642
▁gre	-1643
▁complete	-1644
▁away	-1645
▁ways	-1646
▁left	-1647
▁After	-1648
▁net	-1649
▁key	-1650
pos	-1651
amm	-1652
ysis	-1653
▁patients	-1654
ilt	-1655
▁Health	-1656
aces	-1657
▁cy	-1658
acy	-1659
oot	-1660
▁respons	-1661
▁Car	-1662
▁estab	-1663
▁necess	-1664
ush	-1665
most	-1666
oney	-1667
▁English	-1668
▁full	-1669
▁enough	-1670
▁Resear	-1671
▁kind	-1672
▁Ne	-1673
ument	-1674
▁,	-1675
▁types	-1676
iting	-1677
▁chem	-1678
omes	-1679
▁effects	-1680
aching	-1681
ley	-1682
▁symptoms	-1683
▁term	-1684
ipp	-1685
▁Tr	-1686
▁Am	-1687
5.	-1688
alf	-1689
▁never	-1690
let	-1691
▁Germ	-1692
▁step	-1693
▁especially	-1694
://	-1695
acc	-1696
▁protect	-1697
duct	-1698
▁however	-1699
▁mot	-1700
▁Pr	-1701
▁opt	-1702
ales	-1703
▁sens	-1704
▁She	-1705
▁Comm	-1706
▁Ge	-1707
▁city	-1708
▁having	-1709
▁going	-1710
thing	-1711
aring	-1712
▁prim	-1713
▁Intern	-1714
itor	-1715
ires	-1716
selves	-1717
▁z	-1718
lement	-1719
▁)	-1720
oman	-1721
side	-1722
sp	-1723
▁tru	-1724
▁Mar	-1725
▁science	-1726
ges	-1727
▁Do	-1728
▁big	-1729
▁sum	-1730
ott	-1731
▁text	-1732
▁30	-1733
50	-1734
ery	-1735
atures	-1736
▁became	-1737
▁makes	-1738
ables	-1739
▁role	-1740
ung	-1741
aut	-1742
ising	-1743
ann	-1744
▁paper	-1745
▁ens	-1746
▁live	-1747
▁general	-1748
▁cases	-1749
▁account	-1750
▁norm	-1751
▁wr	-1752
▁consider	-1753
▁chall	-1754
chie	-1755
▁ground	-1756
▁sure	-1757
▁studies	-1758
▁lower	-1759
▁subject	-1760
▁physical	-1761
▁below	-1762
▁Cal	-1763
lo	-1764
▁house	-1765
▁whether	-1766
▁2.	-1767
▁dig	-1768
▁knowledge	-1769
apt	-1770
▁influ	-1771
icro	-1772
eds	-1773
▁14	-1774
▁relations	-1775
ready	-1776
▁nut	-1777
▁story	-1778
▁concer	-1779
▁mind	-1780
aim	-1781
bon	-1782
NA	-1783
▁(19	-1784
1,	-1785
ification	-1786
ites	-1787
▁further	-1788
ae	-1789
▁fund	-1790
mber	-1791
▁activities	-1792
▁range	-1793
▁198	-1794
▁word	-1795
ued	-1796
▁May	-1797
ency	-1798
istic	-1799
▁Cont	-1800
verage	-1801
▁pred	-1802
▁article	-1803
▁researchers	-1804
▁quality	-1805
sych	-1806
ream	-1807
▁Ass	-1808
urch	-1809
▁represent	-1810
▁resources	-1811
▁self	-1812
▁South	-1813
▁Acc	-1814
▁skills	-1815
by	-1816
▁lot	-1817
▁production	-1818
▁wind	-1819
▁according	-1820
edi	-1821
cul	-1822
▁polic	-1823
ird	-1824
augh	-1825
▁13	-1826
▁North	-1827
▁loss	-1828
▁offic	-1829
▁value	-1830
oura	-1831
▁reason	-1832
▁products	-1833
erence	-1834
ils	-1835
▁toward	-1836
▁growth	-1837
▁site	-1838
▁eff	-1839
esc	-1840
▁activity	-1841
▁fall	-1842
6.	-1843
▁potential	-1844
▁seen	-1845
▁question	-1846
▁model	-1847
▁already	-1848
overed	-1849
▁really	-1850
▁done	-1851
▁building	-1852
ER	-1853
iam	-1854
▁=	-1855
▁particip	-1856
▁climate	-1857
for	-1858
▁close	-1859
▁phot	-1860
unt	-1861
ands	-1862
8.	-1863
▁field	-1864
▁reduce	-1865
2,	-1866
▁indic	-1867
▁employ	-1868
9.	-1869
▁Man	-1870
▁developed	-1871
ibility	-1872
10	-1873
osis	-1874
iol	-1875
▁groups	-1876
amin	-1877
etimes	-1878
▁stat	-1879
▁America	-1880
7.	-1881
ublic	-1882
▁medical	-1883
fact	-1884
▁Rep	-1885
uation	-1886
▁recomm	-1887
leep	-1888
▁indust	-1889
urity	-1890
ee	-1891
▁event	-1892
eter	-1893
▁bat	-1894
▁htt	-1895
ips	-1896
▁recogn	-1897
▁ann	-1898
▁five	-1899
▁Hist	-1900
▁source	-1901
▁Dep	-1902
▁flu	-1903
▁Aust	-1904
ival	-1905
▁deg	-1906
iple	-1907
▁red	-1908
rams	-1909
rel	-1910
▁questions	-1911
ety	-1912
▁tradition	-1913
▁mass	-1914
ournal	-1915
▁achie	-1916
▁sun	-1917
ask	-1918
▁drug	-1919
▁issues	-1920
▁doct	-1921
▁ur	-1922
ober	-1923
▁Soc	-1924
▁cut	-1925
▁surface	-1926
▁either	-1927
▁week	-1928
▁detail	-1929
ym	-1930
▁single	-1931
ibr	-1932
ights	-1933
▁address	-1934
▁national	-1935
▁created	-1936
▁once	-1937
▁prob	-1938
ivil	-1939
▁skin	-1940
▁white	-1941
idered	-1942
▁meet	-1943
rict	-1944
▁introdu	-1945
▁collect	-1946
▁Gu	-1947
AS	-1948
▁rather	-1949
▁Act	-1950
fer	-1951
▁rate	-1952
▁neg	-1953
rect	-1954
▁taken	-1955
▁Fl	-1956
▁init	-1957
▁sent	-1958
▁fr	-1959
wh	-1960
ule	-1961
▁published	-1962
ivity	-1963
▁tell	-1964
▁concept	-1965
enn	-1966
▁size	-1967
▁wide	-1968
roll	-1969
val	-1970
▁Many	-1971
▁fri	-1972
▁No	-1973
▁members	-1974
▁pressure	-1975
artment	-1976
▁healthy	-1977
▁ver	-1978
▁tot	-1979
▁sound	-1980
▁Pe	-1981
▁engine	-1982
▁abs	-1983
reme	-1984
▁Earth	-1985
oon	-1986
▁histor	-1987
▁whole	-1988
▁considered	-1989
▁evidence	-1990
▁living	-1991
▁simple	-1992
▁hold	-1993
▁animals	-1994
▁frequ	-1995
▁came	-1996
▁understanding	-1997
▁opportun	-1998
▁observ	-1999
▁materials	-2000
▁sal	-2001
▁stress	-2002
▁Em	-2003
▁York	-2004
▁repl	-2005
illed	-2006
▁return	-2007
▁lay	-2008
▁practice	-2009
▁doc	-2010
▁pay	-2011
▁adult	-2012
fficient	-2013
aging	-2014
▁Co	-2015
ai	-2016
▁related	-2017
▁fail	-2018
▁associated	-2019
reg	-2020
ications	-2021
eb	-2022
▁100	-2023
▁provides	-2024
▁market	-2025
5,	-2026
▁His	-2027
▁black	-2028
▁dom	-2029
▁State	-2030
▁student	-2031
▁states	-2032
▁dest	-2033
▁required	-2034
ening	-2035
▁quick	-2036
gest	-2037
▁Research	-2038
aced	-2039
utions	-2040
▁X	-2041
acks	-2042
▁diet	-2043
▁answ	-2044
ensive	-2045
▁needed	-2046
▁comes	-2047
▁global	-2048
epend	-2049
▁condition	-2050
▁increased	-2051
▁actually	-2052
ney	-2053
▁relig	-2054
▁maint	-2055
▁exerc	-2056
▁parts	-2057
▁vers	-2058
▁fat	-2059
like	-2060
sh	-2061
▁famil	-2062
ump	-2063
yn	-2064
yl	-2065
▁Here	-2066
-2	-2067
▁themselves	-2068
▁fish	-2069
ging	-2070
▁nature	-2071
▁More	-2072
▁oil	-2073
▁197	-2074
▁writing	-2075
▁ability	-2076
▁port	-2077
▁Su	-2078
itud	-2079
▁avoid	-2080
▁upon	-2081
▁entire	-2082
▁link	-2083
bo	-2084
▁management	-2085
▁prop	-2086
▁coll	-2087
▁experien	-2088
▁Most	-2089
▁modern	-2090
▁cannot	-2091
".	-2092
3,	-2093
▁months	-2094
▁thought	-2095
▁green	-2096
▁services	-2097
▁arch	-2098
lying	-2099
▁School	-2100
olic	-2101
▁idea	-2102
urs	-2103
▁relationship	-2104
▁dog	-2105
▁gas	-2106
erve	-2107
▁reading	-2108
uel	-2109
▁online	-2110
go	-2111
4,	-2112
aged	-2113
▁assess	-2114
ises	-2115
▁complex	-2116
▁factors	-2117
▁half	-2118
▁parents	-2119
▁soil	-2120
hing	-2121
▁cat	-2122
▁suff	-2123
ened	-2124
▁weight	-2125
▁prote	-2126
▁political	-2127
▁almost	-2128
rad	-2129
vere	-2130
▁soft	-2131
▁Instit	-2132
30	-2133
▁measure	-2134
hib	-2135
▁rights	-2136
▁computer	-2137
ores	-2138
sequ	-2139
▁lab	-2140
itary	-2141
▁analysis	-2142
eding	-2143
based	-2144
ES	-2145
▁50	-2146
▁color	-2147
rown	-2148
▁money	-2149
utes	-2150
▁Your	-2151
▁British	-2152
▁bar	-2153
▁economic	-2154
▁stop	-2155
▁liter	-2156
▁approach	-2157
▁took	-2158
chan	-2159
▁began	-2160
▁Pre	-2161
▁fire	-2162
▁job	-2163
iction	-2164
▁produce	-2165
▁ever	-2166
▁popular	-2167
▁super	-2168
▁3.	-2169
201	-2170
ences	-2171
▁personal	-2172
▁tar	-2173
▁win	-2174
emic	-2175
▁arr	-2176
▁conduct	-2177
▁clean	-2178
▁necessary	-2179
▁react	-2180
▁path	-2181
▁ge	-2182
):	-2183
▁Canad	-2184
▁arg	-2185
iddle	-2186
▁emer	-2187
▁chemical	-2188
izing	-2189
▁throughout	-2190
▁According	-2191
abit	-2192
▁shows	-2193
▁cop	-2194
▁farm	-2195
▁taking	-2196
▁Me	-2197
my	-2198
8,	-2199
▁itself	-2200
ume	-2201
6,	-2202
AT	-2203
ma	-2204
▁anc	-2205
icles	-2206
ections	-2207
usion	-2208
▁Int	-2209
apan	-2210
▁App	-2211
ese	-2212
▁region	-2213
▁built	-2214
▁Qu	-2215
oll	-2216
▁priv	-2217
▁content	-2218
▁sam	-2219
yle	-2220
ript	-2221
▁pattern	-2222
▁196	-2223
ply	-2224
onse	-2225
uck	-2226
▁Jew	-2227
9,	-2228
▁company	-2229
pro	-2230
irm	-2231
▁mor	-2232
nces	-2233
▁la	-2234
▁therap	-2235
▁check	-2236
▁Although	-2237
estern	-2238
▁Par	-2239
▁Per	-2240
▁bur	-2241
▁sleep	-2242
ID	-2243
anced	-2244
ches	-2245
▁talk	-2246
erous	-2247
▁vide	-2248
▁ce	-2249
▁Sec	-2250
▁six	-2251
▁diagn	-2252
7,	-2253
▁training	-2254
▁travel	-2255
▁inj	-2256
▁heat	-2257
▁recent	-2258
▁industry	-2259
▁Us	-2260
▁schools	-2261
▁hours	-2262
▁CO	-2263
▁Will	-2264
▁Other	-2265
...	-2266
▁temperature	-2267
▁Science	-2268
▁rul	-2269
▁action	-2270
▁increasing	-2271
▁separ	-2272
▁service	-2273
▁individuals	-2274
aily	-2275
▁causes	-2276
astic	-2277
▁caused	-2278
▁From	-2279
ze	-2280
▁safe	-2281
▁contact	-2282
▁disord	-2283
▁Pres	-2284
▁interact	-2285
hold	-2286
▁yet	-2287
▁environmental	-2288
▁ut	-2289
▁easy	-2290
▁includes	-2291
itation	-2292
▁benefits	-2293
▁total	-2294
▁India	-2295
▁II	-2296
▁--	-2297
▁spread	-2298
vey	-2299
AR	-2300
ows	-2301
▁structure	-2302
▁•	-2303
aff	-2304
▁break	-2305
▁princ	-2306
▁longer	-2307
▁Ed	-2308
▁claim	-2309
▁contain	-2310
▁lives	-2311
pid	-2312
▁194	-2313
duc	-2314
▁surv	-2315
▁designed	-2316
▁Austral	-2317
reng	-2318
mb	-2319
▁previous	-2320
▁scientists	-2321
▁regard	-2322
ns	-2323
▁etc	-2324
minist	-2325
lex	-2326
iment	-2327
▁Japan	-2328
▁wild	-2329
▁mach	-2330
igure	-2331
lands	-2332
empt	-2333
▁ste	-2334
fully	-2335
▁helps	-2336
▁regular	-2337
inary	-2338
▁terms	-2339
lt	-2340
▁heav	-2341
▁conc	-2342
ronic	-2343
▁meaning	-2344
ederal	-2345
het	-2346
istics	-2347
▁Rec	-2348
▁Cons	-2349
ster	-2350
▁page	-2351
▁bring	-2352
ister	-2353
▁sense	-2354
▁bacter	-2355
ricult	-2356
▁King	-2357
gar	-2358
▁provided	-2359
▁fru	-2360
▁Min	-2361
ulations	-2362
▁25	-2363
▁sat	-2364
▁thing	-2365
▁behavior	-2366
ively	-2367
abet	-2368
asc	-2369
▁matter	-2370
▁Not	-2371
▁Part	-2372
▁sex	-2373
▁society	-2374
▁rev	-2375
▁earth	-2376
amed	-2377
▁position	-2378
hood	-2379
▁average	-2380
▁webs	-2381
ropri	-2382
▁review	-2383
ufact	-2384
▁poll	-2385
▁carbon	-2386
icine	-2387
▁eat	-2388
▁Of	-2389
istance	-2390
ene	-2391
▁lif	-2392
▁variety	-2393
aving	-2394
▁positive	-2395
arr	-2396
▁/	-2397
▁Count	-2398
ched	-2399
▁led	-2400
▁damage	-2401
▁deep	-2402
▁uses	-2403
rought	-2404
▁love	-2405
▁music	-2406
▁foods	-2407
▁Comp	-2408
▁prec	-2409
▁methods	-2410
▁shown	-2411
ades	-2412
▁written	-2413
▁target	-2414
▁encoura	-2415
▁face	-2416
▁standard	-2417
▁issue	-2418
▁origin	-2419
▁vari	-2420
▁electric	-2421
▁Ke	-2422
▁compan	-2423
▁threat	-2424
▁original	-2425
rench	-2426
verse	-2427
▁true	-2428
▁believe	-2429
oor	-2430
▁slow	-2431
▁identify	-2432
rior	-2433
▁programs	-2434
▁sources	-2435
▁image	-2436
imately	-2437
▁Jan	-2438
▁Child	-2439
▁accept	-2440
▁Gl	-2441
▁Educ	-2442
aries	-2443
▁Ag	-2444
▁compl	-2445
▁events	-2446
aling	-2447
:1	-2448
ials	-2449
idge	-2450
▁sometimes	-2451
▁visit	-2452
atives	-2453
lease	-2454
▁camp	-2455
▁fem	-2456
▁exc	-2457
▁Art	-2458
ington	-2459
dom	-2460
▁ensure	-2461
▁viol	-2462
▁doing	-2463
ength	-2464
▁remov	-2465
▁response	-2466
eration	-2467
▁streng	-2468
▁pict	-2469
bor	-2470
rand	-2471
ners	-2472
ban	-2473
▁movement	-2474
light	-2475
▁normal	-2476
▁involved	-2477
new	-2478
▁i	-2479
▁subst	-2480
room	-2481
▁essential	-2482
▁Bo	-2483
▁micro	-2484
▁simply	-2485
rast	-2486
▁reported	-2487
▁kids	-2488
▁developing	-2489
▁challeng	-2490
hel	-2491
▁bal	-2492
ervation	-2493
▁Ac	-2494
aches	-2495
▁culture	-2496
▁outside	-2497
▁mechan	-2498
ender	-2499
issions	-2500
▁greater	-2501
rie	-2502
▁Center	-2503
▁El	-2504
▁feet	-2505
son	-2506
▁Our	-2507
▁China	-2508
▁compon	-2509
pose	-2510
know	-2511
▁Ju	-2512
▁Sm	-2513
▁share	-2514
--	-2515
▁basic	-2516
▁psych	-2517
elling	-2518
▁relative	-2519
umb	-2520
▁teachers	-2521
▁demon	-2522
▁sust	-2523
▁growing	-2524
ief	-2525
▁safety	-2526
▁cust	-2527
▁Now	-2528
uge	-2529
▁refer	-2530
▁First	-2531
oles	-2532
▁integ	-2533
▁virus	-2534
▁doesn	-2535
▁network	-2536
▁Read	-2537
ops	-2538
▁forest	-2539
raft	-2540
▁Aug	-2541
IN	-2542
arily	-2543
IS	-2544
▁particularly	-2545
ucle	-2546
ems	-2547
ming	-2548
▁compet	-2549
▁emot	-2550
▁serious	-2551
ctions	-2552
▁squ	-2553
▁produced	-2554
▁late	-2555
▁getting	-2556
▁During	-2557
▁draw	-2558
▁displ	-2559
▁harm	-2560
▁Lear	-2561
ana	-2562
▁respect	-2563
ads	-2564
▁wood	-2565
▁extreme	-2566
▁implement	-2567
▁bab	-2568
▁attention	-2569
▁print	-2570
▁series	-2571
▁numbers	-2572
▁select	-2573
▁poor	-2574
▁aware	-2575
▁log	-2576
▁Tw	-2577
▁correct	-2578
▁forms	-2579
▁manufact	-2580
▁My	-2581
▁Bec	-2582
▁veget	-2583
▁patient	-2584
▁Calif	-2585
▁animal	-2586
▁vacc	-2587
▁continue	-2588
▁included	-2589
▁magn	-2590
ography	-2591
▁lat	-2592
ached	-2593
▁tax	-2594
▁night	-2595
lies	-2596
Th	-2597
▁takes	-2598
org	-2599
ground	-2600
▁emb	-2601
rated	-2602
▁mess	-2603
▁attack	-2604
▁Tra	-2605
inks	-2606
▁lack	-2607
www	-2608
▁defin	-2609
▁Institute	-2610
▁coun	-2611
▁daily	-2612
▁someone	-2613
isions	-2614
▁ox	-2615
▁ago	-2616
▁generally	-2617
uary	-2618
▁ap	-2619
▁ideas	-2620
▁deb	-2621
▁http	-2622
▁Reg	-2623
imum	-2624
▁added	-2625
▁books	-2626
▁ir	-2627
▁force	-2628
ino	-2629
▁Department	-2630
▁looking	-2631
fect	-2632
overy	-2633
▁Sch	-2634
▁media	-2635
▁hyd	-2636
▁diseases	-2637
▁town	-2638
▁March	-2639
▁warm	-2640
▁started	-2641
▁probably	-2642
▁aff	-2643
▁independ	-2644
rim	-2645
▁sea	-2646
▁financ	-2647
▁prep	-2648
▁History	-2649
iot	-2650
▁consist	-2651
▁tree	-2652
ties	-2653
▁easily	-2654
▁attempt	-2655
▁Oct	-2656
oly	-2657
▁cover	-2658
▁allows	-2659
▁Apr	-2660
We	-2661
▁tools	-2662
▁Indian	-2663
vention	-2664
▁Californ	-2665
▁40	-2666
ided	-2667
ha	-2668
useum	-2669
erson	-2670
erg	-2671
ancy	-2672
rs	-2673
rew	-2674
set	-2675
▁international	-2676
▁Her	-2677
cies	-2678
▁dou	-2679
▁mother	-2680
▁inside	-2681
▁commit	-2682
▁tur	-2683
▁wall	-2684
▁Br	-2685
ribution	-2686
ension	-2687
▁express	-2688
▁dang	-2689
▁vit	-2690
▁offer	-2691
▁primary	-2692
▁Har	-2693
▁4.	-2694
▁performance	-2695
▁Char	-2696
irit	-2697
▁traditional	-2698
olar	-2699
▁capt	-2700
▁European	-2701
cil	-2702
▁unique	-2703
▁nation	-2704
ellow	-2705
▁eye	-2706
▁communities	-2707
▁fa	-2708
▁colon	-2709
▁sold	-2710
▁solar	-2711
▁mental	-2712
▁investig	-2713
▁cross	-2714
▁French	-2715
iency	-2716
▁determine	-2717
▁*	-2718
▁California	-2719
ille	-2720
uth	-2721
▁leaders	-2722
▁appropri	-2723
▁trees	-2724
▁0.	-2725
▁gard	-2726
ius	-2727
eed	-2728
▁policy	-2729
▁tiss	-2730
asons	-2731
▁estim	-2732
cell	-2733
▁points	-2734
▁instead	-2735
▁rout	-2736
▁thous	-2737
▁cit	-2738
▁sil	-2739
▁scientific	-2740
▁Inc	-2741
AN	-2742
▁answer	-2743
na	-2744
▁Jes	-2745
▁Ant	-2746
▁Africa	-2747
▁document	-2748
itude	-2749
▁Mon	-2750
▁feed	-2751
ying	-2752
▁West	-2753
▁Since	-2754
▁quickly	-2755
abetes	-2756
cean	-2757
▁hy	-2758
▁eval	-2759
nov	-2760
▁International	-2761
▁companies	-2762
▁expos	-2763
▁dry	-2764
ls	-2765
▁held	-2766
▁Even	-2767
gency	-2768
▁achieve	-2769
▁multiple	-2770
▁difference	-2771
▁quite	-2772
▁doctor	-2773
▁ful	-2774
▁Why	-2775
▁:	-2776
▁concent	-2777
ON	-2778
▁write	-2779
▁drink	-2780
▁div	-2781
▁video	-2782
▁June	-2783
▁progress	-2784
▁1,	-2785
OR	-2786
▁fav	-2787
▁Ret	-2788
▁sou	-2789
▁civil	-2790
where	-2791
▁established	-2792
anks	-2793
ror	-2794
▁reve	-2795
▁exercise	-2796
▁humans	-2797
joy	-2798
▁Mus	-2799
▁compared	-2800
▁Sept	-2801
ounds	-2802
▁infection	-2803
▁security	-2804
rate	-2805
▁third	-2806
▁speak	-2807
▁immedi	-2808
eks	-2809
▁critical	-2810
▁larger	-2811
elt	-2812
iques	-2813
lied	-2814
▁instit	-2815
▁behind	-2816
att	-2817
▁24	-2818
▁x	-2819
▁Dav	-2820
▁birth	-2821
▁therefore	-2822
▁military	-2823
icated	-2824
▁foot	-2825
▁walk	-2826
▁Cor	-2827
▁stay	-2828
▁directly	-2829
▁extra	-2830
▁additional	-2831
▁severe	-2832
ift	-2833
▁Wash	-2834
▁Russ	-2835
▁reflect	-2836
▁altern	-2837
▁April	-2838
iers	-2839
▁tri	-2840
▁decre	-2841
▁analy	-2842
▁hor	-2843
▁leading	-2844
term	-2845
thern	-2846
haps	-2847
▁Bar	-2848
▁clin	-2849
▁bit	-2850
▁active	-2851
aly	-2852
▁(200	-2853
▁proced	-2854
▁theory	-2855
▁thus	-2856
▁tend	-2857
▁front	-2858
▁African	-2859
▁German	-2860
undred	-2861
omet	-2862
▁card	-2863
▁eth	-2864
▁highly	-2865
▁21	-2866
▁August	-2867
▁soon	-2868
▁aim	-2869
▁website	-2870
▁Gree	-2871
0,	-2872
▁families	-2873
▁Sw	-2874
-19	-2875
▁news	-2876
itis	-2877
▁search	-2878
▁aud	-2879
▁transport	-2880
▁bad	-2881
▁River	-2882
uries	-2883
▁demonstr	-2884
▁Serv	-2885
oes	-2886
▁accur	-2887
▁har	-2888
formation	-2889
▁hot	-2890
iter	-2891
hern	-2892
▁minutes	-2893
▁Day	-2894
▁pack	-2895
-3	-2896
ulate	-2897
yr	-2898
pe	-2899
▁custom	-2900
▁teaching	-2901
▁host	-2902
▁features	-2903
▁useful	-2904
▁software	-2905
▁habit	-2906
▁contains	-2907
rition	-2908
▁prior	-2909
vant	-2910
▁July	-2911
____	-2912
iber	-2913
▁hands	-2914
▁Associ	-2915
ibrary	-2916
▁broad	-2917
▁supply	-2918
▁central	-2919
▁shall	-2920
IC	-2921
▁negative	-2922
lier	-2923
▁William	-2924
▁aspect	-2925
▁went	-2926
gn	-2927
19	-2928
▁Then	-2929
▁mount	-2930
▁section	-2931
osing	-2932
▁towards	-2933
▁Techn	-2934
▁stra	-2935
oring	-2936
▁beginning	-2937
▁ancient	-2938
ching	-2939
▁base	-2940
▁decl	-2941
▁fight	-2942
▁largest	-2943
uman	-2944
▁purpose	-2945
den	-2946
▁acid	-2947
▁Press	-2948
▁Mc	-2949
▁Also	-2950
▁contribut	-2951
▁Use	-2952
mar	-2953
▁quant	-2954
▁Sim	-2955
▁jo	-2956
▁Jesus	-2957
▁protein	-2958
oming	-2959
▁values	-2960
▁dark	-2961
ription	-2962
▁strateg	-2963
▁Prog	-2964
istry	-2965
▁sus	-2966
▁Education	-2967
hens	-2968
▁Because	-2969
▁waste	-2970
▁expect	-2971
▁images	-2972
▁President	-2973
yond	-2974
▁adults	-2975
▁although	-2976
▁Let	-2977
▁north	-2978
▁thinking	-2979
▁Ec	-2980
ologies	-2981
▁block	-2982
▁Over	-2983
▁mill	-2984
orthern	-2985
▁sustain	-2986
rote	-2987
▁exact	-2988
▁ones	-2989
▁enjoy	-2990
▁Are	-2991
▁fram	-2992
cial	-2993
▁application	-2994
▁weeks	-2995
▁financial	-2996
fort	-2997
lection	-2998
▁whose	-2999
▁located	-3000
▁length	-3001
▁lost	-3002
▁bacteria	-3003
ipment	-3004
▁High	-3005
▁labor	-3006
▁veh	-3007
▁situation	-3008
▁Americans	-3009
▁sn	-3010
▁Trans	-3011
isms	-3012
▁requires	-3013
▁fast	-3014
▁elements	-3015
▁devices	-3016
ields	-3017
hest	-3018
coh	-3019
▁impl	-3020
bol	-3021
▁obt	-3022
▁ang	-3023
▁game	-3024
pper	-3025
EN	-3026
▁People	-3027
▁Phil	-3028
izations	-3029
cks	-3030
▁tests	-3031
▁season	-3032
▁nearly	-3033
▁leaves	-3034
It	-3035
▁cred	-3036
rogen	-3037
▁protection	-3038
▁Dis	-3039
”.	-3040
11	-3041
idents	-3042
▁got	-3043
▁born	-3044
▁Washington	-3045
▁limited	-3046
▁table	-3047
▁cele	-3048
▁mom	-3049
▁cool	-3050
▁projects	-3051
▁Red	-3052
▁wa	-3053
▁teeth	-3054
▁essay	-3055
▁carry	-3056
year	-3057
ED	-3058
▁Park	-3059
▁hundred	-3060
▁goal	-3061
▁stri	-3062
▁Canada	-3063
▁install	-3064
▁costs	-3065
rael	-3066
▁Develop	-3067
ford	-3068
▁IS	-3069
▁transl	-3070
▁workers	-3071
▁south	-3072
▁summer	-3073
▁received	-3074
▁web	-3075
▁Sur	-3076
▁places	-3077
▁Mod	-3078
imal	-3079
▁told	-3080
▁seems	-3081
▁Just	-3082
▁Prof	-3083
AC	-3084
▁England	-3085
▁importance	-3086
▁reach	-3087
lim	-3088
▁else	-3089
▁rates	-3090
vest	-3091
▁beaut	-3092
iles	-3093
▁eating	-3094
itect	-3095
▁Feb	-3096
▁nucle	-3097
▁Great	-3098
▁Fin	-3099
ica	-3100
▁lines	-3101
▁techniques	-3102
▁administ	-3103
oud	-3104
▁miles	-3105
wise	-3106
▁brought	-3107
inct	-3108
▁private	-3109
▁solution	-3110
▁September	-3111
In	-3112
con	-3113
▁cold	-3114
▁eyes	-3115
▁Water	-3116
▁Cong	-3117
▁Bi	-3118
▁described	-3119
▁rare	-3120
▁applications	-3121
oke	-3122
▁Inst	-3123
▁died	-3124
▁sugar	-3125
ext	-3126
sect	-3127
iece	-3128
▁creating	-3129
▁Journal	-3130
IV	-3131
▁ult	-3132
▁typically	-3133
▁appropriate	-3134
▁processes	-3135
▁testing	-3136
ondon	-3137
▁demand	-3138
▁surround	-3139
▁Govern	-3140
life	-3141
▁breat	-3142
inese	-3143
mission	-3144
▁respond	-3145
▁October	-3146
-0	-3147
▁coast	-3148
▁egg	-3149
▁sites	-3150
▁memory	-3151
ipl	-3152
▁capac	-3153
▁decision	-3154
▁fit	-3155
▁influence	-3156
▁stru	-3157
▁except	-3158
▁interp	-3159
cember	-3160
imin	-3161
▁agricult	-3162
rag	-3163
▁City	-3164
▁System	-3165
▁January	-3166
uk	-3167
▁friends	-3168
▁speed	-3169
edia	-3170
▁adop	-3171
bit	-3172
▁becomes	-3173
used	-3174
12	-3175
▁efforts	-3176
ham	-3177
▁Each	-3178
▁remains	-3179
▁agree	-3180
▁Christian	-3181
▁communication	-3182
▁ord	-3183
▁Commun	-3184
head	-3185
▁center	-3186
▁gives	-3187
▁construction	-3188
▁Church	-3189
▁Vir	-3190
▁crop	-3191
atur	-3192
izes	-3193
▁Pat	-3194
▁teacher	-3195
odies	-3196
aul	-3197
▁yourself	-3198
▁command	-3199
▁adj	-3200
resh	-3201
▁County	-3202
▁monitor	-3203
ovember	-3204
▁mix	-3205
ulated	-3206
▁establish	-3207
▁capital	-3208
entially	-3209
▁mention	-3210
▁vict	-3211
▁fuel	-3212
uous	-3213
▁property	-3214
▁adapt	-3215
▁mole	-3216
back	-3217
come	-3218
▁device	-3219
ama	-3220
uments	-3221
equ	-3222
▁dead	-3223
▁remain	-3224
load	-3225
water	-3226
cles	-3227
▁hope	-3228
bur	-3229
▁room	-3230
IT	-3231
▁deal	-3232
▁rock	-3233
80	-3234
▁code	-3235
▁Israel	-3236
▁weather	-3237
estic	-3238
▁pan	-3239
▁examples	-3240
▁cam	-3241
eal	-3242
ding	-3243
▁Once	-3244
▁accom	-3245
mosp	-3246
▁ice	-3247
▁jud	-3248
▁father	-3249
▁recently	-3250
▁cultural	-3251
▁equipment	-3252
▁therapy	-3253
ype	-3254
▁connect	-3255
▁Arch	-3256
▁Another	-3257
fl	-3258
aught	-3259
▁final	-3260
▁autom	-3261
book	-3262
▁date	-3263
▁bott	-3264
cohol	-3265
▁ep	-3266
ico	-3267
apter	-3268
▁behavi	-3269
arian	-3270
▁professional	-3271
▁anti	-3272
anish	-3273
▁recommend	-3274
ospital	-3275
▁rapid	-3276
▁cra	-3277
▁saw	-3278
▁religious	-3279
▁rain	-3280
▁Cur	-3281
iar	-3282
ony	-3283
▁older	-3284
illing	-3285
▁screen	-3286
▁laws	-3287
▁Aut	-3288
▁receive	-3289
▁responsible	-3290
▁guid	-3291
▁digital	-3292
ceed	-3293
▁calcul	-3294
▁gradu	-3295
▁basis	-3296
▁Pol	-3297
▁bul	-3298
▁cru	-3299
▁Chinese	-3300
▁son	-3301
▁stage	-3302
▁advant	-3303
▁cou	-3304
▁affected	-3305
▁choose	-3306
▁diabetes	-3307
▁hous	-3308
▁won	-3309
▁pregn	-3310
ula	-3311
▁anything	-3312
▁Don	-3313
▁wrote	-3314
▁Tod	-3315
▁org	-3316
▁everything	-3317
▁seek	-3318
uff	-3319
itable	-3320
▁providing	-3321
PA	-3322
▁pen	-3323
▁file	-3324
▁insp	-3325
▁named	-3326
▁opportunity	-3327
▁Val	-3328
▁currently	-3329
▁reasons	-3330
▁Black	-3331
rees	-3332
▁expected	-3333
oses	-3334
▁mid	-3335
▁practices	-3336
▁der	-3337
▁asked	-3338
▁citiz	-3339
▁federal	-3340
▁tit	-3341
▁December	-3342
ribute	-3343
▁exposure	-3344
▁swe	-3345
see	-3346
time	-3347
▁London	-3348
▁middle	-3349
wor	-3350
▁benefit	-3351
▁objects	-3352
▁location	-3353
▁planet	-3354
ogle	-3355
▁Under	-3356
osition	-3357
▁sett	-3358
▁rob	-3359
▁enh	-3360
▁followed	-3361
ari	-3362
▁Ro	-3363
ellig	-3364
▁overall	-3365
▁user	-3366
▁5.	-3367
▁San	-3368
▁everyone	-3369
ests	-3370
▁winter	-3371
med	-3372
60	-3373
▁ten	-3374
▁organization	-3375
ran	-3376
▁+	-3377
▁November	-3378
▁users	-3379
sec	-3380
▁joint	-3381
▁shape	-3382
▁193	-3383
ira	-3384
▁Law	-3385
▁collection	-3386
▁smaller	-3387
▁trade	-3388
▁Che	-3389
▁king	-3390
lam	-3391
▁und	-3392
▁via	-3393
rick	-3394
▁pet	-3395
strial	-3396
vert	-3397
▁isn	-3398
▁imag	-3399
ought	-3400
▁controll	-3401
▁General	-3402
▁Children	-3403
▁beyond	-3404
▁instru	-3405
▁birds	-3406
▁drugs	-3407
▁visual	-3408
▁discovered	-3409
reet	-3410
▁standards	-3411
▁East	-3412
▁nothing	-3413
wide	-3414
▁Australia	-3415
ech	-3416
▁himself	-3417
▁occurs	-3418
▁legal	-3419
▁ball	-3420
▁steps	-3421
▁Environment	-3422
▁billion	-3423
▁models	-3424
▁forces	-3425
▁Mex	-3426
enge	-3427
▁depend	-3428
▁60	-3429
▁strength	-3430
40	-3431
ruary	-3432
rieved	-3433
▁trying	-3434
▁Cour	-3435
tery	-3436
aid	-3437
aur	-3438
icate	-3439
ords	-3440
▁Public	-3441
airs	-3442
▁conflic	-3443
▁electr	-3444
iples	-3445
▁scale	-3446
▁commonly	-3447
▁rise	-3448
▁road	-3449
▁Coun	-3450
▁unc	-3451
▁member	-3452
▁spirit	-3453
▁goes	-3454
▁sequ	-3455
itch	-3456
men	-3457
▁191	-3458
▁successful	-3459
▁measures	-3460
▁purch	-3461
▁degree	-3462
▁beg	-3463
▁completely	-3464
▁woman	-3465
lin	-3466
ocks	-3467
▁maintain	-3468
▁fear	-3469
▁Rel	-3470
▁TH	-3471
▁alone	-3472
▁leave	-3473
isl	-3474
oe	-3475
▁Prot	-3476
▁earlier	-3477
▁track	-3478
▁Spec	-3479
que	-3480
▁version	-3481
▁rules	-3482
mitted	-3483
▁House	-3484
▁interesting	-3485
bre	-3486
▁economy	-3487
ara	-3488
▁hon	-3489
▁Conf	-3490
▁immune	-3491
▁exec	-3492
▁former	-3493
▁DNA	-3494
▁consequ	-3495
▁effort	-3496
▁baby	-3497
▁Society	-3498
aters	-3499
▁neigh	-3500
▁predict	-3501
▁UK	-3502
▁approx	-3503
ogen	-3504
▁dat	-3505
▁constant	-3506
▁historical	-3507
omb	-3508
ocr	-3509
▁signs	-3510
▁See	-3511
▁display	-3512
ocol	-3513
▁teach	-3514
▁gold	-3515
hy	-3516
▁hyp	-3517
aint	-3518
▁cook	-3519
▁perfect	-3520
ensity	-3521
▁categ	-3522
▁placed	-3523
▁wond	-3524
oration	-3525
▁coming	-3526
▁fruit	-3527
▁Roman	-3528
▁powerful	-3529
▁symbol	-3530
▁mouth	-3531
▁Their	-3532
▁rich	-3533
orge	-3534
uit	-3535
▁tox	-3536
▁destro	-3537
rig	-3538
craft	-3539
▁commerc	-3540
▁max	-3541
▁eight	-3542
▁names	-3543
can	-3544
▁mob	-3545
▁miss	-3546
▁Every	-3547
AL	-3548
rab	-3549
▁195	-3550
▁emissions	-3551
▁sch	-3552
▁Green	-3553
▁identified	-3554
▁22	-3555
▁Inter	-3556
▁#	-3557
▁allowed	-3558
▁virt	-3559
▁acad	-3560
gery	-3561
▁differences	-3562
▁Today	-3563
ss	-3564
▁mig	-3565
▁(201	-3566
▁genetic	-3567
▁enter	-3568
▁illness	-3569
▁assign	-3570
▁applied	-3571
);	-3572
alt	-3573
▁machine	-3574
▁Des	-3575
▁nutri	-3576
▁atmosp	-3577
iable	-3578
▁church	-3579
▁Students	-3580
▁occup	-3581
▁properties	-3582
▁reduced	-3583
▁Association	-3584
ste	-3585
▁formed	-3586
▁stories	-3587
▁hair	-3588
unch	-3589
co	-3590
▁corn	-3591
▁remember	-3592
▁Av	-3593
▁February	-3594
▁bra	-3595
▁fair	-3596
▁guide	-3597
▁tou	-3598
aled	-3599
▁cities	-3600
irection	-3601
bl	-3602
ingu	-3603
enty	-3604
▁garden	-3605
▁offers	-3606
ibly	-3607
▁constit	-3608
▁acqu	-3609
▁continued	-3610
▁sect	-3611
▁note	-3612
osy	-3613
hemat	-3614
emy	-3615
▁phil	-3616
▁mis	-3617
▁star	-3618
▁Union	-3619
▁rule	-3620
▁gir	-3621
▁Lat	-3622
▁assist	-3623
▁tissue	-3624
▁challenges	-3625
▁pow	-3626
▁Germany	-3627
▁poly	-3628
iences	-3629
▁Colle	-3630
▁situ	-3631
▁illust	-3632
▁antib	-3633
▁staff	-3634
known	-3635
aste	-3636
ament	-3637
iful	-3638
▁Ang	-3639
▁Dec	-3640
▁limit	-3641
.”	-3642
▁gave	-3643
▁Work	-3644
▁river	-3645
▁increases	-3646
▁patterns	-3647
EC	-3648
▁cry	-3649
▁moving	-3650
▁map	-3651
ev	-3652
aign	-3653
▁changed	-3654
▁piece	-3655
▁architect	-3656
▁didn	-3657
▁Vol	-3658
house	-3659
▁Bu	-3660
▁efficient	-3661
iring	-3662
21	-3663
▁ast	-3664
edom	-3665
▁context	-3666
▁Jewish	-3667
▁mission	-3668
ees	-3669
▁majority	-3670
▁status	-3671
▁innov	-3672
▁educational	-3673
▁findings	-3674
▁celebr	-3675
▁anx	-3676
▁den	-3677
▁unit	-3678
▁worked	-3679
▁collabor	-3680
ux	-3681
▁Retrieved	-3682
▁Mich	-3683
▁capacity	-3684
▁Mary	-3685
lor	-3686
▁root	-3687
▁Web	-3688
▁court	-3689
▁Plan	-3690
ero	-3691
▁choice	-3692
era	-3693
▁presence	-3694
▁incor	-3695
▁James	-3696
▁rat	-3697
▁promot	-3698
▁Rem	-3699
▁box	-3700
▁fresh	-3701
▁alcohol	-3702
▁opportunities	-3703
▁UN	-3704
",	-3705
nes	-3706
rief	-3707
▁France	-3708
rehens	-3709
▁pp	-3710
▁showed	-3711
phas	-3712
▁David	-3713
DA	-3714
▁strugg	-3715
off	-3716
▁breast	-3717
▁factor	-3718
▁worth	-3719
▁style	-3720
▁Pal	-3721
udd	-3722
▁components	-3723
▁Food	-3724
omas	-3725
▁compar	-3726
▁functions	-3727
encies	-3728
▁vill	-3729
▁female	-3730
▁fully	-3731
iny	-3732
▁forward	-3733
▁Program	-3734
▁Mat	-3735
related	-3736
▁famous	-3737
care	-3738
▁asse	-3739
▁thousands	-3740
▁reports	-3741
▁Found	-3742
▁peace	-3743
▁details	-3744
▁stim	-3745
▁effic	-3746
abilities	-3747
▁picture	-3748
▁Using	-3749
▁options	-3750
▁blue	-3751
▁actions	-3752
▁Internet	-3753
▁plans	-3754
▁convers	-3755
▁Ob	-3756
▁running	-3757
▁price	-3758
▁ing	-3759
inated	-3760
▁existing	-3761
▁explore	-3762
▁native	-3763
▁moment	-3764
▁huge	-3765
▁element	-3766
▁appears	-3767
osoph	-3768
odes	-3769
▁task	-3770
gypt	-3771
▁balance	-3772
▁expand	-3773
▁journal	-3774
ession	-3775
▁giving	-3776
▁Net	-3777
▁vision	-3778
▁construct	-3779
▁emp	-3780
▁evalu	-3781
▁Mor	-3782
oma	-3783
▁belief	-3784
▁Congress	-3785
ygen	-3786
▁initi	-3787
▁survey	-3788
▁Social	-3789
▁evolution	-3790
▁planning	-3791
force	-3792
▁contract	-3793
ternal	-3794
▁plastic	-3795
▁watch	-3796
-4	-3797
▁strategies	-3798
▁distance	-3799
▁classroom	-3800
▁wid	-3801
oice	-3802
▁consumption	-3803
▁friend	-3804
orage	-3805
▁relatively	-3806
▁milk	-3807
▁feature	-3808
icip	-3809
▁chance	-3810
▁topic	-3811
hors	-3812
▁transfer	-3813
▁perhaps	-3814
▁detect	-3815
ulum	-3816
rome	-3817
rec	-3818
▁Thus	-3819
▁disorder	-3820
rupt	-3821
▁Sub	-3822
▁Human	-3823
▁instruct	-3824
amb	-3825
▁insect	-3826
▁Bel	-3827
▁tele	-3828
▁exhib	-3829
▁Bra	-3830
▁office	-3831
▁Rev	-3832
▁items	-3833
▁passed	-3834
▁Western	-3835
▁College	-3836
ald	-3837
▁explain	-3838
▁mal	-3839
ologist	-3840
▁repe	-3841
▁save	-3842
▁believed	-3843
▁clinical	-3844
ky	-3845
▁glass	-3846
▁foreign	-3847
▁direction	-3848
▁Di	-3849
▁...	-3850
▁absor	-3851
▁qual	-3852
▁attract	-3853
▁Lord	-3854
▁spring	-3855
▁equal	-3856
igen	-3857
▁apply	-3858
ida	-3859
▁NAS	-3860
▁gain	-3861
cast	-3862
▁23	-3863
▁instance	-3864
▁board	-3865
▁technologies	-3866
▁Gra	-3867
ST	-3868
pped	-3869
more	-3870
ube	-3871
▁treated	-3872
▁weak	-3873
▁wrong	-3874
▁Rober	-3875
▁seven	-3876
resp	-3877
▁Tex	-3878
▁bone	-3879
▁fert	-3880
▁organizations	-3881
▁regions	-3882
70	-3883
▁resistance	-3884
▁income	-3885
ifically	-3886
▁suggests	-3887
▁defined	-3888
▁goals	-3889
▁iron	-3890
▁medicine	-3891
▁Egypt	-3892
▁mut	-3893
iding	-3894
▁resource	-3895
▁requirements	-3896
▁experim	-3897
ares	-3898
▁mo	-3899
▁easier	-3900
bed	-3901
▁pick	-3902
This	-3903
▁surpr	-3904
▁muscle	-3905
cious	-3906
▁spect	-3907
EM	-3908
▁Sam	-3909
▁happen	-3910
▁figure	-3911
▁experiences	-3912
▁About	-3913
▁Hel	-3914
▁email	-3915
3)	-3916
pective	-3917
▁favor	-3918
▁bound	-3919
15	-3920
asion	-3921
▁highest	-3922
▁heavy	-3923
▁Phys	-3924
▁excess	-3925
”,	-3926
▁eventually	-3927
zz	-3928
lick	-3929
▁extremely	-3930
▁rot	-3931
▁Development	-3932
▁significantly	-3933
▁Project	-3934
▁carried	-3935
asks	-3936
▁immediately	-3937
▁Organ	-3938
▁generation	-3939
▁electricity	-3940
▁util	-3941
iant	-3942
▁decades	-3943
ris	-3944
▁bed	-3945
▁fix	-3946
▁commercial	-3947
▁depression	-3948
ET	-3949
▁divid	-3950
part	-3951
▁liqu	-3952
▁remove	-3953
▁Two	-3954
ographic	-3955
▁Air	-3956
eces	-3957
▁Def	-3958
che	-3959
▁separate	-3960
isation	-3961
16	-3962
▁Japanese	-3963
▁Council	-3964
wards	-3965
▁structures	-3966
essor	-3967
St	-3968
▁learned	-3969
▁sac	-3970
ses	-3971
apers	-3972
▁Test	-3973
▁release	-3974
pan	-3975
▁temperatures	-3976
▁presented	-3977
▁Museum	-3978
▁graph	-3979
▁citizens	-3980
▁stream	-3981
▁George	-3982
▁letter	-3983
▁urban	-3984
▁Spanish	-3985
▁recommended	-3986
▁neu	-3987
25	-3988
▁Off	-3989
▁ves	-3990
II	-3991
iance	-3992
ager	-3993
change	-3994
▁nutrition	-3995
▁bank	-3996
▁pul	-3997
▁observed	-3998
▁president	-3999
▁conducted	-4000
▁novel	-4001
▁released	-4002
▁metal	-4003
▁records	-4004
▁kid	-4005
▁challenge	-4006
▁buildings	-4007
▁Greek	-4008
▁disorders	-4009
▁speech	-4010
ken	-4011
▁male	-4012
▁80	-4013
▁cycle	-4014
AM	-4015
▁cand	-4016
▁notes	-4017
▁becoming	-4018
antic	-4019
▁vary	-4020
▁Fore	-4021
▁Therefore	-4022
▁Mark	-4023
▁Paul	-4024
uing	-4025
▁serve	-4026
▁NASA	-4027
▁approximately	-4028
90	-4029
▁vitamin	-4030
raw	-4031
▁chronic	-4032
▁click	-4033
elines	-4034
▁sexual	-4035
▁inflamm	-4036
▁Tur	-4037
▁ST	-4038
▁190	-4039
▁tooth	-4040
▁industrial	-4041
▁introduced	-4042
▁Sun	-4043
▁faith	-4044
▁mag	-4045
▁moved	-4046
▁homes	-4047
tee	-4048
▁statement	-4049
▁partners	-4050
▁risks	-4051
▁fields	-4052
▁Scient	-4053
▁assessment	-4054
▁emphas	-4055
ructure	-4056
iate	-4057
▁Get	-4058
▁Step	-4059
▁assum	-4060
Wh	-4061
▁decisions	-4062
gal	-4063
▁causing	-4064
erate	-4065
▁drive	-4066
▁destroy	-4067
▁dyn	-4068
▁flood	-4069
▁slight	-4070
▁tour	-4071
▁Republic	-4072
▁Its	-4073
▁estimated	-4074
uses	-4075
▁oxygen	-4076
▁ded	-4077
▁2,	-4078
do	-4079
▁alternative	-4080
▁fig	-4081
▁widely	-4082
▁agg	-4083
▁hom	-4084
erences	-4085
SA	-4086
▁Ev	-4087
▁6.	-4088
▁plat	-4089
ologists	-4090
▁store	-4091
▁trig	-4092
▁Post	-4093
▁gets	-4094
▁thr	-4095
ulf	-4096
▁mer	-4097
▁186	-4098
▁sample	-4099
▁Rich	-4100
▁nuclear	-4101
▁upd	-4102
▁intellig	-4103
▁solutions	-4104
▁please	-4105
▁buy	-4106
ault	-4107
order	-4108
▁Mount	-4109
▁ocean	-4110
▁Som	-4111
enth	-4112
Ch	-4113
▁10.	-4114
▁aspects	-4115
▁bottom	-4116
▁reference	-4117
bal	-4118
▁setting	-4119
▁campaign	-4120
unction	-4121
▁starting	-4122
▁shap	-4123
▁Mal	-4124
▁reality	-4125
▁changing	-4126
▁experiment	-4127
ped	-4128
▁organic	-4129
▁reducing	-4130
▁connected	-4131
met	-4132
▁La	-4133
tical	-4134
▁sand	-4135
▁combination	-4136
▁actual	-4137
▁Like	-4138
▁experts	-4139
▁literature	-4140
▁bodies	-4141
olid	-4142
riculum	-4143
▁performed	-4144
▁Government	-4145
▁household	-4146
rant	-4147
▁Texas	-4148
22	-4149
▁Bas	-4150
▁burn	-4151
▁dri	-4152
▁killed	-4153
porary	-4154
▁college	-4155
▁injury	-4156
▁legisl	-4157
▁ready	-4158
poses	-4159
▁phen	-4160
▁drop	-4161
▁vessel	-4162
rows	-4163
imens	-4164
▁lived	-4165
▁dogs	-4166
▁populations	-4167
▁Mars	-4168
▁authors	-4169
▁layer	-4170
roup	-4171
roph	-4172
▁film	-4173
▁operations	-4174
▁frequently	-4175
▁technique	-4176
-5	-4177
▁clos	-4178
▁opin	-4179
▁degrees	-4180
▁infections	-4181
▁games	-4182
ij	-4183
▁Port	-4184
▁numerous	-4185
▁wanted	-4186
▁Bro	-4187
▁anyone	-4188
▁covered	-4189
arge	-4190
▁prepar	-4191
▁hear	-4192
▁esc	-4193
▁Mr	-4194
ressive	-4195
▁horm	-4196
▁Both	-4197
▁surgery	-4198
▁encourage	-4199
▁Ben	-4200
key	-4201
rm	-4202
▁independent	-4203
ocal	-4204
▁truth	-4205
RE	-4206
▁distribution	-4207
▁radio	-4208
▁involves	-4209
▁White	-4210
ias	-4211
▁sav	-4212
anging	-4213
▁storage	-4214
erved	-4215
rosc	-4216
▁dangerous	-4217
works	-4218
▁math	-4219
▁Elect	-4220
▁Dem	-4221
18	-4222
▁territ	-4223
▁replace	-4224
▁Court	-4225
▁Further	-4226
▁trust	-4227
▁characteristics	-4228
▁annual	-4229
▁battle	-4230
ilit	-4231
▁ple	-4232
▁Learning	-4233
▁Treat	-4234
othes	-4235
OS	-4236
▁professor	-4237
.;	-4238
▁trib	-4239
icial	-4240
▁participants	-4241
▁anxiety	-4242
▁exactly	-4243
▁tim	-4244
▁Hen	-4245
▁Class	-4246
ognitive	-4247
▁happens	-4248
clus	-4249
78	-4250
▁Service	-4251
▁pi	-4252
▁mostly	-4253
raction	-4254
▁discussion	-4255
▁Make	-4256
▁2010	-4257
▁Data	-4258
▁violence	-4259
PS	-4260
cont	-4261
▁thick	-4262
▁Island	-4263
ously	-4264
▁connection	-4265
▁background	-4266
▁ign	-4267
cular	-4268
▁radiation	-4269
▁Second	-4270
▁appe	-4271
▁creation	-4272
▁option	-4273
▁advanced	-4274
▁load	-4275
▁prefer	-4276
▁contrast	-4277
▁resulting	-4278
▁divers	-4279
▁message	-4280
▁2012	-4281
orial	-4282
atically	-4283
▁finding	-4284
▁desp	-4285
▁Met	-4286
▁turned	-4287
▁removed	-4288
▁trou	-4289
▁island	-4290
▁comprehens	-4291
▁physic	-4292
olved	-4293
▁meeting	-4294
▁lung	-4295
▁noted	-4296
▁helping	-4297
▁vul	-4298
▁Ser	-4299
▁referred	-4300
▁pollution	-4301
▁Cle	-4302
▁doub	-4303
tered	-4304
ping	-4305
▁seeds	-4306
▁pages	-4307
▁failure	-4308
▁landsc	-4309
▁News	-4310
▁mic	-4311
ii	-4312
▁output	-4313
▁helped	-4314
▁minor	-4315
▁beautiful	-4316
▁Old	-4317
▁arm	-4318
▁trend	-4319
▁properly	-4320
▁spot	-4321
▁fine	-4322
▁policies	-4323
▁excell	-4324
iveness	-4325
oking	-4326
▁feeling	-4327
osystem	-4328
onds	-4329
▁volume	-4330
▁26	-4331
rog	-4332
▁Asia	-4333
▁initial	-4334
▁28	-4335
hetic	-4336
▁jour	-4337
▁meat	-4338
▁Cath	-4339
▁grass	-4340
▁clearly	-4341
urance	-4342
▁Jer	-4343
▁core	-4344
anch	-4345
."	-4346
umn	-4347
▁Dist	-4348
▁univers	-4349
▁Miss	-4350
▁expert	-4351
▁tum	-4352
▁upper	-4353
▁Energy	-4354
▁pal	-4355
inter	-4356
▁classes	-4357
▁Sk	-4358
▁Up	-4359
▁internal	-4360
▁academic	-4361
▁datab	-4362
▁reprodu	-4363
ago	-4364
▁90	-4365
nam	-4366
▁gene	-4367
▁seed	-4368
▁articles	-4369
ta	-4370
▁Thomas	-4371
▁party	-4372
▁grade	-4373
▁https	-4374
▁Je	-4375
▁promote	-4376
▁profession	-4377
▁linked	-4378
▁relationships	-4379
ndrome	-4380
▁isol	-4381
▁confirm	-4382
▁manage	-4383
▁Direct	-4384
▁die	-4385
▁conservation	-4386
▁ship	-4387
▁Medical	-4388
▁incorpor	-4389
▁counter	-4390
▁Op	-4391
rest	-4392
ander	-4393
ya	-4394
▁scen	-4395
▁Central	-4396
oyal	-4397
▁2011	-4398
ieties	-4399
▁experienced	-4400
▁grant	-4401
▁Disc	-4402
▁alg	-4403
▁adjust	-4404
ishing	-4405
▁square	-4406
ios	-4407
▁dram	-4408
▁Out	-4409
▁Fre	-4410
▁hour	-4411
▁HIV	-4412
▁victim	-4413
▁distinct	-4414
▁served	-4415
mark	-4416
▁depending	-4417
▁engineering	-4418
▁Mexico	-4419
▁describe	-4420
▁Islam	-4421
▁Virgin	-4422
▁emotional	-4423
▁regarding	-4424
▁vegetables	-4425
▁heard	-4426
▁transform	-4427
▁exposed	-4428
▁Acad	-4429
uration	-4430
wood	-4431
▁interested	-4432
▁elimin	-4433
ortunately	-4434
▁27	-4435
▁mentioned	-4436
▁race	-4437
▁coal	-4438
▁Ber	-4439
▁Mac	-4440
▁conv	-4441
▁70	-4442
▁hearing	-4443
▁leads	-4444
cers	-4445
14	-4446
▁consult	-4447
▁amounts	-4448
▁pip	-4449
▁fol	-4450
ressed	-4451
▁processing	-4452
isher	-4453
▁Sal	-4454
▁lesson	-4455
▁input	-4456
▁round	-4457
▁units	-4458
▁Mart	-4459
standing	-4460
▁relevant	-4461
-8	-4462
▁effectively	-4463
▁presc	-4464
ball	-4465
urt	-4466
▁’	-4467
▁mist	-4468
▁official	-4469
▁Civil	-4470
▁sem	-4471
▁belong	-4472
▁Life	-4473
▁Supp	-4474
▁solid	-4475
board	-4476
13	-4477
▁Exam	-4478
▁eggs	-4479
▁sustainable	-4480
ception	-4481
▁disp	-4482
▁farmers	-4483
▁involve	-4484
▁inh	-4485
place	-4486
▁concepts	-4487
▁prepared	-4488
stitution	-4489
▁volunt	-4490
▁Technology	-4491
▁Information	-4492
▁manufacture	-4493
acific	-4494
riage	-4495
rum	-4496
▁nav	-4497
▁principles	-4498
▁awareness	-4499
▁northern	-4500
▁Medicine	-4501
▁atmosphere	-4502
▁freedom	-4503
▁song	-4504
▁motor	-4505
▁completed	-4506
▁>	-4507
▁southern	-4508
▁Dise	-4509
▁pric	-4510
▁Book	-4511
itz	-4512
▁AD	-4513
▁circum	-4514
▁synt	-4515
▁chemicals	-4516
▁park	-4517
▁Google	-4518
▁god	-4519
▁looks	-4520
▁Women	-4521
▁comfort	-4522
▁kept	-4523
och	-4524
▁Space	-4525
▁conflict	-4526
▁Pub	-4527
▁concerns	-4528
▁saying	-4529
onic	-4530
▁yellow	-4531
▁Lou	-4532
▁expression	-4533
▁reb	-4534
▁languages	-4535
▁Expl	-4536
▁west	-4537
▁discover	-4538
2)	-4539
▁hospital	-4540
▁gender	-4541
▁Through	-4542
iverse	-4543
▁Hol	-4544
▁decided	-4545
zing	-4546
▁calc	-4547
▁Cam	-4548
▁unf	-4549
istan	-4550
▁advantage	-4551
▁efficiency	-4552
▁Well	-4553
▁whom	-4554
▁Jews	-4555
ded	-4556
▁Sen	-4557
aughter	-4558
▁operation	-4559
▁mathemat	-4560
▁spent	-4561
▁improved	-4562
▁credit	-4563
▁previously	-4564
▁storm	-4565
rete	-4566
uable	-4567
▁aid	-4568
▁Any	-4569
ifying	-4570
▁(199	-4571
▁determined	-4572
▁religion	-4573
▁Robert	-4574
mat	-4575
▁mel	-4576
▁definition	-4577
▁Mass	-4578
▁reaction	-4579
ategy	-4580
AD	-4581
ributed	-4582
▁influen	-4583
▁meant	-4584
ules	-4585
▁continues	-4586
▁kill	-4587
4)	-4588
▁diss	-4589
berg	-4590
ormal	-4591
▁hit	-4592
▁bud	-4593
▁diagnosis	-4594
▁drinking	-4595
iling	-4596
CC	-4597
▁189	-4598
▁Bay	-4599
▁platform	-4600
▁hop	-4601
▁vaccine	-4602
▁Fam	-4603
ria	-4604
▁strategy	-4605
EL	-4606
▁flowers	-4607
▁procedure	-4608
▁Britain	-4609
inate	-4610
▁Year	-4611
RO	-4612
astern	-4613
▁2020	-4614
za	-4615
▁nor	-4616
well	-4617
▁pret	-4618
▁defic	-4619
▁appoint	-4620
▁Stand	-4621
▁invent	-4622
akers	-4623
ams	-4624
▁ban	-4625
▁Common	-4626
▁192	-4627
▁Addition	-4628
▁cere	-4629
▁conclud	-4630
▁Franc	-4631
bi	-4632
ags	-4633
▁owners	-4634
uted	-4635
▁blog	-4636
▁interpret	-4637
▁pieces	-4638
▁Wind	-4639
roke	-4640
▁Arab	-4641
acing	-4642
aker	-4643
▁Ir	-4644
▁THE	-4645
eline	-4646
▁contribute	-4647
west	-4648
▁electrical	-4649
▁lic	-4650
▁height	-4651
▁genes	-4652
▁conver	-4653
▁Atl	-4654
ado	-4655
▁station	-4656
▁sort	-4657
▁2013	-4658
▁wet	-4659
▁purposes	-4660
▁vot	-4661
▁recy	-4662
▁vulner	-4663
▁Before	-4664
▁pun	-4665
ounced	-4666
rapy	-4667
▁Cop	-4668
▁AN	-4669
▁reached	-4670
▁allowing	-4671
▁renew	-4672
▁Muslim	-4673
tes	-4674
▁brother	-4675
▁Psych	-4676
▁concern	-4677
▁phase	-4678
▁Histor	-4679
▁notice	-4680
▁Bur	-4681
▁shared	-4682
▁Sum	-4683
alled	-4684
nic	-4685
▁wealth	-4686
▁Flor	-4687
▁Where	-4688
▁Army	-4689
▁Know	-4690
▁youth	-4691
▁bird	-4692
rates	-4693
▁treatments	-4694
▁35	-4695
▁recorded	-4696
▁mainly	-4697
▁Fe	-4698
▁foss	-4699
▁Bet	-4700
▁Ref	-4701
▁dro	-4702
▁practical	-4703
▁flex	-4704
onomic	-4705
-6	-4706
▁waters	-4707
▁Find	-4708
▁cast	-4709
▁secret	-4710
▁Mil	-4711
▁Professor	-4712
▁advice	-4713
▁supported	-4714
▁bright	-4715
▁obvious	-4716
itors	-4717
▁begins	-4718
la	-4719
▁Que	-4720
▁master	-4721
▁emergency	-4722
▁links	-4723
▁Engine	-4724
clusion	-4725
▁intended	-4726
comes	-4727
▁signal	-4728
▁wonder	-4729
▁Foundation	-4730
vision	-4731
▁<	-4732
oo	-4733
▁taught	-4734
▁east	-4735
▁toxic	-4736
▁7.	-4737
▁muscles	-4738
su	-4739
▁(18	-4740
▁situations	-4741
▁Ste	-4742
▁morning	-4743
▁cris	-4744
▁vital	-4745
pat	-4746
▁explains	-4747
gra	-4748
▁facts	-4749
▁Land	-4750
▁nutrients	-4751
name	-4752
▁topics	-4753
▁extensive	-4754
▁keeping	-4755
unk	-4756
▁charge	-4757
eters	-4758
RI	-4759
▁Tem	-4760
ishes	-4761
▁lov	-4762
▁fort	-4763
inger	-4764
▁career	-4765
ville	-4766
▁crucial	-4767
▁coord	-4768
▁letters	-4769
▁frequency	-4770
▁straight	-4771
▁oral	-4772
vis	-4773
▁institutions	-4774
▁tips	-4775
▁tasks	-4776
▁showing	-4777
▁jobs	-4778
des	-4779
amental	-4780
▁brief	-4781
▁Commission	-4782
▁digest	-4783
▁samples	-4784
▁Latin	-4785
▁formation	-4786
▁proposed	-4787
▁Jose	-4788
▁Studies	-4789
200	-4790
acters	-4791
▁Environmental	-4792
▁stone	-4793
ague	-4794
otic	-4795
▁motiv	-4796
atric	-4797
DF	-4798
rence	-4799
▁offered	-4800
▁impacts	-4801
▁spend	-4802
▁liquid	-4803
▁ideal	-4804
▁2009	-4805
▁Jud	-4806
▁Saf	-4807
▁fib	-4808
▁susp	-4809
▁liver	-4810
▁focused	-4811
▁Whe	-4812
▁Lake	-4813
▁Mem	-4814
▁attacks	-4815
▁ecosystem	-4816
▁army	-4817
▁Pacific	-4818
▁Instead	-4819
▁combined	-4820
17	-4821
▁finally	-4822
▁philosoph	-4823
▁affects	-4824
field	-4825
rations	-4826
▁bill	-4827
▁technical	-4828
ael	-4829
gl	-4830
▁kn	-4831
▁cert	-4832
▁director	-4833
rep	-4834
▁manner	-4835
▁comment	-4836
▁Inf	-4837
AP	-4838
▁kil	-4839
▁vehicle	-4840
BN	-4841
▁quar	-4842
hi	-4843
BC	-4844
▁faster	-4845
▁stars	-4846
▁operating	-4847
yright	-4848
▁roll	-4849
▁reduction	-4850
▁perman	-4851
▁excellent	-4852
rier	-4853
▁2014	-4854
▁detailed	-4855
▁indicate	-4856
▁mort	-4857
▁haz	-4858
▁corresp	-4859
▁shar	-4860
▁collected	-4861
▁aren	-4862
▁surrounding	-4863
▁revolution	-4864
alle	-4865
going	-4866
eria	-4867
▁leader	-4868
▁Bible	-4869
▁Phot	-4870
itage	-4871
▁kinds	-4872
ancing	-4873
▁advance	-4874
▁primarily	-4875
chers	-4876
osc	-4877
ixt	-4878
▁salt	-4879
aturally	-4880
▁Wild	-4881
▁doll	-4882
inent	-4883
▁Sou	-4884
rian	-4885
ulating	-4886
▁centuries	-4887
▁sounds	-4888
▁hyper	-4889
ework	-4890
▁sche	-4891
ipped	-4892
▁Those	-4893
ION	-4894
▁send	-4895
▁dynam	-4896
▁Smith	-4897
▁Middle	-4898
osen	-4899
▁lib	-4900
▁specifically	-4901
roid	-4902
▁double	-4903
▁Carol	-4904
▁Sea	-4905
nel	-4906
rich	-4907
▁sector	-4908
osa	-4909
▁accurate	-4910
rastructure	-4911
▁paint	-4912
▁phone	-4913
▁authority	-4914
▁consequences	-4915
▁Nor	-4916
tion	-4917
OT	-4918
▁km	-4919
▁Library	-4920
▁Have	-4921
espite	-4922
win	-4923
oxide	-4924
ails	-4925
▁wife	-4926
▁clim	-4927
▁refers	-4928
▁Del	-4929
▁facilities	-4930
oper	-4931
igation	-4932
▁forced	-4933
▁helpful	-4934
▁curriculum	-4935
▁particles	-4936
stronom	-4937
▁monitoring	-4938
▁Charles	-4939
othing	-4940
▁moist	-4941
▁smart	-4942
▁settle	-4943
▁occurred	-4944
▁fruits	-4945
olars	-4946
▁familiar	-4947
▁latest	-4948
▁Nav	-4949
arrow	-4950
enses	-4951
▁voice	-4952
▁stem	-4953
oughly	-4954
▁Good	-4955
▁Please	-4956
▁BC	-4957
iated	-4958
down	-4959
▁Keep	-4960
▁188	-4961
▁onto	-4962
▁CD	-4963
▁characters	-4964
▁format	-4965
ensus	-4966
▁largely	-4967
▁remained	-4968
▁grand	-4969
▁pregnancy	-4970
van	-4971
osite	-4972
▁raised	-4973
▁phenomen	-4974
▁nerv	-4975
▁identity	-4976
▁Id	-4977
▁Henry	-4978
▁responsibility	-4979
leg	-4980
▁ju	-4981
ificial	-4982
1)	-4983
▁follows	-4984
anges	-4985
▁played	-4986
▁tro	-4987
23	-4988
▁vast	-4989
▁Ox	-4990
▁tested	-4991
▁diam	-4992
▁subjects	-4993
5)	-4994
▁felt	-4995
▁thin	-4996
▁29	-4997
▁2008	-4998
▁habitat	-4999
▁explained	-5000
ras	-5001
▁girls	-5002
▁Power	-5003
iced	-5004
▁Bre	-5005
igenous	-5006
▁Vis	-5007
▁Add	-5008
▁sen	-5009
itness	-5010
▁Writ	-5011
▁IN	-5012
▁nations	-5013
▁files	-5014
▁maximum	-5015
ossible	-5016
▁floor	-5017
▁periods	-5018
▁Att	-5019
▁flat	-5020
▁Kore	-5021
right	-5022
▁Note	-5023
▁protected	-5024
utive	-5025
▁pros	-5026
▁sufficient	-5027
▁extent	-5028
▁syn	-5029
li	-5030
ING	-5031
▁Budd	-5032
▁crops	-5033
▁Review	-5034
▁certainly	-5035
▁component	-5036
▁grown	-5037
▁snow	-5038
col	-5039
▁playing	-5040
▁Control	-5041
▁Russia	-5042
▁request	-5043
▁Micro	-5044
▁measured	-5045
burg	-5046
▁Mont	-5047
▁Design	-5048
olute	-5049
ye	-5050
▁despite	-5051
mp	-5052
cript	-5053
▁resist	-5054
▁instrument	-5055
point	-5056
▁otherwise	-5057
rolog	-5058
anguage	-5059
▁wel	-5060
▁potentially	-5061
▁lessons	-5062
▁divided	-5063
▁vent	-5064
▁slightly	-5065
▁sin	-5066
▁Russian	-5067
▁looked	-5068
▁abuse	-5069
▁train	-5070
▁western	-5071
▁residents	-5072
▁studied	-5073
▁typical	-5074
▁hundreds	-5075
▁pil	-5076
▁trial	-5077
▁instruction	-5078
▁lose	-5079
▁neighbor	-5080
▁Prov	-5081
▁crisis	-5082
▁roots	-5083
active	-5084
umber	-5085
▁fluid	-5086
aks	-5087
▁Who	-5088
roc	-5089
▁Learn	-5090
▁cardi	-5091
▁agricultural	-5092
▁Management	-5093
▁Nature	-5094
▁greatest	-5095
▁Ham	-5096
▁officials	-5097
band	-5098
▁Such	-5099
▁cognitive	-5100
▁Despite	-5101
▁thoughts	-5102
▁medications	-5103
▁regularly	-5104
▁Exper	-5105
▁inflammation	-5106
▁deliver	-5107
▁immig	-5108
CO	-5109
icks	-5110
▁wire	-5111
▁rail	-5112
▁00	-5113
▁existence	-5114
▁biological	-5115
omy	-5116
▁deaths	-5117
uke	-5118
hips	-5119
umin	-5120
▁goods	-5121
▁perspective	-5122
▁motion	-5123
▁internet	-5124
▁bow	-5125
▁driving	-5126
▁valuable	-5127
▁external	-5128
▁depth	-5129
▁Care	-5130
ota	-5131
▁Virginia	-5132
▁increasingly	-5133
verty	-5134
US	-5135
▁Emp	-5136
▁spl	-5137
▁consists	-5138
▁poverty	-5139
▁interview	-5140
ascular	-5141
▁happened	-5142
▁walls	-5143
▁metab	-5144
tenance	-5145
▁suffering	-5146
▁proteins	-5147
▁neut	-5148
▁fif	-5149
▁dental	-5150
▁seg	-5151
▁title	-5152
▁containing	-5153
TS	-5154
▁fundamental	-5155
▁suggested	-5156
resents	-5157
▁harvest	-5158
▁adding	-5159
▁nit	-5160
iest	-5161
▁explan	-5162
fall	-5163
▁controlled	-5164
▁inches	-5165
▁chann	-5166
▁depends	-5167
▁Div	-5168
▁wear	-5169
▁Bat	-5170
uls	-5171
▁dial	-5172
▁Follow	-5173
▁Last	-5174
▁Rad	-5175
▁Take	-5176
▁Group	-5177
▁valid	-5178
▁pu	-5179
▁gar	-5180
▁horse	-5181
mas	-5182
▁laun	-5183
celer	-5184
▁Rights	-5185
▁Ter	-5186
▁minimum	-5187
rot	-5188
athy	-5189
▁45	-5190
▁therm	-5191
▁returned	-5192
▁2015	-5193
▁feelings	-5194
▁Ext	-5195
▁2016	-5196
▁continuous	-5197
▁Catholic	-5198
▁fle	-5199
▁employees	-5200
▁satell	-5201
asure	-5202
▁Fact	-5203
▁lik	-5204
▁discovery	-5205
▁Yet	-5206
free	-5207
▁enhance	-5208
▁immun	-5209
▁Det	-5210
▁shel	-5211
▁recognized	-5212
▁(3	-5213
lers	-5214
▁visible	-5215
▁Florida	-5216
▁tried	-5217
anes	-5218
▁governments	-5219
24	-5220
▁investment	-5221
▁convent	-5222
inations	-5223
MS	-5224
ooth	-5225
oviet	-5226
▁ages	-5227
▁Louis	-5228
▁weap	-5229
▁represents	-5230
▁documents	-5231
▁pray	-5232
▁Long	-5233
▁Mo	-5234
▁boost	-5235
▁elev	-5236
▁Sl	-5237
▁3,	-5238
▁sick	-5239
▁Labor	-5240
tm	-5241
▁firm	-5242
▁sed	-5243
▁prison	-5244
▁Office	-5245
cling	-5246
abil	-5247
▁stret	-5248
▁disapp	-5249
▁concerned	-5250
▁procedures	-5251
inant	-5252
▁selected	-5253
▁Alex	-5254
▁Company	-5255
▁satis	-5256
▁mobile	-5257
▁stock	-5258
▁introduction	-5259
▁colors	-5260
▁infected	-5261
▁pig	-5262
▁library	-5263
▁closely	-5264
▁gun	-5265
▁allerg	-5266
▁appeared	-5267
▁recovery	-5268
▁ISBN	-5269
▁Only	-5270
▁Federal	-5271
▁||	-5272
▁subsequ	-5273
▁Home	-5274
zy	-5275
indu	-5276
bing	-5277
▁syndrome	-5278
▁Ill	-5279
ava	-5280
▁outcomes	-5281
].	-5282
ston	-5283
which	-5284
king	-5285
ona	-5286
▁Diff	-5287
iled	-5288
▁Early	-5289
▁funding	-5290
▁san	-5291
ny	-5292
bert	-5293
▁police	-5294
▁prices	-5295
▁database	-5296
▁rein	-5297
▁infrastructure	-5298
ilding	-5299
▁chief	-5300
▁rural	-5301
▁extract	-5302
ffee	-5303
asp	-5304
▁interests	-5305
▁businesses	-5306
▁approaches	-5307
’.	-5308
▁Global	-5309
state	-5310
stood	-5311
▁advoc	-5312
▁soldiers	-5313
▁ingred	-5314
▁appearance	-5315
▁secure	-5316
▁couple	-5317
▁decrease	-5318
ga	-5319
▁sides	-5320
▁simpl	-5321
▁leaving	-5322
▁millions	-5323
▁Stat	-5324
atever	-5325
▁traffic	-5326
orith	-5327
▁Ann	-5328
CS	-5329
▁ble	-5330
▁views	-5331
7)	-5332
▁Ken	-5333
▁Ess	-5334
▁apparent	-5335
▁Ap	-5336
▁Natural	-5337
▁raise	-5338
▁pump	-5339
▁suffer	-5340
▁rapidly	-5341
ario	-5342
▁substant	-5343
▁healthcare	-5344
▁accompl	-5345
▁naturally	-5346
▁sets	-5347
▁claims	-5348
▁paid	-5349
▁lifest	-5350
▁push	-5351
▁brown	-5352
▁moon	-5353
▁medium	-5354
▁persons	-5355
▁label	-5356
▁prepare	-5357
▁listed	-5358
▁Pers	-5359
▁talking	-5360
pping	-5361
▁portion	-5362
▁Australian	-5363
▁discussed	-5364
▁Cre	-5365
agers	-5366
obe	-5367
stream	-5368
teries	-5369
▁phr	-5370
ulin	-5371
▁vehicles	-5372
▁2000	-5373
▁frag	-5374
▁Sol	-5375
▁expensive	-5376
▁alt	-5377
▁hunt	-5378
▁Gold	-5379
▁Soviet	-5380
▁Time	-5381
▁Ca	-5382
▁recognize	-5383
▁OF	-5384
▁describes	-5385
▁Cat	-5386
▁8.	-5387
▁187	-5388
▁poet	-5389
▁gall	-5390
26	-5391
alysis	-5392
▁rub	-5393
▁touch	-5394
▁od	-5395
▁Form	-5396
esity	-5397
▁Peter	-5398
▁AI	-5399
▁band	-5400
olester	-5401
▁movements	-5402
▁param	-5403
▁massive	-5404
being	-5405
▁du	-5406
▁prevention	-5407
▁Figure	-5408
▁Joseph	-5409
▁Cult	-5410
▁knew	-5411
▁antibiot	-5412
▁rand	-5413
▁argument	-5414
▁warming	-5415
▁manufacturing	-5416
▁Check	-5417
omach	-5418
long	-5419
▁spiritual	-5420
▁diversity	-5421
▁obtained	-5422
what	-5423
▁worldwide	-5424
▁proport	-5425
500	-5426
erals	-5427
▁concentration	-5428
▁Frank	-5429
▁contem	-5430
▁Dan	-5431
▁computers	-5432
▁Study	-5433
▁stated	-5434
▁Though	-5435
▁fertil	-5436
▁landscape	-5437
▁originally	-5438
road	-5439
▁nan	-5440
▁assemb	-5441
fe	-5442
▁trad	-5443
▁narr	-5444
▁comprehensive	-5445
▁prem	-5446
▁chart	-5447
flow	-5448
aser	-5449
▁creative	-5450
▁domestic	-5451
VID	-5452
▁purs	-5453
▁mere	-5454
▁pictures	-5455
▁dut	-5456
▁incl	-5457
▁leadership	-5458
ctic	-5459
▁medication	-5460
▁random	-5461
olesterol	-5462
▁injuries	-5463
▁wildlife	-5464
oral	-5465
▁calls	-5466
▁improving	-5467
▁agriculture	-5468
▁diverse	-5469
▁closed	-5470
▁behaviour	-5471
▁guidelines	-5472
▁sensitive	-5473
rants	-5474
asive	-5475
▁Click	-5476
▁nurs	-5477
▁Street	-5478
TM	-5479
▁Free	-5480
▁stages	-5481
▁bones	-5482
abric	-5483
▁tow	-5484
ypes	-5485
▁steel	-5486
▁correspond	-5487
▁museum	-5488
▁substance	-5489
▁minim	-5490
ropical	-5491
▁secondary	-5492
▁apart	-5493
▁stick	-5494
▁cars	-5495
▁Vict	-5496
ka	-5497
▁index	-5498
▁mountain	-5499
▁Report	-5500
mary	-5501
▁Canadian	-5502
▁normally	-5503
▁Lab	-5504
▁era	-5505
othe	-5506
war	-5507
▁capable	-5508
inet	-5509
▁tun	-5510
▁chapter	-5511
alse	-5512
▁distingu	-5513
▁Fort	-5514
▁myth	-5515
▁justice	-5516
▁suitable	-5517
idden	-5518
7).	-5519
▁sports	-5520
▁Mad	-5521
▁facilit	-5522
▁circumst	-5523
▁intelligence	-5524
▁opened	-5525
▁End	-5526
▁Disease	-5527
▁readers	-5528
▁exchange	-5529
▁PC	-5530
with	-5531
vironments	-5532
iology	-5533
▁tal	-5534
▁harmful	-5535
ellect	-5536
agues	-5537
▁intake	-5538
▁mit	-5539
▁www	-5540
▁cloud	-5541
▁Columb	-5542
▁fill	-5543
▁generate	-5544
▁Top	-5545
apping	-5546
▁gather	-5547
ua	-5548
▁starts	-5549
imer	-5550
▁doctors	-5551
alian	-5552
▁Oh	-5553
▁journey	-5554
▁sweet	-5555
lements	-5556
▁Hall	-5557
▁recip	-5558
▁Climate	-5559
▁producing	-5560
▁Constitution	-5561
▁window	-5562
▁courses	-5563
▁routine	-5564
mun	-5565
▁figures	-5566
▁wave	-5567
▁inject	-5568
▁precise	-5569
▁revealed	-5570
ingly	-5571
▁worse	-5572
▁185	-5573
▁Chem	-5574
▁?	-5575
▁answers	-5576
dden	-5577
abits	-5578
▁leaf	-5579
ibilities	-5580
▁principle	-5581
▁Commit	-5582
▁aw	-5583
▁tiny	-5584
▁wors	-5585
▁download	-5586
6)	-5587
IL	-5588
ifies	-5589
ait	-5590
rid	-5591
ada	-5592
▁village	-5593
▁solve	-5594
faces	-5595
▁aircraft	-5596
cules	-5597
kin	-5598
▁Haw	-5599
▁professionals	-5600
▁forests	-5601
▁decline	-5602
▁district	-5603
orter	-5604
▁adequ	-5605
▁pretty	-5606
▁flight	-5607
▁speaking	-5608
▁aqu	-5609
▁reform	-5610
▁plays	-5611
▁500	-5612
▁propos	-5613
▁Dig	-5614
▁chain	-5615
▁Paris	-5616
▁twice	-5617
ums	-5618
▁Creat	-5619
▁experiments	-5620
UR	-5621
▁dust	-5622
▁adopted	-5623
ester	-5624
▁survival	-5625
▁pref	-5626
▁catch	-5627
▁consid	-5628
▁discrim	-5629
ca	-5630
▁marine	-5631
▁arms	-5632
inn	-5633
▁gal	-5634
If	-5635
▁Finally	-5636
▁Ocean	-5637
▁studying	-5638
▁candid	-5639
▁corpor	-5640
▁tail	-5641
▁Pract	-5642
pass	-5643
28	-5644
▁recon	-5645
45	-5646
▁narrow	-5647
▁selection	-5648
▁Rob	-5649
▁networks	-5650
▁mamm	-5651
normal	-5652
75	-5653
HO	-5654
▁unlike	-5655
▁List	-5656
▁Sign	-5657
▁maintenance	-5658
▁budget	-5659
▁dream	-5660
▁remind	-5661
▁houses	-5662
▁ancest	-5663
▁Clin	-5664
ocratic	-5665
born	-5666
▁Richard	-5667
▁engage	-5668
▁remote	-5669
▁tells	-5670
▁pure	-5671
rors	-5672
▁USA	-5673
-9	-5674
▁sudden	-5675
▁supplement	-5676
▁apprec	-5677
▁toler	-5678
olf	-5679
▁accounts	-5680
▁Sometimes	-5681
▁regional	-5682
▁plate	-5683
▁impossible	-5684
▁Among	-5685
▁absolute	-5686
▁beneficial	-5687
▁entirely	-5688
▁Mill	-5689
▁Cancer	-5690
▁algorith	-5691
▁possibly	-5692
▁300	-5693
▁stored	-5694
▁sky	-5695
▁survive	-5696
racy	-5697
▁opinion	-5698
anged	-5699
▁restrict	-5700
▁Nations	-5701
▁agencies	-5702
▁choices	-5703
▁electronic	-5704
▁kit	-5705
▁accepted	-5706
▁volunte	-5707
▁lots	-5708
anda	-5709
▁dedicated	-5710
ictionary	-5711
abul	-5712
▁marriage	-5713
▁af	-5714
▁edge	-5715
ache	-5716
▁fell	-5717
▁copy	-5718
CT	-5719
▁Color	-5720
▁shell	-5721
inating	-5722
EP	-5723
ala	-5724
olve	-5725
▁creates	-5726
▁childhood	-5727
▁conscious	-5728
▁Native	-5729
▁protocol	-5730
▁filled	-5731
▁stomach	-5732
▁equival	-5733
▁parties	-5734
▁lands	-5735
▁Quest	-5736
▁environments	-5737
pet	-5738
▁sentence	-5739
▁happy	-5740
▁fiber	-5741
▁assistance	-5742
osph	-5743
▁Back	-5744
▁enable	-5745
icit	-5746
▁Tor	-5747
liam	-5748
▁fossil	-5749
oted	-5750
35	-5751
▁skill	-5752
▁Chic	-5753
cel	-5754
▁decade	-5755
▁formal	-5756
throp	-5757
▁scholars	-5758
▁locations	-5759
eper	-5760
ki	-5761
▁battery	-5762
▁ax	-5763
▁Southern	-5764
ato	-5765
▁dent	-5766
▁aer	-5767
orrow	-5768
▁Kh	-5769
▁Michael	-5770
▁sell	-5771
▁transition	-5772
▁wants	-5773
▁unless	-5774
▁amb	-5775
▁acts	-5776
sey	-5777
▁seeing	-5778
▁successfully	-5779
rem	-5780
▁pull	-5781
▁administration	-5782
▁Wood	-5783
▁remaining	-5784
▁bio	-5785
▁repeated	-5786
▁traum	-5787
▁Set	-5788
▁achieved	-5789
zen	-5790
▁Administ	-5791
▁Camp	-5792
ini	-5793
▁Researchers	-5794
▁·	-5795
▁universe	-5796
▁biggest	-5797
▁suc	-5798
inking	-5799
▁Times	-5800
▁36	-5801
tage	-5802
▁waves	-5803
▁flav	-5804
hist	-5805
ogue	-5806
▁understood	-5807
▁door	-5808
rans	-5809
▁insects	-5810
▁acceler	-5811
▁AS	-5812
ashion	-5813
▁error	-5814
▁vessels	-5815
icide	-5816
▁generated	-5817
▁Mag	-5818
▁grav	-5819
▁Penn	-5820
▁optim	-5821
icians	-5822
▁troops	-5823
▁2017	-5824
▁foundation	-5825
oster	-5826
▁Cap	-5827
osm	-5828
▁Str	-5829
▁Agricult	-5830
▁broken	-5831
▁possess	-5832
▁unknown	-5833
▁slowly	-5834
▁75	-5835
▁produces	-5836
▁fly	-5837
lets	-5838
▁opening	-5839
▁Forest	-5840
usal	-5841
▁agreement	-5842
▁extended	-5843
▁possibility	-5844
▁fasc	-5845
▁outl	-5846
▁cultiv	-5847
▁sod	-5848
▁afford	-5849
▁obl	-5850
▁Bank	-5851
▁cart	-5852
▁Gard	-5853
▁Comput	-5854
▁smoking	-5855
irus	-5856
▁Ma	-5857
gent	-5858
hop	-5859
▁lifestyle	-5860
▁Conn	-5861
▁obtain	-5862
▁doi	-5863
▁moral	-5864
38	-5865
▁Sing	-5866
exp	-5867
▁walking	-5868
liament	-5869
▁Jo	-5870
▁Plant	-5871
▁highlight	-5872
ican	-5873
▁depos	-5874
▁mac	-5875
▁uns	-5876
▁struggle	-5877
▁raw	-5878
iform	-5879
▁mur	-5880
hand	-5881
▁voc	-5882
▁abund	-5883
add	-5884
hma	-5885
▁framework	-5886
▁IP	-5887
▁tea	-5888
▁permanent	-5889
▁colour	-5890
bridge	-5891
▁4,	-5892
▁sight	-5893
▁cholesterol	-5894
struct	-5895
▁Northern	-5896
umes	-5897
▁newsp	-5898
▁Look	-5899
organ	-5900
ena	-5901
▁coffee	-5902
cycl	-5903
▁Access	-5904
ribed	-5905
▁Carolina	-5906
▁thor	-5907
ansion	-5908
aria	-5909
▁COVID	-5910
▁Wik	-5911
▁veter	-5912
▁Current	-5913
29	-5914
▁decide	-5915
▁Eth	-5916
▁derived	-5917
▁programming	-5918
▁Pan	-5919
▁audience	-5920
▁breathing	-5921
▁discipl	-5922
ivery	-5923
azing	-5924
▁molecules	-5925
▁Revolution	-5926
spec	-5927
▁description	-5928
▁density	-5929
phone	-5930
wing	-5931
arant	-5932
▁handle	-5933
▁Teac	-5934
▁Sciences	-5935
▁consumers	-5936
▁1:	-5937
▁expressed	-5938
▁indicates	-5939
▁Language	-5940
Americ	-5941
▁Adv	-5942
▁brand	-5943
exam	-5944
▁nine	-5945
▁circuit	-5946
▁wish	-5947
▁pup	-5948
4).	-5949
▁respir	-5950
▁transmission	-5951
kes	-5952
▁daughter	-5953
▁cutting	-5954
▁truly	-5955
▁Does	-5956
▁imper	-5957
▁Rome	-5958
no	-5959
2).	-5960
▁Cy	-5961
▁composition	-5962
▁din	-5963
▁signals	-5964
▁carefully	-5965
’,	-5966
▁writer	-5967
kins	-5968
▁electron	-5969
cher	-5970
ribe	-5971
▁managed	-5972
anta	-5973
hav	-5974
bour	-5975
▁sequence	-5976
▁Committee	-5977
using	-5978
▁Brown	-5979
body	-5980
izer	-5981
▁opposite	-5982
▁noise	-5983
▁papers	-5984
▁2007	-5985
word	-5986
luding	-5987
▁calcium	-5988
▁join	-5989
▁magnetic	-5990
▁Special	-5991
▁184	-5992
▁reject	-5993
▁mild	-5994
▁neck	-5995
▁Main	-5996
▁Scott	-5997
▁Open	-5998
▁marked	-5999
▁communicate	-6000
▁roof	-6001
▁Vit	-6002
▁regulations	-6003
▁failed	-6004
▁mixed	-6005
tering	-6006
▁authorities	-6007
yles	-6008
heast	-6009
▁Start	-6010
▁Royal	-6011
6).	-6012
▁circumstances	-6013
onia	-6014
▁destroyed	-6015
▁younger	-6016
▁Nut	-6017
▁organized	-6018
▁bear	-6019
▁fewer	-6020
stone	-6021
zil	-6022
▁Pop	-6023
▁difficulty	-6024
▁greatly	-6025
aped	-6026
▁©	-6027
▁implementation	-6028
▁acids	-6029
▁attend	-6030
▁fabric	-6031
▁server	-6032
1).	-6033
▁supporting	-6034
▁unp	-6035
▁Non	-6036
▁compr	-6037
▁Valley	-6038
▁consistent	-6039
ipping	-6040
erent	-6041
▁listen	-6042
▁drawing	-6043
▁tall	-6044
▁Cr	-6045
▁Gal	-6046
▁Guide	-6047
▁colleagues	-6048
▁Academy	-6049
▁Equ	-6050
▁arrived	-6051
▁fixed	-6052
▁stands	-6053
▁supports	-6054
▁witness	-6055
orses	-6056
▁Board	-6057
▁laboratory	-6058
▁machines	-6059
▁closer	-6060
▁cultures	-6061
▁princip	-6062
▁Bus	-6063
▁Family	-6064
▁founded	-6065
▁ultimately	-6066
▁Effect	-6067
▁reader	-6068
reland	-6069
▁reserv	-6070
rine	-6071
▁agency	-6072
ifications	-6073
▁Big	-6074
▁replaced	-6075
▁architecture	-6076
▁sharing	-6077
itan	-6078
▁emotions	-6079
level	-6080
rd	-6081
▁2018	-6082
▁intervention	-6083
gu	-6084
▁fighting	-6085
under	-6086
-7	-6087
▁habits	-6088
▁immediate	-6089
▁Author	-6090
LE	-6091
▁intellect	-6092
▁latter	-6093
reed	-6094
▁hus	-6095
▁photograph	-6096
▁Spain	-6097
▁ratio	-6098
▁regist	-6099
itudes	-6100
▁debate	-6101
inding	-6102
fish	-6103
▁Italy	-6104
▁university	-6105
▁camera	-6106
▁Scot	-6107
▁multi	-6108
inity	-6109
▁gone	-6110
▁conventional	-6111
▁married	-6112
icon	-6113
▁unus	-6114
stein	-6115
ola	-6116
▁critic	-6117
▁responses	-6118
▁mechanism	-6119
▁diagnosed	-6120
rating	-6121
▁purchase	-6122
▁gluc	-6123
▁contamin	-6124
ading	-6125
▁hero	-6126
▁Chicago	-6127
▁instructions	-6128
▁comments	-6129
ceived	-6130
▁Chapter	-6131
▁Three	-6132
9)	-6133
100	-6134
▁Sym	-6135
▁pron	-6136
lar	-6137
▁nerve	-6138
▁chosen	-6139
irds	-6140
▁View	-6141
▁Ireland	-6142
▁greenhouse	-6143
ctor	-6144
itative	-6145
▁relax	-6146
▁Orig	-6147
roduction	-6148
inction	-6149
▁cm	-6150
▁represented	-6151
ritis	-6152
eck	-6153
▁eastern	-6154
ita	-6155
▁institution	-6156
▁Article	-6157
▁doubt	-6158
▁teen	-6159
▁Down	-6160
▁Age	-6161
riers	-6162
utch	-6163
3).	-6164
▁Empire	-6165
▁transportation	-6166
ront	-6167
▁acknow	-6168
▁nearby	-6169
▁unable	-6170
ears	-6171
▁remark	-6172
ella	-6173
▁stroke	-6174
▁vulnerable	-6175
▁yield	-6176
▁indeed	-6177
ups	-6178
▁thousand	-6179
▁maps	-6180
▁inner	-6181
stract	-6182
▁limits	-6183
ints	-6184
▁overl	-6185
What	-6186
▁standing	-6187
▁pool	-6188
▁ethnic	-6189
ora	-6190
▁ships	-6191
▁underlying	-6192
▁Unf	-6193
▁regul	-6194
▁ahead	-6195
▁supplies	-6196
▁shop	-6197
▁hydrogen	-6198
▁breath	-6199
▁territory	-6200
▁artificial	-6201
▁taste	-6202
▁Young	-6203
▁attached	-6204
▁comparison	-6205
isters	-6206
▁shift	-6207
▁Bab	-6208
▁Georg	-6209
▁participate	-6210
▁interaction	-6211
▁prompt	-6212
▁accident	-6213
▁behaviors	-6214
▁ends	-6215
▁crow	-6216
▁cats	-6217
There	-6218
▁eld	-6219
▁housing	-6220
▁concrete	-6221
▁virtual	-6222
▁dioxide	-6223
▁swim	-6224
▁feedback	-6225
isp	-6226
▁smoke	-6227
▁persist	-6228
LA	-6229
▁9.	-6230
▁border	-6231
elled	-6232
▁Resources	-6233
▁turns	-6234
▁confidence	-6235
▁evaluation	-6236
zed	-6237
then	-6238
▁rid	-6239
▁Works	-6240
▁Sil	-6241
BS	-6242
▁Low	-6243
27	-6244
▁presentation	-6245
ih	-6246
▁obesity	-6247
ctive	-6248
▁1990	-6249
orous	-6250
▁shut	-6251
▁flo	-6252
▁department	-6253
▁Sever	-6254
▁Hy	-6255
▁Mult	-6256
▁bot	-6257
▁joined	-6258
▁33	-6259
▁bread	-6260
irty	-6261
top	-6262
▁improvement	-6263
▁Less	-6264
▁alle	-6265
omic	-6266
itt	-6267
▁grew	-6268
▁zone	-6269
▁legs	-6270
sis	-6271
▁Victor	-6272
▁row	-6273
bra	-6274
▁horiz	-6275
itter	-6276
▁fever	-6277
▁medic	-6278
▁issued	-6279
isk	-6280
▁award	-6281
▁layers	-6282
▁zero	-6283
ocracy	-6284
▁hem	-6285
▁thy	-6286
▁feeding	-6287
▁fract	-6288
▁equivalent	-6289
weight	-6290
aph	-6291
▁astronom	-6292
5).	-6293
▁III	-6294
asters	-6295
▁hur	-6296
▁Prop	-6297
▁rising	-6298
▁percentage	-6299
▁accum	-6300
ymph	-6301
raining	-6302
ults	-6303
▁ath	-6304
▁launched	-6305
▁variable	-6306
▁lies	-6307
▁necessarily	-6308
▁trials	-6309
▁fu	-6310
▁capture	-6311
▁compounds	-6312
▁Additionally	-6313
▁pair	-6314
▁carb	-6315
▁contained	-6316
▁entry	-6317
▁Mer	-6318
▁mice	-6319
agon	-6320
▁Py	-6321
rovers	-6322
▁exists	-6323
tra	-6324
ediatric	-6325
ione	-6326
▁Mu	-6327
▁spok	-6328
▁customers	-6329
▁connections	-6330
abled	-6331
▁Table	-6332
▁preval	-6333
icious	-6334
▁instruments	-6335
▁paralle	-6336
▁recognition	-6337
▁trained	-6338
▁demonstrate	-6339
▁Community	-6340
▁painting	-6341
▁administr	-6342
8)	-6343
▁covers	-6344
▁Dar	-6345
▁knows	-6346
▁150	-6347
▁route	-6348
hesis	-6349
azine	-6350
DP	-6351
▁butter	-6352
▁membr	-6353
▁Word	-6354
▁epid	-6355
▁1/	-6356
You	-6357
▁ment	-6358
▁Sat	-6359
struction	-6360
▁tank	-6361
hered	-6362
▁philosophy	-6363
IP	-6364
plant	-6365
▁sheet	-6366
▁delay	-6367
▁psychological	-6368
▁ourselves	-6369
▁organisms	-6370
▁stable	-6371
▁Martin	-6372
▁lect	-6373
dule	-6374
▁constitution	-6375
▁observations	-6376
▁Pet	-6377
▁]	-6378
abulary	-6379
▁string	-6380
▁Change	-6381
opy	-6382
▁examine	-6383
▁desire	-6384
ocy	-6385
▁flag	-6386
▁31	-6387
▁meth	-6388
▁scan	-6389
▁photo	-6390
▁Four	-6391
▁Similar	-6392
▁Unfortunately	-6393
▁meters	-6394
▁Est	-6395
▁clust	-6396
▁earthqu	-6397
▁occasion	-6398
▁county	-6399
▁independence	-6400
IA	-6401
▁Mel	-6402
rite	-6403
ureau	-6404
▁reactions	-6405
▁mechanisms	-6406
elesc	-6407
▁Services	-6408
▁maintaining	-6409
▁Brazil	-6410
earing	-6411
▁funds	-6412
▁challenging	-6413
▁historic	-6414
▁exercises	-6415
▁holid	-6416
▁guarant	-6417
▁inhib	-6418
▁vote	-6419
▁Key	-6420
▁script	-6421
▁substances	-6422
een	-6423
▁generations	-6424
▁Holy	-6425
▁false	-6426
▁conclusion	-6427
▁prove	-6428
teen	-6429
▁rivers	-6430
9).	-6431
ittle	-6432
▁resolution	-6433
36	-6434
ented	-6435
▁everyday	-6436
▁estimates	-6437
anches	-6438
▁Oxford	-6439
aked	-6440
▁Mean	-6441
▁functional	-6442
▁ru	-6443
▁shot	-6444
▁wasn	-6445
▁Eastern	-6446
▁Next	-6447
▁delivery	-6448
oding	-6449
▁minerals	-6450
▁prev	-6451
acco	-6452
▁cup	-6453
cyclop	-6454
▁settings	-6455
igan	-6456
espread	-6457
▁installed	-6458
▁mand	-6459
▁insurance	-6460
etime	-6461
▁Method	-6462
▁Source	-6463
▁match	-6464
▁poison	-6465
▁vs	-6466
reek	-6467
▁fold	-6468
▁putting	-6469
▁hole	-6470
xts	-6471
▁twenty	-6472
▁accessible	-6473
▁employment	-6474
▁competition	-6475
▁Leg	-6476
hent	-6477
▁usage	-6478
▁bridge	-6479
▁crime	-6480
▁5,	-6481
▁tissues	-6482
________	-6483
▁).	-6484
otes	-6485
▁cards	-6486
▁gap	-6487
fit	-6488
▁mos	-6489
▁volcan	-6490
▁Face	-6491
▁babies	-6492
▁smooth	-6493
▁whatever	-6494
▁scene	-6495
▁refuge	-6496
▁PM	-6497
▁recept	-6498
▁resulted	-6499
how	-6500
osion	-6501
▁Fund	-6502
▁Italian	-6503
▁partner	-6504
oven	-6505
▁chick	-6506
htm	-6507
▁blocks	-6508
▁distur	-6509
▁Furthermore	-6510
▁announced	-6511
▁Zeal	-6512
As	-6513
▁meal	-6514
▁Type	-6515
▁holds	-6516
alls	-6517
▁Pak	-6518
▁mining	-6519
▁players	-6520
▁outbre	-6521
▁Polic	-6522
▁Ver	-6523
▁Security	-6524
▁runs	-6525
UN	-6526
rooms	-6527
▁define	-6528
itivity	-6529
▁nest	-6530
▁Kingdom	-6531
▁Indust	-6532
eless	-6533
ourage	-6534
▁biod	-6535
SS	-6536
▁forget	-6537
▁damaged	-6538
▁Princ	-6539
asty	-6540
▁trip	-6541
▁subs	-6542
▁beliefs	-6543
ulty	-6544
▁recommendations	-6545
ushed	-6546
▁Ins	-6547
▁Try	-6548
▁Rock	-6549
ifest	-6550
▁approved	-6551
▁Christmas	-6552
▁burning	-6553
▁Atlantic	-6554
▁consumer	-6555
▁defe	-6556
ighter	-6557
esis	-6558
▁ongoing	-6559
IR	-6560
▁AP	-6561
▁objective	-6562
▁whereas	-6563
▁Reading	-6564
hyth	-6565
▁Which	-6566
▁pra	-6567
▁Contin	-6568
▁spaces	-6569
aud	-6570
▁Moon	-6571
▁bond	-6572
▁reliable	-6573
▁EU	-6574
umps	-6575
▁Agency	-6576
▁centre	-6577
example	-6578
arn	-6579
▁chrom	-6580
nee	-6581
▁declared	-6582
▁relief	-6583
▁sections	-6584
▁industries	-6585
-10	-6586
idential	-6587
▁collaboration	-6588
while	-6589
▁willing	-6590
thritis	-6591
▁Network	-6592
Is	-6593
▁Moreover	-6594
rial	-6595
called	-6596
▁Zealand	-6597
but	-6598
irt	-6599
▁Scientists	-6600
▁Bill	-6601
▁Dou	-6602
▁involving	-6603
▁powers	-6604
agram	-6605
OC	-6606
ether	-6607
▁organs	-6608
▁arrange	-6609
▁voltage	-6610
gical	-6611
▁align	-6612
▁street	-6613
▁kidney	-6614
▁frequent	-6615
▁mode	-6616
▁ended	-6617
andon	-6618
▁Hill	-6619
bu	-6620
▁reduces	-6621
▁brings	-6622
▁physics	-6623
▁bath	-6624
▁Po	-6625
▁renewable	-6626
amins	-6627
▁politics	-6628
▁AND	-6629
▁Lo	-6630
▁mm	-6631
▁gram	-6632
▁interactions	-6633
▁worry	-6634
rey	-6635
33	-6636
▁artists	-6637
uts	-6638
tic	-6639
▁Director	-6640
ocation	-6641
▁insulin	-6642
▁categories	-6643
▁coastal	-6644
▁tight	-6645
liest	-6646
oston	-6647
▁rice	-6648
▁compare	-6649
itely	-6650
▁Exp	-6651
▁legislation	-6652
▁supposed	-6653
▁blow	-6654
▁demonstrated	-6655
▁Men	-6656
▁Gr	-6657
▁relation	-6658
▁rank	-6659
she	-6660
ipedia	-6661
▁publication	-6662
▁edition	-6663
ployment	-6664
....	-6665
oln	-6666
▁danger	-6667
▁offering	-6668
▁archae	-6669
▁Lib	-6670
▁operate	-6671
▁hypothes	-6672
▁stre	-6673
▁viruses	-6674
venue	-6675
▁Sund	-6676
▁repair	-6677
▁committed	-6678
▁Safety	-6679
▁widespread	-6680
▁Never	-6681
▁loved	-6682
▁fashion	-6683
▁spending	-6684
▁Engineering	-6685
▁passage	-6686
roat	-6687
▁missing	-6688
▁drawn	-6689
▁District	-6690
gers	-6691
▁boy	-6692
▁cryst	-6693
▁wait	-6694
▁!	-6695
▁column	-6696
▁measurement	-6697
etics	-6698
▁undert	-6699
▁division	-6700
▁holding	-6701
▁glucose	-6702
▁Online	-6703
▁Centre	-6704
▁agreed	-6705
▁frame	-6706
▁sole	-6707
▁surve	-6708
Go	-6709
▁32	-6710
▁matters	-6711
▁facility	-6712
▁explo	-6713
▁boys	-6714
ibl	-6715
▁significance	-6716
▁favorite	-6717
▁electro	-6718
▁association	-6719
ishment	-6720
▁plenty	-6721
▁texts	-6722
▁honor	-6723
such	-6724
▁Irish	-6725
▁Party	-6726
▁TV	-6727
▁pregnant	-6728
OL	-6729
ey	-6730
▁calories	-6731
▁conven	-6732
▁ring	-6733
▁temple	-6734
▁measurements	-6735
IM	-6736
▁Naz	-6737
▁Indians	-6738
▁guidance	-6739
▁neur	-6740
erior	-6741
▁participation	-6742
▁2006	-6743
▁Jul	-6744
▁dys	-6745
▁moisture	-6746
▁tract	-6747
osh	-6748
▁asking	-6749
df	-6750
▁mood	-6751
ady	-6752
▁positions	-6753
▁debt	-6754
▁fer	-6755
▁tons	-6756
iah	-6757
▁evaluate	-6758
.)	-6759
char	-6760
oir	-6761
▁Several	-6762
▁cav	-6763
▁markets	-6764
▁rocks	-6765
▁Windows	-6766
▁thanks	-6767
car	-6768
▁constructed	-6769
▁trouble	-6770
▁expansion	-6771
iration	-6772
▁turning	-6773
ani	-6774
▁photos	-6775
idity	-6776
▁pounds	-6777
▁Pot	-6778
▁Sup	-6779
UT	-6780
▁Angel	-6781
airy	-6782
▁seeking	-6783
scale	-6784
▁Administration	-6785
▁controls	-6786
eenth	-6787
AA	-6788
▁preventing	-6789
▁estimate	-6790
oples	-6791
oom	-6792
▁2:	-6793
▁blind	-6794
▁rig	-6795
▁Secret	-6796
▁receiving	-6797
▁Math	-6798
▁65	-6799
▁entered	-6800
▁horses	-6801
▁pharm	-6802
▁MS	-6803
oga	-6804
▁plus	-6805
▁infect	-6806
▁surfaces	-6807
%)	-6808
gs	-6809
onn	-6810
▁MD	-6811
aded	-6812
▁ped	-6813
▁Fire	-6814
-18	-6815
▁Treatment	-6816
aska	-6817
▁sacr	-6818
▁;	-6819
▁Liter	-6820
▁explanation	-6821
▁fulf	-6822
▁adequate	-6823
▁tut	-6824
▁Super	-6825
iability	-6826
▁ille	-6827
▁depart	-6828
▁victims	-6829
▁artist	-6830
%.	-6831
/0	-6832
vard	-6833
▁vac	-6834
▁shif	-6835
▁ske	-6836
▁earn	-6837
rowing	-6838
▁Tre	-6839
▁Light	-6840
▁forth	-6841
▁succeed	-6842
▁180	-6843
▁aims	-6844
▁nose	-6845
▁Asian	-6846
▁captured	-6847
▁hun	-6848
▁banks	-6849
▁visitors	-6850
avery	-6851
▁Den	-6852
▁commission	-6853
▁employed	-6854
▁none	-6855
▁Cell	-6856
▁advert	-6857
▁fro	-6858
▁facing	-6859
▁Ep	-6860
incoln	-6861
▁satellite	-6862
▁beauty	-6863
▁Modern	-6864
aming	-6865
▁integrated	-6866
RA	-6867
▁Grand	-6868
▁controvers	-6869
▁domain	-6870
▁Rom	-6871
heimer	-6872
▁intense	-6873
▁shapes	-6874
making	-6875
▁tub	-6876
▁seconds	-6877
▁circle	-6878
▁constantly	-6879
ett	-6880
▁category	-6881
▁mechanical	-6882
▁Resp	-6883
▁arts	-6884
▁Desc	-6885
▁Pakistan	-6886
▁Ask	-6887
▁stimul	-6888
EE	-6889
▁tube	-6890
▁item	-6891
▁owner	-6892
▁centers	-6893
opes	-6894
▁ingredients	-6895
CD	-6896
heric	-6897
▁Hand	-6898
agraph	-6899
▁(4	-6900
▁workshe	-6901
▁roles	-6902
iox	-6903
▁preparation	-6904
occ	-6905
▁shock	-6906
lishing	-6907
▁conversation	-6908
arsh	-6909
▁intest	-6910
adder	-6911
▁Sir	-6912
▁disaster	-6913
▁Ohio	-6914
▁gut	-6915
ivered	-6916
▁Ven	-6917
▁designs	-6918
▁learners	-6919
▁sharp	-6920
riz	-6921
sts	-6922
▁session	-6923
▁sail	-6924
▁Tim	-6925
▁enemy	-6926
ohyd	-6927
99	-6928
▁farming	-6929
▁flower	-6930
▁angle	-6931
▁clothing	-6932
▁serving	-6933
▁abnormal	-6934
pes	-6935
▁election	-6936
8).	-6937
▁distributed	-6938
▁incred	-6939
▁irrit	-6940
health	-6941
iral	-6942
▁jump	-6943
▁furn	-6944
otton	-6945
▁Neu	-6946
▁Boston	-6947
▁islands	-6948
▁Tom	-6949
▁Coast	-6950
▁Ident	-6951
▁destruction	-6952
▁Heb	-6953
▁signed	-6954
▁breeding	-6955
eren	-6956
rency	-6957
▁theme	-6958
ovascular	-6959
▁biology	-6960
▁rely	-6961
Al	-6962
▁34	-6963
▁husband	-6964
orders	-6965
▁orient	-6966
RC	-6967
inson	-6968
▁respiratory	-6969
forcement	-6970
▁messages	-6971
onomy	-6972
▁switch	-6973
▁abandon	-6974
▁Jac	-6975
▁nervous	-6976
▁scientist	-6977
▁Jeff	-6978
▁interf	-6979
▁focuses	-6980
▁examination	-6981
▁statistics	-6982
▁400	-6983
CE	-6984
▁Yes	-6985
orph	-6986
▁manip	-6987
▁cleaning	-6988
▁1970	-6989
▁composed	-6990
quit	-6991
▁1980	-6992
▁strongly	-6993
▁transact	-6994
▁dollars	-6995
▁Heart	-6996
▁pand	-6997
▁Johnson	-6998
▁Er	-6999
▁slavery	-7000
▁Viet	-7001
operation	-7002
IG	-7003
▁drain	-7004
▁accuracy	-7005
▁Without	-7006
▁heating	-7007
iana	-7008
▁Cast	-7009
▁detection	-7010
▁weapons	-7011
▁Ur	-7012
▁fourth	-7013
▁proven	-7014
▁paras	-7015
▁criteria	-7016
▁careful	-7017
▁launch	-7018
ano	-7019
▁nob	-7020
▁presents	-7021
▁treating	-7022
▁videos	-7023
▁silver	-7024
▁Prevention	-7025
▁galax	-7026
▁Whether	-7027
▁formula	-7028
riend	-7029
▁withd	-7030
▁wound	-7031
▁males	-7032
▁theories	-7033
▁combat	-7034
outs	-7035
that	-7036
▁teams	-7037
▁theore	-7038
Ph	-7039
▁Oper	-7040
▁intellectual	-7041
▁indicated	-7042
IDS	-7043
▁discrimination	-7044
▁AM	-7045
▁senior	-7046
▁advantages	-7047
▁influenced	-7048
▁females	-7049
▁towns	-7050
▁moves	-7051
▁confirmed	-7052
itals	-7053
▁carrying	-7054
▁considering	-7055
▁strict	-7056
rene	-7057
▁realize	-7058
▁complicated	-7059
▁Dev	-7060
hyd	-7061
▁peak	-7062
▁bringing	-7063
He	-7064
▁Pen	-7065
▁pit	-7066
▁Remember	-7067
▁excessive	-7068
alm	-7069
esides	-7070
▁forg	-7071
▁literacy	-7072
▁contemporary	-7073
abeth	-7074
ounce	-7075
▁config	-7076
▁engaged	-7077
inder	-7078
▁dose	-7079
▁Wall	-7080
▁variables	-7081
▁Iss	-7082
▁crew	-7083
34	-7084
▁Business	-7085
mes	-7086
▁id	-7087
▁somewhat	-7088
▁ov	-7089
▁chest	-7090
▁editor	-7091
▁2005	-7092
▁Imp	-7093
▁Mah	-7094
▁negot	-7095
▁branches	-7096
olesc	-7097
▁turb	-7098
isdom	-7099
ixture	-7100
▁neither	-7101
vania	-7102
▁panel	-7103
▁roads	-7104
▁removal	-7105
▁encouraged	-7106
olving	-7107
▁Sar	-7108
▁Assess	-7109
▁adds	-7110
▁brows	-7111
aired	-7112
▁Lincoln	-7113
▁newly	-7114
▁1960	-7115
▁roughly	-7116
▁varieties	-7117
▁comfortable	-7118
cient	-7119
▁brush	-7120
▁kilomet	-7121
▁phenomenon	-7122
▁planned	-7123
▁Columbia	-7124
▁Person	-7125
▁unusual	-7126
charge	-7127
ustain	-7128
peror	-7129
▁chlor	-7130
herent	-7131
▁deeper	-7132
▁parallel	-7133
▁(20	-7134
▁printed	-7135
▁crim	-7136
▁implications	-7137
ima	-7138
▁empt	-7139
mm	-7140
vin	-7141
▁delivered	-7142
▁trigger	-7143
▁cooking	-7144
▁healing	-7145
isco	-7146
▁score	-7147
▁lights	-7148
▁TO	-7149
igate	-7150
apse	-7151
▁knowing	-7152
chen	-7153
▁Sand	-7154
▁Coll	-7155
▁py	-7156
▁escape	-7157
▁sought	-7158
ortion	-7159
▁defect	-7160
▁Eliz	-7161
ventions	-7162
▁stronger	-7163
▁Cross	-7164
▁Lead	-7165
▁grid	-7166
▁(198	-7167
▁lake	-7168
▁minute	-7169
▁Cho	-7170
▁provider	-7171
yal	-7172
tles	-7173
ommod	-7174
▁mortality	-7175
▁37	-7176
▁Pur	-7177
▁innovation	-7178
▁corner	-7179
▁Organization	-7180
▁hazard	-7181
▁principal	-7182
ette	-7183
▁Conservation	-7184
▁sales	-7185
▁anywhere	-7186
▁arrest	-7187
▁filter	-7188
▁implemented	-7189
▁informed	-7190
▁Parent	-7191
▁marks	-7192
▁overw	-7193
▁spin	-7194
▁mineral	-7195
▁defense	-7196
▁dealing	-7197
▁sport	-7198
▁fishing	-7199
▁Avoid	-7200
▁Scholar	-7201
▁molecular	-7202
▁translation	-7203
▁38	-7204
▁Kar	-7205
▁uncertain	-7206
▁fairly	-7207
▁decor	-7208
▁hormone	-7209
65	-7210
syl	-7211
essions	-7212
ugh	-7213
▁amazing	-7214
▁prohib	-7215
▁respectively	-7216
ontal	-7217
▁proof	-7218
▁Protection	-7219
▁fest	-7220
▁modified	-7221
▁breed	-7222
▁effectiveness	-7223
▁surprising	-7224
eut	-7225
Ar	-7226
ruption	-7227
▁Alz	-7228
▁outcome	-7229
▁rarely	-7230
bles	-7231
▁seemed	-7232
▁Swed	-7233
▁Ut	-7234
▁falls	-7235
uality	-7236
▁warning	-7237
ali	-7238
▁insert	-7239
▁Hospital	-7240
▁maintained	-7241
▁acute	-7242
▁gro	-7243
▁DO	-7244
▁orbit	-7245
▁copper	-7246
▁Dom	-7247
▁Road	-7248
cons	-7249
ograp	-7250
▁pestic	-7251
▁Division	-7252
▁writers	-7253
▁Head	-7254
▁mathematics	-7255
▁48	-7256
emia	-7257
▁poem	-7258
▁Ol	-7259
▁Init	-7260
▁bigger	-7261
▁infant	-7262
rav	-7263
▁threats	-7264
▁lie	-7265
otal	-7266
▁Star	-7267
▁physician	-7268
sm	-7269
▁asthma	-7270
▁metabol	-7271
istical	-7272
▁passing	-7273
American	-7274
▁Nov	-7275
eli	-7276
▁finished	-7277
37	-7278
▁prominent	-7279
▁gradually	-7280
▁vocabulary	-7281
▁inn	-7282
▁neighborhood	-7283
▁gained	-7284
▁officers	-7285
▁SS	-7286
▁dates	-7287
ucky	-7288
▁6,	-7289
▁Michigan	-7290
HD	-7291
▁Survey	-7292
▁guard	-7293
▁outer	-7294
▁opposed	-7295
▁targets	-7296
▁inher	-7297
/1	-7298
▁essentially	-7299
▁Having	-7300
rus	-7301
▁plane	-7302
coming	-7303
▁Did	-7304
▁dependent	-7305
▁screening	-7306
▁claimed	-7307
▁complications	-7308
▁serves	-7309
▁drought	-7310
uten	-7311
▁desired	-7312
▁Mot	-7313
▁clar	-7314
▁recover	-7315
▁schedule	-7316
icy	-7317
rox	-7318
▁spectrum	-7319
▁attempts	-7320
▁Help	-7321
▁Cambridge	-7322
▁happening	-7323
bar	-7324
▁reward	-7325
ansas	-7326
▁subsequent	-7327
▁errors	-7328
▁pin	-7329
▁microb	-7330
▁player	-7331
▁tropical	-7332
▁Corn	-7333
▁eliminate	-7334
▁compound	-7335
▁Minister	-7336
▁usual	-7337
▁Obs	-7338
oids	-7339
bec	-7340
sell	-7341
▁Play	-7342
ogether	-7343
▁printing	-7344
▁Perhaps	-7345
▁Supreme	-7346
door	-7347
▁Georgia	-7348
▁Pennsyl	-7349
▁branch	-7350
writ	-7351
▁trends	-7352
▁autism	-7353
▁Incre	-7354
▁Books	-7355
39	-7356
▁interpre	-7357
-20	-7358
An	-7359
ENT	-7360
rane	-7361
▁proportion	-7362
▁mold	-7363
fts	-7364
▁holes	-7365
▁racial	-7366
▁measuring	-7367
▁remed	-7368
▁Alzheimer	-7369
▁laid	-7370
▁analys	-7371
▁Spring	-7372
▁difficulties	-7373
▁coron	-7374
▁engineers	-7375
▁statements	-7376
▁writes	-7377
▁microsc	-7378
▁Ly	-7379
iary	-7380
▁wine	-7381
▁Thanks	-7382
uset	-7383
▁oldest	-7384
ailable	-7385
▁Way	-7386
▁caught	-7387
▁cab	-7388
angered	-7389
▁elected	-7390
icing	-7391
▁Following	-7392
ilation	-7393
rous	-7394
ostic	-7395
▁judge	-7396
▁consume	-7397
▁Policy	-7398
▁encoun	-7399
▁Based	-7400
▁earliest	-7401
▁suffered	-7402
igue	-7403
▁fung	-7404
▁diameter	-7405
haust	-7406
ptions	-7407
▁flour	-7408
▁dispos	-7409
▁conference	-7410
ricts	-7411
▁hosp	-7412
▁agents	-7413
▁investigation	-7414
▁giant	-7415
yer	-7416
▁mg	-7417
illa	-7418
▁characterized	-7419
▁antibiotics	-7420
usetts	-7421
iat	-7422
▁bomb	-7423
▁Impro	-7424
▁imagine	-7425
▁listening	-7426
achusetts	-7427
opl	-7428
▁fed	-7429
ieval	-7430
▁Facebook	-7431
▁honey	-7432
▁slaves	-7433
▁biom	-7434
▁sunlight	-7435
usalem	-7436
▁Hor	-7437
unicip	-7438
▁beings	-7439
▁cyber	-7440
▁Polit	-7441
▁observe	-7442
▁correctly	-7443
▁rose	-7444
▁traditions	-7445
▁aged	-7446
▁phosph	-7447
▁Battle	-7448
▁structural	-7449
▁cham	-7450
▁stations	-7451
night	-7452
soft	-7453
▁1)	-7454
▁nitrogen	-7455
▁client	-7456
▁evil	-7457
▁grows	-7458
▁assigned	-7459
▁transp	-7460
▁Vitamin	-7461
▁proved	-7462
▁Scotland	-7463
▁Force	-7464
▁Bul	-7465
▁Edward	-7466
asts	-7467
▁stuff	-7468
▁Christians	-7469
▁imaging	-7470
▁inspired	-7471
▁split	-7472
▁innovative	-7473
▁plot	-7474
▁decay	-7475
▁maybe	-7476
▁stores	-7477
▁evolved	-7478
rays	-7479
gien	-7480
▁initially	-7481
▁Queen	-7482
eness	-7483
iological	-7484
mers	-7485
▁Analysis	-7486
semb	-7487
▁disrupt	-7488
▁IV	-7489
▁Being	-7490
ao	-7491
icted	-7492
▁Page	-7493
▁Writing	-7494
▁subt	-7495
▁Building	-7496
▁acres	-7497
44	-7498
▁authent	-7499
▁accommod	-7500
▁concerning	-7501
▁interactive	-7502
▁Pennsylvania	-7503
▁robot	-7504
▁protecting	-7505
▁examined	-7506
▁ordered	-7507
▁Rh	-7508
gment	-7509
▁ton	-7510
rary	-7511
ioxid	-7512
▁driver	-7513
▁defend	-7514
▁stead	-7515
▁faced	-7516
▁cash	-7517
▁merely	-7518
▁researcher	-7519
▁equally	-7520
▁ye	-7521
▁Card	-7522
▁95	-7523
▁rab	-7524
print	-7525
▁processed	-7526
▁vitamins	-7527
cyclopedia	-7528
▁Blue	-7529
▁interpretation	-7530
▁experiencing	-7531
▁strengthen	-7532
▁array	-7533
▁phrase	-7534
▁ceremon	-7535
▁sitting	-7536
▁granted	-7537
▁concluded	-7538
▁Point	-7539
▁(5	-7540
▁television	-7541
▁Massachusetts	-7542
rance	-7543
▁windows	-7544
▁assume	-7545
▁CP	-7546
▁Again	-7547
▁Solar	-7548
▁scar	-7549
▁grain	-7550
▁accompan	-7551
▁Lee	-7552
angle	-7553
▁IT	-7554
including	-7555
▁Lim	-7556
▁Circ	-7557
▁worst	-7558
▁criminal	-7559
▁absence	-7560
ishop	-7561
▁finds	-7562
MP	-7563
class	-7564
▁cooling	-7565
▁covering	-7566
▁Mic	-7567
▁Jerusalem	-7568
▁cosm	-7569
list	-7570
▁Model	-7571
▁Palest	-7572
enger	-7573
pling	-7574
▁exclus	-7575
▁universal	-7576
▁radical	-7577
▁satisf	-7578
▁adm	-7579
▁tob	-7580
HA	-7581
▁experimental	-7582
▁Elizabeth	-7583
▁detected	-7584
▁coverage	-7585
▁considerable	-7586
CA	-7587
oli	-7588
▁Iran	-7589
▁programme	-7590
HS	-7591
▁updated	-7592
▁educators	-7593
▁Comple	-7594
▁indigenous	-7595
▁Hebrew	-7596
▁button	-7597
▁decreased	-7598
▁Dutch	-7599
▁Lin	-7600
▁demands	-7601
▁Due	-7602
▁meals	-7603
▁identifying	-7604
▁Level	-7605
▁essays	-7606
▁Colorado	-7607
▁mountains	-7608
▁lymph	-7609
▁automatically	-7610
▁flows	-7611
▁Korea	-7612
opic	-7613
▁Father	-7614
▁wheel	-7615
effect	-7616
▁AL	-7617
▁disabilities	-7618
▁perm	-7619
asm	-7620
▁seat	-7621
▁objectives	-7622
▁heavily	-7623
lines	-7624
▁heads	-7625
ogs	-7626
▁slave	-7627
▁Small	-7628
▁reveal	-7629
▁exception	-7630
▁consideration	-7631
va	-7632
itarian	-7633
▁bag	-7634
▁commitment	-7635
oric	-7636
▁channel	-7637
▁planets	-7638
▁Far	-7639
▁55	-7640
▁substantial	-7641
▁calling	-7642
▁providers	-7643
▁coc	-7644
igare	-7645
▁bees	-7646
▁uncom	-7647
▁alph	-7648
New	-7649
quar	-7650
▁compens	-7651
',	-7652
▁unw	-7653
▁conqu	-7654
▁Wal	-7655
ested	-7656
▁intent	-7657
▁athlet	-7658
77	-7659
ercury	-7660
▁occurring	-7661
▁dynamic	-7662
95	-7663
▁Process	-7664
brid	-7665
▁Little	-7666
▁tables	-7667
:10.	-7668
▁nice	-7669
medi	-7670
▁driven	-7671
▁conj	-7672
ulpt	-7673
▁Unlike	-7674
oured	-7675
▁Digital	-7676
ura	-7677
▁overcome	-7678
▁Kids	-7679
▁stake	-7680
ba	-7681
▁abilities	-7682
▁Copyright	-7683
otherapy	-7684
▁Sunday	-7685
▁Pain	-7686
▁bacterial	-7687
acts	-7688
▁Consider	-7689
▁van	-7690
▁musical	-7691
▁7,	-7692
onym	-7693
▁planting	-7694
▁Drug	-7695
▁steam	-7696
▁les	-7697
▁desert	-7698
▁contribution	-7699
▁thermal	-7700
▁identification	-7701
▁fatty	-7702
iture	-7703
▁Harvard	-7704
▁tobacco	-7705
▁stability	-7706
asant	-7707
▁regulation	-7708
▁1950	-7709
▁reaching	-7710
produ	-7711
32	-7712
▁epis	-7713
athered	-7714
▁cong	-7715
iva	-7716
atively	-7717
▁laser	-7718
etary	-7719
hythm	-7720
acent	-7721
▁enables	-7722
▁variation	-7723
rize	-7724
inf	-7725
▁lungs	-7726
▁paragraph	-7727
ruit	-7728
▁Invest	-7729
▁acquired	-7730
har	-7731
▁McC	-7732
▁worship	-7733
▁protective	-7734
▁peoples	-7735
▁surge	-7736
▁correl	-7737
▁relie	-7738
▁inhabit	-7739
adel	-7740
▁supplements	-7741
▁dietary	-7742
▁cure	-7743
▁extend	-7744
▁versions	-7745
▁exciting	-7746
▁quarter	-7747
▁wheat	-7748
▁smell	-7749
▁gases	-7750
▁Mach	-7751
▁Pass	-7752
holders	-7753
▁isolated	-7754
EF	-7755
▁Hawai	-7756
▁advent	-7757
ographical	-7758
▁contributed	-7759
Med	-7760
ude	-7761
itory	-7762
irth	-7763
▁NO	-7764
▁pandemic	-7765
▁hidden	-7766
▁heritage	-7767
▁sensors	-7768
▁affecting	-7769
▁Systems	-7770
▁pla	-7771
▁Wil	-7772
Un	-7773
▁2019	-7774
▁hardware	-7775
▁Ve	-7776
▁Laboratory	-7777
ultane	-7778
from	-7779
▁eru	-7780
▁vaccines	-7781
azon	-7782
apor	-7783
atial	-7784
rolled	-7785
▁Mur	-7786
▁ensuring	-7787
-12	-7788
▁suscept	-7789
▁permission	-7790
▁terror	-7791
▁websites	-7792
▁Support	-7793
▁alter	-7794
▁insight	-7795
▁functioning	-7796
ami	-7797
▁intensity	-7798
htt	-7799
▁viewed	-7800
▁emphasis	-7801
theless	-7802
▁Justice	-7803
▁quiet	-7804
▁strain	-7805
▁counsel	-7806
▁Behav	-7807
▁1,000	-7808
hea	-7809
▁Later	-7810
▁Wildlife	-7811
▁cancers	-7812
elfare	-7813
)||	-7814
▁buried	-7815
▁herb	-7816
allow	-7817
▁polar	-7818
▁tor	-7819
BT	-7820
just	-7821
itual	-7822
▁Cost	-7823
ket	-7824
▁mine	-7825
▁manufacturers	-7826
atal	-7827
▁observation	-7828
▁Arctic	-7829
▁girl	-7830
eor	-7831
▁Physical	-7832
▁Section	-7833
▁Mond	-7834
▁202	-7835
▁uniform	-7836
▁chances	-7837
▁visited	-7838
▁Crit	-7839
▁rect	-7840
▁enorm	-7841
iger	-7842
▁advis	-7843
ochem	-7844
▁Max	-7845
▁Economic	-7846
▁tap	-7847
▁lens	-7848
▁introduce	-7849
▁settlement	-7850
▁elder	-7851
▁descript	-7852
▁exhaust	-7853
▁ol	-7854
▁cardiovascular	-7855
▁officer	-7856
▁hence	-7857
▁manifest	-7858
▁rac	-7859
▁falling	-7860
otype	-7861
▁moderate	-7862
▁Him	-7863
▁managing	-7864
DS	-7865
▁Saint	-7866
▁disability	-7867
zer	-7868
▁lists	-7869
▁Independ	-7870
eting	-7871
▁tumor	-7872
▁forming	-7873
▁adverse	-7874
▁mir	-7875
▁chemistry	-7876
▁sentences	-7877
gence	-7878
anger	-7879
48	-7880
▁trauma	-7881
century	-7882
▁Frid	-7883
▁Place	-7884
rical	-7885
▁fuels	-7886
▁initiative	-7887
▁sched	-7888
▁customer	-7889
▁mixture	-7890
▁analyze	-7891
berry	-7892
▁farms	-7893
▁tick	-7894
▁overwhel	-7895
NS	-7896
▁dance	-7897
▁preserve	-7898
▁Ok	-7899
neys	-7900
forest	-7901
▁soul	-7902
▁sensitivity	-7903
CP	-7904
▁panels	-7905
▁Understanding	-7906
▁parameters	-7907
▁tong	-7908
66	-7909
▁Agriculture	-7910
▁literary	-7911
▁representation	-7912
▁(1)	-7913
▁weakness	-7914
▁lock	-7915
gov	-7916
▁Right	-7917
▁shoot	-7918
▁cord	-7919
▁dress	-7920
▁Stan	-7921
mentia	-7922
▁directed	-7923
ema	-7924
▁believes	-7925
▁carbohyd	-7926
aws	-7927
▁alive	-7928
▁Confed	-7929
ipe	-7930
▁regardless	-7931
▁ran	-7932
▁addressed	-7933
▁bless	-7934
▁interface	-7935
▁recycling	-7936
▁reporting	-7937
rection	-7938
▁Spirit	-7939
ogenic	-7940
▁sizes	-7941
▁agent	-7942
▁engaging	-7943
▁quantity	-7944
▁Symptoms	-7945
▁swit	-7946
dr	-7947
▁batteries	-7948
quir	-7949
▁productivity	-7950
▁stopped	-7951
▁Philipp	-7952
ptom	-7953
▁computing	-7954
▁appointed	-7955
▁migration	-7956
/201	-7957
▁keeps	-7958
▁cattle	-7959
▁vertical	-7960
▁summary	-7961
▁aimed	-7962
▁tribes	-7963
▁mosquit	-7964
▁DC	-7965
▁Farm	-7966
▁Wikipedia	-7967
▁2004	-7968
esh	-7969
▁CH	-7970
▁Fil	-7971
▁Islamic	-7972
▁duty	-7973
▁cort	-7974
▁manager	-7975
▁celebrated	-7976
▁rh	-7977
▁2)	-7978
▁ven	-7979
▁flexible	-7980
▁Historical	-7981
▁Standard	-7982
▁Introduction	-7983
una	-7984
▁harder	-7985
▁Ram	-7986
▁conserv	-7987
endment	-7988
▁focusing	-7989
erty	-7990
▁Gener	-7991
▁psychology	-7992
▁creatures	-7993
earch	-7994
▁union	-7995
elescope	-7996
▁grains	-7997
▁audio	-7998
▁wonderful	-7999
▁consumed	-8000
▁$1	-8001
▁stones	-8002
ols	-8003
ymes	-8004
OM	-8005
▁Proble	-8006
▁3:	-8007
▁superior	-8008
▁flash	-8009
▁EPA	-8010
▁boat	-8011
▁separated	-8012
fulness	-8013
▁availability	-8014
ician	-8015
▁quantum	-8016
opher	-8017
adow	-8018
▁Hum	-8019
▁ease	-8020
▁owned	-8021
▁myst	-8022
bean	-8023
▁finger	-8024
▁Ice	-8025
▁Code	-8026
▁Pu	-8027
▁exploration	-8028
▁Blood	-8029
▁adolesc	-8030
▁Daniel	-8031
lights	-8032
▁asc	-8033
hus	-8034
sen	-8035
wan	-8036
books	-8037
▁Navy	-8038
alities	-8039
▁gum	-8040
▁Diet	-8041
▁killing	-8042
▁losses	-8043
▁deficiency	-8044
▁perception	-8045
▁evening	-8046
▁waiting	-8047
▁fellow	-8048
▁Image	-8049
▁nutrient	-8050
▁mothers	-8051
sor	-8052
'.	-8053
words	-8054
▁illegal	-8055
▁charged	-8056
asy	-8057
▁personality	-8058
▁Gall	-8059
▁narrative	-8060
▁ampl	-8061
▁scores	-8062
inois	-8063
▁Islands	-8064
ati	-8065
▁taxes	-8066
aren	-8067
▁lip	-8068
TP	-8069
▁clock	-8070
urches	-8071
▁Arts	-8072
▁mathematical	-8073
▁colonial	-8074
amine	-8075
▁comprom	-8076
▁exhibit	-8077
▁compost	-8078
cking	-8079
▁vel	-8080
▁flying	-8081
▁8,	-8082
▁Gar	-8083
▁watching	-8084
▁Media	-8085
▁equation	-8086
▁10,	-8087
▁Ha	-8088
▁cotton	-8089
reated	-8090
▁sup	-8091
▁Francisco	-8092
Sp	-8093
▁technological	-8094
mented	-8095
▁resil	-8096
▁Indeed	-8097
▁chap	-8098
▁Still	-8099
▁expanded	-8100
▁hormones	-8101
hire	-8102
net	-8103
▁antioxid	-8104
antly	-8105
▁urine	-8106
▁performing	-8107
▁fought	-8108
real	-8109
▁communications	-8110
▁Los	-8111
▁12.	-8112
▁neutral	-8113
▁Material	-8114
▁entertain	-8115
▁cas	-8116
▁asp	-8117
▁promoting	-8118
31	-8119
How	-8120
▁inequ	-8121
orted	-8122
lete	-8123
iments	-8124
▁transmit	-8125
▁Ira	-8126
▁boundaries	-8127
▁irrig	-8128
eries	-8129
▁drivers	-8130
▁regarded	-8131
▁improvements	-8132
▁container	-8133
▁assets	-8134
▁Often	-8135
▁spray	-8136
▁emerging	-8137
▁exped	-8138
gon	-8139
▁gast	-8140
▁interventions	-8141
▁resid	-8142
▁Andrew	-8143
▁spoken	-8144
▁fats	-8145
▁SP	-8146
▁Examples	-8147
▁2003	-8148
▁dramatic	-8149
ivest	-8150
▁faces	-8151
▁hunting	-8152
▁lighting	-8153
ouds	-8154
▁concentrations	-8155
▁directions	-8156
▁streets	-8157
▁nom	-8158
▁Dictionary	-8159
▁fra	-8160
▁AR	-8161
▁Var	-8162
▁trick	-8163
▁temporary	-8164
▁executive	-8165
▁Music	-8166
▁achievement	-8167
▁spr	-8168
For	-8169
▁chair	-8170
irms	-8171
▁preced	-8172
▁calculated	-8173
▁AC	-8174
▁cough	-8175
▁Fred	-8176
mann	-8177
▁Bureau	-8178
▁Gulf	-8179
uits	-8180
erman	-8181
▁11.	-8182
▁Conference	-8183
▁characteristic	-8184
▁metals	-8185
▁marketing	-8186
▁vegetation	-8187
▁pointed	-8188
▁biodiversity	-8189
▁Norm	-8190
▁embra	-8191
▁Biology	-8192
▁Mid	-8193
▁substit	-8194
amination	-8195
istant	-8196
▁pupils	-8197
▁holiday	-8198
▁Major	-8199
▁safely	-8200
def	-8201
▁Put	-8202
▁drinks	-8203
▁CA	-8204
▁hall	-8205
▁physically	-8206
▁Christianity	-8207
▁Bal	-8208
rix	-8209
▁Emer	-8210
▁lowest	-8211
▁styles	-8212
▁simultane	-8213
▁Parliament	-8214
▁plain	-8215
thon	-8216
ricted	-8217
▁newspaper	-8218
And	-8219
▁tip	-8220
▁Cub	-8221
▁Friday	-8222
▁Town	-8223
▁MA	-8224
▁profit	-8225
endar	-8226
▁fing	-8227
▁universities	-8228
▁Hindu	-8229
icular	-8230
archy	-8231
▁gravity	-8232
▁extension	-8233
▁abstract	-8234
▁joints	-8235
▁classified	-8236
advant	-8237
▁ID	-8238
box	-8239
ecess	-8240
▁sculpt	-8241
▁removing	-8242
▁threatened	-8243
▁thereby	-8244
▁saved	-8245
regation	-8246
▁wisdom	-8247
▁Print	-8248
▁geomet	-8249
▁ordinary	-8250
▁39	-8251
▁fatigue	-8252
ackson	-8253
▁Offic	-8254
aka	-8255
ugg	-8256
▁Alexander	-8257
▁behavioral	-8258
▁Nob	-8259
orig	-8260
▁movie	-8261
thod	-8262
▁ecosystems	-8263
▁fisher	-8264
▁settled	-8265
▁thread	-8266
oul	-8267
▁scr	-8268
▁Between	-8269
▁attach	-8270
borne	-8271
▁addiction	-8272
▁incident	-8273
▁variations	-8274
▁capabilities	-8275
▁orb	-8276
▁investigate	-8277
▁argue	-8278
▁ritual	-8279
▁178	-8280
▁Hom	-8281
▁Illinois	-8282
uther	-8283
Sh	-8284
▁libr	-8285
lymp	-8286
▁Connect	-8287
▁orders	-8288
▁Select	-8289
▁fires	-8290
▁membrane	-8291
mentation	-8292
▁2011.	-8293
▁humanity	-8294
foot	-8295
▁dies	-8296
▁Ott	-8297
▁fur	-8298
▁sustainability	-8299
ashes	-8300
raine	-8301
▁buff	-8302
▁Hard	-8303
idal	-8304
▁dimens	-8305
ogy	-8306
ila	-8307
▁celebrate	-8308
▁dating	-8309
▁entering	-8310
▁tack	-8311
▁PDF	-8312
▁Muslims	-8313
▁verb	-8314
▁priority	-8315
ilson	-8316
▁CE	-8317
▁poetry	-8318
lu	-8319
▁fo	-8320
lock	-8321
pled	-8322
▁attitude	-8323
ptic	-8324
▁(2)	-8325
▁Temple	-8326
▁applying	-8327
▁dense	-8328
▁Greece	-8329
▁clothes	-8330
▁gent	-8331
anted	-8332
▁wearing	-8333
▁convert	-8334
eping	-8335
▁Within	-8336
ivestock	-8337
▁Week	-8338
▁Trust	-8339
▁elsewhere	-8340
▁dairy	-8341
▁references	-8342
▁Text	-8343
▁empty	-8344
▁Ast	-8345
▁cul	-8346
▁guess	-8347
▁reverse	-8348
html	-8349
▁Rest	-8350
▁contributions	-8351
agan	-8352
ipher	-8353
▁definitely	-8354
▁tens	-8355
▁manual	-8356
▁sevent	-8357
46	-8358
▁Chief	-8359
▁devast	-8360
▁1920	-8361
▁resc	-8362
▁telling	-8363
▁shed	-8364
▁spots	-8365
▁engines	-8366
▁Computer	-8367
▁Bang	-8368
raham	-8369
▁saving	-8370
▁medicines	-8371
▁digestive	-8372
▁spacecraft	-8373
▁Call	-8374
MA	-8375
▁remarkable	-8376
▁cann	-8377
▁painful	-8378
▁Indones	-8379
▁clients	-8380
itting	-8381
▁pilot	-8382
▁embry	-8383
asma	-8384
▁ecological	-8385
▁Heritage	-8386
EG	-8387
▁sensor	-8388
▁emotion	-8389
▁2010.	-8390
▁Prim	-8391
oons	-8392
flamm	-8393
▁Watch	-8394
usive	-8395
IF	-8396
▁weigh	-8397
Gen	-8398
▁districts	-8399
:||	-8400
ranean	-8401
▁Creek	-8402
▁Wed	-8403
▁scope	-8404
▁arguments	-8405
▁haven	-8406
▁Capt	-8407
nut	-8408
▁Van	-8409
▁dim	-8410
neum	-8411
oto	-8412
aints	-8413
▁mouse	-8414
▁convey	-8415
▁differently	-8416
gener	-8417
▁trem	-8418
▁graduate	-8419
▁propag	-8420
▁shaped	-8421
▁Century	-8422
▁Aff	-8423
▁associate	-8424
OD	-8425
uscript	-8426
ocolate	-8427
▁Lew	-8428
▁colonies	-8429
▁sessions	-8430
Ex	-8431
▁dism	-8432
▁grades	-8433
giene	-8434
oves	-8435
▁interior	-8436
▁opposition	-8437
ourse	-8438
▁expectations	-8439
▁Should	-8440
▁Working	-8441
▁province	-8442
utation	-8443
▁linear	-8444
▁Nutrition	-8445
zo	-8446
▁Best	-8447
▁Iraq	-8448
▁Short	-8449
▁recre	-8450
▁1930	-8451
▁expertise	-8452
▁bleeding	-8453
▁pH	-8454
▁UV	-8455
▁reasonable	-8456
▁Field	-8457
▁Action	-8458
▁symbols	-8459
▁converted	-8460
▁aging	-8461
friend	-8462
▁Testament	-8463
▁Interest	-8464
▁promise	-8465
)|	-8466
▁Sustain	-8467
▁determining	-8468
▁Clean	-8469
▁entit	-8470
▁craft	-8471
onal	-8472
CH	-8473
76	-8474
▁democracy	-8475
▁establishment	-8476
obile	-8477
▁2013.	-8478
▁friendly	-8479
▁wouldn	-8480
esium	-8481
▁Li	-8482
▁profile	-8483
▁default	-8484
oys	-8485
▁proceed	-8486
▁2012.	-8487
▁royal	-8488
ailed	-8489
▁grounds	-8490
▁pill	-8491
olk	-8492
▁funded	-8493
▁Kent	-8494
adelph	-8495
elve	-8496
▁Move	-8497
▁feels	-8498
▁Self	-8499
▁integration	-8500
▁duration	-8501
ceans	-8502
▁Monday	-8503
▁copyright	-8504
▁sodium	-8505
vi	-8506
▁Mind	-8507
▁committee	-8508
▁deeply	-8509
▁Fish	-8510
position	-8511
issipp	-8512
▁throat	-8513
rh	-8514
▁sad	-8515
asting	-8516
▁argued	-8517
],	-8518
▁logic	-8519
▁Contact	-8520
▁wider	-8521
urning	-8522
▁targeted	-8523
▁Ba	-8524
▁ranging	-8525
▁Secretary	-8526
▁requirement	-8527
unct	-8528
▁losing	-8529
▁fet	-8530
▁handling	-8531
▁44	-8532
agen	-8533
agnetic	-8534
▁Olymp	-8535
▁societies	-8536
unc	-8537
▁juice	-8538
▁households	-8539
%,	-8540
▁cow	-8541
▁Ancient	-8542
They	-8543
▁continuing	-8544
▁tab	-8545
▁oxid	-8546
▁classical	-8547
made	-8548
▁Poly	-8549
eath	-8550
▁Occ	-8551
TH	-8552
▁ethical	-8553
▁rational	-8554
▁lifetime	-8555
kind	-8556
▁Paper	-8557
bell	-8558
▁Local	-8559
When	-8560
▁Jackson	-8561
▁forecast	-8562
▁attribut	-8563
▁viral	-8564
▁conclus	-8565
▁transmitted	-8566
mod	-8567
▁Import	-8568
▁solving	-8569
▁shore	-8570
▁adapted	-8571
uum	-8572
▁ash	-8573
▁origins	-8574
▁preferred	-8575
ensed	-8576
▁kingdom	-8577
▁Different	-8578
▁nutritional	-8579
▁reign	-8580
▁infants	-8581
EA	-8582
▁Squ	-8583
▁Portug	-8584
▁beat	-8585
▁club	-8586
▁workplace	-8587
▁Ell	-8588
▁photographs	-8589
▁replacement	-8590
iop	-8591
▁Amazon	-8592
▁balanced	-8593
▁11,	-8594
▁diarr	-8595
▁Gh	-8596
Google	-8597
umer	-8598
▁spinal	-8599
▁Commons	-8600
▁passion	-8601
▁restaur	-8602
▁Colon	-8603
▁prey	-8604
▁enormous	-8605
▁gathered	-8606
▁beans	-8607
▁accompanied	-8608
▁Microsoft	-8609
▁choosing	-8610
rypt	-8611
▁orange	-8612
▁Mess	-8613
▁raising	-8614
▁dominant	-8615
▁integr	-8616
▁vegetable	-8617
thew	-8618
▁ham	-8619
▁hat	-8620
▁Area	-8621
adelphia	-8622
play	-8623
▁barriers	-8624
▁2001	-8625
▁facilitate	-8626
▁equality	-8627
▁degrad	-8628
▁Hyd	-8629
▁loose	-8630
▁pets	-8631
▁insights	-8632
Cl	-8633
▁restore	-8634
▁jur	-8635
▁minds	-8636
▁specialist	-8637
erts	-8638
icity	-8639
▁120	-8640
▁habitats	-8641
▁Ariz	-8642
▁actively	-8643
▁ears	-8644
▁peer	-8645
▁pollut	-8646
79	-8647
▁mature	-8648
▁develops	-8649
▁Convention	-8650
▁planted	-8651
▁strike	-8652
▁Practice	-8653
▁occas	-8654
▁pione	-8655
▁chose	-8656
▁corresponding	-8657
▁Tit	-8658
▁Encyclopedia	-8659
▁Near	-8660
▁Prom	-8661
unning	-8662
▁noticed	-8663
issippi	-8664
▁Full	-8665
▁gly	-8666
▁outbreak	-8667
aware	-8668
▁Santa	-8669
▁Tri	-8670
world	-8671
LC	-8672
▁Origin	-8673
cin	-8674
uan	-8675
▁victory	-8676
▁Dam	-8677
▁tempor	-8678
▁exploring	-8679
▁atoms	-8680
▁assembly	-8681
plate	-8682
roud	-8683
▁overview	-8684
▁classic	-8685
▁OS	-8686
disc	-8687
▁ion	-8688
▁addresses	-8689
▁gift	-8690
▁songs	-8691
▁enterpr	-8692
▁Neg	-8693
outheast	-8694
▁specified	-8695
▁Much	-8696
▁acting	-8697
▁algorithm	-8698
▁literally	-8699
▁purchased	-8700
▁noun	-8701
▁violent	-8702
▁Scientific	-8703
▁cub	-8704
▁Given	-8705
▁globe	-8706
▁powder	-8707
▁unn	-8708
▁preparing	-8709
▁9,	-8710
bel	-8711
▁Brain	-8712
awa	-8713
▁Teaching	-8714
amps	-8715
▁hospitals	-8716
▁versus	-8717
urrent	-8718
▁Sus	-8719
sex	-8720
worth	-8721
▁emerged	-8722
▁bare	-8723
▁scheme	-8724
izers	-8725
49	-8726
▁stood	-8727
▁virtually	-8728
text	-8729
▁differ	-8730
▁anticip	-8731
▁NOT	-8732
▁personnel	-8733
▁municip	-8734
OP	-8735
▁Wilson	-8736
▁annually	-8737
▁Master	-8738
▁Student	-8739
▁Teachers	-8740
▁12,	-8741
▁parad	-8742
----	-8743
▁Fair	-8744
▁engagement	-8745
▁wat	-8746
▁earthquake	-8747
assium	-8748
▁Obama	-8749
▁cooperation	-8750
▁joy	-8751
han	-8752
▁returns	-8753
astics	-8754
▁discussions	-8755
▁posts	-8756
▁pace	-8757
▁courts	-8758
olves	-8759
▁assumed	-8760
▁prescribed	-8761
But	-8762
▁Die	-8763
▁pel	-8764
tw	-8765
▁breaking	-8766
▁prime	-8767
▁span	-8768
▁Product	-8769
▁appeal	-8770
▁cheap	-8771
operative	-8772
▁couldn	-8773
▁Think	-8774
▁Const	-8775
▁savings	-8776
▁Rail	-8777
▁aggressive	-8778
awn	-8779
olt	-8780
▁existed	-8781
▁breaks	-8782
encing	-8783
▁begun	-8784
68	-8785
▁genome	-8786
▁dil	-8787
▁gif	-8788
▁crown	-8789
▁tu	-8790
▁thyroid	-8791
▁outdoor	-8792
▁Relig	-8793
▁assignment	-8794
▁Abraham	-8795
izz	-8796
▁contents	-8797
thur	-8798
icts	-8799
▁controlling	-8800
▁Garden	-8801
ifice	-8802
▁Applic	-8803
zyme	-8804
▁specialized	-8805
through	-8806
oca	-8807
▁meaningful	-8808
▁glac	-8809
avirus	-8810
▁FDA	-8811
swe	-8812
enced	-8813
55	-8814
UL	-8815
ifer	-8816
▁Tool	-8817
mond	-8818
▁Log	-8819
▁heaven	-8820
claim	-8821
▁deploy	-8822
▁probability	-8823
▁opinions	-8824
▁suit	-8825
▁spoke	-8826
▁recording	-8827
▁RNA	-8828
▁tone	-8829
▁gardens	-8830
▁tongue	-8831
▁reaches	-8832
▁Ministry	-8833
ais	-8834
shaped	-8835
▁Tradition	-8836
▁calculate	-8837
▁Schools	-8838
▁realized	-8839
▁registered	-8840
OW	-8841
dd	-8842
▁Assessment	-8843
▁shorter	-8844
▁puzz	-8845
aya	-8846
▁reveals	-8847
uct	-8848
▁Ide	-8849
▁acknowled	-8850
apes	-8851
▁illnesses	-8852
▁perceived	-8853
▁sale	-8854
▁Arizona	-8855
▁withdraw	-8856
▁sacred	-8857
▁displayed	-8858
▁wars	-8859
▁Marine	-8860
▁Photo	-8861
▁immigrants	-8862
▁resistant	-8863
fast	-8864
ometer	-8865
▁dropped	-8866
▁reserved	-8867
section	-8868
▁Mississippi	-8869
▁intention	-8870
▁Nic	-8871
▁Vietnam	-8872
Sc	-8873
▁Philadelphia	-8874
▁Jacob	-8875
▁sulf	-8876
▁frust	-8877
flu	-8878
▁restoration	-8879
▁obst	-8880
▁3-	-8881
▁15,	-8882
▁pairs	-8883
▁evident	-8884
▁varies	-8885
▁circulation	-8886
iner	-8887
▁dementia	-8888
ideo	-8889
▁traits	-8890
▁),	-8891
▁coat	-8892
▁Map	-8893
▁tact	-8894
▁wash	-8895
regon	-8896
▁volunteers	-8897
▁colony	-8898
▁occupied	-8899
▁marg	-8900
▁hypothesis	-8901
▁limitations	-8902
▁Line	-8903
▁Ren	-8904
icating	-8905
▁enthus	-8906
▁2002	-8907
▁2015.	-8908
▁soph	-8909
reens	-8910
▁paying	-8911
bris	-8912
▁Station	-8913
▁attitudes	-8914
▁Aud	-8915
▁teens	-8916
▁accurately	-8917
rue	-8918
▁Answ	-8919
rait	-8920
akespe	-8921
▁explicit	-8922
▁arthritis	-8923
▁Fed	-8924
▁sug	-8925
▁surgical	-8926
▁representing	-8927
▁streams	-8928
▁draft	-8929
dep	-8930
▁Ash	-8931
▁Proper	-8932
▁trace	-8933
sembly	-8934
▁Antar	-8935
▁scat	-8936
requ	-8937
▁Clinical	-8938
▁auto	-8939
▁creativity	-8940
mia	-8941
▁Lu	-8942
▁absorb	-8943
AB	-8944
▁partnership	-8945
▁lakes	-8946
▁ho	-8947
▁Moses	-8948
▁CDC	-8949
▁seriously	-8950
chain	-8951
▁barrier	-8952
▁Senate	-8953
▁Hence	-8954
▁strategic	-8955
green	-8956
▁wal	-8957
▁hal	-8958
rin	-8959
▁accord	-8960
▁scenario	-8961
▁PhD	-8962
▁readily	-8963
ouri	-8964
▁sees	-8965
fn	-8966
▁caps	-8967
▁themes	-8968
▁alarm	-8969
▁developments	-8970
▁179	-8971
▁2014.	-8972
▁beneath	-8973
ologically	-8974
▁bears	-8975
▁Write	-8976
▁myself	-8977
ilst	-8978
▁underground	-8979
akespeare	-8980
▁crypt	-8981
▁consciousness	-8982
▁module	-8983
▁thesis	-8984
▁Uk	-8985
▁Training	-8986
ocity	-8987
▁clay	-8988
▁Rab	-8989
▁optical	-8990
BM	-8991
▁Mountain	-8992
▁inch	-8993
press	-8994
▁severity	-8995
▁Sn	-8996
cription	-8997
▁involvement	-8998
best	-8999
bury	-9000
mega	-9001
▁Mexican	-9002
▁suicide	-9003
▁soils	-9004
eutic	-9005
oded	-9006
▁Questions	-9007
▁Walk	-9008
ocated	-9009
CR	-9010
▁estate	-9011
ghan	-9012
▁Hem	-9013
▁prox	-9014
▁subsc	-9015
▁uncle	-9016
▁bron	-9017
▁Alaska	-9018
▁85	-9019
▁compass	-9020
zymes	-9021
▁Turn	-9022
▁Number	-9023
▁apparently	-9024
▁sheep	-9025
▁Object	-9026
urable	-9027
▁transplant	-9028
rub	-9029
iterranean	-9030
▁practition	-9031
▁optimal	-9032
rowth	-9033
▁Fer	-9034
▁dipl	-9035
▁mask	-9036
▁currency	-9037
amic	-9038
▁Defin	-9039
▁paintings	-9040
▁phones	-9041
▁descend	-9042
▁Third	-9043
apped	-9044
▁varied	-9045
▁reef	-9046
▁Typ	-9047
▁buying	-9048
uled	-9049
▁everywhere	-9050
▁5%	-9051
▁precip	-9052
▁Ent	-9053
▁embed	-9054
▁tends	-9055
▁neurons	-9056
▁managers	-9057
isations	-9058
▁finish	-9059
▁sciences	-9060
▁analyzed	-9061
:00	-9062
▁basically	-9063
▁oblig	-9064
▁complexity	-9065
▁designated	-9066
▁fascinating	-9067
▁assert	-9068
▁package	-9069
▁tension	-9070
▁sister	-9071
▁Fac	-9072
▁compos	-9073
▁Bern	-9074
▁accomplish	-9075
quality	-9076
▁Oregon	-9077
▁Name	-9078
▁Create	-9079
ifier	-9080
▁gate	-9081
▁Below	-9082
▁labour	-9083
pectives	-9084
worm	-9085
▁Hit	-9086
▁nuts	-9087
cut	-9088
abling	-9089
▁Minnes	-9090
▁predicted	-9091
▁gods	-9092
▁Story	-9093
▁Altern	-9094
▁Similarly	-9095
▁zones	-9096
▁conversion	-9097
ref	-9098
▁ft	-9099
orus	-9100
▁swelling	-9101
▁livestock	-9102
▁armed	-9103
▁dentist	-9104
▁shr	-9105
▁chicken	-9106
-201	-9107
ika	-9108
iders	-9109
▁disadvant	-9110
▁Need	-9111
uity	-9112
western	-9113
▁Ult	-9114
▁passes	-9115
▁Culture	-9116
▁enjoyed	-9117
elect	-9118
▁surprise	-9119
▁penet	-9120
▁eleph	-9121
▁competitive	-9122
profit	-9123
▁es	-9124
ogens	-9125
▁payment	-9126
▁Apple	-9127
▁advances	-9128
▁curve	-9129
▁chromos	-9130
▁vibr	-9131
▁Individual	-9132
▁hopes	-9133
▁impair	-9134
▁Angeles	-9135
▁soy	-9136
oler	-9137
bow	-9138
cule	-9139
▁reflected	-9140
▁puts	-9141
▁Univers	-9142
▁visits	-9143
No	-9144
▁Available	-9145
▁tomat	-9146
▁churches	-9147
▁preserved	-9148
▁invasive	-9149
▁unlikely	-9150
▁Mrs	-9151
▁winds	-9152
▁strange	-9153
▁oils	-9154
▁permit	-9155
reprene	-9156
▁electrons	-9157
iblical	-9158
iler	-9159
▁restrictions	-9160
sters	-9161
▁Ont	-9162
▁kg	-9163
bered	-9164
▁wings	-9165
mble	-9166
vation	-9167
duction	-9168
▁privacy	-9169
▁prayer	-9170
▁sleeping	-9171
▁profound	-9172
▁42	-9173
▁fifth	-9174
▁minimize	-9175
▁mammals	-9176
▁representative	-9177
▁rainfall	-9178
▁addressing	-9179
▁legend	-9180
▁possibilities	-9181
▁maxim	-9182
▁celeb	-9183
▁influences	-9184
▁tom	-9185
ATION	-9186
▁Doc	-9187
▁apps	-9188
ji	-9189
aved	-9190
▁978	-9191
47	-9192
▁qualities	-9193
▁minimal	-9194
▁prevalence	-9195
▁transferred	-9196
▁sending	-9197
▁Jon	-9198
▁welfare	-9199
▁Redu	-9200
▁meetings	-9201
▁LED	-9202
▁Others	-9203
specific	-9204
▁(6	-9205
▁wooden	-9206
▁oste	-9207
▁till	-9208
▁manuscript	-9209
▁diagram	-9210
▁quantities	-9211
RNA	-9212
▁Making	-9213
▁persu	-9214
akh	-9215
ricane	-9216
▁Jr	-9217
▁Sud	-9218
icking	-9219
▁Future	-9220
▁Minnesota	-9221
▁sons	-9222
▁Mediterranean	-9223
▁vo	-9224
▁endangered	-9225
ospel	-9226
▁engineer	-9227
▁candidate	-9228
▁contributing	-9229
ivities	-9230
▁2010,	-9231
▁bee	-9232
imp	-9233
olph	-9234
▁deer	-9235
issance	-9236
▁Spe	-9237
▁visiting	-9238
▁refused	-9239
▁regulate	-9240
ker	-9241
page	-9242
▁ruled	-9243
")	-9244
▁clouds	-9245
▁wise	-9246
▁Exerc	-9247
▁documented	-9248
▁arise	-9249
oked	-9250
▁Talk	-9251
▁elementary	-9252
▁Ho	-9253
▁250	-9254
▁discipline	-9255
▁lecture	-9256
▁allergies	-9257
▁spreading	-9258
▁bought	-9259
▁calm	-9260
mail	-9261
▁logical	-9262
▁Hig	-9263
aven	-9264
▁Twitter	-9265
▁entitled	-9266
author	-9267
▁ultimate	-9268
▁revers	-9269
onents	-9270
redit	-9271
▁1000	-9272
▁Bell	-9273
▁Tay	-9274
▁debris	-9275
▁remem	-9276
aine	-9277
▁suspect	-9278
▁divine	-9279
▁Luc	-9280
ugs	-9281
▁collective	-9282
▁certific	-9283
unar	-9284
▁Tar	-9285
▁adopt	-9286
▁Wales	-9287
▁invasion	-9288
▁Peace	-9289
▁rooms	-9290
▁CS	-9291
▁dict	-9292
▁productive	-9293
Com	-9294
▁happiness	-9295
elly	-9296
▁Pope	-9297
▁inhabitants	-9298
▁suddenly	-9299
▁Flow	-9300
▁metabolism	-9301
▁Son	-9302
▁sediment	-9303
▁varying	-9304
▁canal	-9305
▁faculty	-9306
▁notion	-9307
▁magazine	-9308
▁burden	-9309
▁suggestions	-9310
▁Essay	-9311
▁Corpor	-9312
▁Standards	-9313
▁encouraging	-9314
atus	-9315
▁(“	-9316
▁alert	-9317
▁Unt	-9318
ighth	-9319
▁Williams	-9320
ffe	-9321
▁perfectly	-9322
▁50%	-9323
▁Stephen	-9324
regular	-9325
▁Theory	-9326
▁rib	-9327
▁Rather	-9328
▁susceptible	-9329
▁installation	-9330
orters	-9331
▁healthier	-9332
▁Bh	-9333
▁Indigenous	-9334
▁Jersey	-9335
▁alongside	-9336
▁Cond	-9337
▁requiring	-9338
▁Adam	-9339
▁borrow	-9340
▁flexibility	-9341
▁salmon	-9342
▁hydro	-9343
bage	-9344
▁evolutionary	-9345
▁cream	-9346
▁channels	-9347
▁CT	-9348
▁summar	-9349
enda	-9350
▁minority	-9351
▁Fig	-9352
▁stere	-9353
▁Cook	-9354
▁grams	-9355
▁efficiently	-9356
inth	-9357
power	-9358
▁translated	-9359
▁identical	-9360
▁pipe	-9361
▁Integ	-9362
ador	-9363
▁blank	-9364
▁Egyptian	-9365
▁Benef	-9366
▁proposal	-9367
▁applies	-9368
▁utility	-9369
▁provision	-9370
http	-9371
▁hybrid	-9372
▁tumors	-9373
▁herself	-9374
▁beach	-9375
▁initiatives	-9376
after	-9377
▁accounting	-9378
▁motivation	-9379
nia	-9380
▁Jack	-9381
▁ranges	-9382
▁anger	-9383
▁distant	-9384
▁ON	-9385
anz	-9386
▁Mother	-9387
▁Living	-9388
▁particle	-9389
▁popularity	-9390
▁glob	-9391
▁Date	-9392
▁assistant	-9393
▁hygiene	-9394
▁worker	-9395
▁rod	-9396
sk	-9397
▁developmental	-9398
▁incidence	-9399
▁instances	-9400
▁Real	-9401
▁ownership	-9402
▁villages	-9403
▁privile	-9404
mal	-9405
▁indirect	-9406
▁minister	-9407
▁swimming	-9408
▁doses	-9409
▁cellular	-9410
▁GM	-9411
acles	-9412
▁vig	-9413
▁Jim	-9414
▁Missouri	-9415
▁pesticides	-9416
▁ending	-9417
▁neurolog	-9418
▁4:	-9419
etically	-9420
▁46	-9421
▁exhibition	-9422
▁homework	-9423
urse	-9424
▁Order	-9425
▁encounter	-9426
▁dramatically	-9427
rics	-9428
▁600	-9429
▁Enter	-9430
▁encl	-9431
▁memor	-9432
▁isolation	-9433
▁contamination	-9434
▁absolutely	-9435
child	-9436
▁containers	-9437
igned	-9438
▁excav	-9439
▁ow	-9440
▁Risk	-9441
▁14,	-9442
▁NE	-9443
▁theoretical	-9444
▁alternatives	-9445
▁Turk	-9446
▁Animal	-9447
eem	-9448
1/	-9449
function	-9450
▁Jones	-9451
▁("	-9452
▁radi	-9453
eling	-9454
▁Isa	-9455
▁classification	-9456
▁Kn	-9457
▁medieval	-9458
▁SC	-9459
▁oceans	-9460
▁Guard	-9461
▁diets	-9462
omed	-9463
▁Charl	-9464
▁peers	-9465
▁magnitude	-9466
PR	-9467
▁dimensions	-9468
▁2012,	-9469
stru	-9470
▁rays	-9471
irable	-9472
▁Event	-9473
88	-9474
▁ES	-9475
erving	-9476
▁butterf	-9477
▁symptom	-9478
▁bottle	-9479
▁Statistics	-9480
zone	-9481
▁statistical	-9482
▁continent	-9483
eras	-9484
▁mistakes	-9485
mental	-9486
▁hack	-9487
▁Electric	-9488
▁favour	-9489
▁neglect	-9490
ceptions	-9491
ois	-9492
▁employee	-9493
▁Tenn	-9494
▁conflicts	-9495
QL	-9496
▁relating	-9497
▁chocolate	-9498
▁NY	-9499
estone	-9500
▁discharge	-9501
▁spine	-9502
▁totally	-9503
▁Maryland	-9504
▁register	-9505
▁distinguish	-9506
▁copies	-9507
ricks	-9508
▁operated	-9509
▁dish	-9510
iano	-9511
ouses	-9512
▁ancestors	-9513
▁lingu	-9514
▁10,000	-9515
▁wing	-9516
▁tough	-9517
Our	-9518
oline	-9519
▁rhythm	-9520
▁rough	-9521
ceive	-9522
▁burned	-9523
▁corporate	-9524
▁ster	-9525
▁sheets	-9526
▁assault	-9527
▁relate	-9528
▁Grade	-9529
aneous	-9530
imm	-9531
▁vom	-9532
▁infectious	-9533
▁spatial	-9534
isd	-9535
▁establishing	-9536
duate	-9537
2),	-9538
▁constra	-9539
▁brains	-9540
▁Present	-9541
▁prevents	-9542
GE	-9543
▁Bio	-9544
athan	-9545
▁abandoned	-9546
▁broke	-9547
▁irrigation	-9548
▁20,	-9549
inces	-9550
itic	-9551
▁combine	-9552
aternal	-9553
▁cycles	-9554
oving	-9555
▁holy	-9556
▁Mental	-9557
▁plates	-9558
▁Jun	-9559
▁posted	-9560
arten	-9561
▁fluor	-9562
▁Arm	-9563
▁contaminated	-9564
▁whenever	-9565
▁surviv	-9566
▁enforcement	-9567
▁hurt	-9568
efficient	-9569
▁confusion	-9570
date	-9571
▁2009.	-9572
On	-9573
▁scholar	-9574
▁allergic	-9575
▁Berlin	-9576
▁Thurs	-9577
▁surrounded	-9578
▁Sem	-9579
▁mile	-9580
▁attractive	-9581
▁Assembly	-9582
▁algorithms	-9583
▁Tues	-9584
▁Matthew	-9585
urd	-9586
▁alumin	-9587
▁tort	-9588
▁doors	-9589
itzer	-9590
▁knee	-9591
▁Hot	-9592
▁bonds	-9593
isted	-9594
▁Allah	-9595
▁Sleep	-9596
▁honest	-9597
▁cited	-9598
ori	-9599
expected	-9600
▁collections	-9601
also	-9602
▁reproductive	-9603
▁regulatory	-9604
▁spons	-9605
▁fraction	-9606
▁Marc	-9607
▁officially	-9608
▁stabil	-9609
Ind	-9610
▁elderly	-9611
▁fant	-9612
▁password	-9613
▁incorporate	-9614
▁muc	-9615
▁Econom	-9616
▁straw	-9617
▁consent	-9618
▁2011,	-9619
▁Download	-9620
▁acceptable	-9621
▁campus	-9622
▁incent	-9623
atoes	-9624
iscons	-9625
▁Lewis	-9626
▁Psychology	-9627
▁dried	-9628
rose	-9629
▁disk	-9630
▁Parents	-9631
▁survived	-9632
▁invention	-9633
▁cuts	-9634
▁Nether	-9635
▁kitchen	-9636
inator	-9637
▁folk	-9638
emies	-9639
▁invented	-9640
▁grammar	-9641
▁simultaneously	-9642
▁judgment	-9643
▁scales	-9644
▁repeat	-9645
▁thank	-9646
▁Dyn	-9647
grade	-9648
isconsin	-9649
Ed	-9650
▁Search	-9651
▁restricted	-9652
▁erect	-9653
▁expanding	-9654
amil	-9655
▁amino	-9656
▁disturb	-9657
ela	-9658
▁merch	-9659
▁diagnostic	-9660
▁Marsh	-9661
▁shoulder	-9662
▁Sav	-9663
▁bias	-9664
▁mail	-9665
▁Volume	-9666
▁Daily	-9667
▁improves	-9668
▁accidents	-9669
▁developers	-9670
▁shelter	-9671
▁browser	-9672
▁calendar	-9673
▁tag	-9674
▁tower	-9675
▁Shakespeare	-9676
▁Turkey	-9677
▁incorporated	-9678
▁neighb	-9679
1),	-9680
▁cigare	-9681
▁Meanwhile	-9682
arks	-9683
▁license	-9684
▁panc	-9685
▁Wednes	-9686
▁Java	-9687
▁exceed	-9688
▁cable	-9689
▁trading	-9690
▁aside	-9691
▁MP	-9692
▁183	-9693
▁18,	-9694
▁attributed	-9695
▁lob	-9696
friendly	-9697
▁sew	-9698
found	-9699
ateral	-9700
▁reviews	-9701
▁satisfact	-9702
▁arrival	-9703
▁wireless	-9704
isons	-9705
▁gest	-9706
enter	-9707
▁crack	-9708
▁bags	-9709
▁robust	-9710
▁transformation	-9711
otypes	-9712
▁describing	-9713
▁equipped	-9714
▁reviewed	-9715
▁erosion	-9716
▁integrity	-9717
▁residential	-9718
ashed	-9719
▁Satur	-9720
▁separation	-9721
▁citizen	-9722
rat	-9723
wa	-9724
ropol	-9725
▁Mand	-9726
▁extraord	-9727
▁dimin	-9728
▁elevated	-9729
▁prosper	-9730
▁pert	-9731
da	-9732
▁hol	-9733
eller	-9734
▁surveys	-9735
▁Enc	-9736
▁Governor	-9737
achel	-9738
▁achieving	-9739
▁divide	-9740
▁legit	-9741
▁sectors	-9742
▁atmospheric	-9743
▁systematic	-9744
▁absorption	-9745
inery	-9746
▁numer	-9747
▁shoes	-9748
owered	-9749
▁attempted	-9750
▁PL	-9751
▁speaker	-9752
quiry	-9753
chnology	-9754
1:	-9755
▁candidates	-9756
▁resemb	-9757
▁Hu	-9758
terior	-9759
▁Death	-9760
rint	-9761
▁adolescents	-9762
▁16,	-9763
▁@	-9764
ivation	-9765
▁exclud	-9766
▁anthrop	-9767
▁aster	-9768
▁enhanced	-9769
▁shares	-9770
▁pneum	-9771
ught	-9772
▁painted	-9773
▁awarded	-9774
▁Besides	-9775
▁workshop	-9776
▁synthetic	-9777
Os	-9778
oa	-9779
dess	-9780
▁seiz	-9781
▁hazards	-9782
▁kilometers	-9783
▁guarantee	-9784
▁pink	-9785
▁deposits	-9786
▁pine	-9787
▁Chall	-9788
▁eaten	-9789
▁confident	-9790
▁hung	-9791
▁Samuel	-9792
▁horizontal	-9793
▁precisely	-9794
▁Core	-9795
▁penal	-9796
▁appointment	-9797
even	-9798
▁blo	-9799
▁Unit	-9800
▁Francis	-9801
rible	-9802
RL	-9803
ivate	-9804
▁fingers	-9805
▁desk	-9806
,’	-9807
ayer	-9808
▁revenue	-9809
▁Cit	-9810
▁49	-9811
▁reflection	-9812
▁unem	-9813
▁Davis	-9814
iations	-9815
▁Korean	-9816
▁inherent	-9817
▁Club	-9818
Pl	-9819
olds	-9820
▁consuming	-9821
▁Iron	-9822
▁approval	-9823
▁Wisconsin	-9824
▁landing	-9825
▁prolong	-9826
▁Oil	-9827
▁loan	-9828
utical	-9829
▁Ah	-9830
RS	-9831
86	-9832
▁platforms	-9833
▁enzymes	-9834
cled	-9835
▁weaken	-9836
iversary	-9837
▁reh	-9838
▁Harr	-9839
▁predom	-9840
ologic	-9841
▁semi	-9842
▁repet	-9843
▁missions	-9844
▁films	-9845
ders	-9846
▁pose	-9847
▁fiction	-9848
▁amongst	-9849
ques	-9850
engers	-9851
inch	-9852
▁17,	-9853
▁injured	-9854
▁pale	-9855
▁Script	-9856
85	-9857
▁complement	-9858
▁Example	-9859
AF	-9860
▁regime	-9861
TC	-9862
ctors	-9863
▁Du	-9864
▁abundant	-9865
▁Prince	-9866
▁pod	-9867
▁Six	-9868
▁civilization	-9869
▁valley	-9870
▁Behavior	-9871
nings	-9872
▁inev	-9873
ictions	-9874
▁myster	-9875
▁selling	-9876
▁submit	-9877
imensional	-9878
–19	-9879
burn	-9880
▁Darwin	-9881
▁Bush	-9882
▁Corps	-9883
▁Month	-9884
▁bull	-9885
▁Index	-9886
▁stretch	-9887
▁Thursday	-9888
pre	-9889
▁reflects	-9890
▁ul	-9891
▁perpet	-9892
▁strains	-9893
▁metabolic	-9894
▁Cut	-9895
▁hier	-9896
▁seal	-9897
▁teaches	-9898
▁update	-9899
▁sensory	-9900
▁throw	-9901
▁Large	-9902
▁brothers	-9903
▁incom	-9904
▁Tuesday	-9905
▁width	-9906
▁speakers	-9907
▁Nation	-9908
▁vaccination	-9909
Be	-9910
▁dying	-9911
▁proud	-9912
▁Case	-9913
▁nodes	-9914
▁tracking	-9915
▁offices	-9916
▁parks	-9917
▁Types	-9918
ubble	-9919
▁weekly	-9920
▁Years	-9921
▁Tree	-9922
DL	-9923
▁welcome	-9924
▁occasionally	-9925
▁loud	-9926
▁attended	-9927
▁Sep	-9928
▁Discuss	-9929
▁worksheets	-9930
▁busy	-9931
▁partial	-9932
▁definitions	-9933
▁highlights	-9934
▁Bol	-9935
▁Path	-9936
▁13,	-9937
berries	-9938
▁chamber	-9939
▁collapse	-9940
▁Explore	-9941
▁Five	-9942
original	-9943
▁shade	-9944
▁1999	-9945
rons	-9946
▁pock	-9947
▁prol	-9948
▁Diabetes	-9949
▁nic	-9950
elihood	-9951
▁reputation	-9952
ethe	-9953
yan	-9954
▁47	-9955
▁Centers	-9956
▁factory	-9957
▁subsid	-9958
▁Carib	-9959
▁nursing	-9960
▁bell	-9961
▁receives	-9962
▁Poland	-9963
thodox	-9964
▁camps	-9965
▁Wednesday	-9966
▁conclusions	-9967
Pro	-9968
▁avoiding	-9969
▁physicians	-9970
▁fan	-9971
ushing	-9972
▁striking	-9973
pany	-9974
▁1900	-9975
acle	-9976
▁neural	-9977
▁collecting	-9978
IST	-9979
▁analyses	-9980
▁3)	-9981
▁displays	-9982
▁assessments	-9983
▁disag	-9984
▁Han	-9985
BD	-9986
▁2008.	-9987
▁cyl	-9988
▁consequence	-9989
oting	-9990
▁punishment	-9991
▁appreciate	-9992
▁emit	-9993
▁cave	-9994
▁Dun	-9995
▁flavor	-9996
▁bite	-9997
isting	-9998
▁Chemical	-9999
isticated	-10000
▁Na	-10001
Ref	-10002
▁implementing	-10003
fire	-10004
step	-10005
▁Hitler	-10006
▁thirty	-10007
▁Gre	-10008
▁edges	-10009
▁Ontario	-10010
▁Nep	-10011
▁rent	-10012
▁gentle	-10013
▁struck	-10014
▁athletes	-10015
-15	-10016
▁Opt	-10017
healthy	-10018
▁Ele	-10019
▁Fa	-10020
▁Published	-10021
▁verte	-10022
isition	-10023
▁producers	-10024
▁Qur	-10025
▁vag	-10026
▁suggesting	-10027
▁fatal	-10028
edu	-10029
iac	-10030
▁Trade	-10031
▁predators	-10032
yard	-10033
igible	-10034
▁ber	-10035
▁reasoning	-10036
▁prescription	-10037
▁elections	-10038
▁evaluated	-10039
▁adoption	-10040
▁murder	-10041
▁imagination	-10042
ocial	-10043
you	-10044
▁bullying	-10045
▁Linux	-10046
▁Afghan	-10047
▁consistently	-10048
▁13.	-10049
▁broader	-10050
▁multipl	-10051
PD	-10052
▁Luther	-10053
▁schem	-10054
▁consisting	-10055
300	-10056
▁monthly	-10057
▁beet	-10058
▁Nevertheless	-10059
▁STEM	-10060
▁potassium	-10061
▁Carl	-10062
obic	-10063
▁codes	-10064
▁Soft	-10065
▁tribe	-10066
▁stems	-10067
▁enzyme	-10068
▁Eu	-10069
aze	-10070
▁attributes	-10071
▁Cold	-10072
▁finance	-10073
▁philos	-10074
▁Jefferson	-10075
▁abundance	-10076
▁memories	-10077
▁velocity	-10078
▁Exec	-10079
▁toxins	-10080
arios	-10081
▁Netherlands	-10082
about	-10083
▁Has	-10084
jud	-10085
▁settlers	-10086
iph	-10087
stic	-10088
▁2016.	-10089
inates	-10090
▁Patients	-10091
▁retail	-10092
▁somewhere	-10093
emor	-10094
▁Hop	-10095
▁valve	-10096
bul	-10097
conn	-10098
▁Hur	-10099
▁trail	-10100
▁recall	-10101
▁gray	-10102
▁robots	-10103
▁boundary	-10104
43	-10105
▁GDP	-10106
▁pest	-10107
▁Species	-10108
enh	-10109
▁Carbon	-10110
otion	-10111
▁pediatric	-10112
▁2009,	-10113
▁historians	-10114
▁entrance	-10115
▁WHO	-10116
▁celebration	-10117
▁99	-10118
▁Kansas	-10119
LS	-10120
▁ADHD	-10121
imen	-10122
▁empire	-10123
▁participating	-10124
▁founder	-10125
omer	-10126
▁attacked	-10127
osaur	-10128
▁dynamics	-10129
▁Transport	-10130
▁Victoria	-10131
▁loop	-10132
di	-10133
▁circular	-10134
▁drops	-10135
▁sovere	-10136
▁UC	-10137
▁outline	-10138
▁Pay	-10139
▁meter	-10140
uclear	-10141
▁cloth	-10142
▁retain	-10143
▁mini	-10144
▁vice	-10145
aceutical	-10146
▁Currently	-10147
▁Ten	-10148
▁Ak	-10149
▁broadcast	-10150
To	-10151
owa	-10152
▁phon	-10153
aping	-10154
▁partly	-10155
▁wake	-10156
▁Physics	-10157
reshold	-10158
▁likelihood	-10159
▁utilized	-10160
ersion	-10161
▁molecule	-10162
▁bladder	-10163
▁adjacent	-10164
▁BM	-10165
insula	-10166
▁%	-10167
erb	-10168
▁Basic	-10169
▁spark	-10170
▁monument	-10171
▁recommends	-10172
▁worn	-10173
▁rom	-10174
antine	-10175
▁organism	-10176
orious	-10177
▁toile	-10178
▁fitness	-10179
▁convenient	-10180
yes	-10181
otten	-10182
economic	-10183
42	-10184
▁pond	-10185
▁charges	-10186
▁antibodies	-10187
alo	-10188
phones	-10189
▁Additional	-10190
▁patent	-10191
dominal	-10192
TML	-10193
▁lasting	-10194
BI	-10195
▁duties	-10196
▁Buddh	-10197
compass	-10198
▁submitted	-10199
▁mi	-10200
▁twelve	-10201
Ad	-10202
▁Sher	-10203
▁heal	-10204
▁struggling	-10205
umns	-10206
▁Perform	-10207
▁10%	-10208
▁deadly	-10209
rust	-10210
▁Cra	-10211
▁absorbed	-10212
▁thoroughly	-10213
▁Begin	-10214
▁economics	-10215
▁distinction	-10216
▁wage	-10217
▁morph	-10218
PDF	-10219
itate	-10220
▁reservoir	-10221
▁Num	-10222
▁Cape	-10223
▁indoor	-10224
▁forever	-10225
▁Things	-10226
enti	-10227
▁flooding	-10228
iative	-10229
▁influenza	-10230
▁Along	-10231
▁crimes	-10232
▁Ce	-10233
aning	-10234
omon	-10235
commun	-10236
▁arrive	-10237
quarters	-10238
angel	-10239
▁tendency	-10240
▁Hon	-10241
itus	-10242
▁qualified	-10243
▁Give	-10244
▁43	-10245
pdf	-10246
▁boxes	-10247
ronaut	-10248
raid	-10249
▁CN	-10250
▁tolerance	-10251
▁Guid	-10252
iosity	-10253
▁therapeutic	-10254
ipation	-10255
▁Indonesia	-10256
▁Rose	-10257
▁Anne	-10258
▁pests	-10259
▁meteor	-10260
▁colored	-10261
▁unexpected	-10262
▁Mathemat	-10263
▁connecting	-10264
▁administrative	-10265
▁fertilizer	-10266
▁discom	-10267
All	-10268
▁axis	-10269
▁Mes	-10270
iking	-10271
pring	-10272
▁plasma	-10273
▁Hay	-10274
▁neuro	-10275
ctu	-10276
▁carbohydrates	-10277
▁gran	-10278
▁featured	-10279
inea	-10280
arians	-10281
illance	-10282
▁returning	-10283
▁arc	-10284
▁encourages	-10285
DR	-10286
▁diarrhea	-10287
▁Quality	-10288
▁appl	-10289
▁freely	-10290
burgh	-10291
▁Bit	-10292
▁fibers	-10293
▁assessed	-10294
▁PA	-10295
▁tanks	-10296
▁Urban	-10297
▁traveling	-10298
▁Taylor	-10299
▁drives	-10300
▁impressive	-10301
▁independently	-10302
69	-10303
▁prisoners	-10304
▁WW	-10305
▁spelling	-10306
▁Philosoph	-10307
trans	-10308
▁Democratic	-10309
▁2008,	-10310
▁Grant	-10311
▁cycl	-10312
▁refugees	-10313
▁100%	-10314
▁Sex	-10315
▁Show	-10316
ogram	-10317
▁mapping	-10318
ja	-10319
▁800	-10320
▁prevented	-10321
▁germ	-10322
▁Ni	-10323
▁Bridge	-10324
action	-10325
▁Scottish	-10326
anol	-10327
▁libraries	-10328
pert	-10329
▁onset	-10330
▁designing	-10331
ammad	-10332
▁prone	-10333
ttes	-10334
thood	-10335
BA	-10336
ECT	-10337
▁Healthy	-10338
▁humidity	-10339
ooked	-10340
▁thrive	-10341
▁mutations	-10342
▁Rub	-10343
▁Lower	-10344
nea	-10345
esthetic	-10346
▁configuration	-10347
iki	-10348
▁nort	-10349
That	-10350
▁seasonal	-10351
▁Emperor	-10352
▁tourism	-10353
▁Depression	-10354
▁WH	-10355
▁partially	-10356
UC	-10357
▁affordable	-10358
▁confused	-10359
▁excited	-10360
▁subsequently	-10361
▁legacy	-10362
▁sophisticated	-10363
▁abol	-10364
aver	-10365
case	-10366
▁misc	-10367
▁orientation	-10368
law	-10369
▁meditation	-10370
▁democratic	-10371
▁hide	-10372
▁borders	-10373
▁keys	-10374
generation	-10375
▁League	-10376
▁Sab	-10377
▁Tro	-10378
▁publ	-10379
▁Issue	-10380
▁cheese	-10381
▁Duke	-10382
▁Python	-10383
▁anat	-10384
▁modeling	-10385
flammatory	-10386
▁extinction	-10387
atile	-10388
ergarten	-10389
See	-10390
ylon	-10391
▁intensive	-10392
iances	-10393
ineteenth	-10394
▁upl	-10395
▁completion	-10396
onin	-10397
▁placing	-10398
effective	-10399
▁Ku	-10400
ulates	-10401
ERS	-10402
▁gaps	-10403
▁golden	-10404
▁earned	-10405
▁routes	-10406
▁safer	-10407
azz	-10408
▁64	-10409
atre	-10410
▁buck	-10411
▁intra	-10412
▁Intellig	-10413
▁Yellow	-10414
▁affairs	-10415
▁FOR	-10416
velength	-10417
▁Nazi	-10418
▁21,	-10419
▁carries	-10420
▁Industrial	-10421
▁operational	-10422
ermat	-10423
Le	-10424
▁19,	-10425
▁Question	-10426
▁nerves	-10427
▁promising	-10428
▁protest	-10429
▁Mos	-10430
III	-10431
atories	-10432
▁(10	-10433
▁fluids	-10434
▁packaging	-10435
▁Depending	-10436
Bl	-10437
▁2007.	-10438
▁Opp	-10439
FC	-10440
▁Particip	-10441
▁avoided	-10442
▁Sens	-10443
▁milit	-10444
ceeding	-10445
▁binding	-10446
▁ride	-10447
▁Jup	-10448
▁1998	-10449
▁Lt	-10450
▁dow	-10451
▁beam	-10452
▁Educational	-10453
▁bark	-10454
▁destination	-10455
▁electronics	-10456
▁Dougl	-10457
▁Tax	-10458
▁Materials	-10459
▁depr	-10460
dated	-10461
▁Poll	-10462
▁acquire	-10463
”)	-10464
▁speeds	-10465
▁entreprene	-10466
▁organisations	-10467
▁appet	-10468
vy	-10469
▁fles	-10470
GS	-10471
▁inspiration	-10472
▁bills	-10473
▁hip	-10474
EST	-10475
▁177	-10476
▁AIDS	-10477
▁Rand	-10478
atin	-10479
arded	-10480
▁allergy	-10481
▁shallow	-10482
▁investments	-10483
ecessary	-10484
▁Flu	-10485
pm	-10486
rium	-10487
▁notable	-10488
▁council	-10489
▁Prime	-10490
▁mirror	-10491
▁22,	-10492
▁distract	-10493
▁socio	-10494
▁searching	-10495
▁discl	-10496
arts	-10497
▁Thank	-10498
▁Teacher	-10499
▁Wars	-10500
▁altered	-10501
▁Front	-10502
▁feather	-10503
▁Cust	-10504
nedy	-10505
▁treaty	-10506
▁opens	-10507
▁Caribbean	-10508
▁Reserve	-10509
▁Franklin	-10510
▁Deep	-10511
storm	-10512
▁fault	-10513
▁Requ	-10514
afe	-10515
anas	-10516
▁30,	-10517
▁bin	-10518
▁historian	-10519
▁160	-10520
▁pursue	-10521
▁pou	-10522
▁Imag	-10523
▁Plants	-10524
velt	-10525
▁tremend	-10526
▁surprised	-10527
▁defines	-10528
▁Comb	-10529
▁discomfort	-10530
▁Primary	-10531
▁horn	-10532
alog	-10533
▁washing	-10534
▁Video	-10535
forced	-10536
▁sacrifice	-10537
▁Bor	-10538
▁Generally	-10539
▁deliber	-10540
▁Body	-10541
security	-10542
▁manufacturer	-10543
▁publications	-10544
doors	-10545
▁intr	-10546
▁mart	-10547
▁Lind	-10548
▁leak	-10549
▁rats	-10550
gebra	-10551
▁therapies	-10552
oning	-10553
▁torn	-10554
▁educated	-10555
▁intelligent	-10556
▁render	-10557
▁NS	-10558
arter	-10559
▁vine	-10560
▁jurisd	-10561
rison	-10562
▁Usually	-10563
▁Sac	-10564
▁rebu	-10565
▁irregular	-10566
67	-10567
▁Win	-10568
▁courage	-10569
adequ	-10570
verages	-10571
▁hill	-10572
▁NC	-10573
▁drainage	-10574
▁000	-10575
arium	-10576
abilitation	-10577
▁inflation	-10578
▁arranged	-10579
▁Until	-10580
▁Es	-10581
▁Os	-10582
▁vector	-10583
▁scal	-10584
▁defects	-10585
▁24,	-10586
▁toys	-10587
▁export	-10588
▁refrig	-10589
▁atomic	-10590
▁importantly	-10591
▁Balt	-10592
▁magnesium	-10593
▁organisation	-10594
▁Choose	-10595
▁enabling	-10596
▁bind	-10597
▁expressions	-10598
▁counties	-10599
▁representatives	-10600
▁promotes	-10601
swered	-10602
▁fallen	-10603
▁explored	-10604
▁resolve	-10605
▁inflammatory	-10606
▁25,	-10607
▁pleasure	-10608
▁genus	-10609
▁occupation	-10610
▁AT	-10611
▁gear	-10612
▁verse	-10613
▁Jane	-10614
▁Certain	-10615
▁jaw	-10616
▁adaptation	-10617
chron	-10618
▁Always	-10619
▁Romans	-10620
▁Leon	-10621
▁Fram	-10622
▁5:	-10623
▁algae	-10624
▁Inv	-10625
income	-10626
▁storms	-10627
▁phenomena	-10628
▁illustrated	-10629
▁artif	-10630
▁Related	-10631
▁shouldn	-10632
▁distances	-10633
▁injection	-10634
▁Rout	-10635
▁femin	-10636
▁concentrated	-10637
▁demonstrates	-10638
▁Anim	-10639
▁labels	-10640
My	-10641
▁Facts	-10642
▁coral	-10643
▁artistic	-10644
▁gathering	-10645
▁Results	-10646
psy	-10647
▁14.	-10648
▁comparing	-10649
▁controversial	-10650
▁methane	-10651
▁telescope	-10652
▁Greg	-10653
▁ech	-10654
▁conducting	-10655
▁elabor	-10656
osevelt	-10657
▁classrooms	-10658
▁yes	-10659
▁governor	-10660
▁Recent	-10661
▁menu	-10662
▁Site	-10663
/10.	-10664
▁grace	-10665
inian	-10666
64	-10667
aft	-10668
▁nick	-10669
▁CR	-10670
arer	-10671
bestos	-10672
▁2013,	-10673
▁cluster	-10674
▁PH	-10675
iatric	-10676
ulture	-10677
3),	-10678
orney	-10679
▁RE	-10680
▁Pap	-10681
urated	-10682
essional	-10683
ressing	-10684
▁Tib	-10685
▁scenarios	-10686
▁stakeholders	-10687
pson	-10688
▁sle	-10689
anium	-10690
▁argues	-10691
▁Conc	-10692
▁cerv	-10693
▁alike	-10694
▁gums	-10695
▁portray	-10696
asses	-10697
▁talks	-10698
gged	-10699
▁mystery	-10700
▁bits	-10701
UM	-10702
▁epidemic	-10703
▁Creative	-10704
▁Census	-10705
▁administered	-10706
▁Period	-10707
▁Ray	-10708
yo	-10709
omal	-10710
edge	-10711
1–	-10712
▁census	-10713
▁Account	-10714
▁jew	-10715
▁execution	-10716
▁progression	-10717
▁embedded	-10718
▁undergo	-10719
▁mobility	-10720
▁indicating	-10721
▁hazardous	-10722
▁progressive	-10723
▁multip	-10724
▁Advanced	-10725
▁commands	-10726
▁traditionally	-10727
mic	-10728
▁enabled	-10729
▁cope	-10730
▁hypert	-10731
▁afraid	-10732
▁liberal	-10733
▁accomplished	-10734
▁Magn	-10735
▁anten	-10736
▁asks	-10737
▁guns	-10738
▁decreases	-10739
▁cameras	-10740
▁sequences	-10741
rip	-10742
▁Trump	-10743
front	-10744
▁bearing	-10745
▁indicators	-10746
▁Architect	-10747
emet	-10748
▁originated	-10749
iotic	-10750
▁harsh	-10751
▁Evolution	-10752
▁Mit	-10753
▁transactions	-10754
▁Love	-10755
▁Stone	-10756
▁Saturday	-10757
▁immunity	-10758
▁coins	-10759
nals	-10760
▁Gir	-10761
▁Kennedy	-10762
lings	-10763
▁Ger	-10764
ishers	-10765
▁Draw	-10766
▁synthesis	-10767
▁OR	-10768
▁chip	-10769
▁Knowledge	-10770
▁sampling	-10771
PP	-10772
istically	-10773
▁Rog	-10774
▁capability	-10775
▁perspectives	-10776
▁Bow	-10777
▁Lar	-10778
▁pushed	-10779
▁Jean	-10780
▁transformed	-10781
▁expedition	-10782
▁Bad	-10783
▁anniversary	-10784
doi	-10785
iors	-10786
rared	-10787
▁antibiotic	-10788
agle	-10789
▁reson	-10790
▁rubber	-10791
▁generating	-10792
▁continuously	-10793
▁utilize	-10794
rels	-10795
▁contrad	-10796
▁Monitor	-10797
▁Very	-10798
▁1800	-10799
▁Marg	-10800
ulsion	-10801
coin	-10802
▁relatives	-10803
▁Therapy	-10804
▁2021	-10805
▁(3)	-10806
▁vomiting	-10807
▁malaria	-10808
▁thickness	-10809
▁Throughout	-10810
▁28,	-10811
▁Germans	-10812
▁Eval	-10813
▁fertility	-10814
▁accompany	-10815
▁distinctive	-10816
▁perf	-10817
▁preservation	-10818
vol	-10819
▁Roosevelt	-10820
person	-10821
▁Cro	-10822
▁diagnose	-10823
▁overweight	-10824
formed	-10825
▁spir	-10826
▁contributes	-10827
▁Arthur	-10828
▁Jupiter	-10829
▁Republican	-10830
▁exch	-10831
▁calculations	-10832
At	-10833
▁weapon	-10834
onomous	-10835
▁Sa	-10836
▁dangers	-10837
▁Fall	-10838
▁columns	-10839
▁brid	-10840
▁gland	-10841
▁GP	-10842
grim	-10843
▁pap	-10844
▁Prior	-10845
▁crust	-10846
▁precision	-10847
▁termin	-10848
▁dialogue	-10849
▁mercury	-10850
heastern	-10851
▁frog	-10852
teenth	-10853
▁Imm	-10854
▁Barb	-10855
,'	-10856
run	-10857
▁5-	-10858
▁overwhelming	-10859
▁Mission	-10860
ternoon	-10861
▁2015,	-10862
▁mira	-10863
▁Archae	-10864
▁persistent	-10865
igm	-10866
98	-10867
▁answered	-10868
▁Series	-10869
▁HP	-10870
▁hepat	-10871
hr	-10872
▁Protest	-10873
iy	-10874
▁Taking	-10875
apore	-10876
icting	-10877
▁Nich	-10878
cal	-10879
vae	-10880
▁Nap	-10881
imedia	-10882
▁Pict	-10883
▁extraordinary	-10884
▁Utah	-10885
ocaust	-10886
asal	-10887
▁tied	-10888
▁territories	-10889
▁41	-10890
▁stops	-10891
▁regen	-10892
▁rotation	-10893
▁hang	-10894
▁employers	-10895
▁Communication	-10896
▁intermedi	-10897
▁empower	-10898
▁Represent	-10899
oved	-10900
▁compliance	-10901
▁phrases	-10902
▁Fem	-10903
▁influential	-10904
▁Tips	-10905
▁preschool	-10906
▁lastname	-10907
lear	-10908
▁caffe	-10909
▁Sustainable	-10910
▁yard	-10911
▁symb	-10912
▁devoted	-10913
▁Kim	-10914
▁filters	-10915
▁°	-10916
ropriate	-10917
▁SM	-10918
esy	-10919
▁accessed	-10920
feeding	-10921
▁mistake	-10922
▁swallow	-10923
▁recycled	-10924
▁situated	-10925
▁reproduction	-10926
▁(8	-10927
agger	-10928
▁Hung	-10929
icides	-10930
▁2007,	-10931
hops	-10932
▁Sweden	-10933
▁Edition	-10934
warf	-10935
▁priest	-10936
grad	-10937
▁threshold	-10938
▁distinguished	-10939
rell	-10940
owners	-10941
Se	-10942
▁por	-10943
this	-10944
▁Job	-10945
thal	-10946
▁sperm	-10947
yt	-10948
sized	-10949
▁2017.	-10950
high	-10951
▁frozen	-10952
▁seasons	-10953
▁lift	-10954
▁thorough	-10955
▁circles	-10956
role	-10957
▁namely	-10958
▁rocket	-10959
istent	-10960
wall	-10961
emetery	-10962
▁magnet	-10963
▁mes	-10964
▁von	-10965
▁NG	-10966
uble	-10967
▁1940	-10968
hester	-10969
▁pathways	-10970
▁Analy	-10971
▁sustained	-10972
▁gau	-10973
▁ic	-10974
▁categor	-10975
uty	-10976
▁rejected	-10977
De	-10978
oil	-10979
▁provisions	-10980
2:	-10981
asures	-10982
▁writings	-10983
stration	-10984
▁counterpart	-10985
orks	-10986
▁locally	-10987
bro	-10988
▁Belg	-10989
▁tired	-10990
hedral	-10991
▁Visual	-10992
▁skull	-10993
acon	-10994
▁instant	-10995
erness	-10996
▁protects	-10997
▁lunch	-10998
igration	-10999
▁ensures	-11000
▁educate	-11001
▁Ark	-11002
▁Miller	-11003
▁26,	-11004
▁wavelength	-11005
▁Nig	-11006
▁poems	-11007
-200	-11008
▁sel	-11009
osure	-11010
▁lact	-11011
▁executed	-11012
▁immigration	-11013
▁constitutional	-11014
▁56	-11015
▁23,	-11016
▁integral	-11017
auc	-11018
school	-11019
▁Mountains	-11020
▁thinks	-11021
▁volumes	-11022
▁Build	-11023
▁prospect	-11024
inance	-11025
▁Prize	-11026
▁rend	-11027
▁15.	-11028
Re	-11029
iley	-11030
▁advertising	-11031
▁Resource	-11032
▁genetically	-11033
uv	-11034
▁EM	-11035
▁IC	-11036
▁Ban	-11037
▁inequality	-11038
fold	-11039
▁hunger	-11040
dimensional	-11041
▁tape	-11042
▁Amendment	-11043
▁chron	-11044
▁matrix	-11045
▁Credit	-11046
type	-11047
omatic	-11048
rophic	-11049
▁Summer	-11050
▁criticism	-11051
▁steady	-11052
▁Independence	-11053
▁inclusion	-11054
▁palm	-11055
▁galaxy	-11056
ivals	-11057
▁invited	-11058
400	-11059
▁metres	-11060
▁hills	-11061
▁emission	-11062
gered	-11063
▁2-	-11064
hard	-11065
▁20%	-11066
▁Dat	-11067
▁Gil	-11068
▁defeat	-11069
▁permitted	-11070
▁gains	-11071
▁Tai	-11072
2-	-11073
agus	-11074
▁Collect	-11075
▁Az	-11076
▁tracks	-11077
▁stiff	-11078
▁confront	-11079
▁Pear	-11080
▁Cultural	-11081
▁Benefits	-11082
▁tubes	-11083
mn	-11084
▁FA	-11085
▁HTML	-11086
▁Movement	-11087
fare	-11088
▁acceptance	-11089
▁inspect	-11090
leton	-11091
essee	-11092
▁doctrine	-11093
▁Observ	-11094
ancial	-11095
▁suspected	-11096
▁Was	-11097
▁plaque	-11098
▁solely	-11099
▁satellites	-11100
▁festival	-11101
reement	-11102
▁Bot	-11103
egu	-11104
othy	-11105
▁poorly	-11106
▁protocols	-11107
▁conversations	-11108
▁dollar	-11109
▁expenses	-11110
▁Relations	-11111
▁Chap	-11112
▁equations	-11113
▁incredible	-11114
ART	-11115
▁100,000	-11116
▁explaining	-11117
▁genetics	-11118
develop	-11119
▁discoveries	-11120
▁damaging	-11121
▁PR	-11122
▁rear	-11123
▁brill	-11124
▁Rus	-11125
▁reserves	-11126
▁181	-11127
▁loyal	-11128
aki	-11129
▁extrem	-11130
▁Philippines	-11131
▁apple	-11132
arth	-11133
▁boards	-11134
▁diver	-11135
▁hardly	-11136
uine	-11137
▁foster	-11138
▁Virt	-11139
▁stimulate	-11140
▁Muh	-11141
▁essence	-11142
▁tech	-11143
▁texture	-11144
▁pries	-11145
▁filling	-11146
aus	-11147
▁Rain	-11148
▁EN	-11149
▁fate	-11150
▁restored	-11151
▁segment	-11152
tte	-11153
▁zinc	-11154
▁spell	-11155
▁Dur	-11156
▁Rod	-11157
sequently	-11158
▁extraction	-11159
idae	-11160
▁nurse	-11161
▁potatoes	-11162
▁coordination	-11163
atching	-11164
▁Lesson	-11165
▁Dor	-11166
▁crash	-11167
▁deleg	-11168
▁Diagn	-11169
▁herbs	-11170
▁2014,	-11171
▁supplied	-11172
▁vacuum	-11173
▁Pit	-11174
▁severely	-11175
▁commod	-11176
asa	-11177
▁Impact	-11178
▁Louisiana	-11179
▁groundwater	-11180
▁encompass	-11181
▁Cham	-11182
anna	-11183
▁incredibly	-11184
iolet	-11185
▁1997	-11186
▁obviously	-11187
▁disposal	-11188
cm	-11189
▁Radio	-11190
▁casual	-11191
▁ruling	-11192
▁headaches	-11193
▁Publishing	-11194
▁Smart	-11195
sun	-11196
ausea	-11197
▁distribut	-11198
▁Freder	-11199
illy	-11200
acher	-11201
▁quote	-11202
▁cardiac	-11203
jo	-11204
▁attain	-11205
▁stressed	-11206
▁timing	-11207
▁obser	-11208
▁specimens	-11209
▁heter	-11210
▁yields	-11211
enders	-11212
▁Stress	-11213
TA	-11214
▁acknowledge	-11215
▁revolutionary	-11216
kal	-11217
ceeds	-11218
▁Bon	-11219
▁strand	-11220
3/	-11221
gr	-11222
▁Hispan	-11223
▁Effects	-11224
▁economies	-11225
▁succeeded	-11226
▁Fri	-11227
▁uncertainty	-11228
entieth	-11229
▁emerge	-11230
imeter	-11231
spring	-11232
▁Bru	-11233
▁realistic	-11234
▁organize	-11235
▁occurrence	-11236
These	-11237
▁illustrate	-11238
▁gastro	-11239
▁dehyd	-11240
▁chapters	-11241
▁prostate	-11242
▁shopping	-11243
Hz	-11244
▁imperial	-11245
▁substr	-11246
▁Hawaii	-11247
▁discussing	-11248
ML	-11249
▁lying	-11250
▁meets	-11251
▁SO	-11252
ognition	-11253
▁Political	-11254
▁specialists	-11255
isphere	-11256
▁Compar	-11257
▁Ball	-11258
rup	-11259
uting	-11260
▁contrary	-11261
▁reserve	-11262
▁facial	-11263
▁relieve	-11264
▁disasters	-11265
▁investors	-11266
laration	-11267
▁Definition	-11268
▁58	-11269
ysical	-11270
sub	-11271
▁Armen	-11272
▁Arabic	-11273
giving	-11274
ibli	-11275
▁Collection	-11276
▁Veter	-11277
▁markers	-11278
▁Marx	-11279
▁disappear	-11280
▁stuck	-11281
▁Singapore	-11282
2/	-11283
▁Kat	-11284
neg	-11285
emed	-11286
▁Freedom	-11287
▁wra	-11288
▁racism	-11289
dis	-11290
▁infin	-11291
▁Exercise	-11292
▁bowel	-11293
▁blacks	-11294
▁declined	-11295
▁pipes	-11296
▁overse	-11297
ESS	-11298
seud	-11299
▁digit	-11300
▁investigated	-11301
▁referring	-11302
iro	-11303
▁aids	-11304
▁makers	-11305
who	-11306
▁Bob	-11307
▁sket	-11308
▁Moh	-11309
▁cher	-11310
▁masses	-11311
▁54	-11312
ordan	-11313
▁devastating	-11314
▁implies	-11315
▁shield	-11316
inflammatory	-11317
▁Zh	-11318
▁accordance	-11319
anth	-11320
▁Includ	-11321
iplinary	-11322
▁telephone	-11323
▁cooked	-11324
▁belt	-11325
▁Imper	-11326
ko	-11327
▁Kentucky	-11328
▁Cert	-11329
aug	-11330
▁Clark	-11331
▁traveled	-11332
▁Lic	-11333
▁applicable	-11334
rets	-11335
▁Boy	-11336
▁Pil	-11337
▁combust	-11338
▁voting	-11339
▁receptors	-11340
▁Golden	-11341
▁graphic	-11342
icked	-11343
▁abroad	-11344
▁explos	-11345
▁Ib	-11346
▁Wel	-11347
ez	-11348
igma	-11349
▁Sche	-11350
weet	-11351
▁Getting	-11352
▁Tennessee	-11353
onymous	-11354
▁Captain	-11355
▁galaxies	-11356
▁outdoors	-11357
osity	-11358
▁collaborative	-11359
▁soap	-11360
▁Memorial	-11361
Co	-11362
▁aquatic	-11363
▁Team	-11364
▁bulk	-11365
▁aggreg	-11366
▁Personal	-11367
▁associations	-11368
▁colleges	-11369
▁programmes	-11370
▁payments	-11371
▁newspapers	-11372
▁architectural	-11373
▁bugs	-11374
▁vow	-11375
▁guides	-11376
rac	-11377
▁afternoon	-11378
▁Ford	-11379
arest	-11380
orient	-11381
▁Eating	-11382
▁appetite	-11383
▁enemies	-11384
▁assignments	-11385
▁Bird	-11386
▁irre	-11387
monary	-11388
▁Fisher	-11389
▁patri	-11390
▁departments	-11391
eav	-11392
▁2,000	-11393
▁Diego	-11394
▁Bah	-11395
thening	-11396
▁Syria	-11397
riction	-11398
otechnology	-11399
emics	-11400
▁wages	-11401
▁picked	-11402
▁Pow	-11403
▁moments	-11404
ocent	-11405
▁arrangement	-11406
▁incorrect	-11407
▁yoga	-11408
▁uter	-11409
▁Hunt	-11410
▁precious	-11411
▁compat	-11412
▁timber	-11413
makers	-11414
▁Albert	-11415
▁Fun	-11416
hour	-11417
▁dinner	-11418
▁flowing	-11419
keley	-11420
▁que	-11421
▁airport	-11422
ikes	-11423
▁warmer	-11424
phal	-11425
FS	-11426
▁globally	-11427
▁alphabet	-11428
▁pathogens	-11429
▁Buddhist	-11430
▁node	-11431
▁tang	-11432
▁shipping	-11433
▁Ra	-11434
▁1%	-11435
▁loans	-11436
▁dictionary	-11437
▁overs	-11438
yll	-11439
▁Innov	-11440
▁stack	-11441
▁Defense	-11442
▁announce	-11443
keys	-11444
▁behalf	-11445
▁deterior	-11446
osphere	-11447
rology	-11448
▁patch	-11449
▁abdominal	-11450
▁surre	-11451
▁firms	-11452
59	-11453
▁designers	-11454
ontin	-11455
▁atom	-11456
▁Overall	-11457
▁compassion	-11458
▁manufactured	-11459
ographer	-11460
▁Tele	-11461
▁Images	-11462
ikh	-11463
▁BBC	-11464
orb	-11465
eous	-11466
onto	-11467
▁ignore	-11468
▁attracted	-11469
▁coinc	-11470
onald	-11471
▁bands	-11472
▁dominated	-11473
plete	-11474
▁27,	-11475
▁whilst	-11476
look	-11477
▁rises	-11478
▁pulled	-11479
▁Fle	-11480
▁Foreign	-11481
▁Previous	-11482
▁belonging	-11483
▁whales	-11484
▁yeast	-11485
▁prevalent	-11486
olas	-11487
▁anch	-11488
▁shortly	-11489
▁Sound	-11490
▁ceremony	-11491
▁Ages	-11492
▁aluminum	-11493
▁affil	-11494
letter	-11495
uis	-11496
▁ED	-11497
▁LG	-11498
▁crossing	-11499
▁Archives	-11500
▁subtle	-11501
▁correlation	-11502
TER	-11503
▁cataly	-11504
▁Executive	-11505
▁frequencies	-11506
4),	-11507
orie	-11508
▁analyzing	-11509
▁2006,	-11510
▁Planning	-11511
Figure	-11512
▁fleet	-11513
▁deals	-11514
▁furniture	-11515
▁Kenya	-11516
▁inadequ	-11517
▁simulation	-11518
▁smok	-11519
eared	-11520
▁Anti	-11521
▁catast	-11522
▁politicians	-11523
▁Ty	-11524
lah	-11525
▁Nort	-11526
▁basket	-11527
▁enact	-11528
One	-11529
pers	-11530
▁battles	-11531
▁inver	-11532
▁Treaty	-11533
▁Country	-11534
▁2016,	-11535
▁ought	-11536
eland	-11537
ewater	-11538
▁Around	-11539
▁1-	-11540
▁sau	-11541
▁Astronom	-11542
▁Sri	-11543
▁Market	-11544
inton	-11545
▁Protect	-11546
uns	-11547
▁passive	-11548
▁powered	-11549
▁Confederate	-11550
▁expend	-11551
lyn	-11552
▁football	-11553
▁limiting	-11554
▁Editor	-11555
away	-11556
▁firstname	-11557
▁basics	-11558
▁Historic	-11559
▁precipitation	-11560
▁2006.	-11561
▁prolonged	-11562
▁Prevent	-11563
▁Tok	-11564
▁pupp	-11565
arding	-11566
▁commemor	-11567
▁Declaration	-11568
▁grants	-11569
▁discusses	-11570
▁repeatedly	-11571
▁assumptions	-11572
▁SE	-11573
▁lig	-11574
mouth	-11575
▁substitute	-11576
▁2005,	-11577
ilton	-11578
▁liberty	-11579
vals	-11580
▁astronaut	-11581
▁carcin	-11582
▁Military	-11583
▁pollutants	-11584
▁gaining	-11585
rying	-11586
▁parliament	-11587
▁guided	-11588
▁Cab	-11589
▁Game	-11590
restrial	-11591
attle	-11592
▁breathe	-11593
▁snake	-11594
▁tunnel	-11595
▁Nobel	-11596
▁Ethiop	-11597
▁kings	-11598
▁determination	-11599
non	-11600
▁chains	-11601
▁Tibet	-11602
host	-11603
▁seeks	-11604
▁resilience	-11605
▁syll	-11606
▁Everyone	-11607
▁meanings	-11608
▁Buddha	-11609
▁phases	-11610
▁indicator	-11611
▁Gas	-11612
▁Lawrence	-11613
oen	-11614
▁dispar	-11615
irs	-11616
▁purple	-11617
▁scenes	-11618
▁transf	-11619
conf	-11620
acular	-11621
pton	-11622
osaurs	-11623
▁caffeine	-11624
▁Broad	-11625
▁viewing	-11626
▁Cru	-11627
▁considerably	-11628
▁beta	-11629
▁fears	-11630
▁admitted	-11631
etry	-11632
▁rescue	-11633
▁impression	-11634
▁conjunction	-11635
vity	-11636
▁farmer	-11637
father	-11638
▁determines	-11639
osynt	-11640
▁volcanic	-11641
onent	-11642
▁beds	-11643
▁reads	-11644
▁documentation	-11645
▁Staff	-11646
▁smallest	-11647
▁viable	-11648
pur	-11649
▁chips	-11650
600	-11651
▁respective	-11652
elson	-11653
plan	-11654
cts	-11655
▁Iowa	-11656
▁curious	-11657
▁decom	-11658
▁drawings	-11659
3:	-11660
▁Chemistry	-11661
▁Literature	-11662
abama	-11663
lessly	-11664
▁mim	-11665
▁Maria	-11666
▁consensus	-11667
▁insu	-11668
▁arteries	-11669
▁exclusively	-11670
▁survivors	-11671
▁Lady	-11672
▁cheaper	-11673
▁extends	-11674
▁flies	-11675
▁entity	-11676
angers	-11677
ountered	-11678
▁lunar	-11679
▁ren	-11680
▁Hell	-11681
▁bold	-11682
Con	-11683
lation	-11684
▁participated	-11685
▁predominant	-11686
▁Tour	-11687
▁genuine	-11688
▁servers	-11689
▁staying	-11690
3–	-11691
WS	-11692
▁portions	-11693
iotics	-11694
aret	-11695
▁vapor	-11696
▁pride	-11697
▁larvae	-11698
▁Ros	-11699
▁quad	-11700
tics	-11701
▁mounted	-11702
▁57	-11703
▁drag	-11704
41	-11705
▁Holocaust	-11706
▁Strateg	-11707
▁scheduled	-11708
▁metap	-11709
▁ingredient	-11710
▁Pa	-11711
▁Dub	-11712
▁slide	-11713
▁Youth	-11714
▁Hal	-11715
▁ignored	-11716
▁Affairs	-11717
uming	-11718
▁Commer	-11719
roach	-11720
screen	-11721
▁expense	-11722
▁advised	-11723
ructive	-11724
▁PRO	-11725
olly	-11726
▁ethics	-11727
▁operators	-11728
aund	-11729
graduate	-11730
▁hearts	-11731
▁USDA	-11732
▁Population	-11733
▁evac	-11734
▁singing	-11735
▁Machine	-11736
▁Pas	-11737
▁beer	-11738
▁encountered	-11739
range	-11740
▁ric	-11741
▁lapt	-11742
▁interviews	-11743
govern	-11744
▁1996	-11745
▁mainstream	-11746
▁Tal	-11747
iating	-11748
▁archaeological	-11749
▁bore	-11750
▁recovered	-11751
58	-11752
▁disin	-11753
▁skilled	-11754
▁Aboriginal	-11755
Pub	-11756
▁Games	-11757
▁geographic	-11758
▁Had	-11759
appy	-11760
▁volunteer	-11761
acre	-11762
iser	-11763
▁Eat	-11764
▁Raj	-11765
▁methodology	-11766
onge	-11767
▁peripher	-11768
▁Rap	-11769
▁dishes	-11770
arma	-11771
▁coin	-11772
▁sorts	-11773
▁grave	-11774
shore	-11775
▁campaigns	-11776
▁unnecessary	-11777
▁ger	-11778
sur	-11779
▁Afghanistan	-11780
▁pathway	-11781
▁1995	-11782
▁Diseases	-11783
▁checking	-11784
empl	-11785
▁digestion	-11786
▁Agricultural	-11787
odge	-11788
▁electrom	-11789
▁closest	-11790
▁flesh	-11791
▁updates	-11792
▁Coal	-11793
▁lith	-11794
▁licensed	-11795
▁senses	-11796
abetic	-11797
▁compact	-11798
▁Visit	-11799
▁episode	-11800
▁datas	-11801
▁Polish	-11802
▁costly	-11803
▁16.	-11804
▁counting	-11805
cor	-11806
▁Pi	-11807
▁Indiana	-11808
▁descriptions	-11809
▁responded	-11810
▁bom	-11811
▁mud	-11812
▁neighbors	-11813
▁rou	-11814
▁condem	-11815
▁bottles	-11816
ushes	-11817
97	-11818
annel	-11819
▁machinery	-11820
▁Syn	-11821
▁Fat	-11822
▁Corporation	-11823
▁brick	-11824
▁forb	-11825
▁transparent	-11826
▁info	-11827
isible	-11828
▁Words	-11829
▁6:	-11830
▁rings	-11831
▁attempting	-11832
▁illustrations	-11833
▁fee	-11834
▁fifty	-11835
▁Maybe	-11836
there	-11837
▁Brook	-11838
▁Together	-11839
▁Lie	-11840
▁distress	-11841
▁Total	-11842
▁inherited	-11843
Ps	-11844
▁voices	-11845
▁structured	-11846
▁comprehension	-11847
▁movies	-11848
whe	-11849
activity	-11850
▁Norway	-11851
▁unity	-11852
▁conclude	-11853
▁pharmac	-11854
▁Od	-11855
bral	-11856
ochond	-11857
arched	-11858
phe	-11859
▁Dental	-11860
▁examining	-11861
Do	-11862
▁29,	-11863
▁shadow	-11864
▁Winter	-11865
▁Activity	-11866
▁Character	-11867
spe	-11868
▁odd	-11869
IO	-11870
▁tremendous	-11871
▁cha	-11872
▁obese	-11873
▁checked	-11874
VD	-11875
▁Tu	-11876
▁boats	-11877
▁circuits	-11878
▁Skills	-11879
▁march	-11880
instein	-11881
▁abd	-11882
lob	-11883
▁Persian	-11884
▁automatic	-11885
▁enters	-11886
rage	-11887
▁angry	-11888
olescent	-11889
▁defeated	-11890
▁Stanford	-11891
igs	-11892
▁builds	-11893
ochemical	-11894
▁Regional	-11895
oT	-11896
jamin	-11897
link	-11898
▁retire	-11899
▁Stock	-11900
▁Command	-11901
▁analog	-11902
▁Adams	-11903
▁radioactive	-11904
||1	-11905
ailing	-11906
▁Pediatric	-11907
▁Past	-11908
▁chat	-11909
▁MIT	-11910
▁Clear	-11911
▁angles	-11912
▁Answer	-11913
▁conservative	-11914
▁prophe	-11915
▁databases	-11916
▁navigation	-11917
▁paths	-11918
▁52	-11919
▁Alabama	-11920
▁practitioners	-11921
good	-11922
fol	-11923
▁poisoning	-11924
▁residence	-11925
▁Travel	-11926
▁physiological	-11927
▁unemployment	-11928
▁feat	-11929
estinal	-11930
▁Philip	-11931
▁AB	-11932
▁chim	-11933
▁grey	-11934
▁magic	-11935
human	-11936
▁marginal	-11937
▁66	-11938
isa	-11939
▁headed	-11940
▁nineteenth	-11941
▁Gro	-11942
▁McG	-11943
▁nurses	-11944
▁fulfill	-11945
uese	-11946
▁promoted	-11947
▁historically	-11948
upp	-11949
▁97	-11950
▁Territ	-11951
▁explores	-11952
▁(7	-11953
▁Mechan	-11954
▁cavity	-11955
estion	-11956
▁needle	-11957
▁necessity	-11958
urred	-11959
writing	-11960
▁Hope	-11961
▁glands	-11962
roleum	-11963
▁pitch	-11964
▁Castle	-11965
aying	-11966
uana	-11967
ltry	-11968
▁Join	-11969
▁Immun	-11970
▁bor	-11971
akota	-11972
▁YO	-11973
ibration	-11974
▁Almost	-11975
▁colours	-11976
▁religions	-11977
▁presum	-11978
Us	-11979
▁persec	-11980
,000.	-11981
▁Focus	-11982
osex	-11983
▁fails	-11984
▁biomass	-11985
▁Israeli	-11986
▁Link	-11987
access	-11988
▁aspir	-11989
▁edit	-11990
**	-11991
mill	-11992
▁Share	-11993
▁butt	-11994
▁dign	-11995
▁unto	-11996
▁pollen	-11997
▁comparable	-11998
▁tear	-11999
▁18.	-12000
▁Block	-12001
▁vocal	-12002
▁photography	-12003
▁90%	-12004
post	-12005
▁Tell	-12006
▁Alf	-12007
olecular	-12008
▁pushing	-12009
▁sore	-12010
▁resur	-12011
▁editing	-12012
▁4-	-12013
▁dirt	-12014
▁Hou	-12015
▁disput	-12016
▁edited	-12017
▁Looking	-12018
▁founding	-12019
▁bars	-12020
▁feas	-12021
▁hepatitis	-12022
▁icon	-12023
▁immense	-12024
▁Box	-12025
▁locate	-12026
▁Muhammad	-12027
▁replacing	-12028
▁Financial	-12029
▁compensation	-12030
▁pix	-12031
▁highlighted	-12032
▁68	-12033
lav	-12034
▁Intelligence	-12035
atherine	-12036
▁surveillance	-12037
▁Pier	-12038
▁Easter	-12039
1-	-12040
▁Les	-12041
▁static	-12042
arse	-12043
▁fled	-12044
▁Jordan	-12045
▁institutional	-12046
icut	-12047
▁wealthy	-12048
▁Argent	-12049
jan	-12050
▁Aqu	-12051
▁cer	-12052
▁bay	-12053
▁enterprise	-12054
▁wax	-12055
km	-12056
▁wells	-12057
▁releases	-12058
itored	-12059
▁mines	-12060
▁practicing	-12061
▁Shar	-12062
▁motivated	-12063
▁explosion	-12064
first	-12065
uster	-12066
▁adul	-12067
▁Ps	-12068
▁dozen	-12069
white	-12070
▁certified	-12071
▁mutual	-12072
▁fluctu	-12073
▁Hind	-12074
opathy	-12075
▁Upper	-12076
▁belongs	-12077
▁careg	-12078
▁winning	-12079
▁Leaders	-12080
▁degradation	-12081
▁Cass	-12082
▁floating	-12083
▁alb	-12084
▁ma	-12085
▁SD	-12086
56	-12087
ococc	-12088
▁tempt	-12089
▁Bapt	-12090
▁cannab	-12091
▁imbal	-12092
So	-12093
▁initiated	-12094
▁ions	-12095
▁terminal	-12096
▁personally	-12097
▁biof	-12098
▁veterin	-12099
▁obsc	-12100
▁Kind	-12101
▁hate	-12102
▁tackle	-12103
▁gifts	-12104
▁Authority	-12105
▁wast	-12106
▁premature	-12107
▁Kings	-12108
▁Syd	-12109
▁tender	-12110
▁Evidence	-12111
▁speaks	-12112
▁clusters	-12113
▁caution	-12114
▁practiced	-12115
izational	-12116
▁quantitative	-12117
▁hind	-12118
▁Hong	-12119
inced	-12120
▁bicy	-12121
▁Nurs	-12122
▁passengers	-12123
▁castle	-12124
▁Genesis	-12125
▁crowd	-12126
▁verbal	-12127
asia	-12128
▁beef	-12129
▁fees	-12130
▁heated	-12131
▁decent	-12132
▁artery	-12133
▁fraud	-12134
▁plastics	-12135
zens	-12136
▁80%	-12137
ighters	-12138
▁Trib	-12139
▁Testing	-12140
▁integrate	-12141
ilateral	-12142
▁followers	-12143
▁Si	-12144
tein	-12145
▁Dal	-12146
▁convention	-12147
▁labeled	-12148
▁possession	-12149
▁worried	-12150
▁purchasing	-12151
po	-12152
risk	-12153
▁insulation	-12154
▁brilliant	-12155
▁Ross	-12156
▁directory	-12157
ersed	-12158
▁microbes	-12159
▁introducing	-12160
▁completing	-12161
▁lenses	-12162
▁considerations	-12163
▁relates	-12164
▁Berkeley	-12165
iciency	-12166
▁lining	-12167
▁Patrick	-12168
oths	-12169
eu	-12170
▁sho	-12171
▁coding	-12172
▁workshops	-12173
▁careers	-12174
ationally	-12175
▁talked	-12176
ilty	-12177
▁menstru	-12178
unciation	-12179
▁weren	-12180
▁jet	-12181
▁alien	-12182
▁Joh	-12183
▁cod	-12184
itzerland	-12185
bits	-12186
opt	-12187
▁neighbour	-12188
▁hypertension	-12189
▁Maine	-12190
Eng	-12191
▁arrested	-12192
eton	-12193
AV	-12194
-17	-12195
they	-12196
▁dismiss	-12197
▁rows	-12198
▁geography	-12199
▁exams	-12200
▁demonstration	-12201
▁Buddhism	-12202
▁incidents	-12203
▁CL	-12204
▁equity	-12205
▁consultation	-12206
fat	-12207
▁cro	-12208
▁Whit	-12209
▁cups	-12210
▁triggers	-12211
▁omega	-12212
▁assumption	-12213
iffs	-12214
▁certificate	-12215
iasis	-12216
▁dreams	-12217
▁interrupt	-12218
▁kidneys	-12219
▁contracts	-12220
▁Nat	-12221
▁automated	-12222
▁Syndrome	-12223
▁darkness	-12224
▁lean	-12225
▁Ay	-12226
▁trips	-12227
▁Typically	-12228
lades	-12229
▁receptor	-12230
sl	-12231
▁dialect	-12232
arms	-12233
▁caring	-12234
▁Pra	-12235
▁resident	-12236
▁Vill	-12237
▁enthusi	-12238
▁2017,	-12239
kh	-12240
▁Technical	-12241
▁pharmaceutical	-12242
▁Nigeria	-12243
▁publicly	-12244
▁projected	-12245
▁Ground	-12246
ingham	-12247
▁Frequ	-12248
▁basin	-12249
▁environmentally	-12250
▁promised	-12251
57	-12252
▁steep	-12253
iencies	-12254
▁Benjamin	-12255
▁operator	-12256
▁Mong	-12257
▁Anton	-12258
▁Sant	-12259
▁saturated	-12260
▁headache	-12261
olith	-12262
▁Orthodox	-12263
▁membership	-12264
▁requests	-12265
gic	-12266
▁bike	-12267
ARS	-12268
▁interpreted	-12269
▁(197	-12270
olis	-12271
ropolitan	-12272
▁kne	-12273
▁Soil	-12274
▁counts	-12275
PL	-12276
▁Brad	-12277
▁combining	-12278
▁soldier	-12279
eman	-12280
rob	-12281
ependent	-12282
▁asbestos	-12283
▁monitored	-12284
▁59	-12285
▁Weather	-12286
▁entities	-12287
natural	-12288
▁Tech	-12289
▁olive	-12290
abs	-12291
▁consisted	-12292
ovenant	-12293
▁Kit	-12294
▁titles	-12295
▁pressures	-12296
mates	-12297
▁breakfast	-12298
▁oxide	-12299
▁tribal	-12300
▁strengths	-12301
▁Better	-12302
▁endeav	-12303
erto	-12304
ogene	-12305
▁lawn	-12306
▁Title	-12307
▁harass	-12308
weed	-12309
▁convinced	-12310
▁asset	-12311
▁Methods	-12312
.:	-12313
rubs	-12314
▁bases	-12315
aga	-12316
asis	-12317
▁Publ	-12318
▁Prob	-12319
▁dual	-12320
▁2000,	-12321
▁$2	-12322
▁newborn	-12323
sets	-12324
▁dimension	-12325
otyp	-12326
▁Course	-12327
▁mutation	-12328
▁worksheet	-12329
▁Regular	-12330
-11	-12331
actic	-12332
▁Archived	-12333
▁nausea	-12334
▁railroad	-12335
▁Kal	-12336
▁Compan	-12337
▁Palestine	-12338
▁Turkish	-12339
▁2005.	-12340
▁Philosophy	-12341
▁presidential	-12342
▁safegu	-12343
▁agenda	-12344
▁Award	-12345
▁sugars	-12346
▁quot	-12347
▁Improve	-12348
▁regulated	-12349
▁bulbs	-12350
▁Success	-12351
▁todd	-12352
erves	-12353
▁artifacts	-12354
▁defining	-12355
▁forty	-12356
▁geographical	-12357
▁Venus	-12358
▁fragments	-12359
MD	-12360
▁Dog	-12361
bet	-12362
▁cows	-12363
▁refriger	-12364
▁antioxidants	-12365
▁charts	-12366
▁reliability	-12367
▁trap	-12368
▁accused	-12369
held	-12370
▁republic	-12371
▁EC	-12372
▁Wy	-12373
▁Annual	-12374
▁traged	-12375
chem	-12376
▁conce	-12377
Pe	-12378
▁Hun	-12379
▁raises	-12380
cedented	-12381
▁GPS	-12382
▁Anth	-12383
▁Pack	-12384
▁wed	-12385
▁gross	-12386
▁Causes	-12387
▁AF	-12388
▁kin	-12389
▁Wright	-12390
▁travels	-12391
▁surviving	-12392
▁modules	-12393
▁Ms	-12394
▁Portuguese	-12395
()	-12396
icul	-12397
▁Loss	-12398
▁challenged	-12399
organisms	-12400
erenn	-12401
▁Reference	-12402
▁thrown	-12403
▁Simon	-12404
▁consp	-12405
▁Heat	-12406
▁corruption	-12407
▁ecology	-12408
fficiency	-12409
illery	-12410
orship	-12411
hot	-12412
▁advocate	-12413
▁presenting	-12414
▁loads	-12415
▁Kong	-12416
▁graphics	-12417
▁Nuclear	-12418
▁blame	-12419
▁inputs	-12420
▁missed	-12421
aments	-12422
▁Protocol	-12423
rasound	-12424
▁marker	-12425
▁fungi	-12426
▁au	-12427
▁hosts	-12428
▁peaceful	-12429
▁Skin	-12430
▁readings	-12431
UD	-12432
▁geometry	-12433
▁deple	-12434
▁throne	-12435
lementary	-12436
▁symmet	-12437
▁(2010	-12438
▁whites	-12439
▁inherit	-12440
▁coronavirus	-12441
oard	-12442
▁carp	-12443
▁seemingly	-12444
▁efficacy	-12445
▁Fortunately	-12446
eld	-12447
▁absent	-12448
▁67	-12449
▁Deb	-12450
forward	-12451
ryption	-12452
▁unclear	-12453
py	-12454
▁reven	-12455
▁110	-12456
▁pec	-12457
▁Democr	-12458
▁footprint	-12459
▁pneumonia	-12460
▁Ze	-12461
▁naval	-12462
bled	-12463
▁Burn	-12464
▁sacrific	-12465
▁inclusive	-12466
regn	-12467
▁imported	-12468
dam	-12469
▁implant	-12470
athic	-12471
SP	-12472
backs	-12473
▁navigate	-12474
▁700	-12475
▁Hans	-12476
velation	-12477
▁informal	-12478
▁Continue	-12479
▁stimulation	-12480
▁Song	-12481
▁Function	-12482
▁Economics	-12483
▁Capital	-12484
▁Switzerland	-12485
▁Rena	-12486
▁explanations	-12487
▁predictions	-12488
exts	-12489
▁URL	-12490
▁observing	-12491
▁delight	-12492
▁Initiative	-12493
▁wounded	-12494
▁transc	-12495
▁extending	-12496
▁altitude	-12497
▁unhealthy	-12498
▁lets	-12499
etheless	-12500
ambo	-12501
▁Saturn	-12502
▁Ow	-12503
▁poore	-12504
ugar	-12505
▁Summary	-12506
▁proclaim	-12507
May	-12508
asted	-12509
▁Ara	-12510
appropriate	-12511
▁descendants	-12512
En	-12513
▁foundations	-12514
▁arbit	-12515
▁Greeks	-12516
▁Imperial	-12517
uate	-12518
▁Chile	-12519
▁unders	-12520
▁Mathematics	-12521
▁Prophet	-12522
▁Extension	-12523
▁bes	-12524
▁wool	-12525
▁terrible	-12526
▁satisfaction	-12527
▁Return	-12528
▁Would	-12529
▁Toronto	-12530
▁Beyond	-12531
▁Viol	-12532
▁2018.	-12533
arbon	-12534
▁overt	-12535
▁eligible	-12536
▁inspire	-12537
▁indication	-12538
▁CF	-12539
▁mush	-12540
▁operates	-12541
itar	-12542
▁Sydney	-12543
▁certification	-12544
▁contra	-12545
▁Simple	-12546
▁acquisition	-12547
heum	-12548
▁radar	-12549
▁neurological	-12550
amma	-12551
▁Dry	-12552
▁Beach	-12553
▁railway	-12554
▁entertainment	-12555
▁pound	-12556
eterm	-12557
▁bitter	-12558
▁unpre	-12559
▁forgotten	-12560
ORD	-12561
▁selecting	-12562
▁Conserv	-12563
wind	-12564
inar	-12565
▁earthquakes	-12566
▁transaction	-12567
▁Explain	-12568
▁melting	-12569
▁declar	-12570
▁induced	-12571
▁outstanding	-12572
▁Austria	-12573
▁prosec	-12574
▁pulse	-12575
▁Loc	-12576
▁mast	-12577
▁longest	-12578
▁layout	-12579
bone	-12580
▁Ye	-12581
▁drew	-12582
▁champ	-12583
ulative	-12584
ni	-12585
▁Dark	-12586
▁pigs	-12587
▁tale	-12588
▁Connecticut	-12589
▁Bed	-12590
▁philosophical	-12591
▁Ukraine	-12592
uma	-12593
▁journals	-12594
▁compression	-12595
▁briefly	-12596
▁Upon	-12597
▁mosquito	-12598
HT	-12599
▁extinct	-12600
▁182	-12601
▁intestinal	-12602
oping	-12603
▁Workshe	-12604
lahoma	-12605
urally	-12606
▁denied	-12607
▁suited	-12608
▁warned	-12609
▁Term	-12610
▁melt	-12611
▁mul	-12612
▁substantially	-12613
▁fart	-12614
▁ok	-12615
▁Medic	-12616
▁patches	-12617
▁alleged	-12618
▁seats	-12619
▁disciplines	-12620
scill	-12621
▁Banglades	-12622
adays	-12623
▁glasses	-12624
▁imagery	-12625
▁advocates	-12626
ths	-12627
▁Excel	-12628
▁Activities	-12629
▁compete	-12630
▁dated	-12631
▁admit	-12632
▁statue	-12633
▁toll	-12634
▁contexts	-12635
▁Allen	-12636
▁nucleus	-12637
ijuana	-12638
▁wetlands	-12639
▁Problems	-12640
forestation	-12641
▁attending	-12642
▁preferences	-12643
▁Aer	-12644
▁breakdown	-12645
angular	-12646
▁Fif	-12647
▁2004,	-12648
▁landf	-12649
▁banned	-12650
▁relies	-12651
▁dwarf	-12652
▁Accessed	-12653
yers	-12654
▁functionality	-12655
▁undertaken	-12656
▁intu	-12657
▁revised	-12658
▁Anderson	-12659
▁polymer	-12660
▁creature	-12661
▁Malays	-12662
▁gallons	-12663
intestinal	-12664
rosion	-12665
▁Determ	-12666
▁72	-12667
hn	-12668
▁Haz	-12669
oub	-12670
amel	-12671
▁combinations	-12672
▁51	-12673
▁actors	-12674
▁admin	-12675
iously	-12676
▁rating	-12677
was	-12678
▁pole	-12679
▁Moore	-12680
▁margin	-12681
▁Douglas	-12682
plus	-12683
▁17.	-12684
▁intervals	-12685
▁elevation	-12686
▁Arist	-12687
engu	-12688
ollo	-12689
iens	-12690
cerpt	-12691
PC	-12692
▁Fest	-12693
▁Notes	-12694
▁Content	-12695
▁(9	-12696
▁mixing	-12697
▁provinces	-12698
▁lacking	-12699
reas	-12700
▁screw	-12701
rea	-12702
▁Sarah	-12703
▁commander	-12704
▁concentrate	-12705
▁bats	-12706
▁indo	-12707
▁truck	-12708
▁tries	-12709
▁scattered	-12710
▁PV	-12711
▁cement	-12712
immune	-12713
▁Creating	-12714
▁ly	-12715
Tube	-12716
▁Magazine	-12717
▁sensation	-12718
aughters	-12719
▁imposed	-12720
▁segments	-12721
expl	-12722
▁Quant	-12723
▁Alliance	-12724
▁calculation	-12725
▁sword	-12726
▁governance	-12727
▁lesser	-12728
▁fossils	-12729
▁glory	-12730
▁gang	-12731
▁grocer	-12732
▁reinforce	-12733
▁downt	-12734
▁impacted	-12735
parent	-12736
▁gov	-12737
▁evaluating	-12738
otional	-12739
▁scrap	-12740
▁warrant	-12741
▁examines	-12742
▁10-	-12743
▁Live	-12744
induced	-12745
▁registration	-12746
incial	-12747
hend	-12748
▁closing	-12749
▁unprecedented	-12750
▁panic	-12751
▁thumb	-12752
▁78	-12753
ierra	-12754
▁Eye	-12755
▁crossed	-12756
▁Chen	-12757
▁loaded	-12758
IE	-12759
▁titled	-12760
▁blockchain	-12761
▁profits	-12762
▁sink	-12763
▁assessing	-12764
▁Weight	-12765
▁Pos	-12766
▁intact	-12767
▁tutorial	-12768
▁Night	-12769
▁modify	-12770
wealth	-12771
stan	-12772
supp	-12773
▁Vacc	-12774
▁autumn	-12775
▁Emergency	-12776
▁ties	-12777
▁Poor	-12778
▁Renaissance	-12779
dig	-12780
▁lighter	-12781
▁Mun	-12782
▁lesions	-12783
▁tomb	-12784
ods	-12785
▁currents	-12786
pa	-12787
▁melan	-12788
▁pronounced	-12789
ilib	-12790
imity	-12791
▁Lakes	-12792
▁controversy	-12793
▁Luke	-12794
rained	-12795
ietal	-12796
▁impaired	-12797
▁conceptual	-12798
okes	-12799
▁symbolic	-12800
▁cater	-12801
▁depicted	-12802
▁EV	-12803
▁Problem	-12804
▁remembered	-12805
vance	-12806
▁Mosc	-12807
▁triggered	-12808
resistant	-12809
▁CM	-12810
roups	-12811
▁template	-12812
cat	-12813
heres	-12814
▁checks	-12815
▁Walter	-12816
▁airpl	-12817
▁grat	-12818
▁silent	-12819
▁Universe	-12820
▁Graph	-12821
ilies	-12822
energy	-12823
▁Alcohol	-12824
▁decreasing	-12825
▁2020.	-12826
▁freed	-12827
▁bridges	-12828
olia	-12829
▁wires	-12830
▁Eventually	-12831
="	-12832
▁Fried	-12833
▁extracted	-12834
▁Biological	-12835
▁dwell	-12836
▁divisions	-12837
▁watershed	-12838
▁bowl	-12839
▁strip	-12840
▁Software	-12841
16/	-12842
▁agreements	-12843
ucks	-12844
▁voters	-12845
dy	-12846
▁landscapes	-12847
▁luck	-12848
▁Oklahoma	-12849
▁freshwater	-12850
bird	-12851
▁deemed	-12852
▁Hart	-12853
▁offspring	-12854
▁Southeast	-12855
▁promotion	-12856
▁twentieth	-12857
▁chemotherapy	-12858
▁cock	-12859
▁Higher	-12860
five	-12861
▁diesel	-12862
▁astronomers	-12863
▁cyt	-12864
▁emergence	-12865
▁sends	-12866
resses	-12867
▁workforce	-12868
ellar	-12869
▁inquiry	-12870
▁CON	-12871
▁fits	-12872
▁blocked	-12873
▁fusion	-12874
Col	-12875
▁Curriculum	-12876
▁probe	-12877
▁shifts	-12878
▁veins	-12879
▁interval	-12880
▁Ltd	-12881
▁recru	-12882
▁investigations	-12883
▁Professional	-12884
▁toilet	-12885
▁breeds	-12886
▁slope	-12887
▁retreat	-12888
▁Gi	-12889
▁Cand	-12890
▁Stage	-12891
mus	-12892
▁proc	-12893
▁slower	-12894
▁imprison	-12895
▁Bud	-12896
▁Members	-12897
▁Region	-12898
▁teachings	-12899
hal	-12900
▁median	-12901
▁legislative	-12902
▁Wi	-12903
rost	-12904
▁conform	-12905
▁30%	-12906
rade	-12907
▁worms	-12908
▁trapped	-12909
▁banking	-12910
▁McK	-12911
▁Lanc	-12912
urring	-12913
▁tuber	-12914
▁activists	-12915
rones	-12916
imb	-12917
▁Imagine	-12918
▁cram	-12919
▁upset	-12920
▁billions	-12921
▁Oak	-12922
▁surroundings	-12923
▁Nev	-12924
▁Roc	-12925
▁crystal	-12926
▁identifies	-12927
vas	-12928
ulent	-12929
▁Industry	-12930
▁Salt	-12931
▁ruler	-12932
▁Ta	-12933
▁testim	-12934
▁File	-12935
▁weeds	-12936
▁mankind	-12937
▁screens	-12938
▁rebell	-12939
▁inadequate	-12940
▁surgeon	-12941
version	-12942
▁ozone	-12943
▁Chronic	-12944
▁Partners	-12945
▁voluntary	-12946
▁customs	-12947
fortable	-12948
▁gay	-12949
▁packed	-12950
▁snakes	-12951
▁Disorder	-12952
names	-12953
▁accumulation	-12954
▁Napole	-12955
▁permits	-12956
▁modes	-12957
▁eliminated	-12958
▁Run	-12959
▁pointing	-12960
rock	-12961
▁bip	-12962
esteem	-12963
▁races	-12964
▁Der	-12965
▁epit	-12966
▁ignor	-12967
ixed	-12968
▁dump	-12969
▁Too	-12970
▁Joint	-12971
letal	-12972
▁constitute	-12973
▁silicon	-12974
rosis	-12975
▁inval	-12976
▁modest	-12977
▁constitu	-12978
▁occasions	-12979
▁dysfunction	-12980
itives	-12981
▁Proceed	-12982
▁placement	-12983
▁grab	-12984
▁plug	-12985
▁fundament	-12986
▁53	-12987
▁binary	-12988
▁Jenn	-12989
▁knock	-12990
▁Cuba	-12991
ova	-12992
▁united	-12993
▁TR	-12994
▁Basin	-12995
▁joining	-12996
▁rehabilitation	-12997
▁PS	-12998
▁Police	-12999
▁crafts	-13000
▁fool	-13001
▁autonomous	-13002
avy	-13003
▁gluten	-13004
▁jack	-13005
▁ank	-13006
▁corporations	-13007
cr	-13008
▁seas	-13009
▁wounds	-13010
▁Nan	-13011
▁individ	-13012
▁130	-13013
▁systemic	-13014
▁Esp	-13015
▁Traditional	-13016
Im	-13017
large	-13018
▁Ever	-13019
▁seaf	-13020
▁erad	-13021
▁Fox	-13022
▁separately	-13023
▁bapt	-13024
▁impairment	-13025
arb	-13026
▁affirm	-13027
▁Prep	-13028
▁Swedish	-13029
▁continually	-13030
▁Snow	-13031
▁emperor	-13032
Te	-13033
▁noble	-13034
PM	-13035
▁Complete	-13036
▁Bishop	-13037
▁carrier	-13038
▁interfere	-13039
▁cel	-13040
▁98	-13041
▁Sin	-13042
▁IL	-13043
▁Dick	-13044
▁similarities	-13045
▁subur	-13046
eech	-13047
▁stir	-13048
▁retrie	-13049
▁LGBT	-13050
▁Sports	-13051
▁Multiple	-13052
venile	-13053
▁Pharm	-13054
▁sphere	-13055
▁coating	-13056
▁Gand	-13057
▁eleg	-13058
▁OK	-13059
opor	-13060
reach	-13061
sels	-13062
itime	-13063
▁priests	-13064
▁Description	-13065
▁ports	-13066
▁collaps	-13067
▁sor	-13068
Can	-13069
▁tablets	-13070
▁planes	-13071
marks	-13072
▁Plus	-13073
▁damages	-13074
▁parasites	-13075
▁generator	-13076
▁Hug	-13077
▁Chair	-13078
▁fired	-13079
▁accommodate	-13080
▁lateral	-13081
▁vic	-13082
▁oct	-13083
iscal	-13084
▁burial	-13085
▁threatening	-13086
abase	-13087
▁negatively	-13088
tically	-13089
▁yog	-13090
ethyl	-13091
arency	-13092
▁triangle	-13093
7/	-13094
▁Record	-13095
▁surely	-13096
Int	-13097
▁lasted	-13098
96	-13099
aza	-13100
▁Parkinson	-13101
▁stretching	-13102
news	-13103
▁stayed	-13104
owed	-13105
zech	-13106
▁comprised	-13107
▁Mas	-13108
▁Recomm	-13109
tr	-13110
▁ate	-13111
▁2003,	-13112
aman	-13113
obacter	-13114
lan	-13115
▁cous	-13116
▁combustion	-13117
▁MRI	-13118
▁delayed	-13119
▁tourists	-13120
▁confined	-13121
powered	-13122
▁drilling	-13123
▁Tob	-13124
proof	-13125
▁hasn	-13126
roscience	-13127
zes	-13128
▁jun	-13129
▁Foot	-13130
▁Sci	-13131
piece	-13132
▁ink	-13133
▁obstacles	-13134
▁preference	-13135
▁unst	-13136
▁therapist	-13137
wich	-13138
4-	-13139
▁withdrawal	-13140
▁socially	-13141
▁Recently	-13142
▁maternal	-13143
▁Beng	-13144
▁worlds	-13145
▁offset	-13146
▁cultivation	-13147
▁restaurants	-13148
▁2000.	-13149
▁consec	-13150
ATE	-13151
▁MO	-13152
▁abdomen	-13153
Fi	-13154
dered	-13155
don	-13156
opter	-13157
▁4)	-13158
▁wastewater	-13159
▁damp	-13160
▁strictly	-13161
▁achievements	-13162
▁Kir	-13163
▁poultry	-13164
Qu	-13165
▁standardized	-13166
third	-13167
uated	-13168
▁Foods	-13169
▁paste	-13170
▁mechanics	-13171
▁critically	-13172
▁Alexand	-13173
▁untreated	-13174
ennis	-13175
ashing	-13176
800	-13177
articles	-13178
▁inspection	-13179
itational	-13180
unes	-13181
▁Gram	-13182
otive	-13183
hematic	-13184
source	-13185
▁eliminating	-13186
tech	-13187
▁dozens	-13188
▁cin	-13189
▁pour	-13190
▁activated	-13191
▁illum	-13192
▁Ens	-13193
▁Newton	-13194
▁notably	-13195
▁teenagers	-13196
▁Torah	-13197
▁Legisl	-13198
▁altogether	-13199
▁floods	-13200
onics	-13201
amous	-13202
▁shells	-13203
▁whale	-13204
lict	-13205
▁priorit	-13206
▁dos	-13207
▁presentations	-13208
pler	-13209
▁posture	-13210
raul	-13211
▁intrig	-13212
▁Concept	-13213
threat	-13214
▁exert	-13215
ressions	-13216
▁neurot	-13217
two	-13218
▁Measure	-13219
▁Pred	-13220
53	-13221
rish	-13222
▁quoted	-13223
▁publishing	-13224
▁drill	-13225
▁wheels	-13226
▁Could	-13227
▁sixth	-13228
arming	-13229
▁deployed	-13230
▁YouTube	-13231
▁gently	-13232
▁Ky	-13233
▁Northwest	-13234
▁eu	-13235
▁Delhi	-13236
lux	-13237
▁inserted	-13238
▁Sel	-13239
▁Howard	-13240
▁Christopher	-13241
▁similarly	-13242
▁Consult	-13243
FA	-13244
4:	-13245
▁True	-13246
▁Moscow	-13247
▁sour	-13248
comp	-13249
▁connects	-13250
▁extensively	-13251
▁intermediate	-13252
▁Harry	-13253
▁ranks	-13254
ometric	-13255
▁rolling	-13256
▁Base	-13257
▁trains	-13258
▁Bitcoin	-13259
▁flowering	-13260
▁soda	-13261
▁instructor	-13262
▁transported	-13263
autions	-13264
▁disabled	-13265
▁generates	-13266
▁170	-13267
▁traces	-13268
irical	-13269
cult	-13270
▁rash	-13271
▁interference	-13272
▁considers	-13273
depth	-13274
▁Hamilton	-13275
▁CC	-13276
▁pyram	-13277
uru	-13278
▁instructional	-13279
▁Critical	-13280
▁watched	-13281
▁Academic	-13282
▁folks	-13283
bin	-13284
▁tomatoes	-13285
▁140	-13286
arches	-13287
▁artic	-13288
▁votes	-13289
▁Hyp	-13290
▁Cloud	-13291
▁Bangladesh	-13292
▁constraints	-13293
▁voy	-13294
▁gardening	-13295
▁stain	-13296
▁nasal	-13297
GA	-13298
▁parish	-13299
esthes	-13300
SE	-13301
▁gel	-13302
▁PMID	-13303
▁2%	-13304
▁pumps	-13305
▁Animals	-13306
▁synthes	-13307
▁inability	-13308
DC	-13309
▁millenn	-13310
▁Construction	-13311
▁Gib	-13312
▁1/2	-13313
▁Temper	-13314
▁antioxidant	-13315
▁realm	-13316
▁Ru	-13317
▁brut	-13318
BL	-13319
▁strikes	-13320
▁refined	-13321
▁prelim	-13322
▁walked	-13323
▁appreciation	-13324
▁behave	-13325
▁reforms	-13326
▁hungry	-13327
arity	-13328
-16	-13329
▁exclusive	-13330
▁spont	-13331
▁praise	-13332
▁retained	-13333
▁isot	-13334
▁da	-13335
▁riding	-13336
▁legitimate	-13337
▁Growth	-13338
▁Posted	-13339
kg	-13340
inge	-13341
▁Cov	-13342
aunt	-13343
Ab	-13344
▁positively	-13345
▁companion	-13346
▁insufficient	-13347
▁Safe	-13348
▁Document	-13349
▁prejud	-13350
▁temples	-13351
▁dot	-13352
▁birthday	-13353
idth	-13354
▁SQL	-13355
▁Denmark	-13356
▁strings	-13357
▁compiled	-13358
▁settlements	-13359
▁fungus	-13360
▁Guidelines	-13361
oz	-13362
▁40%	-13363
▁bloom	-13364
▁acknowledged	-13365
▁traumatic	-13366
hu	-13367
olutions	-13368
▁(0.	-13369
▁Used	-13370
▁Citiz	-13371
oxic	-13372
othel	-13373
▁7:	-13374
▁prototype	-13375
▁Virtual	-13376
▁Apart	-13377
▁microbi	-13378
▁Proceedings	-13379
▁sanct	-13380
▁uncommon	-13381
▁31,	-13382
▁evolve	-13383
▁hub	-13384
aran	-13385
▁Joe	-13386
▁harmony	-13387
▁underwater	-13388
▁designer	-13389
▁lux	-13390
▁desirable	-13391
▁Planet	-13392
▁recognised	-13393
▁transit	-13394
▁passages	-13395
▁Brig	-13396
▁outlined	-13397
erk	-13398
▁innovations	-13399
▁goddess	-13400
imore	-13401
▁dependence	-13402
▁destructive	-13403
only	-13404
istence	-13405
esterday	-13406
odynam	-13407
▁publish	-13408
achelor	-13409
olit	-13410
▁suppl	-13411
▁enroll	-13412
▁nationwide	-13413
▁norms	-13414
▁cervical	-13415
▁legally	-13416
▁matching	-13417
20.	-13418
week	-13419
▁disse	-13420
▁Queens	-13421
▁feathers	-13422
▁tet	-13423
ancies	-13424
▁monarch	-13425
educ	-13426
▁stamp	-13427
▁orch	-13428
▁sits	-13429
four	-13430
▁lawyer	-13431
▁Bos	-13432
▁mosquitoes	-13433
▁Dakota	-13434
matic	-13435
▁warfare	-13436
▁remedy	-13437
▁secular	-13438
ricular	-13439
▁maintains	-13440
▁hoped	-13441
bial	-13442
▁bod	-13443
▁countless	-13444
TO	-13445
▁outbreaks	-13446
ania	-13447
▁recipe	-13448
▁2004.	-13449
▁consolid	-13450
▁Consequently	-13451
▁Friends	-13452
month	-13453
itches	-13454
▁handful	-13455
ipse	-13456
ilibrium	-13457
▁divor	-13458
▁invisible	-13459
Fig	-13460
▁Signs	-13461
▁employer	-13462
▁bench	-13463
▁dispute	-13464
▁monaster	-13465
▁forcing	-13466
AND	-13467
▁wre	-13468
igo	-13469
rots	-13470
▁weed	-13471
▁ventilation	-13472
▁20.	-13473
▁seizures	-13474
▁critics	-13475
▁Ts	-13476
via	-13477
▁individually	-13478
▁orth	-13479
len	-13480
▁biblical	-13481
▁editors	-13482
pher	-13483
▁Taiwan	-13484
▁Frederick	-13485
▁delivering	-13486
▁silk	-13487
ensing	-13488
▁stocks	-13489
endix	-13490
▁investigating	-13491
▁peas	-13492
▁intestine	-13493
ili	-13494
▁shooting	-13495
alin	-13496
▁clinic	-13497
otine	-13498
▁IM	-13499
▁landed	-13500
▁heading	-13501
▁promises	-13502
▁VI	-13503
agu	-13504
bound	-13505
▁grad	-13506
▁2001,	-13507
▁wellbeing	-13508
▁uncomfortable	-13509
-30	-13510
▁attribute	-13511
▁Infant	-13512
▁desper	-13513
▁ram	-13514
▁sake	-13515
▁Spect	-13516
▁Protestant	-13517
▁Gospel	-13518
▁rept	-13519
▁apples	-13520
▁urgent	-13521
▁vulnerability	-13522
▁Guinea	-13523
▁indoors	-13524
▁Michel	-13525
▁citizenship	-13526
▁Bull	-13527
▁bug	-13528
▁stopping	-13529
oni	-13530
▁crystals	-13531
▁myths	-13532
▁77	-13533
▁88	-13534
▁3%	-13535
▁spite	-13536
▁eternal	-13537
▁recipes	-13538
▁delicate	-13539
▁investing	-13540
▁Parks	-13541
▁bulb	-13542
eps	-13543
oporosis	-13544
▁grasp	-13545
▁q	-13546
10,	-13547
▁intens	-13548
▁potato	-13549
▁appliances	-13550
▁infrared	-13551
▁Bron	-13552
▁plural	-13553
oriented	-13554
ppers	-13555
▁stro	-13556
aux	-13557
▁tears	-13558
imental	-13559
▁retention	-13560
PE	-13561
adi	-13562
▁Einstein	-13563
▁requested	-13564
▁prosperity	-13565
leans	-13566
▁scarce	-13567
▁Birth	-13568
▁Nelson	-13569
▁pm	-13570
stud	-13571
▁NAT	-13572
▁terrain	-13573
▁burns	-13574
▁Tel	-13575
▁variability	-13576
second	-13577
With	-13578
▁Stra	-13579
▁Dead	-13580
▁Khan	-13581
pin	-13582
onduct	-13583
▁Eric	-13584
▁gasoline	-13585
▁electromagnetic	-13586
▁oun	-13587
▁empathy	-13588
▁8:	-13589
▁Pul	-13590
▁solved	-13591
▁microbial	-13592
ouch	-13593
▁cookies	-13594
▁berries	-13595
▁uncons	-13596
▁dissolved	-13597
▁drum	-13598
▁witnessed	-13599
▁diamond	-13600
▁10:	-13601
▁authentic	-13602
▁clot	-13603
▁''	-13604
test	-13605
▁rum	-13606
▁guilty	-13607
▁Roberts	-13608
emen	-13609
imination	-13610
▁formerly	-13611
idel	-13612
▁formats	-13613
▁courtesy	-13614
▁factories	-13615
▁centres	-13616
▁competing	-13617
▁Europeans	-13618
▁Dra	-13619
atics	-13620
▁draws	-13621
amation	-13622
▁Solomon	-13623
▁permanently	-13624
▁fier	-13625
▁cruel	-13626
▁Programme	-13627
▁succ	-13628
irie	-13629
▁municipal	-13630
▁passenger	-13631
iatry	-13632
▁69	-13633
▁watering	-13634
▁coupled	-13635
▁Gab	-13636
ysics	-13637
▁Marshall	-13638
▁glue	-13639
TSD	-13640
▁Calcul	-13641
▁Houston	-13642
▁Federation	-13643
▁prediction	-13644
▁Clinic	-13645
▁tonnes	-13646
▁puzzle	-13647
▁explicitly	-13648
▁transcript	-13649
▁turtles	-13650
▁Manufact	-13651
▁utilizing	-13652
▁disappeared	-13653
▁variants	-13654
building	-13655
▁odds	-13656
▁supportive	-13657
▁Ori	-13658
▁preliminary	-13659
iage	-13660
▁Hyper	-13661
▁allev	-13662
ulatory	-13663
▁combines	-13664
▁hes	-13665
▁portable	-13666
▁specify	-13667
▁Changes	-13668
▁printer	-13669
▁Square	-13670
▁beverages	-13671
▁Alph	-13672
▁pean	-13673
▁shower	-13674
agrams	-13675
▁valued	-13676
site	-13677
▁Margaret	-13678
▁enrich	-13679
–1	-13680
▁smile	-13681
▁networking	-13682
mind	-13683
driven	-13684
▁coping	-13685
uto	-13686
▁sexually	-13687
▁Victorian	-13688
inging	-13689
▁Rot	-13690
▁Occup	-13691
▁piano	-13692
▁underm	-13693
▁trunk	-13694
▁unwanted	-13695
▁recommendation	-13696
▁deaf	-13697
▁economically	-13698
izoph	-13699
ocide	-13700
▁Czech	-13701
▁cultivated	-13702
▁Camb	-13703
▁balls	-13704
▁mant	-13705
▁likes	-13706
ilingual	-13707
▁dia	-13708
▁perceive	-13709
pack	-13710
▁virtue	-13711
▁Price	-13712
▁impul	-13713
▁asteroid	-13714
▁afterwards	-13715
▁Brand	-13716
▁retired	-13717
ESCO	-13718
vasive	-13719
ipt	-13720
▁ty	-13721
▁Organic	-13722
▁Hait	-13723
▁Alber	-13724
▁somehow	-13725
▁Juda	-13726
▁microscope	-13727
▁Brother	-13728
some	-13729
ocytes	-13730
IH	-13731
onder	-13732
ims	-13733
▁hob	-13734
adows	-13735
▁Records	-13736
▁".	-13737
▁Colomb	-13738
▁embrace	-13739
▁translate	-13740
▁mysterious	-13741
ograms	-13742
▁breakthrough	-13743
elta	-13744
alling	-13745
esar	-13746
▁lectures	-13747
▁frames	-13748
▁Dh	-13749
bling	-13750
bitious	-13751
home	-13752
▁alkal	-13753
▁linguistic	-13754
▁colorful	-13755
▁arrangements	-13756
nowned	-13757
▁struggles	-13758
▁Alt	-13759
olerance	-13760
By	-13761
▁Hold	-13762
axis	-13763
▁compromise	-13764
▁Verm	-13765
▁counterparts	-13766
OG	-13767
acity	-13768
▁perenn	-13769
izophren	-13770
path	-13771
▁monetary	-13772
ridge	-13773
▁________	-13774
▁amph	-13775
▁Sierra	-13776
odus	-13777
cils	-13778
.-	-13779
usions	-13780
▁Stay	-13781
John	-13782
onut	-13783
▁Ka	-13784
urities	-13785
rator	-13786
uncture	-13787
▁oak	-13788
▁arom	-13789
▁Respons	-13790
cha	-13791
▁nurt	-13792
▁TB	-13793
▁signature	-13794
▁Orleans	-13795
▁adjusted	-13796
▁commissioned	-13797
▁radius	-13798
▁Apollo	-13799
lad	-13800
▁cargo	-13801
▁SA	-13802
▁entries	-13803
▁DE	-13804
▁Olympic	-13805
pres	-13806
ctica	-13807
▁1994	-13808
▁jar	-13809
▁strengthening	-13810
▁Lank	-13811
▁3,000	-13812
▁opio	-13813
▁Rat	-13814
▁tourist	-13815
▁rival	-13816
▁alleg	-13817
▁Various	-13818
▁Anglo	-13819
▁flags	-13820
ige	-13821
anny	-13822
▁frost	-13823
▁illustrates	-13824
lihood	-13825
▁adventure	-13826
▁Late	-13827
▁dolph	-13828
▁spotted	-13829
▁Hi	-13830
▁garlic	-13831
▁metall	-13832
chi	-13833
▁Amb	-13834
▁assass	-13835
coma	-13836
▁subjected	-13837
pit	-13838
▁Peru	-13839
▁Rule	-13840
flower	-13841
▁Estab	-13842
▁Manual	-13843
▁cooler	-13844
▁Eve	-13845
overs	-13846
▁pipeline	-13847
ardo	-13848
▁unsu	-13849
▁remedies	-13850
▁lasts	-13851
▁anxious	-13852
▁foliage	-13853
▁lin	-13854
▁Thom	-13855
▁judges	-13856
▁jurisdiction	-13857
▁harvesting	-13858
▁parking	-13859
▁blade	-13860
bola	-13861
▁Religion	-13862
▁masks	-13863
oglob	-13864
▁ammon	-13865
breaking	-13866
▁touching	-13867
▁snack	-13868
▁Allow	-13869
▁Aware	-13870
▁accordingly	-13871
▁Production	-13872
▁Fu	-13873
ti	-13874
▁failures	-13875
▁burst	-13876
▁inevitable	-13877
posure	-13878
▁hoping	-13879
tha	-13880
acerb	-13881
▁fans	-13882
▁failing	-13883
▁spill	-13884
▁priorities	-13885
▁wilderness	-13886
ector	-13887
▁learner	-13888
Or	-13889
▁spirits	-13890
▁electroly	-13891
▁vascular	-13892
▁sanitation	-13893
▁moder	-13894
ERE	-13895
▁EL	-13896
▁Gord	-13897
▁Want	-13898
▁ecl	-13899
▁Adapt	-13900
rative	-13901
▁palace	-13902
▁besides	-13903
expensive	-13904
▁Articles	-13905
▁documentary	-13906
▁Lev	-13907
▁cum	-13908
▁displace	-13909
▁mitochond	-13910
▁pedest	-13911
▁Sources	-13912
▁craw	-13913
ante	-13914
▁Wolf	-13915
ifiers	-13916
▁Lang	-13917
▁ore	-13918
▁troubles	-13919
▁Isaac	-13920
▁clicking	-13921
rophy	-13922
▁stew	-13923
▁schemes	-13924
▁suspended	-13925
▁phosphorus	-13926
ben	-13927
inters	-13928
culosis	-13929
▁pressing	-13930
▁_	-13931
▁Ped	-13932
▁Peninsula	-13933
▁IBM	-13934
▁friction	-13935
▁62	-13936
▁Gender	-13937
▁regards	-13938
▁appropriately	-13939
▁Soon	-13940
▁dece	-13941
utenant	-13942
▁reproduce	-13943
▁drama	-13944
▁algebra	-13945
▁Tut	-13946
▁Hopkins	-13947
▁episodes	-13948
▁Experts	-13949
▁citation	-13950
▁Cart	-13951
ragon	-13952
▁Nearly	-13953
▁prohibited	-13954
▁proposals	-13955
▁climb	-13956
▁neighborhoods	-13957
▁Forum	-13958
▁approaching	-13959
hol	-13960
log	-13961
▁ana	-13962
▁Range	-13963
note	-13964
▁shelf	-13965
▁bush	-13966
▁Chris	-13967
▁secured	-13968
▁Bart	-13969
▁2002,	-13970
▁apost	-13971
▁charging	-13972
▁Antarctic	-13973
▁acidic	-13974
keeping	-13975
▁conditioning	-13976
▁2003.	-13977
▁Puerto	-13978
▁toxicity	-13979
▁everybody	-13980
pub	-13981
▁scans	-13982
food	-13983
▁lightning	-13984
▁Advis	-13985
▁primitive	-13986
▁Cover	-13987
▁drying	-13988
rehend	-13989
▁alignment	-13990
▁weekend	-13991
▁Stop	-13992
▁Steve	-13993
▁exceptional	-13994
▁Provide	-13995
stock	-13996
▁esoph	-13997
▁Ecology	-13998
▁formally	-13999
▁Originally	-14000
▁ants	-14001
▁demanding	-14002
ioned	-14003
▁parameter	-14004
3-	-14005
▁2018,	-14006
▁baseline	-14007
▁quotes	-14008
▁fluoride	-14009
▁keyboard	-14010
▁tutor	-14011
▁Seattle	-14012
▁Liver	-14013
▁Sad	-14014
▁emphasize	-14015
Res	-14016
▁activation	-14017
▁navig	-14018
uter	-14019
▁beaches	-14020
▁organizational	-14021
REE	-14022
▁USS	-14023
54	-14024
▁lion	-14025
▁congest	-14026
▁memorial	-14027
▁Publication	-14028
▁liber	-14029
▁fantastic	-14030
▁Observatory	-14031
tings	-14032
leys	-14033
neath	-14034
mi	-14035
edic	-14036
/200	-14037
▁reefs	-14038
▁reconstruct	-14039
▁Avenue	-14040
dem	-14041
▁headquarters	-14042
ivic	-14043
▁Thor	-14044
▁Identify	-14045
pill	-14046
▁strat	-14047
▁bon	-14048
roximately	-14049
▁harvested	-14050
▁carved	-14051
▁veterans	-14052
▁volcano	-14053
▁energ	-14054
▁mobil	-14055
▁urinary	-14056
▁rip	-14057
▁Categ	-14058
-14	-14059
rians	-14060
▁aug	-14061
▁highway	-14062
▁pdf	-14063
elong	-14064
▁Born	-14065
▁resolved	-14066
▁IoT	-14067
▁eco	-14068
▁exploitation	-14069
▁mandatory	-14070
▁strongest	-14071
▁eager	-14072
▁sequencing	-14073
▁Hud	-14074
▁seam	-14075
▁museums	-14076
▁discount	-14077
▁analytical	-14078
birds	-14079
▁dinosaurs	-14080
▁iP	-14081
▁sins	-14082
▁Pun	-14083
▁filed	-14084
▁satisfied	-14085
▁Communications	-14086
doc	-14087
▁Illust	-14088
▁acre	-14089
▁dynasty	-14090
ailand	-14091
▁Ottoman	-14092
▁shops	-14093
▁Silver	-14094
▁exacerb	-14095
▁incorporating	-14096
▁woods	-14097
vised	-14098
▁mitigate	-14099
▁(196	-14100
▁glow	-14101
▁abnormalities	-14102
▁Agreement	-14103
▁Links	-14104
▁petition	-14105
▁Say	-14106
count	-14107
▁Subject	-14108
▁civilian	-14109
▁Titan	-14110
▁curiosity	-14111
▁responding	-14112
▁Americas	-14113
▁alternate	-14114
ensions	-14115
▁Mercury	-14116
SC	-14117
▁spider	-14118
▁arsen	-14119
▁attorney	-14120
▁lowering	-14121
prot	-14122
ilage	-14123
▁shark	-14124
▁ambitious	-14125
due	-14126
▁peripheral	-14127
▁noting	-14128
▁recreational	-14129
alry	-14130
isan	-14131
▁authorized	-14132
▁Tox	-14133
▁Application	-14134
pop	-14135
welling	-14136
▁bullet	-14137
▁horizon	-14138
▁rigid	-14139
▁charity	-14140
▁counseling	-14141
▁comprises	-14142
▁wherever	-14143
▁pursuit	-14144
▁specially	-14145
▁easiest	-14146
▁contaminants	-14147
▁exit	-14148
▁Columbus	-14149
▁restaurant	-14150
▁Nevada	-14151
▁dischar	-14152
▁Oral	-14153
adian	-14154
▁wishes	-14155
▁NA	-14156
▁Memory	-14157
▁pilgrim	-14158
▁trusted	-14159
▁nearest	-14160
▁BCE	-14161
▁eruption	-14162
▁problematic	-14163
PT	-14164
▁Birds	-14165
▁pulmonary	-14166
▁attachment	-14167
▁dupl	-14168
▁96	-14169
▁Photos	-14170
▁Individuals	-14171
▁unconscious	-14172
▁fost	-14173
▁verify	-14174
houses	-14175
▁preventive	-14176
▁Seven	-14177
▁clarity	-14178
▁mol	-14179
▁intim	-14180
▁potent	-14181
▁variant	-14182
▁daughters	-14183
▁Abs	-14184
▁Swiss	-14185
itol	-14186
▁upcoming	-14187
ignt	-14188
ulas	-14189
style	-14190
▁disciples	-14191
▁medicinal	-14192
▁silence	-14193
illes	-14194
▁infest	-14195
▁Sudan	-14196
▁trillion	-14197
▁Active	-14198
ardship	-14199
▁oscill	-14200
▁descent	-14201
▁Database	-14202
▁Written	-14203
▁Institutions	-14204
▁temporarily	-14205
▁Reports	-14206
▁upt	-14207
▁clues	-14208
▁Chron	-14209
89	-14210
▁respected	-14211
▁Band	-14212
▁Trail	-14213
iw	-14214
vo	-14215
opard	-14216
minute	-14217
▁Tower	-14218
▁trash	-14219
▁Issues	-14220
▁dignity	-14221
sea	-14222
▁22.	-14223
▁seism	-14224
▁Antarctica	-14225
▁Tun	-14226
erald	-14227
elle	-14228
▁Row	-14229
orse	-14230
▁negotiations	-14231
▁lamp	-14232
▁neighboring	-14233
retion	-14234
▁hanging	-14235
▁communicating	-14236
math	-14237
▁nutrit	-14238
▁Mort	-14239
▁hits	-14240
▁Ga	-14241
▁illustration	-14242
▁Lam	-14243
LY	-14244
report	-14245
▁5,000	-14246
▁freezing	-14247
▁stool	-14248
▁kindergarten	-14249
▁Gallery	-14250
▁Role	-14251
ignment	-14252
▁revision	-14253
▁obtaining	-14254
▁tragedy	-14255
▁enhancing	-14256
▁respondents	-14257
▁brands	-14258
▁dye	-14259
▁queen	-14260
alia	-14261
▁mad	-14262
▁Important	-14263
laim	-14264
▁tent	-14265
▁sulfur	-14266
uce	-14267
▁Dogs	-14268
▁deriv	-14269
▁pad	-14270
▁pocket	-14271
▁05	-14272
ocene	-14273
▁Susan	-14274
ativity	-14275
▁asleep	-14276
▁buffer	-14277
▁Manager	-14278
▁processor	-14279
▁macro	-14280
▁Shel	-14281
▁carn	-14282
▁imped	-14283
▁hay	-14284
mans	-14285
▁19.	-14286
▁Yale	-14287
▁63	-14288
nest	-14289
▁textbook	-14290
▁allies	-14291
ho	-14292
erce	-14293
▁Kid	-14294
▁Galile	-14295
▁composite	-14296
▁shoulders	-14297
▁metaphor	-14298
▁portrait	-14299
bes	-14300
▁CEO	-14301
▁bub	-14302
▁erected	-14303
▁2020,	-14304
aceous	-14305
▁Recon	-14306
gree	-14307
▁gig	-14308
▁obligations	-14309
▁rust	-14310
▁producer	-14311
▁adject	-14312
▁tomorrow	-14313
▁Disorders	-14314
▁1).	-14315
▁Communist	-14316
strong	-14317
▁stays	-14318
▁depressed	-14319
▁switching	-14320
HC	-14321
▁Task	-14322
▁harness	-14323
▁yards	-14324
▁resting	-14325
▁assembled	-14326
▁proximity	-14327
chy	-14328
▁Vien	-14329
▁Wang	-14330
orrh	-14331
lie	-14332
pen	-14333
▁excite	-14334
▁obligation	-14335
imeters	-14336
▁Member	-14337
▁exercising	-14338
▁Performance	-14339
▁unions	-14340
▁inventory	-14341
SM	-14342
▁HE	-14343
▁Ul	-14344
▁microorganisms	-14345
▁questionna	-14346
▁bloodstream	-14347
rod	-14348
▁washed	-14349
▁hect	-14350
▁treasure	-14351
▁laugh	-14352
▁dermat	-14353
▁Literacy	-14354
▁spectacular	-14355
▁hotel	-14356
▁hurricane	-14357
▁advertise	-14358
vic	-14359
▁mas	-14360
▁elephants	-14361
.|	-14362
▁sprou	-14363
▁gravitational	-14364
▁holidays	-14365
▁membranes	-14366
rings	-14367
▁intric	-14368
▁Cognitive	-14369
▁(2000	-14370
raulic	-14371
▁shortage	-14372
▁offensive	-14373
▁ket	-14374
ocur	-14375
fting	-14376
▁livelihood	-14377
▁sufficiently	-14378
▁Veget	-14379
▁LE	-14380
▁cruc	-14381
bot	-14382
ignty	-14383
▁pile	-14384
▁rulers	-14385
Why	-14386
▁Truth	-14387
▁elaborate	-14388
▁semic	-14389
omnia	-14390
▁runoff	-14391
▁handled	-14392
TE	-14393
▁nights	-14394
▁recruit	-14395
▁Iceland	-14396
weg	-14397
▁Nicholas	-14398
▁flee	-14399
▁elephant	-14400
▁deck	-14401
▁Discovery	-14402
disciplinary	-14403
▁(17	-14404
▁bol	-14405
opsy	-14406
▁blend	-14407
▁2019.	-14408
▁Mobile	-14409
▁Programs	-14410
▁straightforward	-14411
▁fisheries	-14412
▁perceptions	-14413
▁Nepal	-14414
▁Comment	-14415
▁timely	-14416
▁backgrounds	-14417
▁advise	-14418
▁excluded	-14419
▁Josh	-14420
▁Domin	-14421
▁preserving	-14422
▁interconn	-14423
Sm	-14424
▁rhet	-14425
▁pist	-14426
▁Teach	-14427
▁occasional	-14428
▁Nag	-14429
orescent	-14430
▁compelling	-14431
▁EX	-14432
▁Plat	-14433
mother	-14434
▁homeless	-14435
▁substrate	-14436
▁ib	-14437
icates	-14438
▁Baltimore	-14439
▁iv	-14440
▁Nile	-14441
▁coordinate	-14442
istle	-14443
threatening	-14444
▁consistency	-14445
▁76	-14446
▁11:	-14447
▁Side	-14448
▁Thailand	-14449
▁cubic	-14450
▁fright	-14451
▁sweat	-14452
▁Tow	-14453
▁toy	-14454
utter	-14455
▁adulthood	-14456
▁Saud	-14457
ousing	-14458
▁supporters	-14459
▁trim	-14460
▁Surgery	-14461
osynthesis	-14462
▁pleasant	-14463
▁storing	-14464
imated	-14465
▁sharks	-14466
ogenesis	-14467
▁limestone	-14468
▁Byz	-14469
▁Vision	-14470
▁letting	-14471
▁introduces	-14472
▁Institution	-14473
▁precautions	-14474
Read	-14475
▁Tools	-14476
▁Ethiopia	-14477
▁sq	-14478
ondition	-14479
ulator	-14480
▁astronomy	-14481
▁couples	-14482
▁Letters	-14483
gly	-14484
aders	-14485
▁Habit	-14486
▁Ker	-14487
ocate	-14488
▁Cas	-14489
▁metric	-14490
▁anyway	-14491
▁978-0	-14492
ship	-14493
▁petroleum	-14494
▁RA	-14495
▁patron	-14496
▁Few	-14497
▁ultrasound	-14498
▁punct	-14499
acial	-14500
▁limbs	-14501
▁Principles	-14502
ryst	-14503
▁____	-14504
estab	-14505
▁treats	-14506
▁Princeton	-14507
insic	-14508
astically	-14509
▁Canal	-14510
▁elite	-14511
▁trucks	-14512
▁matches	-14513
▁jewel	-14514
▁aligned	-14515
comput	-14516
▁shrubs	-14517
▁Flore	-14518
▁aggression	-14519
rades	-14520
▁Influ	-14521
▁disappoint	-14522
▁protests	-14523
▁Everything	-14524
▁farther	-14525
gia	-14526
▁Collabor	-14527
OV	-14528
herence	-14529
▁poses	-14530
▁modification	-14531
▁contacts	-14532
▁surprisingly	-14533
▁Commonwealth	-14534
▁Anthony	-14535
izophrenia	-14536
▁Save	-14537
▁picking	-14538
▁Classroom	-14539
▁confusing	-14540
▁righteous	-14541
▁Increased	-14542
▁Institutes	-14543
▁resort	-14544
▁exhibits	-14545
▁quit	-14546
▁1992	-14547
ardless	-14548
som	-14549
walk	-14550
▁unint	-14551
▁asym	-14552
▁9:	-14553
▁expressing	-14554
▁inexpensive	-14555
etric	-14556
▁4%	-14557
when	-14558
▁induce	-14559
▁incons	-14560
▁litter	-14561
▁overseas	-14562
▁deficit	-14563
▁fracture	-14564
▁brushing	-14565
▁25%	-14566
▁Pel	-14567
▁Autism	-14568
uz	-14569
Ne	-14570
▁Senior	-14571
▁Private	-14572
▁tales	-14573
amboo	-14574
[...]
