<unk>	0
<s>	0
</s>	0
b'\x01'	0
b'\x02'	0
b'\x03'	0
b'\x04'	0
b'\x05'	0
b'\x06'	0
b'\x07'	0
b'\x08'	0
b'\t'	0
b'\n'	0
b'\x0b'	0
b'\x0c'	0
b'\r'	0
b'\x0e'	0
b'\x0f'	0
b'\x10'	0
b'\x11'	0
b'\x12'	0
b'\x13'	0
b'\x14'	0
b'\x15'	0
b'\x16'	0
b'\x17'	0
b'\x18'	0
b'\x19'	0
b'\x1a'	0
b'\x1b'	0
b'\x1c'	0
b'\x1d'	0
b'\x1e'	0
b'\x1f'	0
b' '	0
b'!'	0
b'"'	0
b'#'	0
b'$'	0
b'%'	0
b'&'	0
b"'"	0
b'('	0
b')'	0
b'*'	0
b'+'	0
b','	0
b'-'	0
b'.'	0
b'/'	0
b'0'	0
b'1'	0
b'2'	0
b'3'	0
b'4'	0
b'5'	0
b'6'	0
b'7'	0
b'8'	0
b'9'	0
b':'	0
b';'	0
b'<'	0
b'='	0
b'>'	0
b'?'	0
b'@'	0
b'A'	0
b'B'	0
b'C'	0
b'D'	0
b'E'	0
b'F'	0
b'G'	0
b'H'	0
b'I'	0
b'J'	0
b'K'	0
b'L'	0
b'M'	0
b'N'	0
b'O'	0
b'P'	0
b'Q'	0
b'R'	0
b'S'	0
b'T'	0
b'U'	0
b'V'	0
b'W'	0
b'X'	0
b'Y'	0
b'Z'	0
b'['	0
b'\\'	0
b']'	0
b'^'	0
b'_'	0
b'`'	0
b'a'	0
b'b'	0
b'c'	0
b'd'	0
b'e'	0
b'f'	0
b'g'	0
b'h'	0
b'i'	0
b'j'	0
b'k'	0
b'l'	0
b'm'	0
b'n'	0
b'o'	0
b'p'	0
b'q'	0
b'r'	0
b's'	0
b't'	0
b'u'	0
b'v'	0
b'w'	0
b'x'	0
b'y'	0
b'z'	0
b'{'	0
b'|'	0
b'}'	0
b'~'	0
b'\x7f'	0
b'\xc2\x80'	0
b'\xc2\x81'	0
b'\xc2\x82'	0
b'\xc2\x83'	0
b'\xc2\x84'	0
b'\xc2\x85'	0
b'\xc2\x86'	0
b'\xc2\x87'	0
b'\xc2\x88'	0
b'\xc2\x89'	0
b'\xc2\x8a'	0
b'\xc2\x8b'	0
b'\xc2\x8c'	0
b'\xc2\x8d'	0
b'\xc2\x8e'	0
b'\xc2\x8f'	0
b'\xc2\x90'	0
b'\xc2\x91'	0
b'\xc2\x92'	0
b'\xc2\x93'	0
b'\xc2\x94'	0
b'\xc2\x95'	0
b'\xc2\x96'	0
b'\xc2\x97'	0
b'\xc2\x98'	0
b'\xc2\x99'	0
b'\xc2\x9a'	0
b'\xc2\x9b'	0
b'\xc2\x9c'	0
b'\xc2\x9d'	0
b'\xc2\x9e'	0
b'\xc2\x9f'	0
b'\xc2\xa0'	0
b'\xc2\xa1'	0
b'\xc2\xa2'	0
b'\xc2\xa3'	0
b'\xc2\xa4'	0
b'\xc2\xa5'	0
b'\xc2\xa6'	0
b'\xc2\xa7'	0
b'\xc2\xa8'	0
b'\xc2\xa9'	0
b'\xc2\xaa'	0
b'\xc2\xab'	0
b'\xc2\xac'	0
b'\xc2\xad'	0
b'\xc2\xae'	0
b'\xc2\xaf'	0
b'\xc2\xb0'	0
b'\xc2\xb1'	0
b'\xc2\xb2'	0
b'\xc2\xb3'	0
b'\xc2\xb4'	0
b'\xc2\xb5'	0
b'\xc2\xb6'	0
b'\xc2\xb7'	0
b'\xc2\xb8'	0
b'\xc2\xb9'	0
b'\xc2\xba'	0
b'\xc2\xbb'	0
b'\xc2\xbc'	0
b'\xc2\xbd'	0
b'\xc2\xbe'	0
b'\xc2\xbf'	0
b'\xc3\x80'	0
b'\xc3\x81'	0
b'\xc3\x82'	0
b'\xc3\x83'	0
b'\xc3\x84'	0
b'\xc3\x85'	0
b'\xc3\x86'	0
b'\xc3\x87'	0
b'\xc3\x88'	0
b'\xc3\x89'	0
b'\xc3\x8a'	0
b'\xc3\x8b'	0
b'\xc3\x8c'	0
b'\xc3\x8d'	0
b'\xc3\x8e'	0
b'\xc3\x8f'	0
b'\xc3\x90'	0
b'\xc3\x91'	0
b'\xc3\x92'	0
b'\xc3\x93'	0
b'\xc3\x94'	0
b'\xc3\x95'	0
b'\xc3\x96'	0
b'\xc3\x97'	0
b'\xc3\x98'	0
b'\xc3\x99'	0
b'\xc3\x9a'	0
b'\xc3\x9b'	0
b'\xc3\x9c'	0
b'\xc3\x9d'	0
b'\xc3\x9e'	0
b'\xc3\x9f'	0
b'\xc3\xa0'	0
b'\xc3\xa1'	0
b'\xc3\xa2'	0
b'\xc3\xa3'	0
b'\xc3\xa4'	0
b'\xc3\xa5'	0
b'\xc3\xa6'	0
b'\xc3\xa7'	0
b'\xc3\xa8'	0
b'\xc3\xa9'	0
b'\xc3\xaa'	0
b'\xc3\xab'	0
b'\xc3\xac'	0
b'\xc3\xad'	0
b'\xc3\xae'	0
b'\xc3\xaf'	0
b'\xc3\xb0'	0
b'\xc3\xb1'	0
b'\xc3\xb2'	0
b'\xc3\xb3'	0
b'\xc3\xb4'	0
b'\xc3\xb5'	0
b'\xc3\xb6'	0
b'\xc3\xb7'	0
b'\xc3\xb8'	0
b'\xc3\xb9'	0
b'\xc3\xba'	0
b'\xc3\xbb'	0
b'\xc3\xbc'	0
b'\xc3\xbd'	0
b'\xc3\xbe'	0
b'\xc3\xbf'	0
<1>	0
<2>	0
<3>	0
<4>	0
<5>	0
<6>	0
<7>	0
<8>	0
<9>	0
<10>	0
<11>	0
<12>	0
<13>	0
<14>	0
<15>	0
<16>	0
<17>	0
<18>	0
<19>	0
<20>	0
<21>	0
<22>	0
<23>	0
<24>	0
<25>	0
<26>	0
<27>	0
<28>	0
<29>	0
<30>	0
<EOS>	0
<0x00>	0
<0x01>	0
<0x02>	0
<0x03>	0
<0x04>	0
<0x05>	0
<0x06>	0
<0x07>	0
<0x08>	0
<0x09>	0
<0x0A>	0
<0x0B>	0
<0x0C>	0
<0x0D>	0
<0x0E>	0
<0x0F>	0
<0x10>	0
<0x11>	0
<0x12>	0
<0x13>	0
<0x14>	0
<0x15>	0
<0x16>	0
<0x17>	0
<0x18>	0
<0x19>	0
<0x1A>	0
<0x1B>	0
<0x1C>	0
<0x1D>	0
<0x1E>	0
<0x1F>	0
<0x20>	0
<0x21>	0
<0x22>	0
<0x23>	0
<0x24>	0
<0x25>	0
<0x26>	0
<0x27>	0
<0x28>	0
<0x29>	0
<0x2A>	0
<0x2B>	0
<0x2C>	0
<0x2D>	0
<0x2E>	0
<0x2F>	0
<0x30>	0
<0x31>	0
<0x32>	0
<0x33>	0
<0x34>	0
<0x35>	0
<0x36>	0
<0x37>	0
<0x38>	0
<0x39>	0
<0x3A>	0
<0x3B>	0
<0x3C>	0
<0x3D>	0
<0x3E>	0
<0x3F>	0
<0x40>	0
<0x41>	0
<0x42>	0
<0x43>	0
<0x44>	0
<0x45>	0
<0x46>	0
<0x47>	0
<0x48>	0
<0x49>	0
<0x4A>	0
<0x4B>	0
<0x4C>	0
<0x4D>	0
<0x4E>	0
<0x4F>	0
<0x50>	0
<0x51>	0
<0x52>	0
<0x53>	0
<0x54>	0
<0x55>	0
<0x56>	0
<0x57>	0
<0x58>	0
<0x59>	0
<0x5A>	0
<0x5B>	0
<0x5C>	0
<0x5D>	0
<0x5E>	0
<0x5F>	0
<0x60>	0
<0x61>	0
<0x62>	0
<0x63>	0
<0x64>	0
<0x65>	0
<0x66>	0
<0x67>	0
<0x68>	0
<0x69>	0
<0x6A>	0
<0x6B>	0
<0x6C>	0
<0x6D>	0
<0x6E>	0
<0x6F>	0
<0x70>	0
<0x71>	0
<0x72>	0
<0x73>	0
<0x74>	0
<0x75>	0
<0x76>	0
<0x77>	0
<0x78>	0
<0x79>	0
<0x7A>	0
<0x7B>	0
<0x7C>	0
<0x7D>	0
<0x7E>	0
<0x7F>	0
<0x80>	0
<0x81>	0
<0x82>	0
<0x83>	0
<0x84>	0
<0x85>	0
<0x86>	0
<0x87>	0
<0x88>	0
<0x89>	0
<0x8A>	0
<0x8B>	0
<0x8C>	0
<0x8D>	0
<0x8E>	0
<0x8F>	0
<0x90>	0
<0x91>	0
<0x92>	0
<0x93>	0
<0x94>	0
<0x95>	0
<0x96>	0
<0x97>	0
<0x98>	0
<0x99>	0
<0x9A>	0
<0x9B>	0
<0x9C>	0
<0x9D>	0
<0x9E>	0
<0x9F>	0
<0xA0>	0
<0xA1>	0
<0xA2>	0
<0xA3>	0
<0xA4>	0
<0xA5>	0
<0xA6>	0
<0xA7>	0
<0xA8>	0
<0xA9>	0
<0xAA>	0
<0xAB>	0
<0xAC>	0
<0xAD>	0
<0xAE>	0
<0xAF>	0
<0xB0>	0
<0xB1>	0
<0xB2>	0
<0xB3>	0
<0xB4>	0
<0xB5>	0
<0xB6>	0
<0xB7>	0
<0xB8>	0
<0xB9>	0
<0xBA>	0
<0xBB>	0
<0xBC>	0
<0xBD>	0
<0xBE>	0
<0xBF>	0
<0xC0>	0
<0xC1>	0
<0xC2>	0
<0xC3>	0
<0xC4>	0
<0xC5>	0
<0xC6>	0
<0xC7>	0
<0xC8>	0
<0xC9>	0
<0xCA>	0
<0xCB>	0
<0xCC>	0
<0xCD>	0
<0xCE>	0
<0xCF>	0
<0xD0>	0
<0xD1>	0
<0xD2>	0
<0xD3>	0
<0xD4>	0
<0xD5>	0
<0xD6>	0
<0xD7>	0
<0xD8>	0
<0xD9>	0
<0xDA>	0
<0xDB>	0
<0xDC>	0
<0xDD>	0
<0xDE>	0
<0xDF>	0
<0xE0>	0
<0xE1>	0
<0xE2>	0
<0xE3>	0
<0xE4>	0
<0xE5>	0
<0xE6>	0
<0xE7>	0
<0xE8>	0
<0xE9>	0
<0xEA>	0
<0xEB>	0
<0xEC>	0
<0xED>	0
<0xEE>	0
<0xEF>	0
<0xF0>	0
<0xF1>	0
<0xF2>	0
<0xF3>	0
<0xF4>	0
<0xF5>	0
<0xF6>	0
<0xF7>	0
<0xF8>	0
<0xF9>	0
<0xFA>	0
<0xFB>	0
<0xFC>	0
<0xFD>	0
<0xFE>	0
<0xFF>	0
▁the	-3.17753
.	-3.19059
,	-3.20744
▁of	-3.6572
▁and	-3.77165
▁to	-3.8876
▁a	-4.14733
s	-4.1951
▁in	-4.22127
▁is	-4.60378
▁that	-4.88397
-	-4.93899
▁for	-4.98917
▁The	-5.17466
▁are	-5.22474
▁	-5.27248
▁with	-5.28731
▁as	-5.34298
▁on	-5.34805
’	-5.4179
▁be	-5.43769
▁(	-5.44339
▁or	-5.47509
▁it	-5.49288
▁-	-5.5547
▁by	-5.55696
:	-5.59368
▁from	-5.6373
▁was	-5.71548
▁you	-5.71576
▁can	-5.75052
▁have	-5.8195
▁an	-5.87613
▁at	-5.87937
▁this	-5.9054
)	-5.93128
'	-5.95285
▁not	-5.97337
▁their	-6.08004
▁your	-6.12872
▁which	-6.17487
▁they	-6.18753
▁will	-6.20797
▁“	-6.20988
▁more	-6.2395
▁has	-6.27537
▁"	-6.28199
▁In	-6.32875
t	-6.36714
▁A	-6.39908
▁one	-6.42771
▁also	-6.43151
▁we	-6.43856
▁but	-6.44295
▁were	-6.44357
▁I	-6.45341
?	-6.48995
▁all	-6.50962
;	-6.52712
▁This	-6.5352
▁about	-6.53545
▁other	-6.55947
▁It	-6.57904
▁his	-6.64344
ing	-6.7126
▁who	-6.72008
▁may	-6.73279
▁than	-6.74404
▁when	-6.76479
▁been	-6.77132
▁time	-6.78247
▁into	-6.78932
▁people	-6.79006
▁he	-6.80007
/	-6.80974
▁them	-6.82097
▁its	-6.83293
▁these	-6.83843
▁our	-6.88764
▁some	-6.90119
▁had	-6.91669
▁use	-6.92051
▁out	-6.92673
ed	-6.93972
▁so	-6.94085
▁most	-6.94593
▁there	-6.94722
▁up	-6.94815
▁such	-6.96487
”	-6.96541
▁if	-6.96721
▁do	-6.98339
▁would	-6.99435
▁how	-6.99731
▁used	-7.00641
▁what	-7.02233
▁only	-7.05118
▁many	-7.05399
▁first	-7.06582
▁–	-7.07634
d	-7.08301
▁two	-7.11551
▁like	-7.11679
▁new	-7.11912
▁over	-7.14699
▁no	-7.2124
▁water	-7.21554
).	-7.2243
▁years	-7.22601
▁well	-7.23019
▁through	-7.23559
▁any	-7.24064
▁should	-7.25338
▁.	-7.26982
▁between	-7.27668
▁make	-7.27759
▁If	-7.28106
▁work	-7.2831
"	-7.28483
a	-7.29841
▁could	-7.31431
▁help	-7.31537
S	-7.34287
e	-7.35742
▁where	-7.36442
▁said	-7.40142
▁way	-7.40901
▁”	-7.41326
▁because	-7.41825
▁need	-7.43197
▁very	-7.4346
▁after	-7.43664
▁For	-7.45143
▁then	-7.45198
ly	-7.45462
re	-7.46754
▁children	-7.47412
▁world	-7.47504
▁different	-7.48276
▁even	-7.48536
▁those	-7.48933
▁system	-7.49824
▁They	-7.51116
▁each	-7.51297
!	-7.52215
▁We	-7.52835
▁being	-7.52908
),	-7.5328
▁just	-7.53499
▁life	-7.54087
▁students	-7.54337
▁high	-7.54795
▁information	-7.55212
▁|	-7.5538
▁get	-7.55582
▁during	-7.55934
▁important	-7.5608
▁her	-7.56515
▁much	-7.56698
▁health	-7.56832
▁He	-7.57714
er	-7.58238
th	-7.58789
▁found	-7.58793
▁data	-7.592
▁1	-7.59407
▁made	-7.61822
▁part	-7.62946
▁same	-7.63045
▁year	-7.63068
▁using	-7.63738
y	-7.65368
▁There	-7.65553
▁What	-7.6607
▁As	-7.66209
▁study	-7.66402
▁But	-7.66425
▁both	-7.66737
▁before	-7.67548
▁see	-7.67793
▁You	-7.69217
▁long	-7.70316
▁us	-7.70456
▁take	-7.71152
▁often	-7.72106
▁day	-7.72323
▁research	-7.7271
▁while	-7.74093
▁number	-7.74109
▁2	-7.74184
▁good	-7.74659
▁body	-7.75412
▁around	-7.76416
▁now	-7.77741
▁When	-7.77897
▁To	-7.78615
▁These	-7.78796
▁know	-7.79443
▁three	-7.79727
▁C	-7.80061
▁3	-7.80842
▁under	-7.82084
▁New	-7.82922
in	-7.83422
▁food	-7.8358
▁own	-7.83665
▁S	-7.85453
▁must	-7.85615
▁including	-7.86191
,”	-7.86482
▁example	-7.86603
n	-7.86943
▁‘	-7.87524
▁back	-7.88599
▁my	-7.88835
▁called	-7.8893
▁does	-7.89124
▁B	-7.89492
▁known	-7.89663
▁5	-7.90194
▁University	-7.91756
▁U	-7.92273
▁small	-7.93009
▁process	-7.93041
▁human	-7.93296
▁school	-7.94285
▁still	-7.9442
▁And	-7.94786
i	-7.95316
—	-7.95476
▁down	-7.95999
▁find	-7.96098
▁she	-7.96138
▁child	-7.97449
▁American	-7.97545
▁change	-7.97685
▁However	-7.97728
▁state	-7.97868
▁power	-7.98134
▁right	-7.98223
▁energy	-7.98244
▁disease	-7.98466
m	-7.98848
▁D	-7.99268
es	-7.99389
▁place	-7.99429
▁might	-7.99679
▁M	-7.99852
▁large	-8.01122
▁within	-8.01122
▁every	-8.01432
▁&	-8.01617
▁area	-8.0174
▁include	-8.01893
▁without	-8.01996
or	-8.02258
▁common	-8.0285
▁less	-8.04886
▁him	-8.05715
▁development	-8.06524
▁risk	-8.06878
▁form	-8.06991
▁[	-8.07273
▁best	-8.07332
▁another	-8.07397
▁women	-8.07684
▁few	-8.07826
A	-8.08043
o	-8.08423
C	-8.09036
▁—	-8.09351
▁become	-8.09932
D	-8.0998
▁blood	-8.10756
▁better	-8.10869
▁great	-8.10905
▁early	-8.11359
The	-8.11749
▁end	-8.11763
||	-8.12128
▁cause	-8.12197
▁did	-8.12442
▁E	-8.12692
▁provide	-8.12887
▁public	-8.13141
▁history	-8.13695
▁go	-8.13796
r	-8.13822
▁home	-8.13858
▁How	-8.14539
]	-8.14551
▁person	-8.14689
▁4	-8.14696
▁United	-8.14871
▁here	-8.15019
the	-8.15291
▁J	-8.1568
▁learning	-8.16146
▁set	-8.16154
▁says	-8.16208
▁against	-8.16316
▁support	-8.16513
▁don	-8.16568
al	-8.16702
▁family	-8.16729
▁social	-8.16883
▁means	-8.17069
▁So	-8.17264
▁too	-8.17309
▁10	-8.17931
▁government	-8.18241
▁per	-8.18325
▁want	-8.18657
▁group	-8.19412
▁order	-8.19687
▁several	-8.19698
▁possible	-8.19734
▁able	-8.20757
▁treatment	-8.222
▁One	-8.22423
▁P	-8.22424
▁species	-8.22458
▁control	-8.22698
▁following	-8.22962
2	-8.23028
▁off	-8.23167
▁level	-8.23797
▁light	-8.24506
▁available	-8.24572
▁last	-8.24851
▁things	-8.25485
▁since	-8.25553
▁areas	-8.25633
▁National	-8.25757
▁States	-8.26175
▁based	-8.26313
▁name	-8.2656
▁R	-8.26793
▁low	-8.26952
I	-8.27174
▁come	-8.27568
|	-8.28369
▁God	-8.28374
▁type	-8.28833
▁country	-8.2897
▁point	-8.2899
▁T	-8.2914
▁Some	-8.29409
▁think	-8.2947
▁age	-8.29518
▁look	-8.29853
▁de	-8.3013
▁An	-8.30326
▁non	-8.30798
,"	-8.30851
▁case	-8.31171
ve	-8.32207
▁care	-8.32253
▁me	-8.32584
▁learn	-8.32931
to	-8.32981
▁percent	-8.33128
▁among	-8.33347
▁problems	-8.33435
▁book	-8.33853
▁result	-8.34012
▁local	-8.34175
▁natural	-8.34338
▁times	-8.34635
▁little	-8.34641
▁problem	-8.3468
▁levels	-8.34753
▁making	-8.3508
▁'	-8.35533
▁others	-8.3555
▁On	-8.35559
▁cells	-8.35894
▁due	-8.36168
▁At	-8.36537
▁air	-8.36657
▁until	-8.36747
ll	-8.37202
▁education	-8.375
▁G	-8.37756
▁K	-8.38227
▁create	-8.38283
▁language	-8.3839
▁6	-8.38548
▁given	-8.39143
▁keep	-8.39144
▁By	-8.39508
▁likely	-8.40456
▁fact	-8.40464
▁technology	-8.40567
▁days	-8.40633
▁say	-8.40874
▁million	-8.40891
▁increase	-8.41035
▁p	-8.41084
▁community	-8.41759
▁H	-8.4186
▁four	-8.41927
▁something	-8.41957
▁cancer	-8.42079
▁men	-8.42659
ers	-8.42712
▁later	-8.42896
▁give	-8.42945
▁usually	-8.43035
▁course	-8.43115
▁project	-8.432
▁e	-8.4369
▁today	-8.43717
▁words	-8.43795
▁second	-8.44282
▁land	-8.44364
▁always	-8.44371
▁experience	-8.44472
▁program	-8.44574
▁That	-8.44779
▁future	-8.45014
▁free	-8.45113
▁L	-8.45255
▁systems	-8.45338
▁plant	-8.45463
▁major	-8.45469
▁test	-8.45556
▁results	-8.45601
▁next	-8.45605
▁across	-8.45685
▁why	-8.45784
▁20	-8.45891
▁century	-8.4663
▁present	-8.46645
▁brain	-8.46722
▁F	-8.47003
▁population	-8.47119
▁together	-8.47433
▁heart	-8.47539
▁conditions	-8.47574
▁along	-8.47886
▁working	-8.47937
▁While	-8.47962
▁above	-8.48169
▁needs	-8.48388
▁various	-8.49019
▁side	-8.49394
▁All	-8.49604
▁countries	-8.49667
▁re	-8.49722
▁With	-8.50352
▁plants	-8.50469
▁higher	-8.5064
▁understand	-8.50712
▁least	-8.50841
and	-8.51024
▁Dr	-8.51062
b	-8.51172
▁environment	-8.514
on	-8.51451
▁lead	-8.5192
▁period	-8.52152
▁changes	-8.52244
▁away	-8.52272
▁World	-8.52573
▁man	-8.52652
▁1.	-8.52754
▁English	-8.53016
▁patients	-8.53145
▁far	-8.53309
▁enough	-8.53509
▁left	-8.53701
▁space	-8.53747
▁After	-8.53928
▁symptoms	-8.54881
▁show	-8.54888
▁especially	-8.54912
://	-8.55112
▁specific	-8.5515
▁put	-8.55182
▁however	-8.55587
▁effects	-8.55666
▁types	-8.56046
▁city	-8.56317
▁having	-8.56583
▁start	-8.56653
▁ways	-8.56924
▁full	-8.56949
▁science	-8.56955
▁)	-8.5709
▁going	-8.57155
▁role	-8.57177
▁design	-8.57443
▁N	-8.57471
▁main	-8.5751
▁current	-8.57631
▁old	-8.57937
▁range	-8.58637
▁8	-8.58648
▁became	-8.58653
▁read	-8.58977
▁certain	-8.59017
▁paper	-8.59116
▁never	-8.59162
▁War	-8.59408
▁young	-8.59461
▁physical	-8.59697
▁below	-8.59702
▁access	-8.59931
▁whether	-8.59963
▁studies	-8.60105
▁cases	-8.60596
▁amount	-8.60735
▁article	-8.60865
▁key	-8.60978
▁7	-8.61119
c	-8.61264
▁develop	-8.61291
▁production	-8.613
▁hand	-8.61377
▁activities	-8.61573
▁general	-8.61869
▁individual	-8.61915
▁line	-8.61985
▁further	-8.62015
▁knowledge	-8.62395
▁word	-8.62473
▁resources	-8.62506
▁report	-8.62533
▁site	-8.62628
▁skills	-8.62656
▁researchers	-8.62681
▁quality	-8.62927
▁lower	-8.62927
▁value	-8.62939
▁impact	-8.63456
▁similar	-8.63547
▁war	-8.63874
▁team	-8.63997
▁reduce	-8.6404
▁open	-8.64108
▁potential	-8.64346
▁building	-8.6446
▁activity	-8.64498
▁material	-8.64528
▁already	-8.64641
▁live	-8.64838
▁really	-8.64968
▁seen	-8.64971
▁climate	-8.65011
▁makes	-8.65131
▁past	-8.65146
▁America	-8.65202
▁products	-8.65267
▁growth	-8.65271
▁done	-8.65315
▁death	-8.65386
(	-8.65416
▁field	-8.65758
▁law	-8.65805
▁sure	-8.66118
▁developed	-8.66235
▁self	-8.66539
▁story	-8.66792
▁effect	-8.66802
▁short	-8.67027
▁source	-8.67082
▁surface	-8.67129
▁Health	-8.67692
▁medical	-8.67721
1	-8.67724
▁white	-8.67998
▁single	-8.68117
▁five	-8.68121
▁15	-8.68177
an	-8.68591
▁=	-8.68658
▁pain	-8.68659
▁skin	-8.68946
▁lot	-8.69059
▁groups	-8.69253
▁addition	-8.69264
▁John	-8.69431
▁play	-8.69603
▁South	-8.69646
▁according	-8.69693
en	-8.69712
▁rate	-8.69712
▁questions	-8.69769
▁either	-8.69868
p	-8.69964
▁real	-8.6999
▁feel	-8.70156
B	-8.70294
▁2.	-8.7037
▁No	-8.70527
▁pressure	-8.70702
▁created	-8.70755
▁once	-8.71016
▁issues	-8.71118
▁W	-8.71203
▁rather	-8.71263
man	-8.71338
▁size	-8.71387
▁class	-8.71457
▁published	-8.71566
▁taken	-8.7171
▁significant	-8.72133
▁Many	-8.72484
▁evidence	-8.72663
▁practice	-8.7303
▁understanding	-8.73144
▁though	-8.7335
▁healthy	-8.73503
▁whole	-8.73558
▁considered	-8.73817
▁12	-8.74034
▁living	-8.7408
▁came	-8.74659
▁student	-8.74914
▁O	-8.75134
▁simple	-8.75212
▁animals	-8.75521
▁North	-8.75762
▁York	-8.75773
l	-8.75942
▁model	-8.75952
▁associated	-8.76229
▁effective	-8.76312
▁black	-8.76449
▁Earth	-8.76466
▁near	-8.7652
▁related	-8.76601
▁Research	-8.76816
us	-8.76937
▁materials	-8.76943
ic	-8.77205
▁particular	-8.77258
▁required	-8.77362
▁needed	-8.77758
▁cell	-8.7786
▁actually	-8.77867
▁g	-8.78037
▁un	-8.78071
▁writing	-8.78176
▁nature	-8.78242
▁business	-8.78313
▁function	-8.78379
▁increased	-8.78443
▁She	-8.78484
▁oil	-8.78485
▁cost	-8.78506
▁provides	-8.78647
▁top	-8.78681
▁themselves	-8.78744
▁loss	-8.78876
▁Here	-8.78914
▁again	-8.79019
▁idea	-8.79057
▁ability	-8.79347
▁reading	-8.79485
▁prevent	-8.79493
▁State	-8.79597
▁question	-8.79791
▁upon	-8.79833
▁management	-8.79949
▁improve	-8.79978
_	-8.80111
▁comes	-8.80221
▁cannot	-8.80567
P	-8.80734
▁method	-8.81293
▁global	-8.81307
▁states	-8.81495
▁soil	-8.81602
▁services	-8.81709
▁months	-8.81715
▁difficult	-8.81732
▁online	-8.81833
▁national	-8.81901
▁al	-8.81922
▁members	-8.8224
▁St	-8.82245
▁factors	-8.82279
▁Most	-8.82394
▁parents	-8.82484
▁almost	-8.82519
based	-8.82597
E	-8.8269
▁head	-8.82701
▁economic	-8.82784
▁analysis	-8.82788
▁political	-8.82888
▁hard	-8.82962
▁computer	-8.83104
▁produce	-8.83172
▁parts	-8.83236
▁thought	-8.8331
▁weight	-8.83669
▁money	-8.8372
▁British	-8.83733
▁half	-8.83776
g	-8.83815
▁30	-8.83957
▁approach	-8.84284
▁US	-8.84704
▁His	-8.84712
▁took	-8.848
▁Your	-8.85022
x	-8.85079
▁plan	-8.85088
▁term	-8.85211
▁works	-8.85312
▁began	-8.85513
▁clear	-8.85563
▁9	-8.85588
▁necessary	-8.85652
▁throughout	-8.85799
▁gas	-8.858
▁modern	-8.85969
▁Do	-8.86025
M	-8.86087
▁service	-8.86192
▁rights	-8.86256
▁region	-8.86291
▁taking	-8.86581
▁itself	-8.86712
▁content	-8.87036
▁V	-8.87094
▁built	-8.87388
▁view	-8.87551
▁company	-8.88143
ism	-8.88147
▁temperature	-8.88225
▁Science	-8.88288
▁shows	-8.88503
T	-8.88554
▁Although	-8.88851
▁recent	-8.88865
▁m	-8.88887
▁training	-8.89011
F	-8.89147
able	-8.89189
▁According	-8.89365
▁mind	-8.89653
▁industry	-8.89692
▁structure	-8.90152
▁May	-8.90196
▁hours	-8.90235
▁total	-8.90303
▁list	-8.90345
▁ever	-8.90407
▁action	-8.90478
–	-8.9055
▁From	-8.90637
▁sense	-8.90769
▁week	-8.9081
▁caused	-8.90852
▁environmental	-8.9122
▁yet	-8.91222
▁ground	-8.91233
▁•	-8.9149
▁easy	-8.91549
▁post	-8.91604
▁longer	-8.91704
▁strong	-8.91846
▁average	-8.92089
ness	-8.92116
k	-8.92176
▁designed	-8.92209
▁benefits	-8.92469
▁individuals	-8.9256
▁condition	-8.92594
▁India	-8.92628
▁heat	-8.92647
▁matter	-8.93035
▁page	-8.93081
▁schools	-8.93121
▁thing	-8.93631
▁move	-8.93683
▁scientists	-8.9396
▁close	-8.9398
▁causes	-8.93988
▁School	-8.94112
▁allow	-8.94154
▁lives	-8.94205
▁text	-8.94348
▁etc	-8.94414
▁turn	-8.94722
▁focus	-8.94745
▁damage	-8.94954
▁terms	-8.95091
▁provided	-8.95264
▁includes	-8.95435
is	-8.95552
▁society	-8.95748
▁special	-8.95943
▁personal	-8.96154
▁issue	-8.96196
▁reason	-8.96232
▁art	-8.96467
▁image	-8.96548
▁variety	-8.9683
▁fish	-8.97352
▁3.	-8.97504
▁red	-8.97537
▁diet	-8.97599
▁et	-8.97819
▁interest	-8.97995
▁believe	-8.98014
▁shown	-8.98085
▁written	-8.98154
▁true	-8.98287
▁kind	-8.98496
▁face	-8.985
▁market	-8.98658
H	-8.98976
▁original	-8.98992
▁try	-8.98997
▁complete	-8.99293
▁response	-8.9957
N	-9.00051
▁mean	-9.00053
▁methods	-9.00071
▁sometimes	-9.00094
▁build	-9.00239
com	-9.0036
▁ensure	-9.00534
▁events	-9.00559
▁movement	-9.00578
▁call	-9.00599
R	-9.00656
G	-9.00885
▁love	-9.00963
▁China	-9.01085
▁house	-9.01086
▁outside	-9.01105
▁helps	-9.01173
▁/	-9.01435
▁culture	-9.01483
▁Center	-9.01525
▁color	-9.01572
▁programs	-9.01663
▁doing	-9.01714
▁led	-9.01716
▁grow	-9.01734
▁carbon	-9.01791
".	-9.01979
▁sources	-9.0199
▁simply	-9.02021
▁basic	-9.02091
▁involved	-9.02214
▁stress	-9.02253
▁run	-9.02275
▁big	-9.02306
▁0	-9.02432
▁kids	-9.02526
▁feet	-9.02559
▁contact	-9.02765
▁essential	-9.02798
▁popular	-9.02802
▁16	-9.02862
up	-9.029
▁greater	-9.02938
▁Our	-9.02963
as	-9.03122
▁developing	-9.03229
▁sea	-9.03382
▁More	-9.03524
▁normal	-9.03526
▁foods	-9.03819
3	-9.04071
▁complex	-9.04088
▁teachers	-9.04152
▁subject	-9.04198
▁doesn	-9.04387
▁positive	-9.04487
▁fire	-9.04576
▁sleep	-9.04679
▁growing	-9.04792
▁safety	-9.04916
▁six	-9.04985
▁particularly	-9.05001
▁position	-9.05206
▁During	-9.05544
▁getting	-9.05546
▁attention	-9.05548
▁produced	-9.0574
▁protect	-9.05862
h	-9.0595
▁continue	-9.06017
▁animal	-9.06039
▁step	-9.06109
▁product	-9.06178
▁let	-9.06324
▁series	-9.06493
▁Europe	-9.0661
▁patient	-9.06621
▁share	-9.06748
ity	-9.06822
▁avoid	-9.06838
▁require	-9.07053
▁Institute	-9.0729
▁music	-9.07456
▁Department	-9.07479
▁media	-9.07513
▁tree	-9.07654
▁daily	-9.07797
▁included	-9.0782
www	-9.07956
▁reported	-9.08034
▁11	-9.08062
▁pre	-9.08218
▁late	-9.08436
▁http	-9.08521
ist	-9.08553
▁someone	-9.08805
▁generally	-9.09024
▁First	-9.09027
▁eye	-9.09102
▁March	-9.09127
▁ago	-9.09152
▁100	-9.09306
▁co	-9.09329
K	-9.09367
▁safe	-9.09551
▁Now	-9.09601
▁added	-9.09932
f	-9.09984
▁looking	-9.09985
▁probably	-9.10072
▁uses	-9.10243
▁eat	-9.10246
We	-9.10276
st	-9.10362
▁started	-9.10433
▁easily	-9.10711
▁History	-9.10747
▁performance	-9.10836
▁international	-9.11076
▁standard	-9.1114
▁California	-9.11178
▁50	-9.11237
▁determine	-9.11283
▁ideas	-9.11313
▁force	-9.11352
▁European	-9.11546
▁primary	-9.11579
▁occur	-9.11623
▁Other	-9.11696
▁inside	-9.11742
▁tools	-9.11782
▁forms	-9.11885
▁numbers	-9.12216
▁follow	-9.12326
▁books	-9.12485
▁answer	-9.12654
▁allows	-9.12793
▁communities	-9.12889
▁behavior	-9.13181
▁takes	-9.13263
▁night	-9.13355
▁consider	-9.13507
▁policy	-9.13514
▁difference	-9.13519
▁mental	-9.1354
▁traditional	-9.1361
▁network	-9.13636
▁video	-9.13641
▁entire	-9.13834
▁French	-9.13901
▁instead	-9.14071
▁meaning	-9.14117
▁green	-9.14257
▁third	-9.14289
▁write	-9.14321
▁multiple	-9.14475
▁scientific	-9.14487
▁solar	-9.14504
▁Africa	-9.14534
▁sound	-9.1488
▁International	-9.14884
▁exercise	-9.14897
▁quickly	-9.14913
▁diseases	-9.1502
▁held	-9.15219
▁Since	-9.15397
▁trees	-9.15643
L	-9.15956
▁companies	-9.16147
▁Of	-9.16207
▁quite	-9.16307
▁Why	-9.16502
▁infection	-9.16552
▁add	-9.16826
▁established	-9.16946
▁June	-9.16978
▁compared	-9.17191
▁security	-9.17555
▁14	-9.17656
▁Even	-9.18015
▁bring	-9.18088
▁critical	-9.18121
▁larger	-9.18202
▁offer	-9.18212
▁African	-9.18222
▁military	-9.18392
O	-9.18411
▁therefore	-9.18466
▁0.	-9.18485
▁behind	-9.18567
▁author	-9.18606
▁account	-9.18889
▁flow	-9.19023
▁website	-9.19068
▁directly	-9.19199
▁points	-9.19201
▁additional	-9.19368
▁unique	-9.19375
▁leading	-9.19383
▁April	-9.19815
▁thus	-9.19817
▁active	-9.19854
▁spread	-9.19932
▁teaching	-9.19962
▁affect	-9.20084
▁anti	-9.20264
▁highly	-9.20305
▁wide	-9.20489
▁families	-9.20499
▁software	-9.20592
▁poor	-9.2081
▁tell	-9.20812
▁theory	-9.209
▁Act	-9.20989
▁River	-9.21017
▁address	-9.21179
▁18	-9.21356
▁com	-9.21498
▁i	-9.21573
▁section	-9.21832
▁July	-9.21847
▁minutes	-9.22026
▁beginning	-9.2237
▁features	-9.22412
▁German	-9.22452
▁fall	-9.22458
▁doctor	-9.22459
▁rest	-9.22561
▁ancient	-9.22678
▁check	-9.22781
▁supply	-9.22816
▁lack	-9.22991
▁--	-9.22992
▁contains	-9.23191
▁*	-9.23226
▁25	-9.23229
▁humans	-9.23291
▁identify	-9.23401
▁event	-9.23537
▁waste	-9.23554
▁Re	-9.23603
▁largest	-9.23634
▁cut	-9.2367
▁protein	-9.23845
ation	-9.23889
▁application	-9.23947
▁West	-9.23967
ia	-9.23999
▁II	-9.24015
▁went	-9.24021
▁act	-9.24153
▁towards	-9.24526
ton	-9.24708
▁Jesus	-9.24723
▁Day	-9.24824
▁Also	-9.24857
▁mass	-9.24885
▁Be	-9.24959
▁Because	-9.25022
▁begin	-9.25031
▁4.	-9.25042
▁game	-9.25055
▁Education	-9.25064
▁Then	-9.25359
▁although	-9.25495
▁situation	-9.25649
▁thinking	-9.25692
▁Indian	-9.25698
▁useful	-9.25758
▁adults	-9.25855
▁Use	-9.25893
▁car	-9.26062
▁located	-9.26112
▁sun	-9.26188
▁purpose	-9.26284
▁King	-9.26316
▁People	-9.26383
▁financial	-9.26465
▁whose	-9.26599
▁central	-9.26687
▁lost	-9.26692
W	-9.26719
▁X	-9.2678
▁stop	-9.26785
▁protection	-9.26786
▁essay	-9.26885
z	-9.26953
▁am	-9.26996
term	-9.27057
▁nearly	-9.27106
▁goal	-9.27169
▁visit	-9.27202
▁return	-9.27329
▁images	-9.27421
▁13	-9.27503
▁bacteria	-9.27509
▁teeth	-9.27617
▁elements	-9.27634
▁job	-9.27756
▁serious	-9.27857
▁weeks	-9.27981
▁values	-9.28045
▁hands	-9.28181
▁deep	-9.28261
▁Canada	-9.28294
▁Washington	-9.28302
▁President	-9.28346
▁limited	-9.28397
▁solution	-9.28554
▁leaves	-9.28556
▁17	-9.2864
▁told	-9.28678
▁born	-9.28773
u	-9.28826
▁summer	-9.28919
▁reach	-9.28947
▁received	-9.29244
▁Not	-9.29425
▁sugar	-9.29458
▁requires	-9.29513
▁England	-9.29523
▁construction	-9.29585
▁code	-9.29593
▁relationship	-9.29598
▁influence	-9.29726
▁devices	-9.29779
▁importance	-9.29809
▁appropriate	-9.29854
▁eating	-9.29878
▁ask	-9.29912
▁soon	-9.29922
▁cold	-9.30123
▁workers	-9.30171
▁decision	-9.30262
▁pay	-9.30274
▁earth	-9.30342
▁brought	-9.30352
▁month	-9.30764
▁miles	-9.30901
J	-9.30923
▁September	-9.30982
▁creating	-9.31014
▁19	-9.31046
▁seems	-9.3107
It	-9.31102
▁processes	-9.31145
▁Is	-9.3116
▁appear	-9.31243
▁died	-9.3127
▁record	-9.31393
▁private	-9.31454
4	-9.31454
▁nation	-9.31494
▁described	-9.31516
it	-9.31712
▁communication	-9.31755
▁techniques	-9.31807
▁testing	-9.31913
▁increasing	-9.31916
▁costs	-9.31939
▁projects	-9.31954
▁x	-9.31997
▁tests	-9.32041
▁City	-9.32054
V	-9.32089
▁Each	-9.32179
▁direct	-9.32215
▁memory	-9.32293
▁applications	-9.32297
▁typically	-9.32313
▁object	-9.3244
▁front	-9.32447
▁contain	-9.32449
▁Great	-9.32449
▁January	-9.32679
▁teacher	-9.32685
▁Press	-9.32687
▁October	-9.32775
▁negative	-9.32811
▁center	-9.32985
▁Americans	-9.33006
▁c	-9.33101
▁rates	-9.33214
▁tool	-9.33392
▁Journal	-9.33423
le	-9.33425
▁Water	-9.33442
▁device	-9.33456
▁lines	-9.33593
▁chemical	-9.33627
▁drug	-9.33655
▁speed	-9.33851
like	-9.33933
▁severe	-9.34008
▁August	-9.34095
▁success	-9.34101
▁date	-9.34183
▁County	-9.34252
▁remains	-9.34379
▁yourself	-9.34386
▁meet	-9.34402
▁efforts	-9.34491
year	-9.34535
▁property	-9.34536
▁dry	-9.34549
▁sites	-9.34567
v	-9.34725
▁room	-9.34955
▁equipment	-9.35069
▁places	-9.35089
el	-9.35198
▁Can	-9.35465
▁file	-9.3565
▁won	-9.35733
▁eyes	-9.35863
▁receive	-9.35944
▁virus	-9.35964
▁weather	-9.36175
▁40	-9.3624
▁Once	-9.36313
▁cultural	-9.36341
▁therapy	-9.36458
▁professional	-9.36468
▁stage	-9.36553
▁digital	-9.36671
▁Another	-9.36695
▁final	-9.36708
de	-9.36737
▁choose	-9.36796
▁responsible	-9.36974
▁religious	-9.37028
▁recently	-9.37124
▁review	-9.3715
▁Chinese	-9.37181
at	-9.37195
▁becomes	-9.37281
▁measure	-9.37292
▁De	-9.37293
▁basis	-9.37388
▁trade	-9.37481
▁got	-9.37501
▁older	-9.37543
▁gives	-9.37635
▁affected	-9.37676
▁anything	-9.37714
▁diabetes	-9.37734
▁location	-9.37739
▁shape	-9.37802
▁bad	-9.37819
rs	-9.38231
▁London	-9.38256
▁Black	-9.38508
▁providing	-9.38619
▁middle	-9.3864
▁everything	-9.38641
▁via	-9.38765
▁exposure	-9.38858
▁currently	-9.38872
▁organization	-9.38944
▁base	-9.38973
▁wrote	-9.39007
▁dog	-9.39025
▁regular	-9.39045
▁opportunity	-9.39045
▁asked	-9.39083
▁fuel	-9.39266
▁named	-9.39286
▁mother	-9.39321
▁benefit	-9.39366
▁concept	-9.39462
▁user	-9.3948
▁collection	-9.39499
▁expected	-9.39733
▁hold	-9.39781
▁December	-9.39844
▁web	-9.39846
▁talk	-9.3988
▁attack	-9.39945
▁search	-9.40079
▁overall	-9.40088
▁town	-9.40104
▁saw	-9.40242
▁followed	-9.40313
▁leave	-9.40382
▁San	-9.40473
▁birth	-9.40767
▁federal	-9.40811
▁reasons	-9.40942
▁rise	-9.40977
▁everyone	-9.41149
▁Australia	-9.41189
▁ice	-9.41251
▁Church	-9.41267
▁smaller	-9.41315
▁objects	-9.41325
▁scale	-9.41338
▁length	-9.41459
▁winter	-9.4148
▁cover	-9.41847
▁practices	-9.41881
▁discovered	-9.41944
▁seem	-9.42021
▁maintain	-9.42107
▁November	-9.42132
▁Children	-9.42136
▁beyond	-9.42217
▁nothing	-9.42229
▁General	-9.42237
ry	-9.42377
▁East	-9.42492
no	-9.42498
▁link	-9.42536
▁birds	-9.42543
▁billion	-9.42593
▁trying	-9.42604
of	-9.42673
▁21	-9.42699
▁users	-9.42767
▁clean	-9.4291
j	-9.42968
▁examples	-9.43013
▁member	-9.4308
te	-9.4311
▁shall	-9.43137
um	-9.4322
▁degree	-9.43321
▁version	-9.43352
▁himself	-9.43425
▁north	-9.43652
▁drugs	-9.4366
▁completely	-9.43776
▁goes	-9.43782
▁commonly	-9.43793
▁sub	-9.43936
▁successful	-9.43961
▁remain	-9.43987
▁alone	-9.44009
▁woman	-9.44103
▁news	-9.44222
▁occurs	-9.44273
▁:	-9.44279
less	-9.4433
▁steps	-9.4452
▁baby	-9.4453
▁legal	-9.44626
▁wind	-9.44654
▁son	-9.44812
▁earlier	-9.44836
▁stay	-9.44884
▁toward	-9.44936
▁sent	-9.44998
▁forces	-9.45028
▁economy	-9.45065
▁My	-9.45161
In	-9.45171
▁models	-9.45324
▁hot	-9.45374
▁previous	-9.45502
▁interesting	-9.45551
▁standards	-9.45553
▁acid	-9.45589
▁House	-9.45594
▁immune	-9.45626
▁Society	-9.45759
▁Let	-9.45962
▁rules	-9.45964
▁measures	-9.45985
▁effort	-9.4601
▁father	-9.46183
▁UK	-9.46313
▁isn	-9.46335
▁See	-9.46433
▁historical	-9.46604
▁d	-9.46641
land	-9.46657
▁Association	-9.46699
▁placed	-9.46842
▁machine	-9.46862
▁coming	-9.4698
▁William	-9.47
▁bit	-9.47145
▁fat	-9.47315
▁Their	-9.47333
▁DNA	-9.47426
▁powerful	-9.47457
▁fruit	-9.47484
▁proper	-9.47883
▁signs	-9.47996
ization	-9.48056
▁hope	-9.48105
▁emissions	-9.48375
▁rule	-9.48456
▁allowed	-9.48492
▁Students	-9.48561
▁+	-9.48576
▁applied	-9.48584
▁treat	-9.48652
▁factor	-9.48744
▁identified	-9.4876
▁Union	-9.48799
ion	-9.48833
▁unit	-9.49028
▁France	-9.49074
▁Co	-9.49164
▁Today	-9.4937
org	-9.49413
▁stories	-9.4948
▁properties	-9.495
▁note	-9.4957
▁b	-9.49622
▁friends	-9.49661
▁24	-9.49663
▁piece	-9.49685
▁February	-9.49689
▁formed	-9.49847
▁south	-9.49885
▁reduced	-9.49976
▁planet	-9.50033
▁guide	-9.50043
▁differences	-9.50052
▁tissue	-9.50106
▁genetic	-9.50107
-19	-9.50293
▁cities	-9.50709
▁Park	-9.50791
▁Jewish	-9.50822
▁table	-9.50966
▁continued	-9.51012
na	-9.51038
▁gave	-9.51233
▁achieve	-9.5124
▁river	-9.5126
▁church	-9.51301
▁choice	-9.51404
▁laws	-9.51482
▁character	-9.51533
▁style	-9.51655
▁didn	-9.51841
▁Germany	-9.52003
▁educational	-9.52006
▁staff	-9.52069
▁challenges	-9.52183
▁offers	-9.52326
▁female	-9.52388
▁picture	-9.5243
▁majority	-9.52467
▁moving	-9.5247
▁changed	-9.52554
▁status	-9.52563
▁Over	-9.5287
▁season	-9.53029
▁presence	-9.53078
ian	-9.53128
▁patterns	-9.53235
▁vision	-9.5326
▁David	-9.53426
by	-9.53537
▁remember	-9.53708
▁capacity	-9.5373
▁fast	-9.53734
▁opportunities	-9.53744
▁native	-9.53837
▁findings	-9.53874
▁Lord	-9.54169
▁showed	-9.54192
▁James	-9.54206
▁price	-9.54239
▁balance	-9.54262
▁Internet	-9.54512
▁deal	-9.54548
▁distance	-9.54609
▁Retrieved	-9.54614
▁Using	-9.54716
▁components	-9.54773
▁fully	-9.54783
▁demand	-9.54789
▁classroom	-9.54891
▁forward	-9.55083
▁giving	-9.5509
▁worked	-9.55113
time	-9.55133
▁Or	-9.55159
▁running	-9.55185
▁names	-9.55272
▁thousands	-9.55384
▁existing	-9.55469
▁College	-9.55634
▁topic	-9.55788
▁road	-9.55832
▁High	-9.55879
▁consumption	-9.56018
▁fun	-9.56041
▁details	-9.56144
▁equal	-9.56223
ment	-9.56251
▁sign	-9.56301
ma	-9.56381
▁save	-9.56481
▁explain	-9.56492
▁disorder	-9.5664
▁break	-9.56668
▁strategies	-9.56674
▁planning	-9.56694
▁n	-9.56722
▁dark	-9.56827
▁relatively	-9.56878
▁increases	-9.56986
▁chance	-9.57066
▁correct	-9.57124
▁mouth	-9.57136
▁options	-9.57263
▁office	-9.57385
▁capital	-9.57387
ar	-9.57398
▁map	-9.57453
▁cross	-9.57728
▁functions	-9.57758
▁rich	-9.57778
▁perhaps	-9.57856
▁Thus	-9.57958
▁milk	-9.58178
▁context	-9.58218
▁reports	-9.58221
▁plans	-9.58249
▁strength	-9.58277
▁muscle	-9.58329
▁appears	-9.58342
▁bone	-9.58596
▁hair	-9.58652
▁instance	-9.58726
▁60	-9.58777
▁actions	-9.58859
▁gain	-9.58916
▁pp	-9.58981
▁progress	-9.59087
▁believed	-9.59184
▁plastic	-9.5924
son	-9.59271
▁else	-9.59344
ized	-9.59353
▁resistance	-9.59356
▁medicine	-9.59359
▁task	-9.59371
▁items	-9.59403
▁Western	-9.5941
▁Roman	-9.59427
▁technologies	-9.59458
▁alcohol	-9.59518
▁clinical	-9.59555
▁figure	-9.59574
▁...	-9.5963
▁forest	-9.59721
▁apply	-9.59736
▁generation	-9.59814
▁Council	-9.59835
=	-9.59878
▁spring	-9.5999
▁remove	-9.60005
▁George	-9.60091
▁treated	-9.60149
▁passed	-9.60155
▁huge	-9.60426
▁seven	-9.60432
▁famous	-9.6058
▁release	-9.60636
▁commercial	-9.60665
▁depression	-9.6073
▁5.	-9.60864
▁resource	-9.60864
▁tend	-9.60973
▁income	-9.6101
▁former	-9.6104
▁defined	-9.61044
day	-9.61053
▁garden	-9.61156
This	-9.61201
▁happen	-9.61269
▁Don	-9.61296
▁Two	-9.61371
▁metal	-9.61375
▁extremely	-9.61406
▁separate	-9.61421
▁Read	-9.6143
▁About	-9.61508
▁easier	-9.61516
▁Y	-9.61525
▁teach	-9.61602
▁blue	-9.61626
▁ten	-9.61799
▁highest	-9.6183
▁Japan	-9.61893
▁suggests	-9.62023
one	-9.62038
▁Christian	-9.62057
▁letter	-9.62271
▁electricity	-9.62287
▁significantly	-9.62343
co	-9.62348
▁requirements	-9.62378
▁target	-9.62379
▁travel	-9.62416
▁eventually	-9.62448
▁immediately	-9.62478
▁cycle	-9.62645
▁Museum	-9.62832
▁direction	-9.62849
▁heavy	-9.62885
▁Japanese	-9.62923
▁decades	-9.62986
▁male	-9.63042
▁wood	-9.63096
ie	-9.63196
line	-9.63196
▁organizations	-9.63404
Y	-9.63461
▁pattern	-9.63525
w	-9.63618
▁challenge	-9.63692
▁goals	-9.63735
▁carried	-9.63861
▁recommended	-9.63865
▁learned	-9.63876
▁extra	-9.6398
▁v	-9.64016
▁regions	-9.6409
▁Spanish	-9.64099
▁Christ	-9.64166
▁Greek	-9.64204
▁suggest	-9.64228
▁serve	-9.64283
▁perform	-9.64328
▁presented	-9.64351
▁board	-9.64373
▁released	-9.64394
▁conducted	-9.64513
▁observed	-9.64588
▁statement	-9.65049
▁bottom	-9.65162
▁speech	-9.65414
▁structures	-9.65471
▁vitamin	-9.65491
ling	-9.65555
▁leaders	-9.65614
▁becoming	-9.65621
▁root	-9.65636
ra	-9.65639
▁wild	-9.65662
▁adult	-9.65718
▁sample	-9.6577
▁La	-9.65822
▁Therefore	-9.65823
▁Are	-9.66048
▁approximately	-9.66119
▁NASA	-9.66134
ch	-9.66138
▁disorders	-9.66374
▁Human	-9.66411
5	-9.66426
▁assessment	-9.6647
▁foreign	-9.66519
men	-9.66556
os	-9.66593
▁introduced	-9.66737
▁organic	-9.66813
▁pass	-9.66818
▁please	-9.66849
▁Government	-9.66996
▁layer	-9.67006
▁wrong	-9.67018
▁Congress	-9.67041
ine	-9.67052
▁Sea	-9.67053
see	-9.6707
▁carry	-9.67101
age	-9.67109
▁moved	-9.67179
▁causing	-9.67186
▁Social	-9.67315
▁temperatures	-9.67338
▁experiences	-9.67385
▁estimated	-9.67418
▁records	-9.67424
▁Make	-9.67647
for	-9.67663
▁White	-9.67689
▁mission	-9.67755
▁setting	-9.67763
▁nuclear	-9.67834
▁combination	-9.67865
▁reference	-9.67919
▁ones	-9.6794
▁court	-9.68322
▁chronic	-9.68471
▁eight	-9.68492
▁widely	-9.68494
▁Development	-9.68597
▁mid	-9.68747
▁starting	-9.68777
▁buildings	-9.68921
▁store	-9.6904
▁notes	-9.69048
▁college	-9.69126
▁reducing	-9.69187
▁reality	-9.69204
▁bodies	-9.69232
▁hear	-9.69257
▁Red	-9.69266
▁explore	-9.693
▁Data	-9.69303
▁literature	-9.69312
▁technique	-9.69429
▁fight	-9.69491
▁Mr	-9.69499
▁Food	-9.69541
▁connected	-9.6965
▁film	-9.697
▁wall	-9.69723
▁changing	-9.69764
▁decisions	-9.69776
▁Texas	-9.69842
▁exist	-9.69866
▁injury	-9.69908
ate	-9.69934
▁Public	-9.70035
▁ready	-9.70138
▁drive	-9.70171
▁performed	-9.70227
▁storage	-9.70277
▁urban	-9.70397
▁experts	-9.70455
▁Both	-9.70476
▁killed	-9.70525
▁lived	-9.70537
▁independent	-9.70574
▁aspects	-9.70576
am	-9.70585
▁Court	-9.70631
▁radiation	-9.7065
▁professor	-9.70651
▁alternative	-9.70791
nd	-9.70798
▁distribution	-9.70929
▁Web	-9.70984
▁Service	-9.71076
▁anyone	-9.71126
▁frequently	-9.7113
▁covered	-9.71132
▁solutions	-9.71148
▁feed	-9.71205
▁oxygen	-9.7131
▁Israel	-9.71384
▁Learning	-9.71454
▁participants	-9.71628
▁annual	-9.71662
▁email	-9.71758
▁connection	-9.71758
▁numerous	-9.71813
▁creation	-9.71843
▁dogs	-9.71958
▁visual	-9.72002
▁Just	-9.72013
▁Z	-9.72025
▁discussion	-9.72032
▁exactly	-9.72129
et	-9.72141
▁operations	-9.7215
▁actual	-9.72156
▁meeting	-9.72258
▁initial	-9.72262
▁message	-9.7229
▁wanted	-9.72351
▁System	-9.72471
▁gene	-9.72533
▁multi	-9.72572
▁aware	-9.72608
▁option	-9.72615
▁gold	-9.72634
▁involves	-9.72802
▁infections	-9.72812
▁surgery	-9.72852
▁finding	-9.72906
ta	-9.72924
▁fields	-9.72954
ne	-9.72954
+	-9.72956
▁iron	-9.73009
▁anxiety	-9.73028
▁1,	-9.73116
▁island	-9.73133
▁gender	-9.73158
▁games	-9.73202
▁failure	-9.73216
);	-9.73238
▁meat	-9.73247
▁hearing	-9.73251
▁feeling	-9.73251
▁rock	-9.73306
ley	-9.73422
▁violence	-9.73437
▁Life	-9.73691
▁core	-9.737
▁removed	-9.73701
▁pollution	-9.7376
▁race	-9.73771
▁dead	-9.73943
▁moment	-9.73964
▁Asia	-9.74018
▁rare	-9.74051
▁volume	-9.74134
▁advanced	-9.74157
▁characteristics	-9.74166
▁referred	-9.74242
▁upper	-9.74344
▁tax	-9.74387
▁degrees	-9.744
▁resulting	-9.74426
▁academic	-9.74436
▁respect	-9.74576
▁policies	-9.74646
▁turned	-9.74649
▁Paul	-9.74666
▁happens	-9.74754
▁mostly	-9.74786
▁clearly	-9.74787
▁properly	-9.74877
▁risks	-9.74936
▁describe	-9.74995
▁promote	-9.74995
ally	-9.75053
▁Energy	-9.75073
▁grade	-9.75165
▁square	-9.75187
X	-9.75229
▁populations	-9.75294
▁document	-9.7546
▁helped	-9.7547
▁helping	-9.75476
▁perfect	-9.75492
▁Project	-9.75492
▁fear	-9.75515
▁Thomas	-9.75589
▁Central	-9.75794
▁ocean	-9.75855
▁Medicine	-9.75922
ists	-9.75947
▁authors	-9.75967
▁Medical	-9.76028
▁path	-9.76082
▁atmosphere	-9.76179
▁seeds	-9.76188
▁dangerous	-9.76317
▁classes	-9.76384
▁party	-9.76469
▁sexual	-9.76476
▁warm	-9.76589
▁conflict	-9.76833
un	-9.76856
▁exposed	-9.76966
▁linked	-9.77032
▁Mexico	-9.77087
▁Man	-9.77133
▁industrial	-9.77168
▁official	-9.77206
▁saying	-9.7752
▁lesson	-9.77545
▁heard	-9.7757
▁die	-9.77586
▁emotional	-9.7761
▁experienced	-9.77628
▁engineering	-9.77659
related	-9.78098
▁pages	-9.78106
▁Information	-9.78124
▁internal	-9.78151
▁noted	-9.78169
▁depending	-9.78205
▁regarding	-9.78233
ting	-9.7833
▁electric	-9.78355
▁fresh	-9.78378
▁served	-9.78411
▁interested	-9.78447
▁slow	-9.78477
▁discuss	-9.78545
▁glass	-9.78566
▁relationships	-9.78589
▁breast	-9.78596
▁freedom	-9.78734
▁expression	-9.78742
▁fine	-9.7893
old	-9.78937
▁relevant	-9.78969
▁https	-9.79002
▁Book	-9.79154
▁HIV	-9.79189
▁effectively	-9.79204
▁mentioned	-9.7924
▁awareness	-9.7928
▁civil	-9.7931
▁survey	-9.79407
▁kept	-9.7947
▁Robert	-9.79473
▁Technology	-9.79531
▁encourage	-9.79557
▁stand	-9.79634
▁enter	-9.79653
▁vegetables	-9.79743
▁Women	-9.7975
▁star	-9.79771
ous	-9.7995
▁Google	-9.80039
):	-9.80046
▁completed	-9.80064
▁Art	-9.80068
▁Island	-9.8009
▁processing	-9.80125
▁principles	-9.8016
▁click	-9.80258
▁speak	-9.80276
▁peace	-9.80326
▁farmers	-9.80362
▁sustainable	-9.80375
▁Jews	-9.80435
▁Q	-9.80465
▁credit	-9.80606
▁buy	-9.8071
▁eggs	-9.80724
▁hour	-9.80813
▁units	-9.80973
▁northern	-9.81041
▁king	-9.81054
ies	-9.81113
▁vaccine	-9.81168
▁Al	-9.8118
▁spent	-9.81318
▁conservation	-9.81333
▁signal	-9.81355
▁religion	-9.81406
▁articles	-9.81414
▁definition	-9.81487
▁southern	-9.81501
▁foot	-9.8154
▁concerns	-9.81542
▁Foundation	-9.81555
▁concepts	-9.81575
▁prior	-9.81609
▁aid	-9.81616
▁illness	-9.81639
im	-9.81659
id	-9.81666
▁operation	-9.81735
▁whom	-9.81737
”.	-9.81773
▁efficiency	-9.81841
▁THE	-9.81996
▁bird	-9.82041
▁represent	-9.82059
▁diagnosis	-9.82073
▁determined	-9.82282
▁improved	-9.82301
▁gets	-9.82316
▁efficient	-9.82487
▁command	-9.82544
▁Mary	-9.82596
▁joint	-9.82671
▁citizens	-9.82692
▁previously	-9.82752
▁morning	-9.82784
▁procedure	-9.82908
▁worth	-9.82924
▁math	-9.83035
▁strategy	-9.83093
▁chemicals	-9.83142
▁manage	-9.83169
▁stone	-9.83198
▁Air	-9.83206
▁enjoy	-9.83207
▁concern	-9.83212
est	-9.83283
▁Professor	-9.83288
▁feature	-9.83426
il	-9.83496
▁drinking	-9.83551
▁decided	-9.83611
▁contribute	-9.83622
U	-9.83664
▁CO	-9.83671
▁Britain	-9.83743
▁reaction	-9.83746
▁battle	-9.83762
▁amounts	-9.8377
▁leads	-9.83786
▁box	-9.83913
▁6.	-9.8392
▁truth	-9.8392
▁Like	-9.83964
▁output	-9.84021
▁Space	-9.8407
▁beautiful	-9.84158
>	-9.84212
▁track	-9.84253
▁phase	-9.84531
▁Law	-9.84647
▁Sun	-9.84937
▁fit	-9.85221
▁limit	-9.85298
▁recorded	-9.8538
▁attempt	-9.85399
▁electrical	-9.8549
▁Lake	-9.85502
▁president	-9.85546
▁shared	-9.85562
▁flowers	-9.85577
▁advantage	-9.856
▁Green	-9.8561
▁crucial	-9.85654
▁homes	-9.857
▁reached	-9.85751
▁Her	-9.85776
▁Go	-9.85875
▁advice	-9.86151
▁formation	-9.86157
▁Before	-9.86163
▁yellow	-9.86274
me	-9.86308
▁taught	-9.86325
▁allowing	-9.86334
▁Army	-9.86343
▁phone	-9.8636
▁Program	-9.86365
▁continues	-9.86383
▁pieces	-9.86411
▁emergency	-9.86431
▁walk	-9.86484
la	-9.86627
▁claim	-9.86653
▁vital	-9.86721
▁double	-9.86837
▁2012	-9.869
▁looks	-9.8691
▁mainly	-9.86964
▁nor	-9.86981
▁display	-9.87205
▁charge	-9.87234
▁supported	-9.87234
▁career	-9.87293
ant	-9.87296
▁intended	-9.87308
▁22	-9.87422
▁Bible	-9.87449
6	-9.87519
▁2010	-9.87749
▁Old	-9.87761
▁spend	-9.87783
▁labor	-9.87897
▁Environmental	-9.88036
▁keeping	-9.88054
▁purposes	-9.88139
▁voice	-9.88253
▁director	-9.88339
▁Civil	-9.88351
▁manner	-9.88354
▁practical	-9.88417
▁languages	-9.88423
▁liver	-9.8853
▁west	-9.88578
▁block	-9.88579
▁muscles	-9.88605
▁proposed	-9.88657
▁nutrients	-9.88658
▁frequency	-9.88687
▁sex	-9.88706
ir	-9.88728
▁host	-9.88778
▁Studies	-9.88807
▁prepared	-9.88897
▁reduction	-9.88903
▁links	-9.88936
▁showing	-9.89
▁ship	-9.8901
▁faith	-9.89045
▁seek	-9.89125
▁explains	-9.89165
▁Have	-9.8917
▁Pacific	-9.89189
▁indicate	-9.89202
▁org	-9.89283
▁genes	-9.89295
out	-9.89339
&	-9.89381
▁combined	-9.89398
▁technical	-9.89403
▁vehicle	-9.89489
▁tips	-9.89494
Z	-9.89543
▁focused	-9.89561
▁leader	-9.89594
▁Instead	-9.89611
▁radio	-9.89692
▁met	-9.89736
▁offered	-9.89797
▁oral	-9.89819
▁Un	-9.89876
▁excellent	-9.89912
▁letters	-9.89971
▁army	-9.89991
▁surrounding	-9.90033
▁sector	-9.90045
▁situations	-9.90075
▁extreme	-9.9011
▁institutions	-9.90116
▁operating	-9.9013
▁cat	-9.9017
▁topics	-9.90177
▁background	-9.90285
▁10.	-9.90303
▁threat	-9.90418
▁faster	-9.90434
▁constant	-9.90436
▁send	-9.90472
▁evolution	-9.90498
▁finally	-9.90597
▁Latin	-9.90633
▁engine	-9.90661
▁origin	-9.90741
▁km	-9.90815
▁begins	-9.90835
▁detailed	-9.90879
▁primarily	-9.91013
▁collected	-9.91033
▁tasks	-9.91038
▁curriculum	-9.9113
▁samples	-9.91141
▁element	-9.9121
▁specifically	-9.9122
▁centuries	-9.91265
▁2011	-9.91457
▁relative	-9.9151
▁screen	-9.91569
▁Those	-9.91655
▁coal	-9.91689
▁News	-9.91709
▁novel	-9.91736
▁contrast	-9.9174
▁tooth	-9.91757
▁El	-9.91767
▁drink	-9.91841
▁wife	-9.91867
▁attacks	-9.91973
ad	-9.92024
▁liquid	-9.92262
▁consequences	-9.92271
▁jobs	-9.92302
▁Library	-9.92359
▁accurate	-9.92361
▁occurred	-9.92511
▁(1	-9.92543
▁Please	-9.92558
▁east	-9.92572
▁authority	-9.92577
▁cent	-9.92584
▁facilities	-9.92612
▁salt	-9.92631
▁Learn	-9.92818
▁Charles	-9.92983
▁lose	-9.93016
▁forced	-9.93031
▁journal	-9.93111
▁helpful	-9.9316
▁Middle	-9.9316
▁micro	-9.93163
▁affects	-9.93227
▁2013	-9.93269
▁refers	-9.93278
be	-9.93299
▁latest	-9.9334
ive	-9.93379
▁monitoring	-9.93539
▁component	-9.93553
▁stars	-9.93584
▁largely	-9.93692
▁onto	-9.93737
▁identity	-9.93785
ary	-9.93792
▁habitat	-9.93802
▁solid	-9.93808
▁sounds	-9.93887
▁Take	-9.93927
▁played	-9.93985
ty	-9.94106
▁raised	-9.94135
▁extent	-9.94136
▁motor	-9.9419
▁remained	-9.9423
▁abuse	-9.94305
▁Henry	-9.94331
▁200	-9.94499
▁maximum	-9.94527
▁treatments	-9.94527
▁impacts	-9.9454
ca	-9.94624
▁trial	-9.94704
▁pregnancy	-9.9474
▁protected	-9.94782
▁coast	-9.94801
▁felt	-9.94814
▁suffering	-9.94823
▁tested	-9.94832
▁kinds	-9.94836
▁photo	-9.94866
▁responsibility	-9.94878
▁f	-9.9496
▁fluid	-9.94975
▁girls	-9.95035
▁Mar	-9.9505
▁Russian	-9.9507
▁Bay	-9.95084
▁particles	-9.95086
▁playing	-9.95094
▁Note	-9.95222
li	-9.95412
▁Russia	-9.95457
▁Virginia	-9.9554
▁explained	-9.95614
▁transport	-9.95697
▁seed	-9.95835
▁western	-9.95888
▁draw	-9.95928
▁inflammation	-9.95974
▁despite	-9.96083
▁Control	-9.96105
▁grown	-9.96127
▁ideal	-9.9613
▁Group	-9.96154
▁expect	-9.96352
go	-9.96368
▁slightly	-9.96381
▁campaign	-9.96386
▁valuable	-9.96436
▁Such	-9.96461
▁certainly	-9.96466
▁characters	-9.96468
▁friend	-9.96578
▁Nature	-9.96634
▁motion	-9.96702
▁meant	-9.96709
▁follows	-9.96776
▁28	-9.96784
▁studied	-9.96788
▁potentially	-9.96789
▁infrastructure	-9.96831
▁hit	-9.96833
▁parent	-9.96905
▁divided	-9.96956
▁syndrome	-9.97
▁biological	-9.97031
▁crisis	-9.97046
▁introduction	-9.97051
▁fruits	-9.97066
▁external	-9.97126
▁measured	-9.9713
▁Every	-9.97229
▁perspective	-9.97257
▁Peter	-9.9727
▁height	-9.9728
▁title	-9.97292
▁aren	-9.97328
ol	-9.97329
▁Despite	-9.9733
▁looked	-9.97334
▁agricultural	-9.97406
▁existence	-9.97452
▁otherwise	-9.97469
▁>	-9.97583
ka	-9.97603
▁typical	-9.97621
▁cognitive	-9.97654
▁23	-9.97706
▁soft	-9.97725
ro	-9.97823
▁regularly	-9.97835
▁increasingly	-9.97853
▁residents	-9.979
▁internet	-9.9802
▁hundreds	-9.98037
▁greatest	-9.98049
▁crops	-9.98084
▁facts	-9.98137
da	-9.98172
▁Office	-9.98189
▁nations	-9.982
▁Who	-9.98311
▁(18	-9.98318
▁dental	-9.9837
▁floor	-9.98458
▁80	-9.9846
▁roots	-9.98525
▁notice	-9.9858
▁adding	-9.98595
▁consists	-9.98603
▁poverty	-9.98616
▁containing	-9.98638
▁hundred	-9.98658
8	-9.98703
▁inches	-9.98776
▁farm	-9.98804
▁Management	-9.98914
▁controlled	-9.98916
▁2014	-9.98983
▁medications	-9.98985
▁officials	-9.99017
▁subjects	-9.99164
▁suggested	-9.99212
▁tradition	-9.99249
free	-9.99317
▁experiment	-9.99457
▁lessons	-9.99486
▁era	-9.99534
▁investment	-9.99551
▁happened	-9.99623
▁driving	-9.99642
▁#	-9.99656
▁police	-9.99704
▁stem	-9.99762
▁hospital	-9.99839
▁o	-9.99845
he	-9.99881
▁recognized	-9.99886
▁walls	-9.99927
▁files	-10
ter	-10.0015
▁minimum	-10.0015
▁fundamental	-10.0015
▁Time	-10.0017
▁Second	-10.0022
▁tried	-10.0024
▁Yet	-10.0025
▁mobile	-10.0026
▁Rights	-10.0027
▁Florida	-10.0033
▁couple	-10.0052
▁26	-10.0052
▁visible	-10.0059
▁Free	-10.006
▁discovery	-10.0065
▁returned	-10.0066
▁Good	-10.0081
▁cool	-10.0086
▁rural	-10.0094
▁depends	-10.0102
▁70	-10.0106
▁database	-10.0112
▁Street	-10.0123
▁input	-10.0129
▁ball	-10.0138
▁raise	-10.0142
▁library	-10.0156
▁feelings	-10.0157
▁youth	-10.0162
▁selected	-10.0163
▁<	-10.0165
▁Part	-10.0174
▁35	-10.0178
▁concerned	-10.0182
▁Only	-10.0187
▁transfer	-10.0188
▁decrease	-10.0188
▁vary	-10.0192
do	-10.0192
▁27	-10.0194
▁ISBN	-10.0198
which	-10.0206
▁periods	-10.0206
▁appearance	-10.021
▁watch	-10.0214
",	-10.0217
▁employees	-10.0217
▁Company	-10.0219
rd	-10.0222
▁intake	-10.0228
▁Australian	-10.0228
▁funding	-10.0236
▁press	-10.024
her	-10.0242
▁traffic	-10.0244
▁round	-10.0246
▁leaving	-10.0247
▁closely	-10.0248
▁proteins	-10.0259
▁Early	-10.026
▁Post	-10.0265
▁thoughts	-10.0268
▁recovery	-10.0268
▁sold	-10.0276
▁7.	-10.0276
▁Commission	-10.028
▁portion	-10.0294
▁solve	-10.0299
▁sort	-10.0305
▁recognize	-10.0307
▁documents	-10.0315
▁businesses	-10.0315
if	-10.0319
▁approaches	-10.0327
▁respond	-10.0327
▁appeared	-10.0335
▁procedures	-10.0335
▁landscape	-10.0337
▁justice	-10.0341
▁deaths	-10.0345
▁prepare	-10.0352
▁Get	-10.0353
▁infected	-10.0355
▁t	-10.0364
▁station	-10.038
▁establish	-10.0385
▁Where	-10.0385
7	-10.0389
▁park	-10.0399
▁steel	-10.0408
▁paid	-10.0414
▁pet	-10.0418
▁rapidly	-10.0422
▁Figure	-10.0422
▁except	-10.043
▁selection	-10.0433
-1	-10.0439
▁moon	-10.0451
▁drop	-10.0454
▁represents	-10.0458
▁soldiers	-10.0459
▁prices	-10.046
▁90	-10.0463
▁comprehensive	-10.0464
▁familiar	-10.0465
▁wear	-10.0465
▁medium	-10.0471
▁discussed	-10.0478
▁outcomes	-10.0481
▁marine	-10.0482
▁Federal	-10.0483
▁naturally	-10.0488
▁healthcare	-10.0489
▁Richard	-10.0493
▁concentration	-10.0499
ner	-10.0515
▁creative	-10.0519
▁suffer	-10.0522
▁chain	-10.0528
▁domestic	-10.0538
ul	-10.0542
▁la	-10.0544
▁listed	-10.0546
▁rain	-10.0552
▁claims	-10.0554
▁vast	-10.0557
▁prevention	-10.0559
▁expensive	-10.0562
▁talking	-10.0566
▁bank	-10.0573
▁medication	-10.058
0	-10.0583
▁worldwide	-10.0589
▁warming	-10.0595
▁substance	-10.0596
▁recommend	-10.0607
▁Global	-10.0607
9	-10.0607
▁brown	-10.0608
▁intelligence	-10.0609
▁Canadian	-10.0613
▁select	-10.0622
▁journey	-10.0624
▁Catholic	-10.0625
▁rapid	-10.063
▁knew	-10.0633
▁principle	-10.0634
▁massive	-10.0643
▁exchange	-10.0643
izing	-10.0643
▁injuries	-10.0647
▁Home	-10.065
▁originally	-10.0653
▁chapter	-10.0656
▁broad	-10.0658
▁colors	-10.0659
▁tea	-10.0669
▁2009	-10.0674
per	-10.0677
▁leadership	-10.0681
▁Power	-10.0681
▁Disease	-10.0683
▁inter	-10.0686
▁vehicles	-10.0689
▁k	-10.0691
▁describes	-10.0691
▁Click	-10.0696
▁Study	-10.0717
▁obtained	-10.0725
▁detail	-10.0726
▁2015	-10.0729
▁decline	-10.073
▁wildlife	-10.0734
▁diversity	-10.0736
▁manufacturing	-10.0736
▁sports	-10.0738
not	-10.074
▁closed	-10.0749
▁quick	-10.075
we	-10.0751
▁stated	-10.0753
▁diverse	-10.0758
▁Mars	-10.0766
▁Smith	-10.0769
▁Natural	-10.0773
ge	-10.0773
▁Its	-10.0774
▁agriculture	-10.0775
▁interests	-10.0777
▁generate	-10.0777
▁opened	-10.0778
▁window	-10.0788
ize	-10.0794
▁district	-10.0794
▁kill	-10.0798
▁flu	-10.0802
▁improving	-10.0807
ite	-10.0809
▁sensitive	-10.082
▁print	-10.0825
▁ear	-10.0828
▁guidelines	-10.0835
▁bio	-10.084
▁flat	-10.0852
▁views	-10.0854
▁normally	-10.0856
▁format	-10.0858
▁Native	-10.0862
▁touch	-10.0864
▁aircraft	-10.0875
2.	-10.0878
▁spot	-10.0879
▁crop	-10.0886
off	-10.0896
▁Common	-10.0909
▁capable	-10.0913
▁movements	-10.0917
▁secondary	-10.0921
*	-10.0922
▁harmful	-10.0927
▁suitable	-10.0942
▁45	-10.0959
▁village	-10.0963
▁survival	-10.0968
▁bones	-10.0971
▁29	-10.0972
▁revealed	-10.0976
▁ages	-10.0977
▁governments	-10.0979
▁flight	-10.0983
▁blog	-10.0989
▁Climate	-10.1
▁producing	-10.1004
▁horse	-10.1011
▁secure	-10.1011
▁Under	-10.102
ha	-10.1022
▁tiny	-10.1032
▁lab	-10.1039
▁stages	-10.1042
▁speaking	-10.1043
▁UN	-10.1045
If	-10.1054
▁www	-10.1062
▁refer	-10.1062
▁Southern	-10.1064
▁twice	-10.1075
▁Mark	-10.1081
ur	-10.1082
▁decade	-10.1086
▁pro	-10.1091
▁millions	-10.1097
▁administration	-10.1106
▁enable	-10.1112
▁pretty	-10.112
▁moral	-10.112
▁2016	-10.112
▁beneficial	-10.1128
▁enhance	-10.1133
▁Finally	-10.1134
▁worse	-10.1135
▁bed	-10.1136
▁fiber	-10.1152
▁OF	-10.1156
▁edge	-10.117
▁adopted	-10.1184
▁Cancer	-10.1184
▁di	-10.119
@	-10.1193
▁cars	-10.1204
▁opinion	-10.1207
▁computers	-10.1211
▁sides	-10.1216
▁Sometimes	-10.1218
▁Me	-10.1219
▁marriage	-10.1225
▁figures	-10.1229
▁electronic	-10.1229
▁communicate	-10.1229
▁experiments	-10.1231
▁Though	-10.1234
▁Egypt	-10.1237
▁Land	-10.1244
▁calls	-10.1248
▁maintenance	-10.125
▁Keep	-10.125
▁readers	-10.1267
▁doctors	-10.1268
Q	-10.1285
▁survive	-10.1304
▁bill	-10.1306
▁2008	-10.131
▁regional	-10.1311
▁entirely	-10.1312
▁universe	-10.1319
▁extensive	-10.1321
▁2017	-10.1323
▁toxic	-10.1329
▁unknown	-10.1337
▁implementation	-10.1342
▁Republic	-10.1344
▁stomach	-10.1344
▁fair	-10.1346
▁studying	-10.135
▁agencies	-10.1353
▁obtain	-10.1358
▁Well	-10.1361
▁argument	-10.1363
▁sentence	-10.1375
▁arms	-10.1377
▁reflect	-10.1381
▁goods	-10.1383
▁impossible	-10.1384
[	-10.1386
▁dedicated	-10.1387
▁forests	-10.139
▁possibly	-10.1393
▁sky	-10.1394
▁household	-10.1397
▁Last	-10.1399
▁accepted	-10.1402
▁childhood	-10.1408
▁copy	-10.1415
▁trust	-10.1417
▁aim	-10.1418
▁Check	-10.1424
▁·	-10.1427
▁assistance	-10.1427
▁stored	-10.1433
▁Michael	-10.1433
▁professionals	-10.1433
▁Through	-10.1434
▁parties	-10.1443
▁Paris	-10.1444
▁transmission	-10.1445
▁Joseph	-10.1446
den	-10.1447
▁sand	-10.1448
▁sets	-10.1451
▁networks	-10.1469
▁Find	-10.1471
▁||	-10.1475
▁happy	-10.1479
▁monitor	-10.1479
▁Any	-10.1483
▁card	-10.1488
io	-10.1492
▁conduct	-10.1501
▁wave	-10.1507
▁thin	-10.1508
▁answers	-10.1509
▁filled	-10.1514
▁unless	-10.1522
▁Soviet	-10.1527
▁en	-10.153
▁connect	-10.1537
▁foundation	-10.1538
▁choices	-10.1538
▁Nations	-10.154
▁pictures	-10.1547
▁Le	-10.1548
▁framework	-10.1549
▁tells	-10.156
▁AI	-10.1565
▁lifestyle	-10.157
▁net	-10.1571
▁straight	-10.1578
▁Carolina	-10.158
▁achieved	-10.1582
▁insects	-10.1587
▁architecture	-10.1592
▁opposite	-10.1593
▁agreement	-10.1594
▁Researchers	-10.1606
▁depth	-10.1606
▁struggle	-10.1607
▁error	-10.1622
▁remaining	-10.1634
▁persons	-10.1634
▁starts	-10.1635
ish	-10.1639
▁biggest	-10.164
▁slowly	-10.1644
▁USA	-10.1658
▁Board	-10.1661
▁generated	-10.1662
▁Long	-10.1666
▁engage	-10.1668
▁Review	-10.1669
▁cloud	-10.1669
▁houses	-10.1671
use	-10.1673
▁decide	-10.1673
▁opening	-10.1674
▁coffee	-10.1675
▁load	-10.1675
▁accounts	-10.1678
▁broken	-10.1679
▁spiritual	-10.1682
▁2000	-10.1689
▁understood	-10.1692
▁possibility	-10.1693
▁mountain	-10.17
▁vessels	-10.1705
▁belief	-10.1707
▁successfully	-10.1708
▁battery	-10.1709
▁extended	-10.1709
▁description	-10.1713
▁Chapter	-10.1722
▁fossil	-10.1733
▁plays	-10.1736
led	-10.1737
▁handle	-10.1742
▁Among	-10.1744
▁Committee	-10.1749
▁daughter	-10.1751
▁dust	-10.1764
▁COVID	-10.1765
▁nutrition	-10.1765
▁l	-10.1766
▁raw	-10.1773
▁troops	-10.1778
▁seeing	-10.1779
▁noise	-10.178
▁greenhouse	-10.1785
▁master	-10.1786
level	-10.1796
all	-10.1796
▁nine	-10.1796
▁obvious	-10.18
12	-10.1813
ey	-10.1819
▁intervention	-10.182
▁audience	-10.1825
▁join	-10.1829
▁Northern	-10.183
▁Language	-10.1844
▁train	-10.1846
▁smoking	-10.1858
▁derived	-10.1861
▁Times	-10.1863
▁walking	-10.1864
▁expressed	-10.1865
▁locations	-10.1866
▁harm	-10.1874
▁1990	-10.1876
▁writer	-10.1876
ni	-10.188
scale	-10.1889
mo	-10.189
▁Age	-10.189
▁carefully	-10.1893
▁server	-10.1895
▁permanent	-10.1896
▁wish	-10.1897
▁courses	-10.1897
▁sequence	-10.1902
▁participate	-10.1903
▁cutting	-10.1905
▁sufficient	-10.191
10	-10.1913
▁magnetic	-10.1924
1.	-10.1926
mm	-10.1927
▁skill	-10.1928
▁super	-10.1941
▁waves	-10.1943
▁calcium	-10.1949
▁truly	-10.1953
▁doi	-10.1954
▁ratio	-10.1958
▁1980	-10.1964
▁Royal	-10.1971
▁camera	-10.1976
▁managed	-10.1979
▁Report	-10.1986
▁programming	-10.1987
▁taste	-10.1994
▁equivalent	-10.1995
▁lots	-10.2015
▁acts	-10.202
▁density	-10.202
tic	-10.2032
▁behaviour	-10.2034
▁breathing	-10.2037
ah	-10.2038
▁corn	-10.2039
▁purchase	-10.2044
▁1970	-10.2052
▁neck	-10.2055
▁cholesterol	-10.2057
▁discover	-10.2064
▁molecules	-10.2071
▁accept	-10.2074
▁failed	-10.2075
▁Guide	-10.2076
▁reader	-10.2081
▁mechanism	-10.2083
▁difficulty	-10.2083
▁drawing	-10.2085
▁Valley	-10.2088
▁Pre	-10.2089
ler	-10.2093
▁Brown	-10.2093
▁consumers	-10.2094
▁destroyed	-10.2096
▁aspect	-10.2104
▁BC	-10.2105
▁authorities	-10.2106
▁ultimately	-10.2106
way	-10.2108
▁nerve	-10.211
▁platform	-10.2113
▁stock	-10.2115
▁mixed	-10.2116
▁assess	-10.2117
▁detect	-10.2117
▁zero	-10.2119
ier	-10.2125
▁laboratory	-10.2128
▁smoke	-10.2129
▁organized	-10.2139
▁greatly	-10.2145
▁composition	-10.2145
▁fixed	-10.2147
▁Design	-10.2161
▁circumstances	-10.2162
▁debate	-10.2169
▁©	-10.2175
▁fewer	-10.2175
▁signals	-10.2181
▁environments	-10.2182
▁Empire	-10.219
▁colleagues	-10.2191
▁regulations	-10.2192
▁stroke	-10.2196
▁younger	-10.2196
field	-10.2199
é	-10.2199
▁fever	-10.2204
▁Ocean	-10.2212
▁Open	-10.2214
▁supporting	-10.2221
▁index	-10.2227
▁sharing	-10.2228
▁arrived	-10.2228
lin	-10.2231
▁indicates	-10.2245
▁university	-10.2246
▁creates	-10.2247
▁Na	-10.2248
▁closer	-10.2251
▁consistent	-10.2252
▁Italy	-10.2258
▁instruction	-10.2258
▁feedback	-10.2263
▁expert	-10.2266
▁habits	-10.2267
▁remote	-10.227
▁married	-10.2271
▁Plan	-10.2272
ating	-10.2273
▁500	-10.2278
▁Three	-10.2279
▁agency	-10.2283
▁Martin	-10.2284
▁app	-10.2292
▁fill	-10.2294
▁distinct	-10.2298
▁snow	-10.2299
▁latter	-10.2299
▁replaced	-10.2308
▁Chicago	-10.2309
What	-10.2309
▁produces	-10.2313
▁conventional	-10.2314
▁exact	-10.2317
▁Academy	-10.2317
▁Year	-10.2319
ted	-10.232
▁replace	-10.2324
▁formal	-10.2325
end	-10.2329
▁shift	-10.233
▁eastern	-10.233
▁Constitution	-10.234
▁cm	-10.2343
▁fighting	-10.2344
▁brief	-10.2346
▁comparison	-10.2347
▁immediate	-10.2355
▁interaction	-10.2364
▁involve	-10.2376
ya	-10.2382
▁chosen	-10.2384
▁improvement	-10.2393
▁zone	-10.2393
▁Family	-10.2404
▁Spain	-10.2404
▁instrument	-10.2406
▁chief	-10.2406
▁Ireland	-10.2412
▁symbol	-10.2417
▁founded	-10.2418
▁presentation	-10.2418
▁2,	-10.2421
▁gone	-10.2424
▁inner	-10.2425
▁Article	-10.2427
▁vulnerable	-10.2429
▁acids	-10.2429
▁2007	-10.2429
▁attached	-10.2441
▁concrete	-10.2442
▁spirit	-10.2442
▁diagnosed	-10.2443
▁Bank	-10.2443
▁represented	-10.2447
▁emotions	-10.2448
▁stands	-10.2451
▁dioxide	-10.2452
▁wealth	-10.2455
▁Does	-10.2461
▁supplies	-10.2465
wood	-10.2467
▁thousand	-10.2474
▁nearby	-10.2474
▁circuit	-10.2475
▁unable	-10.2476
▁department	-10.2481
▁2018	-10.2488
▁territory	-10.249
▁pick	-10.249
▁evaluation	-10.2498
▁advance	-10.2504
▁underlying	-10.2508
▁instructions	-10.251
▁standing	-10.2511
▁feeding	-10.2512
▁confidence	-10.2516
▁agree	-10.2528
▁comments	-10.2529
▁indeed	-10.2529
▁count	-10.2537
▁Sciences	-10.2539
▁percentage	-10.2562
▁bright	-10.2564
▁transportation	-10.257
ac	-10.2579
▁apart	-10.258
▁fly	-10.258
▁artificial	-10.2582
▁ahead	-10.2594
▁mark	-10.2597
▁Pro	-10.2597
▁door	-10.2601
▁housing	-10.2604
▁dis	-10.2604
▁mice	-10.2609
▁300	-10.2613
▁machines	-10.2613
▁Change	-10.263
▁issued	-10.2635
▁Hall	-10.2636
ities	-10.2638
ray	-10.2644
▁Resources	-10.2656
▁joined	-10.2656
▁stream	-10.266
ance	-10.2664
▁rising	-10.2664
▁capture	-10.2668
▁collaboration	-10.267
▁painting	-10.2676
▁variable	-10.2677
▁wants	-10.2679
con	-10.2683
ex	-10.2693
▁stable	-10.2695
▁lay	-10.2698
▁hydrogen	-10.27
▁route	-10.271
▁cats	-10.2716
▁cultures	-10.2718
▁firm	-10.2718
▁2020	-10.2719
▁obesity	-10.2722
▁Rome	-10.2729
▁III	-10.2731
▁limits	-10.2733
▁legs	-10.2735
▁1960	-10.2736
▁assist	-10.2738
▁Moon	-10.2742
▁8.	-10.2744
▁Jan	-10.2746
▁launched	-10.2758
▁Bio	-10.2759
▁y	-10.2766
▁entry	-10.2777
▁contained	-10.2781
▁fell	-10.2783
ability	-10.2785
▁Additionally	-10.2787
▁Child	-10.2788
▁border	-10.2796
▁demonstrate	-10.2799
▁desire	-10.2802
▁necessarily	-10.2806
▁]	-10.2807
▁Work	-10.2807
▁ships	-10.281
ak	-10.2811
▁sheet	-10.2816
▁Table	-10.2816
▁grew	-10.2817
ce	-10.283
▁collect	-10.2842
▁lung	-10.2851
▁Ni	-10.2853
▁papers	-10.2854
ated	-10.2858
▁evaluate	-10.286
▁recognition	-10.2866
▁bridge	-10.2867
se	-10.2868
▁examine	-10.2872
▁compounds	-10.2877
▁responses	-10.288
▁trials	-10.2888
▁mix	-10.2895
ana	-10.2896
ard	-10.2898
There	-10.2904
▁maps	-10.2906
▁prove	-10.2906
▁lies	-10.2908
-3	-10.2912
▁Community	-10.2917
▁vote	-10.2928
▁crime	-10.2933
▁Reading	-10.2942
▁bear	-10.2945
▁layers	-10.2948
▁usage	-10.2954
▁request	-10.2955
▁wait	-10.2959
▁doubt	-10.2966
▁scene	-10.297
▁transition	-10.2972
▁Oxford	-10.2972
▁instruments	-10.2977
▁trip	-10.2978
example	-10.2983
▁Holy	-10.2984
▁Will	-10.2999
▁resolution	-10.2999
▁Type	-10.3
▁Unfortunately	-10.3002
▁organisms	-10.3002
▁customers	-10.3008
▁marked	-10.3017
▁everyday	-10.3019
▁county	-10.3019
▁arm	-10.3022
▁gap	-10.3031
▁32	-10.3034
▁owners	-10.3038
Re	-10.304
▁trained	-10.3042
▁Source	-10.306
▁bar	-10.3072
▁challenging	-10.3073
▁ourselves	-10.3075
▁breath	-10.3078
▁observations	-10.3079
ology	-10.3079
▁Step	-10.3081
▁conclusion	-10.3086
▁nose	-10.3087
▁Eastern	-10.3089
▁turns	-10.3089
▁sit	-10.309
▁frequent	-10.309
▁Kingdom	-10.3091
ri	-10.3092
▁District	-10.3096
▁funds	-10.3105
▁historic	-10.3111
▁competition	-10.3115
▁meters	-10.3123
▁behaviors	-10.3123
▁connections	-10.3126
▁independence	-10.313
▁Centre	-10.3131
▁installed	-10.3134
▁maintaining	-10.3136
▁philosophy	-10.3137
▁brother	-10.3137
▁hole	-10.3139
▁Next	-10.3139
▁mode	-10.3139
▁exists	-10.3143
▁match	-10.3144
▁putting	-10.3151
▁frame	-10.3156
▁relations	-10.3158
▁psychological	-10.316
▁song	-10.3161
▁grass	-10.3162
▁storm	-10.3166
▁Italian	-10.3169
▁Fort	-10.3177
▁insurance	-10.3178
▁employment	-10.3179
▁minor	-10.3179
▁accessible	-10.3187
▁express	-10.3188
▁substances	-10.319
ised	-10.3191
ful	-10.3192
▁whatever	-10.32
making	-10.3201
▁define	-10.3202
▁mining	-10.3205
▁partners	-10.3206
▁partner	-10.3207
▁centre	-10.321
▁excess	-10.3213
▁renewable	-10.3215
em	-10.3216
▁port	-10.3226
▁objective	-10.3227
▁twenty	-10.3228
▁Inc	-10.3233
sa	-10.3233
▁minerals	-10.3238
▁burning	-10.3241
▁smart	-10.3247
▁whereas	-10.3251
▁virtual	-10.3255
▁Christmas	-10.3261
▁approved	-10.3261
di	-10.3264
ke	-10.3274
▁routine	-10.3283
water	-10.3286
▁meal	-10.3287
▁covers	-10.3291
called	-10.3296
▁?	-10.3298
▁estimates	-10.3298
▁mechanisms	-10.3306
▁reactions	-10.3308
▁damaged	-10.3308
▁colour	-10.3309
▁egg	-10.3311
but	-10.3323
▁settings	-10.3324
You	-10.3329
known	-10.3329
▁ongoing	-10.3331
q	-10.3337
▁delivery	-10.3339
▁thick	-10.3343
ium	-10.3348
ina	-10.3352
▁Security	-10.3353
▁deliver	-10.3357
▁babies	-10.3358
▁resulted	-10.3362
▁Furthermore	-10.3367
▁museum	-10.337
▁31	-10.3373
▁voltage	-10.3373
▁kidney	-10.3375
▁announced	-10.3375
▁division	-10.3375
▁Am	-10.3378
ial	-10.338
such	-10.3386
▁Bill	-10.339
▁Director	-10.3393
▁recommendations	-10.3399
▁Services	-10.3401
▁Big	-10.3404
▁vs	-10.3412
▁circle	-10.3417
▁declared	-10.3418
▁Which	-10.3421
▁relief	-10.3424
▁Atlantic	-10.3427
▁Scientists	-10.3433
▁relation	-10.3438
▁Moreover	-10.3444
▁expansion	-10.3452
▁(19	-10.3454
▁danger	-10.3456
▁cards	-10.3456
▁supports	-10.3458
▁tank	-10.346
▁tissues	-10.3466
▁operate	-10.3472
▁publication	-10.3476
30	-10.3477
▁beliefs	-10.3477
▁legislation	-10.3477
▁compare	-10.3479
▁blocks	-10.3487
ham	-10.3493
▁reliable	-10.3496
▁sick	-10.3499
▁Agency	-10.3503
▁shot	-10.3503
▁rivers	-10.3506
▁cup	-10.3512
▁generations	-10.3514
▁rice	-10.3517
▁realize	-10.3519
▁AND	-10.352
▁edition	-10.3522
▁Back	-10.3523
▁players	-10.3523
▁coastal	-10.3529
▁offering	-10.3532
▁temple	-10.3532
▁involving	-10.3536
▁ended	-10.3541
▁Hospital	-10.3542
▁View	-10.3544
▁Care	-10.355
▁holds	-10.3555
▁Zealand	-10.3561
▁trouble	-10.3561
▁EU	-10.3566
▁holding	-10.3566
▁tube	-10.3567
▁association	-10.3571
▁demonstrated	-10.3572
▁wasn	-10.3573
pa	-10.3584
ING	-10.3589
▁politics	-10.359
▁Hill	-10.3595
▁plus	-10.3596
▁consumer	-10.3601
side	-10.3613
▁Safety	-10.3613
▁exercises	-10.3616
▁spending	-10.3617
▁categories	-10.3625
▁physics	-10.3634
▁widespread	-10.3635
▁committed	-10.3635
▁functional	-10.3637
▁Windows	-10.3641
▁organs	-10.3646
▁measurement	-10.365
▁Mo	-10.3655
▁estimate	-10.3657
▁Ph	-10.3657
▁industries	-10.3659
▁counter	-10.3664
▁Treatment	-10.3664
ise	-10.3664
▁loved	-10.3665
▁Online	-10.3667
▁Engineering	-10.3669
▁TV	-10.3669
▁favorite	-10.3679
▁artist	-10.3681
▁pair	-10.3684
au	-10.3684
▁Per	-10.3685
▁insulin	-10.3687
▁Irish	-10.3688
▁street	-10.3692
▁Young	-10.3695
▁drawn	-10.3697
▁guidance	-10.3701
▁significance	-10.3702
▁budget	-10.3704
▁implement	-10.3704
▁pregnant	-10.3705
▁facility	-10.372
▁missing	-10.3722
▁trend	-10.3726
with	-10.3729
▁agreed	-10.3733
▁lands	-10.3742
▁sweet	-10.3743
▁satellite	-10.3745
▁plenty	-10.3745
▁viruses	-10.3746
▁explanation	-10.3751
▁escape	-10.3752
▁formula	-10.3759
▁band	-10.3767
▁Plant	-10.3769
▁artists	-10.3769
▁interactions	-10.3772
▁Administration	-10.3774
▁flag	-10.3777
▁Party	-10.3786
▁75	-10.3794
▁receiving	-10.3794
▁constructed	-10.3803
▁moisture	-10.3806
uk	-10.3812
▁peak	-10.3818
▁cleaning	-10.3821
▁Up	-10.3821
▁camp	-10.3824
▁asking	-10.3824
▁Environment	-10.3831
▁Asian	-10.3833
▁disaster	-10.384
▁Several	-10.3843
▁download	-10.3847
▁seeking	-10.3857
▁entered	-10.3859
▁pounds	-10.3863
▁1:	-10.3865
▁turning	-10.3874
▁ed	-10.3881
▁leaf	-10.3884
▁measurements	-10.3891
▁Mac	-10.3891
▁angle	-10.3893
▁participation	-10.3902
▁glucose	-10.3905
▁conversation	-10.3907
▁sections	-10.3908
▁Ohio	-10.391
▁flower	-10.391
my	-10.3919
▁push	-10.3925
▁preventing	-10.3929
▁adequate	-10.3936
▁calories	-10.3937
▁2019	-10.3943
▁depend	-10.3945
▁runs	-10.3948
▁ends	-10.3952
▁Men	-10.3954
▁employed	-10.3955
▁mechanical	-10.3959
▁beauty	-10.397
▁session	-10.3974
▁passage	-10.3977
▁boys	-10.3977
▁domain	-10.398
▁category	-10.3983
▁wine	-10.3986
▁serving	-10.3988
▁Modern	-10.399
▁preparation	-10.3994
▁contract	-10.3995
▁facing	-10.4
▁captured	-10.4001
▁visitors	-10.4007
being	-10.4009
▁150	-10.4009
▁election	-10.402
▁ingredients	-10.4021
▁Network	-10.4021
▁respiratory	-10.4025
that	-10.4032
▁integrated	-10.4041
▁brings	-10.4053
▁dealing	-10.4058
▁destruction	-10.4062
▁rocks	-10.4064
▁h	-10.4069
red	-10.4077
▁farming	-10.4077
▁grid	-10.4084
▁item	-10.4085
▁breeding	-10.4098
▁continuous	-10.4102
▁column	-10.4105
▁catch	-10.4113
▁weak	-10.4123
▁r	-10.4129
▁switch	-10.413
▁victims	-10.413
▁constantly	-10.4132
▁Non	-10.4139
▁slavery	-10.4139
▁clothing	-10.4149
▁Li	-10.4154
▁aims	-10.416
▁distributed	-10.4161
▁scientist	-10.4163
▁senior	-10.4168
▁defense	-10.4171
▁Muslim	-10.4175
▁dose	-10.4175
▁Division	-10.4178
▁examination	-10.418
▁statistics	-10.4186
▁plate	-10.4188
▁Queen	-10.4191
istic	-10.4196
▁Indians	-10.42
▁owner	-10.4206
▁Try	-10.4206
▁narrow	-10.4215
."	-10.4216
▁literacy	-10.4217
▁enemy	-10.4219
▁panel	-10.4222
▁signed	-10.4231
▁strongly	-10.4235
▁Revolution	-10.4235
▁weapons	-10.4241
▁Forest	-10.4246
▁65	-10.4247
▁launch	-10.4251
▁2006	-10.4253
▁bread	-10.4258
▁Without	-10.4264
▁banks	-10.4267
▁false	-10.4268
▁discrimination	-10.4268
▁MD	-10.4269
▁rely	-10.4271
▁learners	-10.4283
▁string	-10.4285
over	-10.4287
▁Prevention	-10.4289
▁Boston	-10.429
▁principal	-10.4292
▁focuses	-10.4293
▁removal	-10.4297
▁detection	-10.4299
▁criteria	-10.4305
▁Columbia	-10.431
▁1)	-10.431
▁photos	-10.4313
▁diameter	-10.4314
▁dollars	-10.4315
▁Blue	-10.4318
▁biology	-10.432
▁leg	-10.4321
▁score	-10.4323
work	-10.4323
▁Vol	-10.4324
▁composed	-10.4324
▁$	-10.4329
▁evil	-10.4334
▁indicated	-10.4335
ns	-10.4335
▁minute	-10.4339
▁thanks	-10.4341
▁Remember	-10.4349
▁lake	-10.4349
▁Johnson	-10.4352
▁parallel	-10.4362
▁listen	-10.4363
▁shapes	-10.4364
▁wire	-10.4368
▁reduces	-10.437
▁Dis	-10.4376
▁contemporary	-10.4378
▁careful	-10.438
▁knowing	-10.4381
▁excessive	-10.4385
▁Whether	-10.4387
▁matters	-10.4389
▁33	-10.4392
▁heating	-10.4399
▁happening	-10.4402
▁accuracy	-10.4403
▁9.	-10.4405
▁Sir	-10.4414
▁treating	-10.4415
▁messages	-10.4416
▁texts	-10.442
].	-10.4425
▁expand	-10.4427
▁silver	-10.4428
▁Light	-10.4429
▁theories	-10.4432
▁somewhat	-10.4435
▁islands	-10.4437
▁confirmed	-10.4438
der	-10.4444
▁engaged	-10.4444
▁positions	-10.4449
▁Writing	-10.4463
▁Islam	-10.4465
ger	-10.4465
▁(1)	-10.4468
▁branches	-10.4471
▁encouraged	-10.4477
so	-10.4477
▁carrying	-10.4485
▁phenomenon	-10.4487
▁mild	-10.4489
▁debt	-10.449
▁Word	-10.4492
▁warning	-10.4503
▁markets	-10.4503
▁schedule	-10.4504
▁repair	-10.4506
▁Alzheimer	-10.4506
▁Survey	-10.4509
▁unusual	-10.451
▁cooking	-10.4514
▁filter	-10.4516
▁tall	-10.4524
▁provider	-10.4527
▁neither	-10.4529
▁influenced	-10.4532
▁considering	-10.4534
ti	-10.4545
▁bringing	-10.4545
▁outcome	-10.4549
ster	-10.455
▁fourth	-10.455
▁Organization	-10.4551
▁implications	-10.4551
▁deeper	-10.4554
▁poem	-10.4559
▁gut	-10.456
net	-10.4568
American	-10.457
▁Help	-10.4571
▁Scholar	-10.4573
▁centers	-10.4575
▁hormone	-10.4578
▁delivered	-10.4579
▁husband	-10.4585
▁complicated	-10.4586
▁Ha	-10.4587
▁mm	-10.4595
▁dependent	-10.4596
▁Heart	-10.4597
▁informed	-10.4609
▁printed	-10.4614
▁roughly	-10.4616
▁waters	-10.4618
▁sought	-10.4619
▁ill	-10.462
3.	-10.4622
▁investigation	-10.4625
▁plane	-10.4625
▁molecular	-10.4631
▁innovation	-10.4634
▁planned	-10.4634
▁En	-10.4634
▁amazing	-10.4635
▁varieties	-10.4638
▁asthma	-10.4639
▁Low	-10.4642
▁Lee	-10.4642
▁mood	-10.4644
▁Test	-10.4648
▁translation	-10.4648
▁anywhere	-10.4656
▁Protection	-10.4662
▁forget	-10.4664
▁paint	-10.4669
▁healing	-10.4675
▁revolution	-10.4676
▁nervous	-10.4677
▁rarely	-10.4678
ent	-10.4678
▁none	-10.468
▁fairly	-10.468
▁implemented	-10.4681
▁regard	-10.4683
▁pure	-10.4685
▁36	-10.4688
▁Did	-10.4689
▁combat	-10.4693
▁mortality	-10.4698
▁stronger	-10.4699
▁mg	-10.4701
▁chart	-10.4704
▁Page	-10.4707
▁comfortable	-10.4715
▁screening	-10.4718
▁sight	-10.4719
▁cast	-10.4719
▁sell	-10.4724
▁copper	-10.4729
▁arts	-10.4733
▁secret	-10.4733
▁!	-10.4734
▁maintained	-10.4734
▁Cambridge	-10.4736
▁Conservation	-10.4746
▁physician	-10.4748
mer	-10.4753
▁mathematics	-10.4762
▁surfaces	-10.4764
▁videos	-10.4766
▁vocabulary	-10.4771
▁variables	-10.4774
▁advantages	-10.4779
▁Minister	-10.478
▁tons	-10.4781
▁Michigan	-10.4786
▁gained	-10.4788
ville	-10.4789
▁desired	-10.479
▁gradually	-10.4791
▁proven	-10.4792
▁seemed	-10.4793
▁males	-10.4794
▁player	-10.4798
▁honor	-10.4804
▁drought	-10.4805
▁claimed	-10.4808
▁newly	-10.4816
▁opposed	-10.4819
▁Fire	-10.4825
▁phrase	-10.4825
▁effectiveness	-10.4827
▁imagine	-10.4832
▁planting	-10.4836
▁autism	-10.4837
long	-10.4838
ning	-10.4839
▁respectively	-10.4841
▁branch	-10.4841
▁finished	-10.4847
▁usual	-10.4848
▁fishing	-10.485
▁passing	-10.485
▁Having	-10.4857
▁Georgia	-10.4857
▁modified	-10.4858
▁television	-10.4858
▁covering	-10.4858
▁dynamic	-10.4866
▁criminal	-10.487
▁eliminate	-10.4872
▁interactive	-10.4873
▁Louis	-10.4874
▁(2	-10.4876
13	-10.4877
For	-10.488
▁knows	-10.4882
▁horses	-10.4883
▁Con	-10.4884
▁orbit	-10.4885
ung	-10.4886
▁bigger	-10.4886
min	-10.4888
▁tropical	-10.4892
▁Ka	-10.4892
ek	-10.4893
▁Policy	-10.4895
▁Star	-10.4897
▁prominent	-10.4898
▁prefer	-10.4899
▁conference	-10.49
▁printing	-10.4901
▁Special	-10.4902
▁Supreme	-10.4902
▁trans	-10.4902
▁writers	-10.4903
▁consume	-10.4908
▁officers	-10.491
▁ecosystem	-10.4913
▁mention	-10.4917
▁00	-10.4919
▁Sub	-10.4924
▁roles	-10.4931
US	-10.4931
▁1950	-10.4933
▁sales	-10.4937
▁giant	-10.4937
▁subsequent	-10.4949
▁Lincoln	-10.4951
▁laid	-10.4952
▁Ca	-10.4952
▁outer	-10.4961
▁essentially	-10.4964
▁predict	-10.4964
▁Yes	-10.4964
▁Perhaps	-10.4965
▁caught	-10.4969
ping	-10.4971
▁grain	-10.4972
▁roof	-10.4975
▁yield	-10.4976
rich	-10.4976
▁observe	-10.4977
▁females	-10.4978
▁smooth	-10.498
▁difficulties	-10.498
▁fail	-10.4981
▁exam	-10.4985
▁Code	-10.4991
▁designs	-10.4996
▁spectrum	-10.4999
well	-10.4999
▁Sunday	-10.4999
▁Being	-10.5007
▁marks	-10.5009
▁34	-10.5009
▁Pennsylvania	-10.5015
▁Vitamin	-10.5017
▁Road	-10.502
▁client	-10.5021
▁complications	-10.5022
▁structural	-10.5032
▁Battle	-10.5036
▁pandemic	-10.5036
▁2005	-10.5039
▁theme	-10.504
▁suffered	-10.5042
▁spaces	-10.5043
▁wet	-10.5047
▁Car	-10.5047
▁racial	-10.5056
▁threats	-10.5064
▁absence	-10.5066
▁Following	-10.5067
▁intense	-10.5072
▁oldest	-10.5073
▁Lo	-10.5073
▁Based	-10.5075
ang	-10.5076
▁Facebook	-10.508
▁Building	-10.5083
▁listening	-10.5088
▁cash	-10.5092
▁boost	-10.5093
▁Anti	-10.5095
▁ring	-10.5096
▁Scotland	-10.5104
▁Force	-10.5105
▁Section	-10.5105
▁seconds	-10.511
▁engineers	-10.511
▁adds	-10.511
▁earliest	-10.5113
▁2:	-10.5113
▁imaging	-10.5116
▁Di	-10.5117
▁measuring	-10.5117
▁win	-10.5117
▁Edward	-10.5121
▁universal	-10.5127
▁Due	-10.5128
▁fashion	-10.5131
▁48	-10.5132
▁overcome	-10.5132
▁holes	-10.5132
▁Books	-10.5138
▁targets	-10.5144
▁trends	-10.5145
▁ethnic	-10.515
▁assume	-10.5152
▁channel	-10.5153
back	-10.5156
▁organ	-10.5159
▁correctly	-10.5164
▁characterized	-10.5175
▁inspired	-10.5176
▁innovative	-10.5179
▁burn	-10.5179
▁researcher	-10.5184
▁attempts	-10.5185
▁mineral	-10.5191
▁Further	-10.5193
▁acres	-10.5196
ov	-10.5197
▁errors	-10.52
▁Jerusalem	-10.5202
▁interpretation	-10.5203
▁moves	-10.5207
▁thermal	-10.5212
▁cooling	-10.5213
▁37	-10.5214
▁Dutch	-10.5215
▁powers	-10.5222
▁serves	-10.5227
▁nitrogen	-10.5227
▁audio	-10.5227
▁concerning	-10.5234
▁dates	-10.5236
▁examined	-10.5246
▁aged	-10.5253
▁programme	-10.5255
▁array	-10.526
▁Solar	-10.526
▁Math	-10.5261
including	-10.5261
▁proved	-10.5262
▁chest	-10.5264
▁AD	-10.5265
▁List	-10.527
▁assigned	-10.5273
▁evolved	-10.5273
▁sin	-10.5274
▁sitting	-10.5278
sh	-10.528
▁(2)	-10.528
▁controls	-10.5281
▁antibiotics	-10.5283
▁Key	-10.5283
▁sunlight	-10.5287
▁scholars	-10.5288
▁roads	-10.529
▁falls	-10.5292
▁maybe	-10.5294
▁2)	-10.5295
▁elected	-10.5299
▁boy	-10.5303
▁Du	-10.5303
▁grant	-10.5305
▁Colorado	-10.5309
▁concluded	-10.5312
▁initially	-10.5315
que	-10.5316
▁commitment	-10.5321
▁Analysis	-10.5323
▁protecting	-10.5324
▁Mount	-10.5329
ence	-10.5333
▁equally	-10.5333
ative	-10.5338
▁identification	-10.5339
▁Korea	-10.5346
▁indigenous	-10.5347
▁Justice	-10.5348
▁faced	-10.5354
▁considerable	-10.5361
▁consideration	-10.5361
▁updated	-10.5364
▁traditions	-10.5364
▁ordered	-10.5366
▁identifying	-10.5369
▁merely	-10.5372
▁statements	-10.5375
▁comment	-10.5377
▁trauma	-10.5378
▁con	-10.5384
▁reveal	-10.5388
▁slaves	-10.5396
▁experiencing	-10.5397
▁presents	-10.5397
▁teams	-10.5406
ius	-10.5408
▁musical	-10.5408
▁extend	-10.5409
▁interact	-10.5416
▁heavily	-10.5418
▁agents	-10.5418
▁tail	-10.5424
can	-10.5424
▁Ho	-10.5428
▁disabilities	-10.543
▁slave	-10.5436
house	-10.5436
▁acute	-10.5437
-2	-10.5439
▁coverage	-10.5446
▁worry	-10.5447
▁400	-10.5451
%)	-10.5456
▁intellectual	-10.5458
▁Add	-10.5461
▁stick	-10.5461
▁Massachusetts	-10.5462
▁processed	-10.5467
▁decreased	-10.5468
▁educators	-10.5474
▁worst	-10.5478
▁experimental	-10.5485
▁IN	-10.5486
bar	-10.5486
▁detected	-10.5496
▁emphasis	-10.5496
-12	-10.5503
▁automatically	-10.5507
▁button	-10.5508
▁granted	-10.5512
▁calling	-10.5519
▁variation	-10.5533
▁stations	-10.5537
▁harvest	-10.5538
▁Saint	-10.5539
isation	-10.5543
▁regulation	-10.5546
▁contribution	-10.5547
▁Copyright	-10.5548
▁flood	-10.5554
▁evening	-10.5557
▁tract	-10.5562
▁Look	-10.5562
▁occurring	-10.5563
▁driver	-10.5564
▁abilities	-10.5569
▁exploration	-10.557
▁substantial	-10.5571
▁Photo	-10.5576
▁stores	-10.558
▁pull	-10.5584
▁split	-10.5603
▁Start	-10.5606
▁wonder	-10.5608
▁Christians	-10.5616
▁permission	-10.5617
▁Digital	-10.5617
▁Little	-10.562
ik	-10.562
▁strain	-10.5623
▁Ask	-10.5625
bit	-10.5626
▁Cross	-10.5629
▁Unlike	-10.5631
▁Economic	-10.5636
▁bacterial	-10.5638
▁Pakistan	-10.5638
▁driven	-10.5646
war	-10.5651
▁Ne	-10.5653
▁fellow	-10.5653
▁dietary	-10.5654
▁corner	-10.5657
▁boat	-10.5661
▁gases	-10.5662
sen	-10.5664
▁ran	-10.5668
▁Physical	-10.5669
▁seat	-10.5675
▁Business	-10.5686
▁objectives	-10.5688
▁exciting	-10.5688
▁stability	-10.5689
▁fatty	-10.569
▁Ben	-10.5695
▁preserve	-10.5701
▁observation	-10.5703
▁mine	-10.5705
▁isolated	-10.5706
▁meals	-10.5707
▁mountains	-10.5712
wa	-10.5713
▁proof	-10.5716
▁Media	-10.5718
▁writes	-10.5719
▁w	-10.5719
▁vitamins	-10.573
▁reaching	-10.5738
▁representation	-10.5742
▁Kids	-10.5743
▁settlement	-10.5744
▁moderate	-10.5747
▁Harvard	-10.5747
▁affecting	-10.5754
▁tobacco	-10.5754
▁acquired	-10.5756
▁providers	-10.5759
▁hardware	-10.5762
▁38	-10.5764
▁wheat	-10.577
▁introduce	-10.5771
▁officer	-10.5773
▁investigate	-10.5776
gov	-10.5781
-18	-10.5787
▁demands	-10.5788
from	-10.5803
va	-10.5813
▁interface	-10.5816
▁contributed	-10.5819
▁supposed	-10.5821
▁ensuring	-10.5827
▁protective	-10.5827
▁Grand	-10.5829
▁sharp	-10.5836
ens	-10.5838
▁CD	-10.5843
▁laser	-10.5844
▁buried	-10.5845
ten	-10.5847
▁cure	-10.5849
:10.	-10.5851
▁hidden	-10.5853
▁Avoid	-10.5855
▁soul	-10.5863
▁intensity	-10.5865
les	-10.5866
ze	-10.5866
class	-10.5868
▁dance	-10.587
▁viewed	-10.5875
▁customer	-10.5878
▁custom	-10.5883
▁ex	-10.5885
▁exhibit	-10.5889
▁compound	-10.5897
▁Wildlife	-10.5897
▁victim	-10.5903
▁functioning	-10.5905
century	-10.5908
▁rose	-10.5912
▁Arctic	-10.5915
▁heritage	-10.5916
▁managing	-10.5921
▁Laboratory	-10.5926
vi	-10.5927
▁windows	-10.5929
▁Head	-10.5932
▁analyze	-10.5936
▁Brazil	-10.5936
▁supplements	-10.5939
▁Daniel	-10.5939
▁Class	-10.5943
▁disability	-10.5945
oc	-10.5946
▁Van	-10.5948
▁addiction	-10.5963
▁migration	-10.5964
▁3,	-10.5965
▁proportion	-10.597
▁grows	-10.5971
▁Right	-10.5973
▁characteristic	-10.5981
As	-10.5983
▁repeated	-10.5985
▁initiative	-10.5988
▁lungs	-10.599
▁Place	-10.5991
▁Bar	-10.5994
ga	-10.5997
▁manufacturers	-10.6
▁pool	-10.6003
▁quarter	-10.6004
▁sensors	-10.6004
bo	-10.601
▁protocol	-10.6014
▁lens	-10.6016
▁vaccines	-10.6017
▁enables	-10.6025
▁falling	-10.6025
)|	-10.6028
▁Understanding	-10.6034
▁Image	-10.6034
▁mixture	-10.6034
▁tumor	-10.6038
▁flows	-10.6038
▁productivity	-10.6038
ut	-10.6042
▁agent	-10.6047
▁Ar	-10.6053
▁chemistry	-10.6053
ber	-10.6055
ho	-10.606
▁Music	-10.6064
▁visited	-10.607
▁perception	-10.6072
ong	-10.6072
ft	-10.6075
▁cardiovascular	-10.6076
ford	-10.6082
▁TO	-10.6092
▁recycling	-10.6104
mi	-10.6105
▁cotton	-10.6108
▁literary	-10.6108
▁sensitivity	-10.6113
head	-10.6114
▁regardless	-10.6119
▁lie	-10.6121
▁illegal	-10.6124
down	-10.6136
▁engaging	-10.614
▁Symptoms	-10.6141
ng	-10.6141
▁sum	-10.6143
▁planets	-10.6144
▁narrative	-10.6149
▁equation	-10.6156
▁reporting	-10.6157
▁Islamic	-10.6164
▁cattle	-10.6168
▁Elizabeth	-10.6171
▁addressed	-10.6173
▁parameters	-10.6174
ee	-10.6177
▁worship	-10.6179
▁Wikipedia	-10.6179
▁celebrated	-10.618
berg	-10.6188
▁DC	-10.6188
ab	-10.619
ura	-10.6191
▁Introduction	-10.6198
▁Conference	-10.62
▁ease	-10.62
▁forming	-10.6202
▁Friday	-10.6205
▁replacement	-10.6206
▁vertical	-10.6208
▁consumed	-10.6209
▁god	-10.621
don	-10.6212
▁gun	-10.6213
▁lights	-10.6214
▁directed	-10.622
▁tribes	-10.6221
▁nutrient	-10.6222
▁interior	-10.6225
▁reverse	-10.6226
▁Systems	-10.6231
▁wonderful	-10.6233
▁heads	-10.6234
▁essays	-10.6236
▁Temple	-10.6244
▁personality	-10.6245
▁Agriculture	-10.6249
▁container	-10.6251
▁tip	-10.6251
▁label	-10.6255
To	-10.6257
▁availability	-10.6258
▁appointed	-10.626
▁flexible	-10.6261
▁stopped	-10.6265
▁killing	-10.6267
▁42	-10.6272
▁throat	-10.6278
▁separated	-10.6279
▁Local	-10.6281
▁focusing	-10.6283
▁duty	-10.6285
▁aimed	-10.6286
▁summary	-10.6288
▁random	-10.629
ney	-10.6291
▁batteries	-10.6291
▁1,000	-10.6294
itis	-10.6295
▁girl	-10.6296
▁classic	-10.6296
▁Historical	-10.6297
▁Los	-10.6299
▁EPA	-10.63
▁computing	-10.6304
ck	-10.6304
▁mathematical	-10.6307
▁alive	-10.6309
▁cord	-10.6313
▁trigger	-10.6315
html	-10.6315
▁psychology	-10.6327
▁union	-10.6331
▁gum	-10.6341
▁adapt	-10.6344
▁expanded	-10.6347
▁sp	-10.6352
▁Still	-10.6353
gen	-10.6359
▁bag	-10.636
▁quantity	-10.636
▁IP	-10.6365
▁creatures	-10.6368
more	-10.6372
▁lifetime	-10.6373
▁versions	-10.6374
▁fought	-10.6374
▁harder	-10.6374
▁Navy	-10.6376
▁crew	-10.6378
▁deficiency	-10.6379
▁brand	-10.6382
▁4,	-10.6383
▁Top	-10.6384
He	-10.6398
▁bus	-10.6401
°	-10.6401
▁se	-10.6402
▁chances	-10.6404
▁Bureau	-10.6406
▁flying	-10.6418
▁watching	-10.6422
▁Indeed	-10.6422
▁charged	-10.6426
▁achievement	-10.6426
▁Point	-10.6428
▁farms	-10.643
▁dramatic	-10.6435
▁Gulf	-10.6436
▁Blood	-10.6438
▁panels	-10.6439
▁regarded	-10.6443
▁shell	-10.6447
▁owned	-10.6448
▁painful	-10.6449
ja	-10.6462
▁1930	-10.6475
▁hence	-10.6477
▁bees	-10.6478
▁scores	-10.6481
ji	-10.6481
▁Te	-10.6486
▁temporary	-10.6489
▁websites	-10.6491
▁losses	-10.6491
▁Small	-10.6494
▁movie	-10.6495
▁Francisco	-10.6496
▁Ma	-10.6497
▁forth	-10.6499
▁newspaper	-10.65
▁Later	-10.6502
pe	-10.6502
▁promoting	-10.6503
▁waiting	-10.6503
lo	-10.6504
▁calculated	-10.6506
▁attend	-10.6515
ba	-10.6519
▁fuels	-10.6519
▁sentences	-10.652
▁calculate	-10.652
▁pump	-10.6526
ship	-10.6534
▁decay	-10.654
▁sport	-10.6541
▁Ko	-10.6545
▁55	-10.655
▁taxes	-10.6554
▁executive	-10.6557
▁extension	-10.6559
▁Fish	-10.6562
▁profile	-10.6563
ii	-10.6563
ron	-10.6564
▁boundaries	-10.6565
▁emerging	-10.6567
▁hunting	-10.6567
▁technological	-10.6569
▁Consider	-10.6571
▁urine	-10.6575
▁holiday	-10.6579
▁assets	-10.658
▁apparent	-10.658
▁ordinary	-10.6581
▁dream	-10.6582
▁spoken	-10.6588
▁Examples	-10.6589
▁attitude	-10.659
ki	-10.6593
▁biodiversity	-10.6595
▁MS	-10.6597
▁argue	-10.6598
▁grains	-10.6601
▁recover	-10.6601
▁stuff	-10.6603
▁Dictionary	-10.6604
▁;	-10.6604
▁universities	-10.661
▁membrane	-10.6616
aw	-10.6619
▁pointed	-10.6622
▁wisdom	-10.6632
▁Often	-10.6633
▁quantum	-10.6634
▁capabilities	-10.6636
▁semi	-10.6638
▁fatigue	-10.6642
port	-10.6648
▁performing	-10.6649
pp	-10.665
▁Set	-10.6655
▁Par	-10.6655
▁vegetation	-10.6658
▁scope	-10.6658
▁nice	-10.6659
15	-10.6661
▁Alexander	-10.6662
20	-10.6664
▁row	-10.6664
▁Out	-10.6665
▁Biology	-10.6665
▁safely	-10.6669
▁pupils	-10.667
▁poetry	-10.6671
▁interview	-10.6672
▁juice	-10.6672
▁dairy	-10.6672
▁Mexican	-10.6673
▁Arts	-10.6678
▁celebrate	-10.6678
lan	-10.6681
▁physically	-10.6685
▁dating	-10.6688
▁IV	-10.6691
▁duration	-10.6691
▁stones	-10.6693
▁accident	-10.6697
▁Chief	-10.6704
▁vessel	-10.6705
▁lighting	-10.6707
▁classified	-10.6709
▁improvements	-10.6714
▁engagement	-10.6716
▁breed	-10.6717
▁39	-10.672
▁precise	-10.6726
▁towns	-10.6728
▁marketing	-10.6731
▁drivers	-10.6732
mar	-10.6732
▁behavioral	-10.6734
▁Lu	-10.6736
▁lowest	-10.6736
▁restore	-10.6738
00	-10.6747
No	-10.6748
▁Monday	-10.675
▁priority	-10.675
yl	-10.6753
▁Christianity	-10.6753
▁Islands	-10.6755
▁Standard	-10.676
▁saved	-10.6769
ible	-10.6777
▁Contact	-10.6781
▁concentrations	-10.6783
▁Creek	-10.6786
▁gravity	-10.6788
▁smell	-10.6791
▁willing	-10.6791
▁province	-10.6791
▁Action	-10.6793
▁entering	-10.6793
low	-10.6795
▁Wall	-10.6797
▁destroy	-10.6799
▁settled	-10.6804
king	-10.6806
▁Computer	-10.6813
ata	-10.6814
▁ecological	-10.6815
are	-10.6816
▁thereby	-10.6817
▁Coast	-10.6817
▁PDF	-10.6818
ries	-10.6821
▁mouse	-10.6825
ig	-10.683
▁interventions	-10.6834
▁prey	-10.6834
▁wearing	-10.6835
▁removing	-10.6835
▁fats	-10.6836
▁believes	-10.6843
▁Santa	-10.6844
▁threatened	-10.6846
▁honey	-10.685
▁pilot	-10.685
▁Within	-10.6852
▁graduate	-10.6854
▁Field	-10.6857
▁manual	-10.6857
▁peer	-10.6859
ring	-10.6866
▁Testament	-10.6872
▁applying	-10.6877
dis	-10.6886
▁directions	-10.6898
▁saving	-10.6898
▁Bo	-10.6898
▁clothes	-10.6899
▁drinks	-10.69
▁corresponding	-10.6901
▁telling	-10.6903
▁Assessment	-10.6904
▁insight	-10.6906
▁streets	-10.6907
▁hormones	-10.6907
▁humanity	-10.6912
▁Illinois	-10.6914
▁remarkable	-10.6915
ED	-10.6918
▁establishment	-10.6921
▁Between	-10.6921
▁Station	-10.6924
▁ecosystems	-10.6925
14	-10.6926
▁definitely	-10.6928
kin	-10.6928
ification	-10.6931
▁classical	-10.6931
▁variations	-10.6931
▁desert	-10.6942
▁promise	-10.6944
▁empty	-10.6945
▁prime	-10.6947
▁Chi	-10.6947
▁communications	-10.6949
▁elsewhere	-10.6951
▁digestive	-10.6956
▁vol	-10.6957
▁Culture	-10.6957
▁2004	-10.696
▁opposition	-10.6967
▁sustainability	-10.6977
▁mothers	-10.6977
▁Convention	-10.6977
▁integration	-10.6977
▁metals	-10.6979
▁committee	-10.6982
▁Hebrew	-10.6982
▁institution	-10.6984
▁log	-10.6985
▁Muslims	-10.6986
▁Arab	-10.6987
▁shaped	-10.6989
▁reasonable	-10.699
▁gather	-10.6991
▁manager	-10.6992
▁lists	-10.6992
▁logic	-10.6993
▁Greece	-10.6994
pro	-10.6999
▁spacecraft	-10.7002
▁bi	-10.7004
▁Tri	-10.7016
▁contributions	-10.7016
▁44	-10.7021
When	-10.7027
▁colonies	-10.7027
▁Model	-10.7028
▁conversion	-10.7029
▁surprise	-10.703
ko	-10.7034
eg	-10.7038
ker	-10.704
▁ca	-10.7042
4.	-10.7044
▁convert	-10.7045
ide	-10.7045
▁associate	-10.7047
▁expertise	-10.705
CO	-10.705
▁districts	-10.7051
▁Ancient	-10.7053
fer	-10.7065
tes	-10.7067
▁Working	-10.7072
▁expectations	-10.7073
▁plain	-10.7075
▁pH	-10.7077
▁Se	-10.7083
▁abstract	-10.7086
▁powder	-10.7086
▁sensor	-10.7086
▁CA	-10.7088
▁Po	-10.7088
▁Best	-10.7089
ā	-10.7089
life	-10.7091
▁steam	-10.7092
▁labour	-10.7098
▁reform	-10.71
▁facilitate	-10.71
▁1920	-10.7106
▁strike	-10.7106
▁requirement	-10.7111
▁determining	-10.7112
▁differently	-10.7113
á	-10.7114
▁sodium	-10.7116
▁sizes	-10.7123
▁Wood	-10.7128
▁wouldn	-10.713
▁Heritage	-10.7132
▁spots	-10.7132
▁transmitted	-10.7137
▁spoke	-10.714
▁kingdom	-10.7149
▁comfort	-10.7152
▁ranging	-10.7152
▁5%	-10.7153
ot	-10.7155
▁specialist	-10.7155
▁Century	-10.7156
▁orange	-10.7157
▁IT	-10.716
specific	-10.7163
▁pipe	-10.7164
▁continuing	-10.7165
▁handling	-10.7172
▁societies	-10.7176
▁bleeding	-10.7177
▁insect	-10.7179
▁minimize	-10.718
▁Author	-10.7183
▁aggressive	-10.7186
▁haven	-10.7186
▁wider	-10.719
▁Port	-10.7191
▁clients	-10.7195
▁meaningful	-10.7195
▁Fund	-10.7196
And	-10.7197
▁plot	-10.7198
▁Support	-10.7202
▁friendly	-10.7205
▁gift	-10.7206
▁vegetable	-10.7206
▁raising	-10.7207
▁Order	-10.7207
▁Self	-10.7213
▁suicide	-10.7217
ure	-10.7222
▁funded	-10.7223
▁joints	-10.7224
▁deeply	-10.7224
shaped	-10.7225
▁restoration	-10.7225
▁2003	-10.7225
▁clock	-10.7225
▁accompanied	-10.7226
▁Amazon	-10.7231
▁argued	-10.7233
▁infants	-10.7233
▁targeted	-10.7233
▁Teaching	-10.7236
▁converted	-10.7236
2,	-10.7237
▁Scientific	-10.7239
▁democracy	-10.7243
▁Inter	-10.725
▁workplace	-10.7254
our	-10.7255
▁globe	-10.7257
▁mature	-10.7257
▁solving	-10.7261
▁Practice	-10.7261
▁Major	-10.7262
op	-10.7263
They	-10.7264
▁chose	-10.7266
▁medicines	-10.7267
▁Secretary	-10.7272
▁adapted	-10.7278
▁Obama	-10.7278
hand	-10.7279
▁enormous	-10.728
▁Frank	-10.7281
▁styles	-10.7285
▁Pi	-10.7289
▁50%	-10.7291
▁spinal	-10.73
▁differ	-10.7301
▁ethical	-10.7303
▁arguments	-10.7307
▁Encyclopedia	-10.7308
ice	-10.7309
▁Tom	-10.7309
▁Call	-10.7309
▁sessions	-10.7317
▁engines	-10.7321
▁prison	-10.7322
▁photographs	-10.7323
▁outbreak	-10.7326
▁Area	-10.7326
▁references	-10.7328
ai	-10.7328
▁dominant	-10.733
▁default	-10.7331
▁Microsoft	-10.7333
tz	-10.7334
▁losing	-10.7334
▁symbols	-10.7334
▁nutritional	-10.7335
▁faces	-10.7336
▁Marine	-10.7339
▁absolute	-10.734
▁Access	-10.7344
▁aging	-10.7348
▁tongue	-10.7354
▁choosing	-10.7357
▁barriers	-10.7357
▁bound	-10.7364
▁balanced	-10.7369
za	-10.737
▁Much	-10.7376
▁literally	-10.7379
▁Date	-10.7383
▁preferred	-10.7384
art	-10.7386
▁viral	-10.7387
▁dementia	-10.7388
▁beans	-10.7409
▁finds	-10.7411
▁Master	-10.7418
▁cancers	-10.742
fn	-10.7425
▁grades	-10.7428
▁genome	-10.7431
po	-10.7431
▁Abraham	-10.7439
▁wheel	-10.744
▁Scott	-10.7447
▁Four	-10.7448
▁Mississippi	-10.7448
▁assignment	-10.7449
▁gathered	-10.7452
▁planted	-10.7457
▁cooperation	-10.7462
▁virtually	-10.7462
▁fed	-10.7471
ons	-10.7472
▁Sam	-10.7475
▁judge	-10.7476
light	-10.7478
▁actively	-10.7482
▁earthquake	-10.7492
11	-10.7494
▁exploring	-10.7497
▁Student	-10.7502
▁stood	-10.7505
ator	-10.7506
▁addresses	-10.7507
▁overview	-10.7508
▁annually	-10.751
let	-10.7511
▁outdoor	-10.7512
▁Given	-10.7513
▁extract	-10.7514
chi	-10.7519
▁Father	-10.752
▁Ten	-10.7521
▁violent	-10.7523
▁households	-10.7526
ase	-10.7528
-10	-10.7528
board	-10.7528
▁exception	-10.753
▁sale	-10.7533
▁victory	-10.7533
▁sacred	-10.7535
▁equality	-10.7544
▁breaking	-10.7547
▁insights	-10.7552
▁prescribed	-10.7553
▁Dec	-10.7556
▁specified	-10.7557
▁assembly	-10.7557
▁probability	-10.7558
▁End	-10.756
▁favor	-10.756
▁superior	-10.7561
▁3:	-10.7569
▁noticed	-10.757
▁scheme	-10.7578
▁habitats	-10.758
▁clay	-10.7584
▁editor	-10.7591
mail	-10.7592
▁Wilson	-10.7592
▁Brain	-10.7593
▁begun	-10.7593
▁purchased	-10.7596
▁linear	-10.7599
▁hypothesis	-10.7601
▁profit	-10.7602
▁colonial	-10.7607
▁preparing	-10.7608
1,	-10.761
▁Parliament	-10.7611
made	-10.7614
▁Apple	-10.7617
▁earn	-10.7617
▁ears	-10.7622
▁pets	-10.7622
▁Think	-10.7623
But	-10.7625
▁acting	-10.7626
▁thyroid	-10.7636
▁Gold	-10.7637
▁immigrants	-10.7638
▁existed	-10.764
▁).	-10.7641
▁emerged	-10.7651
▁Mass	-10.7653
▁origins	-10.7654
▁keeps	-10.7662
▁sudden	-10.7664
ane	-10.7664
▁Teachers	-10.7665
▁Sa	-10.7666
▁recording	-10.7667
▁Rock	-10.7668
▁blind	-10.7674
▁fabric	-10.7675
▁fires	-10.7675
▁optical	-10.7676
▁partnership	-10.7677
ins	-10.7678
▁assumed	-10.7682
▁shorter	-10.7683
▁personnel	-10.7683
▁Spirit	-10.7683
▁Trust	-10.7687
▁finish	-10.7688
▁Future	-10.769
▁songs	-10.7695
▁controlling	-10.77
")	-10.7701
ach	-10.7707
▁install	-10.7711
▁neuro	-10.7711
▁Ed	-10.7716
▁knee	-10.7724
▁reaches	-10.7725
▁atoms	-10.7727
tion	-10.773
▁Level	-10.7735
▁savings	-10.7737
▁displayed	-10.7738
▁Col	-10.7742
▁resistant	-10.7743
ae	-10.7746
▁barrier	-10.7751
hi	-10.7755
▁dropped	-10.7755
▁Vietnam	-10.7758
▁Watch	-10.776
▁couldn	-10.776
▁Philadelphia	-10.7763
▁illnesses	-10.7763
quality	-10.7763
▁Name	-10.7764
▁Commons	-10.7766
▁kitchen	-10.7767
▁readily	-10.7772
▁specialized	-10.7772
▁Write	-10.7773
▁scenario	-10.7776
▁du	-10.778
▁FDA	-10.7784
▁infant	-10.7784
dy	-10.7785
▁Med	-10.7787
ou	-10.7788
▁invasive	-10.779
▁tri	-10.779
▁Arizona	-10.7796
▁1940	-10.7803
right	-10.7803
▁circulation	-10.7803
▁hyper	-10.7803
▁package	-10.7811
▁Ministry	-10.7812
▁burden	-10.7814
▁hospitals	-10.7814
▁Know	-10.7819
▁estate	-10.7824
▁tension	-10.7827
▁versus	-10.7827
New	-10.7831
▁reserved	-10.7834
tro	-10.7836
▁registered	-10.7837
$	-10.7838
▁paying	-10.7839
▁Create	-10.7842
ez	-10.7843
▁varies	-10.7844
vo	-10.7846
▁perceived	-10.7847
▁accurately	-10.7849
▁adopt	-10.7849
▁mis	-10.785
▁strengthen	-10.7861
▁anger	-10.7861
▁Hence	-10.7862
▁Bridge	-10.7864
cha	-10.7865
▁calendar	-10.7867
▁Mountain	-10.7869
▁Training	-10.7871
▁bond	-10.7874
2)	-10.7881
▁wash	-10.7882
fish	-10.7888
▁swelling	-10.7889
▁limitations	-10.789
▁volunteers	-10.7895
▁severity	-10.7899
▁occupied	-10.7901
▁consciousness	-10.7904
▁Clinical	-10.7905
▁PhD	-10.791
▁Number	-10.7913
▁optimal	-10.7914
▁shock	-10.7917
nt	-10.7917
▁seriously	-10.7919
▁grounds	-10.792
▁opinions	-10.7923
▁2011.	-10.7924
▁representing	-10.7926
▁sheep	-10.7934
ula	-10.7935
▁realized	-10.794
▁RNA	-10.7945
▁complexity	-10.7956
▁creativity	-10.7958
▁sister	-10.7963
▁robot	-10.7964
▁reveals	-10.7964
ap	-10.7965
▁2013.	-10.7971
▁CDC	-10.7974
▁incidence	-10.7974
▁representative	-10.7977
▁livestock	-10.7977
born	-10.798
▁verb	-10.7985
ini	-10.7989
▁attitudes	-10.7992
▁2010.	-10.7994
▁41	-10.7995
▁colony	-10.7996
▁nano	-10.7997
▁basically	-10.8
▁finger	-10.8
▁cap	-10.8002
▁module	-10.8003
▁pairs	-10.8005
▁trace	-10.8008
▁currency	-10.8009
▁Korean	-10.801
▁strategic	-10.8018
%	-10.8021
▁calm	-10.8031
▁graph	-10.8036
ix	-10.8036
▁breaks	-10.8037
▁designated	-10.8037
▁payment	-10.804
▁arthritis	-10.8041
▁armed	-10.8042
▁myself	-10.8044
▁pot	-10.8044
▁unlike	-10.8044
▁habit	-10.8049
▁algorithm	-10.8051
40	-10.8051
▁everywhere	-10.8057
▁Should	-10.8059
▁Current	-10.8059
▁involvement	-10.8061
▁underground	-10.8063
▁rid	-10.8064
▁dentist	-10.8065
▁neurons	-10.8066
▁lakes	-10.8067
▁predicted	-10.8075
▁productive	-10.8077
▁Moses	-10.8079
▁returns	-10.8079
▁prayer	-10.8083
▁Governor	-10.809
▁managers	-10.809
▁fascinating	-10.8092
▁streams	-10.8101
▁fund	-10.8101
▁Vi	-10.8102
▁surgical	-10.8102
▁43	-10.8104
▁Pan	-10.8105
▁delay	-10.8108
▁van	-10.8111
▁kg	-10.8113
▁2001	-10.8113
▁churches	-10.8116
▁Alaska	-10.8124
▁beneath	-10.8128
▁Gen	-10.8131
▁analyzed	-10.8132
▁magnitude	-10.8133
▁Similarly	-10.8138
▁discussions	-10.8138
car	-10.8139
▁Clean	-10.8141
▁nest	-10.8141
book	-10.8143
▁adverse	-10.8144
▁Su	-10.8147
▁diagram	-10.8154
▁Below	-10.8155
▁Jackson	-10.8158
▁Senate	-10.8163
▁unlikely	-10.8166
▁varied	-10.8167
▁traits	-10.8169
▁arrival	-10.8169
▁tone	-10.8171
▁Lab	-10.8172
▁cheese	-10.8177
▁da	-10.8194
ene	-10.8199
▁Andrew	-10.8199
▁teens	-10.8202
▁Questions	-10.8203
▁engineer	-10.8206
)||	-10.8207
▁apparently	-10.8207
▁auto	-10.8207
▁Pope	-10.8208
▁Oregon	-10.8212
▁competitive	-10.8215
▁arise	-10.8215
▁inform	-10.8217
▁chocolate	-10.8222
▁Cell	-10.8228
▁Stephen	-10.8229
▁regulate	-10.8237
▁gardens	-10.8239
▁2012.	-10.8245
▁Grade	-10.8249
gar	-10.8251
How	-10.8252
era	-10.8256
▁Far	-10.8258
▁mammals	-10.8258
ella	-10.826
▁Paper	-10.8265
▁paintings	-10.8268
▁01	-10.827
▁discipline	-10.8271
▁enjoyed	-10.8273
▁welcome	-10.8275
▁Mediterranean	-10.8277
▁phones	-10.8278
▁Micro	-10.8279
▁candidate	-10.8282
ino	-10.8286
▁passes	-10.8287
▁Download	-10.8287
▁minimal	-10.8288
PA	-10.8289
▁deer	-10.829
▁wooden	-10.8291
ari	-10.8292
▁absorb	-10.8294
▁fix	-10.8296
▁reflected	-10.8297
▁Way	-10.8301
http	-10.8303
▁collective	-10.8304
▁nuts	-10.8307
▁incident	-10.8307
▁prevalence	-10.8311
▁Available	-10.832
▁Angeles	-10.8321
▁qualities	-10.8323
▁feels	-10.8323
▁identical	-10.8328
▁copyright	-10.8334
▁Twitter	-10.8338
▁reign	-10.8342
▁Grant	-10.8343
▁buying	-10.8346
▁poly	-10.8346
▁collapse	-10.8348
▁supplement	-10.835
▁restrictions	-10.8355
▁welfare	-10.8358
state	-10.8363
▁Minnesota	-10.8368
▁possibilities	-10.837
▁electrons	-10.837
0.	-10.8375
tin	-10.8377
▁Ra	-10.8382
han	-10.8384
▁punishment	-10.8385
▁Making	-10.8388
▁spine	-10.8388
▁Oil	-10.8392
▁Adam	-10.8393
▁quantities	-10.8393
▁Trade	-10.8395
tra	-10.8395
▁ft	-10.8397
▁allergies	-10.8398
world	-10.8398
▁adjust	-10.8402
19	-10.8402
▁apps	-10.8404
▁Ch	-10.8407
▁logical	-10.8408
▁imagination	-10.8409
▁addressing	-10.841
ny	-10.8411
▁preserved	-10.8413
21	-10.8417
▁documented	-10.8418
▁rainfall	-10.842
▁advances	-10.842
▁minds	-10.842
▁suggestions	-10.8421
▁thesis	-10.8422
▁ruled	-10.8422
▁Drug	-10.8427
▁tap	-10.843
▁evolutionary	-10.8431
▁pace	-10.8437
▁divine	-10.8438
▁distant	-10.8439
▁shelter	-10.8439
▁curve	-10.8448
▁suddenly	-10.845
▁Wales	-10.8452
▁consent	-10.8453
▁valid	-10.8456
▁Love	-10.8456
▁poet	-10.8457
▁invasion	-10.8459
▁Theory	-10.8463
▁transferred	-10.8463
point	-10.8464
▁installation	-10.8464
▁bears	-10.8466
mann	-10.8468
▁gods	-10.8469
▁encounter	-10.847
▁abnormal	-10.8472
▁1000	-10.8476
▁inch	-10.8478
▁Risk	-10.8481
▁entrance	-10.8486
▁contributing	-10.8487
▁metabolism	-10.849
▁transformation	-10.849
▁Ex	-10.849
▁inhabitants	-10.8494
▁faculty	-10.8495
▁sending	-10.8495
▁privacy	-10.8496
▁alongside	-10.8498
friendly	-10.85
▁fifth	-10.85
▁endangered	-10.85
▁Jersey	-10.8502
16	-10.8502
▁zones	-10.8509
▁bottle	-10.8509
▁Mental	-10.8515
▁debris	-10.8515
▁varying	-10.8516
▁ultimate	-10.8522
ward	-10.8528
▁herself	-10.8528
▁happiness	-10.8529
▁Volume	-10.8531
ile	-10.8532
▁sleeping	-10.8532
▁Essay	-10.8532
foot	-10.8533
▁Third	-10.8535
▁Thanks	-10.8536
ci	-10.854
▁Jo	-10.8543
▁isolation	-10.8544
▁Jr	-10.8544
▁magazine	-10.8545
ski	-10.8546
▁flexibility	-10.8551
▁Garden	-10.8558
CA	-10.8559
▁mold	-10.8565
▁assistant	-10.8566
▁loose	-10.8572
▁posts	-10.8573
▁healthier	-10.8573
▁spreading	-10.8582
▁notion	-10.8582
▁Animal	-10.8584
▁proposal	-10.8592
▁susceptible	-10.8593
▁Peace	-10.8593
▁Spring	-10.8595
▁mill	-10.8595
▁clouds	-10.8596
▁bought	-10.8604
▁craft	-10.8607
▁requiring	-10.861
▁Bell	-10.861
type	-10.8612
▁Egyptian	-10.8612
Our	-10.8613
▁Si	-10.8614
▁Week	-10.8615
TM	-10.8617
▁grammar	-10.8619
▁Indigenous	-10.862
▁swimming	-10.8621
▁Different	-10.8622
sch	-10.8624
▁64	-10.8625
▁visiting	-10.8629
▁corporate	-10.8631
▁tends	-10.8633
▁encouraging	-10.8633
:||	-10.8634
▁entitled	-10.8634
▁dense	-10.8637
▁(“	-10.8637
▁ownership	-10.8641
▁elementary	-10.8642
▁ban	-10.8642
▁translated	-10.8642
▁Iran	-10.8644
#	-10.8644
▁Rather	-10.8646
▁Pa	-10.8647
▁particle	-10.8647
▁separation	-10.865
▁motivation	-10.865
▁minority	-10.866
▁refused	-10.8662
▁Schools	-10.8663
▁Ver	-10.8667
▁brush	-10.8668
▁meetings	-10.8671
▁Standards	-10.8671
▁grams	-10.8674
▁strange	-10.8679
ps	-10.8679
▁120	-10.8683
▁roll	-10.8686
▁contents	-10.8687
▁diagnostic	-10.8687
▁Nutrition	-10.8688
▁homework	-10.8693
mon	-10.8701
▁3)	-10.8708
▁hygiene	-10.8712
▁Missouri	-10.8717
▁applies	-10.8721
▁Java	-10.8728
▁attract	-10.8728
▁rays	-10.8732
▁reputation	-10.8737
▁afford	-10.8739
▁popularity	-10.874
care	-10.8747
▁discharge	-10.8747
▁exhibition	-10.8748
An	-10.8749
▁Jones	-10.8753
▁develops	-10.8756
▁worker	-10.8758
▁spatial	-10.8761
▁11.	-10.8761
▁confirm	-10.8763
▁utility	-10.8763
▁contamination	-10.8763
▁developmental	-10.8765
pre	-10.8774
▁shoulder	-10.8774
▁continent	-10.8777
also	-10.8782
▁Unit	-10.8783
▁disk	-10.8784
▁beings	-10.8784
▁beach	-10.8786
▁Lewis	-10.8789
hu	-10.8791
▁Oct	-10.8793
ran	-10.8794
▁provision	-10.8795
▁efficiently	-10.8795
▁perfectly	-10.8799
▁2015.	-10.8801
▁mistakes	-10.8801
zo	-10.8803
▁pen	-10.8805
▁46	-10.8805
▁Text	-10.8806
▁abandoned	-10.881
▁employee	-10.881
▁doses	-10.8811
ea	-10.8812
▁incorporate	-10.8813
▁MA	-10.8814
▁Statistics	-10.8818
▁Story	-10.8819
▁dramatically	-10.8825
▁absolutely	-10.8827
▁hopes	-10.8828
▁Search	-10.8829
▁cellular	-10.8831
wide	-10.8832
▁accounting	-10.8839
▁Da	-10.8843
▁statistical	-10.8845
len	-10.8847
tor	-10.8847
▁combine	-10.8851
▁consult	-10.8851
MS	-10.8851
▁attractive	-10.8852
oid	-10.8852
▁medieval	-10.8853
▁Bi	-10.8854
▁Follow	-10.8859
▁Ro	-10.8863
▁orders	-10.8867
▁pesticides	-10.8869
▁winds	-10.8874
▁till	-10.8875
▁Mrs	-10.8876
▁minister	-10.8876
▁joy	-10.8879
▁confusion	-10.8879
000	-10.8879
▁themes	-10.888
▁systematic	-10.8881
▁2002	-10.8881
▁amino	-10.8883
▁relate	-10.8885
▁initiatives	-10.8888
▁95	-10.8888
▁10%	-10.8889
▁Turkey	-10.889
▁ancestors	-10.8895
▁tables	-10.8895
▁highlight	-10.8896
▁synthetic	-10.8897
▁ha	-10.8898
▁therapeutic	-10.8898
▁constitution	-10.8899
▁Sal	-10.89
De	-10.89
▁classification	-10.8901
▁copies	-10.8908
ants	-10.891
▁erosion	-10.8912
▁tumors	-10.8912
IP	-10.8912
▁2014.	-10.8917
▁Davis	-10.8917
che	-10.8922
▁invention	-10.8923
▁irrigation	-10.8926
▁channels	-10.8927
▁burned	-10.8929
▁surrounded	-10.8929
▁holy	-10.8931
▁stretch	-10.8934
▁abundance	-10.8936
80	-10.8939
▁surprising	-10.894
▁Allah	-10.8942
▁dimensions	-10.8944
si	-10.8944
▁Berlin	-10.8945
▁relating	-10.8948
▁infectious	-10.8949
▁operated	-10.895
▁tower	-10.8953
▁campus	-10.8956
▁Prince	-10.8958
▁ending	-10.8959
▁Rev	-10.8959
▁fiction	-10.896
▁villages	-10.897
▁neutral	-10.897
▁Francis	-10.8971
AL	-10.8972
▁interpret	-10.8973
▁repeat	-10.8974
▁Show	-10.8976
▁cable	-10.8979
▁whenever	-10.8979
50	-10.8981
▁canal	-10.8984
▁approval	-10.8988
ow	-10.8992
▁restricted	-10.8993
▁attributed	-10.8994
▁Psychology	-10.8998
▁Shakespeare	-10.8998
▁totally	-10.9003
stone	-10.9003
▁royal	-10.9005
▁Parents	-10.9006
▁Map	-10.9007
▁fatal	-10.9008
▁theoretical	-10.9012
▁courts	-10.9012
▁Maryland	-10.9012
▁loan	-10.9015
▁relieve	-10.9017
osis	-10.902
▁broke	-10.9022
▁acceptable	-10.9023
▁cited	-10.9026
▁Him	-10.9027
ram	-10.9029
▁contaminated	-10.9031
▁elderly	-10.9031
▁chicken	-10.9032
▁radical	-10.9035
▁influences	-10.9036
▁password	-10.904
set	-10.9041
▁crown	-10.9042
▁Give	-10.9043
▁civilization	-10.9044
▁Tuesday	-10.9045
IT	-10.9049
▁regulatory	-10.9049
▁establishing	-10.9052
▁Daily	-10.9056
▁paragraph	-10.9063
▁browser	-10.9064
▁%	-10.9065
▁meter	-10.9065
ani	-10.9066
▁peers	-10.9068
▁invented	-10.9069
▁extinction	-10.9071
▁resolve	-10.9073
▁chamber	-10.9074
▁47	-10.9074
▁judgment	-10.9076
▁reproductive	-10.9076
ites	-10.9081
tu	-10.9083
▁(3)	-10.9086
▁tolerance	-10.9086
▁orientation	-10.9087
▁Wednesday	-10.9088
▁officially	-10.9091
air	-10.9094
ST	-10.9095
▁shop	-10.9095
Con	-10.9097
▁10,000	-10.9098
▁wireless	-10.9098
▁electron	-10.9098
▁Full	-10.9099
▁shade	-10.91
▁reflection	-10.9101
▁appointment	-10.9101
▁Main	-10.9103
▁elevated	-10.9108
▁Matthew	-10.9108
▁Samuel	-10.9111
▁horizontal	-10.9113
▁react	-10.9115
▁developers	-10.912
▁appreciate	-10.912
▁Meanwhile	-10.9124
▁pose	-10.9124
▁simultaneously	-10.9125
▁49	-10.9125
▁visits	-10.9125
▁Tree	-10.9125
▁reviewed	-10.9126
▁100%	-10.9127
▁rough	-10.9129
▁dried	-10.9129
▁allergic	-10.9131
▁atmospheric	-10.9131
▁6,	-10.9136
▁integrity	-10.9137
▁achieving	-10.9138
ola	-10.9139
▁Short	-10.9143
▁enhanced	-10.9144
▁Thursday	-10.9148
32	-10.9151
▁posted	-10.9152
▁awarded	-10.9157
▁Assembly	-10.9157
ep	-10.9159
▁Club	-10.916
▁Ke	-10.9161
▁construct	-10.9167
▁vaccination	-10.9167
val	-10.9167
▁sons	-10.9169
▁trading	-10.9169
▁attempted	-10.9169
▁enforcement	-10.9169
▁Radio	-10.9176
▁speaker	-10.9177
▁tour	-10.9177
▁containers	-10.9178
▁throw	-10.918
▁Nov	-10.9183
ell	-10.9183
▁algorithms	-10.9192
▁workshop	-10.9192
▁divide	-10.9195
ped	-10.9196
▁describing	-10.9197
▁sheets	-10.9209
▁bias	-10.9211
▁doors	-10.9212
▁grand	-10.9214
▁painted	-10.9216
SC	-10.9216
▁Play	-10.9219
í	-10.9223
▁j	-10.9224
ick	-10.9224
▁expanding	-10.9226
▁soils	-10.9227
▁Example	-10.923
▁absorption	-10.9233
▁oceans	-10.9233
▁Tu	-10.9245
▁bonds	-10.9249
▁$1	-10.9252
▁vice	-10.9252
▁revenue	-10.9253
▁regime	-10.9255
▁residential	-10.9256
▁wage	-10.9268
ological	-10.9271
▁enzymes	-10.9271
qui	-10.9276
▁busy	-10.9277
CC	-10.9282
▁belong	-10.9284
▁succeed	-10.9285
-17	-10.9285
▁incorporated	-10.9286
▁survived	-10.9286
▁evident	-10.9288
▁plates	-10.929
▁eaten	-10.929
▁partial	-10.9293
▁metabolic	-10.9295
▁Others	-10.9295
▁adoption	-10.9296
▁@	-10.9301
▁equipped	-10.9302
eh	-10.9302
▁accidents	-10.9303
▁PC	-10.9306
▁Line	-10.9308
▁valley	-10.931
▁heal	-10.931
▁landing	-10.9311
non	-10.9311
▁Death	-10.9314
▁update	-10.9314
▁Son	-10.9314
▁hurt	-10.9316
▁Five	-10.9317
▁Index	-10.9319
ud	-10.9325
ara	-10.9329
▁execution	-10.9331
▁precisely	-10.9333
25	-10.9333
▁neighborhood	-10.9334
▁kilometers	-10.9335
ris	-10.9339
▁PM	-10.9342
▁Mi	-10.9355
ica	-10.9355
▁compost	-10.9358
▁aside	-10.9364
▁instances	-10.9365
iv	-10.9367
▁52	-10.9369
▁bite	-10.9373
▁shoes	-10.9374
▁Cor	-10.9377
▁abundant	-10.9377
▁acquire	-10.938
ified	-10.938
meter	-10.938
▁Besides	-10.9383
ably	-10.9385
▁conflicts	-10.9385
▁adolescents	-10.9391
▁3-	-10.9391
▁Large	-10.9392
▁occasionally	-10.9396
▁pan	-10.9396
▁nursing	-10.9398
▁quiet	-10.9404
▁des	-10.9408
▁Diabetes	-10.9411
▁appeal	-10.9413
▁Ru	-10.9414
▁Kar	-10.9416
▁Real	-10.9423
▁2010,	-10.9423
▁valve	-10.9424
▁wake	-10.9424
▁velocity	-10.9424
▁scan	-10.9429
▁patent	-10.9437
▁Credit	-10.9437
▁hazards	-10.9438
▁amongst	-10.9439
▁Wisconsin	-10.944
▁cloth	-10.9442
ver	-10.9442
▁bladder	-10.9445
▁rotation	-10.9448
▁Bush	-10.9449
▁sensory	-10.9453
▁prescription	-10.9455
▁alternatives	-10.9457
▁weekly	-10.9461
▁consuming	-10.9462
▁Fair	-10.9465
45	-10.9469
zi	-10.9475
▁attended	-10.9486
▁wings	-10.9487
▁avoiding	-10.9487
▁Cape	-10.9487
▁bullying	-10.9488
18	-10.949
Google	-10.949
6.	-10.9492
▁rooms	-10.9493
SA	-10.9496
▁teaches	-10.9501
▁enzyme	-10.9504
▁impressive	-10.9505
▁influenza	-10.9508
ue	-10.9511
▁injured	-10.9511
▁dying	-10.9514
▁intelligent	-10.9516
See	-10.9516
▁cycles	-10.9519
▁Jack	-10.9521
hr	-10.9525
▁width	-10.9525
responsibilities	-10.9534
▁Core	-10.9535
▁consequence	-10.9536
▁analyses	-10.9545
▁(17	-10.9547
▁oils	-10.9553
▁cough	-10.9553
▁Ba	-10.9553
▁Corps	-10.9554
▁loop	-10.9555
▁collecting	-10.9556
▁Dan	-10.9559
▁tough	-10.956
▁Poland	-10.9562
▁scales	-10.9564
▁4:	-10.9565
▁dialogue	-10.9566
▁Trans	-10.9567
▁founder	-10.9568
▁potassium	-10.9569
▁toxins	-10.9569
▁bags	-10.957
sized	-10.957
▁fingers	-10.9574
ada	-10.9574
▁pursue	-10.9575
▁deposits	-10.9576
▁nodes	-10.9577
▁Ontario	-10.9578
▁reasoning	-10.9579
▁STEM	-10.9583
▁sectors	-10.9584
▁suggesting	-10.9585
sp	-10.9586
▁tribe	-10.959
▁distinguish	-10.9591
▁1900	-10.9591
▁jump	-10.9591
▁Emperor	-10.9593
▁finance	-10.9595
ano	-10.9598
▁5,	-10.96
▁struck	-10.9604
▁Was	-10.9607
▁speakers	-10.9607
▁candidates	-10.9608
▁meditation	-10.9612
▁selling	-10.9613
▁diarrhea	-10.9615
ans	-10.9615
▁distinction	-10.9616
▁collections	-10.9617
▁implementing	-10.9622
▁broader	-10.9623
ay	-10.9628
▁retain	-10.963
IN	-10.963
school	-10.9632
▁predators	-10.9634
▁seasonal	-10.9642
▁Super	-10.9643
▁beam	-10.9646
▁circular	-10.9647
▁celebration	-10.9647
▁council	-10.965
▁consisting	-10.9652
▁thirty	-10.9659
▁sciences	-10.9661
▁worksheets	-10.9664
▁consist	-10.9665
▁mi	-10.9665
ising	-10.9668
▁Nazi	-10.9672
▁Linux	-10.9672
▁tracking	-10.9674
▁platforms	-10.9674
▁Published	-10.9675
41	-10.9677
▁Issue	-10.9677
▁attributes	-10.9681
▁Iraq	-10.9681
▁Reserve	-10.9683
▁athletes	-10.9683
about	-10.9683
▁Sha	-10.9683
▁7,	-10.9689
▁factory	-10.969
▁consistently	-10.9692
▁pin	-10.9696
ES	-10.9696
▁mapping	-10.9696
▁physicians	-10.9697
▁salmon	-10.9699
▁Hitler	-10.9702
▁evaluated	-10.9706
▁organism	-10.9708
▁butter	-10.971
▁empire	-10.9712
▁harsh	-10.9712
▁85	-10.9714
▁participating	-10.9723
▁Video	-10.9724
▁monthly	-10.9725
▁plasma	-10.9729
part	-10.9729
▁draft	-10.9729
▁hip	-10.973
▁conclusions	-10.9731
▁fitness	-10.9731
▁Lower	-10.9732
▁Nevertheless	-10.9732
▁Again	-10.9733
ians	-10.9736
▁molecule	-10.9736
▁cream	-10.9737
▁highlights	-10.9739
room	-10.9742
▁strains	-10.9743
▁surveys	-10.9744
▁Kansas	-10.9746
▁Species	-10.9752
▁Town	-10.9753
▁somewhere	-10.9755
iz	-10.9762
▁AM	-10.9762
▁Netherlands	-10.9767
▁distinctive	-10.9767
▁Patients	-10.9772
▁flash	-10.9774
▁wound	-10.9779
▁Types	-10.9779
▁pop	-10.9779
▁pine	-10.9779
med	-10.978
▁citizen	-10.9781
▁boundary	-10.9785
tal	-10.979
▁producers	-10.979
▁heaven	-10.979
▁suit	-10.9791
ware	-10.9792
▁UV	-10.9793
▁PA	-10.9794
▁ch	-10.9798
▁Basic	-10.9798
▁Down	-10.9799
▁Cold	-10.9799
▁binding	-10.9799
▁pink	-10.98
▁arrive	-10.9801
ett	-10.9806
she	-10.9808
▁polar	-10.9813
▁Jefferson	-10.9813
▁films	-10.9815
om	-10.9817
ical	-10.9819
▁likelihood	-10.982
▁WHO	-10.983
▁Victoria	-10.9831
▁Duke	-10.9835
▁attacked	-10.9836
▁puts	-10.9837
▁memories	-10.9839
▁license	-10.9846
▁settlers	-10.9846
▁fertilizer	-10.9846
ID	-10.9847
og	-10.9848
▁verse	-10.985
▁Indonesia	-10.9851
▁parks	-10.9851
▁twelve	-10.9851
▁2021	-10.9853
▁League	-10.9853
▁250	-10.9857
▁Years	-10.9857
▁spelling	-10.9859
▁12.	-10.986
▁Camp	-10.986
▁palm	-10.9867
▁shallow	-10.9867
pdf	-10.987
PDF	-10.9872
▁register	-10.9872
▁fan	-10.9876
▁strict	-10.9877
▁cheap	-10.9878
▁cow	-10.9878
▁tourism	-10.988
▁adjacent	-10.9881
▁mile	-10.9881
▁weakness	-10.9884
you	-10.9891
▁indoor	-10.9896
▁struggling	-10.9896
▁defend	-10.9897
▁historians	-10.9905
▁tendency	-10.9915
▁Ya	-10.9918
pi	-10.9919
▁cope	-10.9922
how	-10.9923
▁Amendment	-10.9925
▁ADHD	-10.9926
▁qualified	-10.9932
edu	-10.9932
▁brothers	-10.9933
▁outline	-10.9937
▁reviews	-10.9937
▁pest	-10.9939
▁Sleep	-10.994
▁absorbed	-10.994
▁Mal	-10.9941
▁submitted	-10.9942
bi	-10.9943
▁guarantee	-10.9946
▁lasting	-10.995
▁Mother	-10.9951
now	-10.9952
▁worn	-10.9958
“	-10.9959
▁reflects	-10.9961
▁administrative	-10.9962
▁Currently	-10.9964
▁reward	-10.9964
▁para	-10.9965
▁thoroughly	-10.9965
▁gray	-10.9966
▁Labor	-10.9967
▁Talk	-10.9969
▁le	-10.997
▁thrive	-10.9983
▁Physics	-10.9986
▁missions	-10.9986
▁hide	-10.9987
▁golden	-10.9989
▁colored	-10.9989
▁libraries	-10.999
▁Gar	-10.9991
▁Har	-10.9996
▁Scottish	-10.9996
▁Carbon	-10.9997
▁fraction	-11.0001
▁returning	-11.0004
▁chair	-11.0004
▁onset	-11.0009
▁dynamics	-11.001
▁deadly	-11.001
▁diets	-11.0013
▁partially	-11.0015
▁elections	-11.0017
▁definitions	-11.0019
▁connecting	-11.002
▁forever	-11.0021
▁independently	-11.0023
▁subsequently	-11.0025
▁Additional	-11.0027
That	-11.0028
▁transform	-11.0029
▁1%	-11.0033
▁11,	-11.0033
▁drops	-11.0034
▁Gas	-11.0039
IC	-11.0041
▁fur	-11.0042
▁invest	-11.0042
▁axis	-11.0045
▁shut	-11.0046
▁par	-11.0047
60	-11.0051
▁governor	-11.0052
▁Team	-11.0055
▁refugees	-11.0059
▁wing	-11.0059
▁hybrid	-11.006
▁crimes	-11.006
▁Things	-11.0061
▁featured	-11.0064
▁boxes	-11.0067
▁edges	-11.0068
▁colon	-11.0069
▁Depression	-11.0069
▁Quality	-11.007
▁Movement	-11.0074
▁displays	-11.0077
▁destination	-11.0077
▁flooding	-11.0078
▁mask	-11.0078
▁ride	-11.008
▁manufacture	-11.0081
▁cuts	-11.0081
17	-11.0084
▁Saturday	-11.0084
▁robots	-11.0084
▁duties	-11.0086
law	-11.0087
▁inspiration	-11.0087
▁Taylor	-11.0088
▁Python	-11.0088
▁defeat	-11.0088
▁trail	-11.0089
▁prone	-11.009
▁constitutional	-11.0097
▁utilized	-11.0097
My	-11.01
▁2012,	-11.0104
▁coral	-11.0105
5.	-11.0106
▁$2	-11.0107
▁robust	-11.0108
▁pests	-11.0109
▁assessed	-11.0113
OR	-11.0116
▁prevented	-11.0117
▁confused	-11.0119
▁excited	-11.0122
▁completion	-11.0124
▁54	-11.0124
▁partly	-11.0124
▁pack	-11.0124
▁Stone	-11.0127
▁telephone	-11.013
oma	-11.013
▁algae	-11.0131
▁20%	-11.0131
▁Democratic	-11.0135
▁discomfort	-11.0135
▁NOT	-11.0137
▁configuration	-11.0137
▁Edition	-11.0137
▁award	-11.0139
▁kid	-11.014
100	-11.0148
7.	-11.0149
36	-11.015
▁antibodies	-11.015
▁coat	-11.015
aka	-11.0157
▁56	-11.016
▁tape	-11.016
▁Depending	-11.0161
▁Pe	-11.0162
▁span	-11.0164
▁spray	-11.0167
▁murder	-11.0167
▁offices	-11.017
▁belonging	-11.0173
▁Prime	-11.0176
ero	-11.0179
▁carbohydrates	-11.0179
▁placing	-11.0182
▁synthesis	-11.0183
cher	-11.0184
ff	-11.0185
▁progression	-11.0189
▁assessments	-11.0193
PS	-11.0195
▁Healthy	-11.0196
▁freely	-11.0197
▁Teacher	-11.0198
▁modeling	-11.02
▁lift	-11.02
▁possess	-11.0201
▁prisoners	-11.0201
▁fleet	-11.0202
▁legacy	-11.0202
▁humidity	-11.0205
ru	-11.0206
▁2011,	-11.0207
▁51	-11.0211
jo	-11.0215
▁Williams	-11.022
▁prevents	-11.0221
dia	-11.0222
▁inclusion	-11.0222
▁carries	-11.0222
some	-11.0223
▁600	-11.0226
▁earned	-11.0227
▁fault	-11.0228
ama	-11.023
▁democratic	-11.0232
▁sophisticated	-11.0236
▁neural	-11.0236
▁Hindu	-11.0236
▁receives	-11.0236
income	-11.0241
▁Educational	-11.0242
▁rear	-11.0244
▁designing	-11.0245
▁borders	-11.0252
▁Caribbean	-11.0252
▁operational	-11.0256
▁cave	-11.0257
▁packaging	-11.0262
this	-11.0265
▁alter	-11.0265
▁historian	-11.027
▁Generally	-11.0273
▁enabling	-11.0277
▁safer	-11.0281
▁Summer	-11.0283
▁drainage	-11.0289
▁allergy	-11.0291
▁stems	-11.0292
▁2009.	-11.0299
▁Usually	-11.0303
▁affordable	-11.0303
▁traveling	-11.0304
▁ruling	-11.0305
▁tanks	-11.0311
▁crossing	-11.0315
▁artistic	-11.0325
▁telescope	-11.0326
AP	-11.0328
▁avoided	-11.0329
new	-11.0334
▁Case	-11.0334
▁phenomena	-11.0334
▁recommends	-11.0335
▁Primary	-11.0335
▁fibers	-11.0335
▁occasion	-11.0335
▁apple	-11.0336
top	-11.0338
▁promising	-11.0338
▁treaty	-11.0341
▁genus	-11.0342
▁uniform	-11.0343
▁progressive	-11.0343
▁Site	-11.035
▁meta	-11.0351
▁beat	-11.0352
▁Choose	-11.0353
▁shares	-11.0354
▁reproduction	-11.0355
▁wise	-11.0357
”)	-11.0357
▁therapies	-11.036
▁surprised	-11.0362
▁educated	-11.0362
▁Body	-11.0363
▁cyber	-11.0365
cho	-11.0367
▁injection	-11.0367
fold	-11.0368
▁AIDS	-11.037
▁script	-11.037
Do	-11.037
▁pleasure	-11.0374
▁vector	-11.0378
lon	-11.0379
▁controversial	-11.0383
▁sacrifice	-11.0385
ob	-11.0385
doi	-11.0389
▁("	-11.039
▁Has	-11.039
▁mirror	-11.0392
▁mail	-11.0394
▁counties	-11.0394
▁IS	-11.0397
▁adaptation	-11.0399
▁altered	-11.04
▁washing	-11.0401
ese	-11.0402
▁notable	-11.0403
▁searching	-11.0403
▁manufacturer	-11.0404
▁ranges	-11.0405
▁striking	-11.041
dimensional	-11.0411
▁mutations	-11.0411
▁flavor	-11.0411
step	-11.0419
▁epidemic	-11.0422
-6	-11.0423
▁improves	-11.0424
▁Materials	-11.0424
▁bowel	-11.0432
▁methane	-11.0435
▁Ku	-11.0437
cal	-11.0443
bb	-11.0444
▁concentrated	-11.0449
▁disc	-11.0452
▁Until	-11.0455
▁guess	-11.0459
▁organize	-11.046
All	-11.0462
▁illustrated	-11.0464
human	-11.0468
▁nerves	-11.0471
▁yes	-11.0472
▁Franklin	-11.0474
tri	-11.0475
▁organisation	-11.0477
So	-11.0477
▁(3	-11.0481
▁lunch	-11.0482
▁encourages	-11.0489
▁atomic	-11.0492
42	-11.0494
ita	-11.0494
▁electronics	-11.0497
high	-11.0498
▁codes	-11.05
▁routes	-11.0503
▁comparing	-11.0505
▁cluster	-11.0506
▁arranged	-11.0509
▁malaria	-11.0511
▁occupation	-11.0512
▁charges	-11.0512
▁Jim	-11.0513
▁Related	-11.0513
▁Prize	-11.0516
▁bearing	-11.0516
▁Feb	-11.0517
▁embedded	-11.0519
▁stakeholders	-11.0521
▁affairs	-11.0521
▁toys	-11.0524
▁menu	-11.0526
▁Living	-11.0528
▁myth	-11.0531
▁1999	-11.0533
▁educate	-11.0535
▁8,	-11.0539
▁Census	-11.0541
▁camps	-11.0542
lu	-11.0549
▁Always	-11.0554
▁Recent	-11.0556
▁magnesium	-11.0561
▁shouldn	-11.0563
je	-11.0565
▁defects	-11.0566
▁inflammatory	-11.0569
▁Clark	-11.0569
▁originated	-11.057
▁Sri	-11.0572
▁antibiotic	-11.0575
▁suspect	-11.0575
▁alert	-11.0576
▁dinner	-11.059
▁Deep	-11.0592
▁gathering	-11.0592
▁Cultural	-11.0595
▁lecture	-11.0596
▁immunity	-11.0597
▁explored	-11.0598
▁Knowledge	-11.0599
▁capability	-11.0599
▁z	-11.0601
▁Industrial	-11.0602
▁organisations	-11.0604
▁vomiting	-11.0604
▁liberal	-11.0605
▁fallen	-11.0605
▁bills	-11.0607
AD	-11.0608
green	-11.0611
▁Join	-11.0613
▁dam	-11.0614
▁Results	-11.0615
▁pushed	-11.0618
▁preservation	-11.0621
▁investments	-11.0621
who	-11.0627
▁Neuro	-11.0627
ren	-11.0628
▁Market	-11.0628
▁Anne	-11.0633
▁1800	-11.0633
▁gaps	-11.0637
▁Plants	-11.0639
▁traditionally	-11.064
▁hazardous	-11.0641
▁timber	-11.0643
▁permit	-11.0644
date	-11.065
▁diagnose	-11.0655
▁developments	-11.0657
▁53	-11.0659
▁rational	-11.0659
▁na	-11.0659
▁2009,	-11.066
▁utilize	-11.0662
▁Wild	-11.0664
▁census	-11.067
▁Cat	-11.0672
▁anniversary	-11.0675
▁rats	-11.0675
▁Kennedy	-11.0676
▁Centers	-11.0678
▁Advanced	-11.0681
▁2016.	-11.0689
▁accomplished	-11.069
▁brains	-11.0692
▁tight	-11.0692
▁sampling	-11.0693
▁rubber	-11.0694
▁Creative	-11.0695
van	-11.0697
▁conducting	-11.0698
33	-11.0698
cell	-11.0702
▁CT	-11.0703
▁Throughout	-11.0707
▁spin	-11.0707
90	-11.0714
ib	-11.0716
▁Facts	-11.0717
▁nurse	-11.0717
▁persistent	-11.072
▁Mc	-11.0725
▁recycled	-11.0729
▁defines	-11.0731
▁000	-11.0731
▁cook	-11.0732
▁indicating	-11.0732
▁Pain	-11.0732
▁territories	-11.0735
▁storms	-11.0735
▁profound	-11.0737
▁Roosevelt	-11.0739
▁Wind	-11.0741
log	-11.0742
ena	-11.0744
▁afraid	-11.0748
▁calculations	-11.0749
▁mobility	-11.0751
▁symptom	-11.0752
▁lastname	-11.0754
▁Communication	-11.0754
▁segment	-11.0755
▁Therapy	-11.0758
yn	-11.0758
▁expedition	-11.0759
▁continuously	-11.076
▁Jacob	-11.0761
▁Arthur	-11.0764
uc	-11.0765
▁Need	-11.0766
▁mere	-11.0767
▁FOR	-11.0768
▁mercury	-11.0769
▁representatives	-11.0769
even	-11.077
▁9,	-11.077
▁enabled	-11.0772
▁administered	-11.0776
▁°	-11.0777
▁fluids	-11.0777
▁HTML	-11.078
▁Republican	-11.0783
▁Population	-11.0783
▁fertility	-11.0786
bed	-11.0788
▁importantly	-11.0794
▁mystery	-11.0796
ew	-11.0797
▁extraction	-11.0798
▁Buddha	-11.08
mat	-11.08
▁sperm	-11.0801
▁geo	-11.0804
▁shore	-11.0805
SS	-11.0805
▁ID	-11.0806
▁cameras	-11.0806
▁mistake	-11.0808
▁tech	-11.0809
▁extraordinary	-11.0813
▁argues	-11.0817
ag	-11.0818
▁gums	-11.0824
▁guard	-11.0825
▁scenarios	-11.0828
▁Mission	-11.0828
▁mono	-11.0831
▁Utah	-11.0831
▁yard	-11.0833
▁appetite	-11.0833
▁generating	-11.0837
▁72	-11.0841
ria	-11.0843
▁drives	-11.0844
▁hunt	-11.0844
▁2008.	-11.0845
▁answered	-11.0847
▁(4	-11.0847
-20	-11.0847
ions	-11.0848
par	-11.0848
uck	-11.085
▁rocket	-11.085
31	-11.0851
▁gear	-11.0852
▁plaque	-11.0853
▁Israeli	-11.0856
▁indicators	-11.086
▁accomplish	-11.0861
▁publications	-11.0861
▁expressions	-11.0863
▁Very	-11.0866
▁bark	-11.0871
▁recall	-11.0873
fa	-11.0875
▁Iron	-11.0876
37	-11.0878
▁Series	-11.0878
▁thickness	-11.088
▁essence	-11.088
▁influential	-11.088
▁Political	-11.088
wing	-11.0881
▁rank	-11.0885
▁transformed	-11.0888
▁Nation	-11.0889
▁coins	-11.0889
▁(5	-11.0889
▁Sustainable	-11.0892
▁Miller	-11.0893
▁demonstrates	-11.0894
▁Ad	-11.0895
▁Works	-11.0898
▁hill	-11.0899
01	-11.0901
▁soap	-11.0901
▁Sweden	-11.0902
site	-11.0903
▁integral	-11.0904
ade	-11.0905
page	-11.0907
▁Resource	-11.0915
▁tied	-11.0916
▁situated	-11.0917
bin	-11.0919
-15	-11.092
▁labels	-11.0924
▁hunger	-11.0925
fat	-11.0925
▁edit	-11.0927
▁Philip	-11.0927
▁overweight	-11.093
▁Ge	-11.0939
▁rhythm	-11.0941
▁der	-11.0943
▁Jean	-11.0944
▁Wi	-11.0946
▁loud	-11.0946
▁min	-11.095
▁employers	-11.0956
▁moist	-11.0956
▁precision	-11.0957
▁Freedom	-11.0957
▁Mu	-11.0957
▁sequences	-11.0958
▁frozen	-11.0959
hour	-11.0962
▁Chemical	-11.0964
▁steady	-11.0968
34	-11.0971
▁witness	-11.0973
24	-11.0974
▁permitted	-11.0978
▁metres	-11.0979
▁rejected	-11.0981
▁VI	-11.0982
▁Farm	-11.0984
Co	-11.0986
▁belt	-11.0986
cm	-11.0988
▁timing	-11.0988
▁dollar	-11.0989
▁noun	-11.0989
▁texture	-11.099
idae	-11.0998
▁Taking	-11.1001
▁guns	-11.1005
▁transactions	-11.1006
▁genetically	-11.1007
key	-11.101
▁blow	-11.1014
▁Ash	-11.1016
▁vacuum	-11.1018
▁Tips	-11.1021
▁devoted	-11.1023
▁afternoon	-11.1023
▁immigration	-11.1023
▁acceptance	-11.1034
La	-11.1037
▁distinguished	-11.1037
35	-11.1038
▁rescue	-11.104
▁rail	-11.104
▁invited	-11.1044
▁namely	-11.1045
▁doctrine	-11.1048
ala	-11.1048
▁decreases	-11.1049
▁breathe	-11.105
▁advertising	-11.1055
▁quote	-11.1056
▁GDP	-11.1058
▁foster	-11.1058
▁filling	-11.1061
▁commands	-11.1061
▁Simon	-11.1069
▁potatoes	-11.107
▁zinc	-11.1072
▁AC	-11.1074
▁Impact	-11.1075
▁miss	-11.1075
▁conjunction	-11.1075
▁sat	-11.1083
▁executed	-11.1085
▁criticism	-11.109
oo	-11.1091
▁yeast	-11.1092
▁Stress	-11.1092
inch	-11.1093
▁Question	-11.1093
▁Maria	-11.1096
▁Fig	-11.1099
town	-11.1099
▁57	-11.1099
▁submit	-11.1104
▁Louisiana	-11.1104
▁Independence	-11.1109
–19	-11.111
▁Visit	-11.1111
▁pathways	-11.1114
▁Game	-11.1116
▁inequality	-11.1122
ok	-11.1123
▁sing	-11.1124
▁Benefits	-11.1127
▁compliance	-11.1128
▁Captain	-11.1129
wan	-11.1131
▁provisions	-11.1132
har	-11.1135
▁hydro	-11.1135
▁severely	-11.1144
▁locally	-11.1145
53	-11.1145
▁von	-11.1147
IA	-11.1151
▁2008,	-11.1151
▁im	-11.1152
▁Urban	-11.1153
▁confident	-11.1155
▁Rose	-11.116
▁sustained	-11.116
▁festival	-11.1161
ming	-11.1162
▁damaging	-11.1163
▁trap	-11.1166
▁supplied	-11.1168
▁Darwin	-11.1169
su	-11.117
▁Diet	-11.1172
▁galaxy	-11.1173
▁coordination	-11.1173
▁emission	-11.1175
▁promotes	-11.1178
▁accessed	-11.1178
▁Answer	-11.1182
tus	-11.1183
▁Put	-11.1183
▁dig	-11.1185
▁wars	-11.1185
▁Tech	-11.1187
▁determination	-11.1189
uri	-11.119
read	-11.1191
▁relatives	-11.1192
Pro	-11.1193
▁conscious	-11.1193
▁Mind	-11.1196
▁inflation	-11.1198
▁discoveries	-11.12
▁dangers	-11.12
▁Kentucky	-11.1201
▁Exercise	-11.1202
▁incredible	-11.1205
▁bits	-11.1206
▁matrix	-11.1207
▁reserves	-11.1207
▁perspectives	-11.1209
AS	-11.1211
▁Jupiter	-11.1215
▁economics	-11.1217
ery	-11.1218
▁proud	-11.1221
▁distances	-11.1223
▁Aug	-11.1224
▁suspected	-11.1231
▁columns	-11.1233
▁emerge	-11.1234
▁olive	-11.1236
▁1998	-11.1236
▁2007.	-11.1239
▁stressed	-11.1239
▁occurrence	-11.1242
▁filters	-11.1243
▁Sign	-11.1244
du	-11.1245
ms	-11.1247
▁stimulate	-11.1254
▁sustain	-11.1254
▁vocal	-11.1256
▁architectural	-11.1257
▁disposal	-11.1258
Al	-11.1261
OS	-11.1266
▁thread	-11.1268
▁speeds	-11.1273
‘	-11.1277
▁Along	-11.1281
These	-11.1284
▁photograph	-11.1286
▁contributes	-11.1286
white	-11.1291
▁emotion	-11.1291
▁intention	-11.1294
▁succeeded	-11.1298
▁illustrate	-11.13
▁uncertainty	-11.1302
▁explaining	-11.1306
▁solely	-11.1308
▁Publishing	-11.1309
▁dress	-11.1311
▁graphic	-11.1312
▁Philippines	-11.1313
▁Confederate	-11.1315
eth	-11.132
▁Golden	-11.1324
▁snake	-11.1327
▁jaw	-11.1327
▁Bur	-11.1329
▁protocols	-11.1329
▁Hawaii	-11.1332
▁800	-11.1334
▁specimens	-11.1337
▁Collection	-11.1337
▁poorly	-11.1342
▁58	-11.1344
▁correlation	-11.1344
▁poems	-11.1353
▁classrooms	-11.1357
▁Lesson	-11.1357
▁tunnel	-11.1357
▁purple	-11.1358
▁shopping	-11.1358
▁Mill	-11.1358
▁equations	-11.136
▁hardly	-11.136
▁Mountains	-11.1363
▁satellites	-11.1363
▁groundwater	-11.1365
▁Defense	-11.1366
▁cardiac	-11.1366
▁Arabic	-11.1369
▁Multi	-11.137
▁Memorial	-11.1371
▁pitch	-11.1373
▁shed	-11.1376
▁Trump	-11.1377
▁economies	-11.1381
▁restored	-11.1381
▁Ann	-11.1382
▁Romans	-11.1383
▁bulk	-11.1384
▁phrases	-11.1384
▁Prophet	-11.1385
▁cooked	-11.1386
▁Ram	-11.1386
▁traveled	-11.1387
▁lying	-11.1387
▁herbs	-11.139
▁Ga	-11.1392
▁expenses	-11.1392
pur	-11.1395
▁reserve	-11.1402
vin	-11.1403
▁devastating	-11.1408
▁priest	-11.1409
▁racism	-11.1417
▁Select	-11.1424
▁seal	-11.1427
()	-11.1428
▁stuck	-11.1428
▁talks	-11.1432
▁obviously	-11.1432
▁Albert	-11.1433
▁Syria	-11.1437
▁arrangement	-11.1438
▁Winter	-11.144
▁CE	-11.1441
▁Executive	-11.1441
▁chip	-11.1442
▁aquatic	-11.1446
▁implies	-11.145
AM	-11.1452
▁100,000	-11.1453
inflammatory	-11.1456
▁Buddhist	-11.1457
▁Tar	-11.1458
▁incredibly	-11.1458
▁Stage	-11.1459
▁flour	-11.1459
▁pride	-11.1462
▁declined	-11.1464
▁conversations	-11.1465
▁Smart	-11.1466
▁settle	-11.1468
▁revolutionary	-11.1468
▁14,	-11.1468
▁Getting	-11.1468
ks	-11.1473
51	-11.1473
▁Never	-11.148
▁LED	-11.1481
Me	-11.1483
▁headaches	-11.1483
▁investors	-11.1485
▁investigated	-11.1486
▁accordance	-11.1486
▁discussing	-11.149
▁Total	-11.1494
Figure	-11.1496
▁circles	-11.1498
▁realistic	-11.1498
▁intensive	-11.15
▁tubes	-11.1504
500	-11.1504
▁Corporation	-11.1504
▁Definition	-11.1507
nce	-11.1511
▁hall	-11.1511
▁bowl	-11.1512
▁Mis	-11.1515
▁volcanic	-11.1517
▁grave	-11.1521
▁Title	-11.1522
▁node	-11.1524
▁shipping	-11.1525
SP	-11.1526
▁66	-11.1527
▁12,	-11.1528
ph	-11.1533
▁larvae	-11.1539
▁whales	-11.1539
▁yoga	-11.1539
▁facial	-11.1545
▁80%	-11.1545
▁masses	-11.1546
▁contrary	-11.1551
▁galaxies	-11.1552
▁Cap	-11.1554
▁Hi	-11.1555
▁weapon	-11.1556
▁Eye	-11.1558
▁Singapore	-11.1559
▁tear	-11.1559
▁99	-11.1561
▁mini	-11.1561
▁referring	-11.1561
▁picked	-11.1565
▁Sh	-11.1567
▁OS	-11.1567
▁agenda	-11.1568
▁warmer	-11.1573
▁intent	-11.1576
ju	-11.1576
▁fate	-11.1579
▁ash	-11.1581
▁payments	-11.1585
test	-11.1585
▁patch	-11.1587
af	-11.159
▁hero	-11.1594
▁Mon	-11.1594
risk	-11.1598
▁abdominal	-11.1598
▁yields	-11.16
▁assignments	-11.1601
▁enemies	-11.1601
▁collaborative	-11.1604
▁expense	-11.1604
sky	-11.1606
▁Visual	-11.1607
▁manufactured	-11.1607
▁thorough	-11.161
▁conservative	-11.1611
48	-11.1612
▁voting	-11.1613
300	-11.1615
▁Tennessee	-11.1616
▁convenient	-11.1622
▁receptors	-11.1624
8.	-11.1626
▁abroad	-11.163
▁physiological	-11.1633
▁furniture	-11.1633
-5	-11.1633
▁2022	-11.1636
▁Eating	-11.1637
▁gland	-11.1638
Mo	-11.164
▁asks	-11.164
▁precious	-11.1641
▁passive	-11.1641
▁assault	-11.1643
▁info	-11.1643
▁alike	-11.1645
▁Literature	-11.1648
tech	-11.1651
mes	-11.1651
▁protest	-11.1655
▁disasters	-11.1661
▁substitute	-11.1661
||1	-11.1661
▁certification	-11.1661
▁ignore	-11.1662
▁bugs	-11.1662
▁Declaration	-11.1663
▁Soil	-11.1663
▁Effects	-11.1663
▁Cu	-11.1663
▁Kenya	-11.167
▁precipitation	-11.1675
tis	-11.1677
▁layout	-11.1678
▁firstname	-11.1684
▁BBC	-11.1685
▁farmer	-11.1685
▁tackle	-11.1689
▁Ice	-11.1692
▁dictionary	-11.1694
▁behalf	-11.1697
▁flies	-11.1698
▁indicator	-11.1699
▁Country	-11.1701
▁whilst	-11.1702
▁attracted	-11.1705
▁outdoors	-11.1706
▁pulled	-11.1706
▁Overall	-11.1707
▁applicable	-11.1709
style	-11.1709
▁Month	-11.171
-16	-11.171
▁seasons	-11.1713
ball	-11.1716
AC	-11.1716
what	-11.1717
▁2,000	-11.1717
▁Germans	-11.1718
ette	-11.1719
▁Foreign	-11.1719
▁export	-11.172
mb	-11.1721
▁Polish	-11.1721
▁beta	-11.1722
▁specialists	-11.1724
ip	-11.1728
▁2013,	-11.1728
▁repeatedly	-11.1731
▁tab	-11.1732
▁90%	-11.1732
▁volumes	-11.1737
▁frequencies	-11.1738
▁flesh	-11.1744
▁trick	-11.1744
▁Iowa	-11.1745
▁caffeine	-11.1746
mit	-11.1747
▁prevalent	-11.1748
▁Diego	-11.1752
▁impression	-11.1753
One	-11.1754
▁atom	-11.1755
▁club	-11.1756
▁Electric	-11.1762
lam	-11.1763
▁Sound	-11.1764
▁limiting	-11.1764
ky	-11.1765
ular	-11.1767
200	-11.1767
PC	-11.1767
▁tracks	-11.177
ric	-11.1771
▁flowing	-11.1774
▁globally	-11.1775
text	-11.1776
-4	-11.1778
▁thank	-11.1779
▁designers	-11.178
▁Ti	-11.1781
sk	-11.1781
tan	-11.1783
name	-11.1783
▁prostate	-11.1787
▁bands	-11.1789
▁pipes	-11.179
▁programmes	-11.1791
▁62	-11.1794
▁Jane	-11.1796
▁Around	-11.1799
▁ritual	-11.1801
▁Planning	-11.1801
▁shortly	-11.1807
▁22,	-11.1808
▁Fall	-11.1809
ida	-11.1811
▁analyzing	-11.1814
cat	-11.1814
ux	-11.1816
pm	-11.1816
▁18,	-11.1817
▁alphabet	-11.1817
▁Aboriginal	-11.1822
▁Initiative	-11.1823
▁Para	-11.1824
▁football	-11.1825
▁wages	-11.1825
km	-11.1826
9.	-11.1826
▁blame	-11.1827
▁gains	-11.1832
▁Bishop	-11.1833
▁grace	-11.1834
▁Machine	-11.1835
▁dominated	-11.1836
▁Nor	-11.1837
▁genetics	-11.1838
▁simulation	-11.1841
▁Castle	-11.1842
▁assumptions	-11.1843
▁pollen	-11.1843
gan	-11.1845
▁discusses	-11.1848
▁liberty	-11.1849
cc	-11.1849
▁pollutants	-11.1851
▁lining	-11.1852
▁entity	-11.1854
▁Lawrence	-11.1856
▁viewing	-11.1857
cent	-11.1858
▁considerably	-11.1859
person	-11.1861
▁Share	-11.1865
▁chips	-11.1866
▁staying	-11.1867
▁pathogens	-11.187
▁1991	-11.1873
▁makers	-11.1873
▁prolonged	-11.1874
▁Everyone	-11.1877
▁markers	-11.1878
▁newspapers	-11.188
▁smallest	-11.188
▁stops	-11.1884
▁chapters	-11.1888
▁grey	-11.1888
▁episode	-11.1888
▁documentation	-11.1889
▁subtle	-11.189
▁Military	-11.1892
▁Nobel	-11.1893
▁Lady	-11.1895
▁ceremony	-11.1895
ations	-11.1896
▁mounted	-11.1897
▁Ki	-11.1899
▁Archives	-11.1903
▁crowd	-11.1906
▁Historic	-11.1909
▁commission	-11.1909
▁poisoning	-11.191
most	-11.191
▁admitted	-11.1911
▁associations	-11.1912
▁methodology	-11.1914
▁respective	-11.1916
▁singing	-11.1917
▁NY	-11.1921
▁ingredient	-11.1922
▁guided	-11.1922
▁Personal	-11.1925
▁ought	-11.1926
98	-11.1929
▁Holocaust	-11.1931
▁Mad	-11.1932
good	-11.1932
▁Ban	-11.1939
▁sad	-11.1939
▁grants	-11.194
▁consensus	-11.1942
▁2007,	-11.1942
▁dish	-11.1944
int	-11.1947
▁sediment	-11.1948
▁gaining	-11.1952
▁slide	-11.1956
▁locate	-11.1959
▁resilience	-11.1961
ates	-11.1963
▁2015,	-11.1964
▁bat	-11.1971
▁dirt	-11.1976
sha	-11.1976
tern	-11.198
▁profession	-11.198
▁curious	-11.1982
▁politicians	-11.1983
▁cheaper	-11.1992
▁Intelligence	-11.1992
▁15,	-11.1995
▁$3	-11.1996
▁lunar	-11.1998
▁del	-11.1998
▁17,	-11.1999
▁Fe	-11.2
▁unexpected	-11.2001
▁pathway	-11.2001
▁Sand	-11.2005
NA	-11.2005
del	-11.2005
▁conclude	-11.2007
▁opens	-11.2007
▁participated	-11.2008
uff	-11.2009
▁Treaty	-11.201
▁boards	-11.2011
▁unto	-11.2011
▁encountered	-11.2015
▁digestion	-11.2016
47	-11.2019
▁Persian	-11.202
▁Images	-11.2021
▁exclusively	-11.2021
▁comprehension	-11.2023
▁sole	-11.2025
▁unnecessary	-11.2027
▁13,	-11.2032
▁legend	-11.2032
▁Poly	-11.2032
▁passion	-11.2035
▁Ages	-11.2039
▁USDA	-11.2041
▁geographic	-11.2044
▁loans	-11.2044
▁ethics	-11.2045
▁needle	-11.2045
3,	-11.2046
▁mud	-11.2047
▁powered	-11.2047
power	-11.2049
▁licensed	-11.2051
▁departments	-11.2053
▁arteries	-11.2054
▁Maybe	-11.2056
▁advised	-11.2056
▁acquisition	-11.2057
▁viable	-11.2058
▁keys	-11.206
▁Explain	-11.2062
▁static	-11.2062
27	-11.2066
▁magic	-11.2073
FA	-11.2075
▁shadow	-11.2076
▁navigate	-11.2076
▁odd	-11.2076
▁closest	-11.2077
▁extends	-11.2078
▁volunteer	-11.208
ble	-11.2081
ose	-11.2086
▁radioactive	-11.2091
▁1997	-11.2091
Ex	-11.2093
▁panic	-11.2096
▁Dam	-11.2097
▁nineteenth	-11.2097
▁scenes	-11.2099
▁protects	-11.2101
▁archaeological	-11.2101
▁responded	-11.2102
▁Agricultural	-11.2106
UN	-11.2113
▁costly	-11.2113
▁bath	-11.2114
▁59	-11.2118
grade	-11.212
ned	-11.2123
▁examining	-11.2124
▁Dental	-11.2128
▁aluminum	-11.2129
▁dishes	-11.2129
▁brick	-11.2129
On	-11.213
▁terminal	-11.213
▁Chemistry	-11.2131
dar	-11.2131
▁tick	-11.2131
26	-11.2132
▁Afghanistan	-11.2133
▁2017.	-11.2134
illa	-11.2138
▁drain	-11.2138
kar	-11.2139
▁praise	-11.2139
▁Hard	-11.2139
▁Skills	-11.2144
▁Regional	-11.2148
▁dozen	-11.215
▁eco	-11.2153
nes	-11.2155
▁transparent	-11.2157
▁neighbors	-11.2157
cy	-11.216
▁scheduled	-11.2161
▁dive	-11.2164
▁Sci	-11.2166
▁30%	-11.2169
▁slight	-11.217
▁bottles	-11.2172
▁Games	-11.2173
▁Prof	-11.2176
▁skilled	-11.2178
▁counting	-11.2178
▁Color	-11.2181
▁cavity	-11.2182
▁arc	-11.2185
||0	-11.2185
▁practitioners	-11.2187
61	-11.2192
Fi	-11.2192
▁05	-11.2192
▁Tell	-11.2194
▁colleges	-11.2199
▁vapor	-11.2199
▁Together	-11.2207
od	-11.2207
▁Six	-11.2208
AT	-11.221
▁28,	-11.2211
▁tremendous	-11.2212
▁attempting	-11.2214
▁ne	-11.2218
▁mutual	-11.2221
▁firms	-11.2222
▁AP	-11.2224
▁necessity	-11.2225
▁survivors	-11.2233
▁distress	-11.2234
▁ignored	-11.2234
▁strip	-11.2235
▁13.	-11.2236
▁smile	-11.2237
▁employ	-11.2238
▁updates	-11.2238
▁checked	-11.2239
▁Val	-11.224
▁mainstream	-11.224
▁compression	-11.2241
▁winning	-11.2241
▁Extension	-11.2241
▁Similar	-11.2241
Be	-11.2243
▁Activity	-11.2243
▁unemployment	-11.2247
▁gentle	-11.2247
▁Alabama	-11.2248
▁Affairs	-11.2249
BC	-11.2249
▁Course	-11.2249
▁comparable	-11.225
▁resist	-11.2252
▁radar	-11.2254
ox	-11.2255
▁biomass	-11.2256
▁recovered	-11.2257
▁operators	-11.2257
▁Indiana	-11.226
▁fifty	-11.2266
▁moments	-11.2266
ct	-11.227
▁5:	-11.2271
▁angry	-11.2271
▁navigation	-11.2274
▁posture	-11.2276
▁interviews	-11.2281
▁Ford	-11.2283
▁Va	-11.2284
▁truck	-11.2288
▁aids	-11.2289
▁hate	-11.2292
▁checking	-11.2295
home	-11.2296
▁Eat	-11.2298
▁inherited	-11.2299
▁machinery	-11.2299
SE	-11.23
▁directory	-11.2301
▁Norway	-11.2302
av	-11.2305
▁63	-11.2307
▁macro	-11.2309
▁servers	-11.231
▁defeated	-11.231
▁26,	-11.2313
▁editing	-11.2315
▁explosion	-11.2317
▁Thank	-11.2319
▁breakfast	-11.2322
science	-11.2325
▁bow	-11.2325
▁Mel	-11.2326
link	-11.2327
▁Financial	-11.2328
▁tag	-11.2331
▁unity	-11.2331
▁2%	-11.2333
▁compensation	-11.2334
29	-11.2337
▁Bird	-11.2339
▁beds	-11.2342
▁automatic	-11.2342
ken	-11.2344
▁arrest	-11.2345
▁glands	-11.2348
▁promotion	-11.2348
▁Process	-11.2349
▁gate	-11.235
▁AS	-11.2351
▁Upper	-11.2353
▁historically	-11.2355
▁degradation	-11.2356
St	-11.2356
▁Print	-11.2357
▁insulation	-11.2357
▁Cut	-11.2358
▁Salt	-11.236
▁Adams	-11.2362
anti	-11.2364
gi	-11.2365
▁residence	-11.2369
▁Youth	-11.237
▁transaction	-11.237
▁Almost	-11.2371
▁nausea	-11.2372
▁Genesis	-11.238
▁16,	-11.2383
▁guides	-11.2384
▁bike	-11.2385
▁phases	-11.2385
▁deck	-11.2385
▁portions	-11.2385
▁kit	-11.2386
▁edited	-11.2387
▁headed	-11.2387
source	-11.2388
▁coronavirus	-11.239
▁mosquito	-11.2392
ER	-11.2396
▁Bu	-11.2398
▁arch	-11.2401
▁MIT	-11.2401
▁SC	-11.2402
MA	-11.2402
▁inclusive	-11.2403
▁Prior	-11.2403
▁photography	-11.2405
▁Easter	-11.2405
HS	-11.241
▁obese	-11.2411
▁meets	-11.2415
▁Stanford	-11.2416
▁deals	-11.2416
▁boats	-11.2418
▁Sp	-11.2419
▁drawings	-11.2424
ets	-11.2425
▁Beach	-11.2425
▁descriptions	-11.2431
var	-11.2432
▁hazard	-11.2435
▁headache	-11.2436
▁Sen	-11.2438
▁membership	-11.2438
▁Allen	-11.244
▁Method	-11.244
news	-11.2441
run	-11.2441
▁movies	-11.2442
CS	-11.2442
▁Words	-11.2443
▁23,	-11.2444
▁Res	-11.2445
▁sees	-11.2446
▁surveillance	-11.2446
▁omega	-11.2447
rate	-11.2447
▁Wa	-11.245
▁replacing	-11.2451
▁crystal	-11.2451
▁highlighted	-11.2451
▁enterprise	-11.2452
▁Evidence	-11.2457
table	-11.2458
▁litter	-11.2459
▁angles	-11.2462
▁basin	-11.2463
ava	-11.2463
▁Cloud	-11.2463
08	-11.2464
▁pushing	-11.2464
▁ensures	-11.2465
▁1/2	-11.2468
post	-11.247
ven	-11.2471
gate	-11.2475
▁nurses	-11.2476
ati	-11.2477
▁compete	-11.248
▁motivated	-11.2481
cut	-11.2482
▁structured	-11.2487
▁Looking	-11.2487
▁u	-11.2492
▁throne	-11.2492
At	-11.2493
▁seeks	-11.2495
▁climb	-11.25
▁Authority	-11.25
70	-11.2502
aria	-11.2502
rays	-11.2503
ei	-11.2503
▁resident	-11.2504
▁circuits	-11.2507
▁21,	-11.2508
▁personally	-11.2509
yan	-11.251
▁floating	-11.251
▁thy	-11.251
▁darkness	-11.2511
▁illustrations	-11.2512
▁Reference	-11.2512
▁teen	-11.2515
ging	-11.2519
▁Walter	-11.252
▁promoted	-11.252
▁microbes	-11.2522
-9	-11.2524
▁demonstration	-11.2524
▁Diseases	-11.2526
▁Ali	-11.2529
▁tribal	-11.2529
▁lean	-11.253
▁certified	-11.2531
▁Testing	-11.2532
99	-11.2533
▁Maine	-11.2533
▁integrate	-11.2535
▁68	-11.2536
▁Annual	-11.2536
▁67	-11.254
▁Ken	-11.2541
▁purchasing	-11.2542
▁embrace	-11.2545
▁practicing	-11.2548
EC	-11.2549
▁rings	-11.2552
▁blockchain	-11.2555
▁Better	-11.2556
▁6:	-11.2557
▁Er	-11.2557
▁verbal	-11.2557
▁Nigeria	-11.2559
space	-11.256
SI	-11.2563
▁worried	-11.2568
▁wealthy	-11.2568
▁Complete	-11.2568
▁gay	-11.257
▁5-	-11.257
hood	-11.257
▁Im	-11.257
▁Bre	-11.2571
author	-11.2571
▁introducing	-11.2572
▁castle	-11.2575
▁te	-11.2575
▁registration	-11.2575
▁2005,	-11.2579
▁oxide	-11.2579
▁railroad	-11.2584
▁Buddhism	-11.2584
▁Patrick	-11.2586
▁slope	-11.2587
▁Heat	-11.2588
66	-11.2594
▁mutation	-11.2595
▁2014,	-11.2601
CT	-11.2602
▁Bob	-11.2604
▁consultation	-11.2605
▁interfere	-11.2605
▁Continue	-11.2607
▁completing	-11.2609
▁operator	-11.2609
▁beef	-11.2611
▁Nuclear	-11.2611
▁possession	-11.2613
▁2006,	-11.2614
▁3%	-11.2615
eo	-11.2619
▁Net	-11.2621
▁Hong	-11.2623
ika	-11.2624
▁soldier	-11.2625
▁File	-11.263
▁voices	-11.2631
▁Mor	-11.2631
▁microscope	-11.2633
▁hepatitis	-11.2635
▁assumption	-11.2635
▁soda	-11.2637
▁practiced	-11.2639
▁Luther	-11.2644
▁marker	-11.2646
lay	-11.2646
▁undergo	-11.2646
ich	-11.2647
▁Technical	-11.2649
▁cement	-11.265
▁lenses	-11.2651
▁Benjamin	-11.2651
64	-11.2655
▁sorts	-11.2657
vert	-11.2658
lock	-11.2659
▁rises	-11.2659
view	-11.2661
▁certificate	-11.2665
▁corruption	-11.267
▁ions	-11.2671
▁61	-11.2671
▁followers	-11.2673
▁Poor	-11.268
▁02	-11.2682
▁Weather	-11.2682
OL	-11.2684
23	-11.2685
▁shooting	-11.2687
▁MP	-11.2687
▁caring	-11.269
where	-11.2691
cus	-11.2693
22	-11.2701
▁hypertension	-11.2702
ock	-11.2704
▁Sch	-11.2704
ami	-11.2705
▁belongs	-11.2705
▁writings	-11.2709
▁Cook	-11.2714
▁equity	-11.2715
▁labeled	-11.2715
▁withdrawal	-11.2716
▁interpreted	-11.2719
ros	-11.2721
▁Tim	-11.2728
▁railway	-11.273
wi	-11.2731
▁heated	-11.2735
▁crash	-11.2735
▁Shi	-11.2736
▁perceive	-11.2736
▁coding	-11.2739
▁databases	-11.2745
▁Weight	-11.2748
▁initiated	-11.2749
▁Han	-11.2749
▁placement	-11.275
ches	-11.275
▁Syndrome	-11.275
▁entities	-11.275
▁mines	-11.2755
▁Muhammad	-11.2756
▁defining	-11.2758
▁steep	-11.2758
▁fragments	-11.2758
▁stimulation	-11.276
▁24,	-11.2762
ory	-11.2763
▁Description	-11.2765
▁Award	-11.2765
▁accused	-11.2765
▁artery	-11.2769
▁Editor	-11.2771
▁altitude	-11.2774
▁Turkish	-11.2775
box	-11.2776
they	-11.2777
▁Max	-11.2779
▁commit	-11.2779
pan	-11.2781
▁fee	-11.2787
▁promised	-11.279
nia	-11.279
▁threshold	-11.2791
02	-11.2797
▁Palestine	-11.2798
▁considerations	-11.2799
▁Kim	-11.2799
▁fails	-11.28
▁saturated	-11.28
▁OR	-11.2801
▁transit	-11.2802
▁tale	-11.2802
▁Venus	-11.2802
▁Cal	-11.2803
▁toilet	-11.2804
▁Moore	-11.2805
▁statue	-11.2808
▁dual	-11.281
▁passengers	-11.2812
▁4)	-11.2813
▁relates	-11.2814
▁jet	-11.2815
▁gifts	-11.2817
▁Religion	-11.2817
▁Simple	-11.2818
▁Hand	-11.2818
▁monument	-11.2818
▁advocate	-11.2819
▁Tax	-11.2821
▁talked	-11.2823
▁Too	-11.2823
▁projected	-11.2826
400	-11.2826
▁asset	-11.2827
▁accumulation	-11.2828
▁Typically	-11.2828
▁triggers	-11.2829
pt	-11.2831
▁informal	-11.2835
▁geometry	-11.2837
▁footprint	-11.2838
ual	-11.2838
▁geography	-11.2839
nu	-11.2841
▁monitored	-11.2843
TA	-11.2843
▁colours	-11.2843
▁combining	-11.2843
▁(16	-11.2843
▁campaigns	-11.2843
▁entertainment	-11.2843
▁paths	-11.2844
▁Berkeley	-11.2844
▁Protocol	-11.2847
▁automated	-11.2851
▁workshops	-11.2852
▁ecology	-11.2854
▁bars	-11.2856
▁naval	-11.2856
▁Bal	-11.2857
....	-11.2858
▁neurological	-11.2858
91	-11.286
fi	-11.286
▁Sar	-11.286
▁Programme	-11.286
▁tired	-11.2864
▁compromise	-11.2865
▁Excel	-11.2875
▁seemingly	-11.2875
mic	-11.2875
▁arrested	-11.2878
▁probe	-11.2879
▁artifacts	-11.288
▁inadequate	-11.2886
▁receptor	-11.2889
▁oak	-11.289
▁Sydney	-11.2894
Ma	-11.2895
▁missed	-11.2897
▁incidents	-11.2899
▁descendants	-11.2901
▁peaceful	-11.2903
▁caution	-11.2904
▁Behavior	-11.2907
▁rows	-11.2907
uch	-11.2909
▁reliability	-11.291
▁Cost	-11.291
▁Bitcoin	-11.2912
▁fungi	-11.2912
onic	-11.2914
▁acknowledge	-11.2917
▁19,	-11.2919
▁Philosophy	-11.2919
▁clusters	-11.2921
▁indication	-11.2921
▁basics	-11.2923
-8	-11.2923
▁convinced	-11.2923
54	-11.2925
▁Content	-11.2925
nar	-11.2929
▁1996	-11.2931
09	-11.2933
▁Kong	-11.2937
▁drama	-11.2937
▁folk	-11.2941
▁selecting	-11.2941
▁surviving	-11.2942
iness	-11.2943
▁irregular	-11.2944
▁URL	-11.295
▁enters	-11.2952
▁consisted	-11.2955
▁pulse	-11.2956
▁feast	-11.2956
▁overwhelming	-11.2956
▁Causes	-11.2957
▁bomb	-11.2959
▁worksheet	-11.2959
▁Problem	-11.296
▁Beyond	-11.296
▁geographical	-11.2963
▁ion	-11.2963
▁UC	-11.2965
cast	-11.2966
▁environmentally	-11.2968
▁inspire	-11.2968
▁pond	-11.2969
aries	-11.2972
▁Saturn	-11.2975
▁determines	-11.2976
▁efficacy	-11.2978
▁10,	-11.2978
▁skull	-11.298
▁sensation	-11.2982
▁silk	-11.2985
▁Je	-11.2987
month	-11.299
▁pale	-11.2992
▁regulated	-11.2995
▁Mathematics	-11.2995
rin	-11.3
▁Ham	-11.3
▁2006.	-11.3
▁fees	-11.3001
▁exceed	-11.3002
▁40%	-11.3004
ments	-11.3004
▁concentrate	-11.3007
▁presenting	-11.3008
▁exams	-11.301
▁warned	-11.3013
▁lawn	-11.3019
▁1995	-11.302
▁satisfaction	-11.3021
▁rating	-11.3023
▁observing	-11.3023
▁Safe	-11.3023
▁Wright	-11.3024
size	-11.3024
▁extinct	-11.3026
▁Pen	-11.3026
RA	-11.3027
▁Fortunately	-11.303
▁glasses	-11.3031
▁governance	-11.3031
▁Mer	-11.3032
rick	-11.3034
▁Bat	-11.3035
▁Guard	-11.3036
▁autumn	-11.3036
▁outstanding	-11.3038
▁Methods	-11.3039
▁Archived	-11.3041
▁contracts	-11.3045
49	-11.3045
ert	-11.3051
pin	-11.3051
▁extending	-11.3055
rus	-11.3055
▁imported	-11.3055
▁presidential	-11.3057
▁asbestos	-11.3058
▁philosophical	-11.3058
ups	-11.3062
▁Ja	-11.3064
▁Austria	-11.3068
▁melting	-11.3068
▁substantially	-11.3068
▁explores	-11.3069
▁suited	-11.307
▁whale	-11.3072
▁closing	-11.3072
▁Return	-11.3074
TO	-11.3076
▁unclear	-11.3076
▁Universe	-11.3077
▁trips	-11.3078
▁counts	-11.3083
▁Disorder	-11.3083
▁thrown	-11.3083
▁Toronto	-11.3086
▁Bra	-11.3088
▁Loss	-11.3088
▁creature	-11.3091
list	-11.3091
▁publicly	-11.3091
▁longest	-11.3093
▁religions	-11.3096
▁unhealthy	-11.3097
▁kidneys	-11.3098
▁drew	-11.3103
▁coin	-11.3104
▁calculation	-11.3104
86	-11.3106
resistant	-11.3108
▁eligible	-11.3108
▁Summary	-11.311
▁briefly	-11.3112
ography	-11.3112
▁offset	-11.3113
range	-11.3113
▁dimension	-11.3113
▁requests	-11.3119
▁cups	-11.3121
▁compact	-11.3122
▁challenged	-11.3124
▁relies	-11.3125
▁attending	-11.3126
▁Douglas	-11.3129
▁graphics	-11.3129
▁sword	-11.3132
▁dreams	-11.3141
▁Ukraine	-11.3141
▁Alliance	-11.3143
tel	-11.3146
▁Biological	-11.3149
▁Oklahoma	-11.315
▁carrier	-11.3151
▁forty	-11.3152
▁Connecticut	-11.3153
▁Renaissance	-11.3153
▁pigs	-11.3155
▁meanings	-11.3156
▁template	-11.3157
▁predictions	-11.3158
▁Planet	-11.316
profit	-11.316
▁accommodate	-11.3161
▁induced	-11.3161
▁2016,	-11.3163
▁Trail	-11.3164
kan	-11.3166
▁Upon	-11.3166
▁antioxidants	-11.3168
▁Creating	-11.317
▁cows	-11.3171
▁banned	-11.3173
▁fusion	-11.3174
▁intestinal	-11.3176
▁Switzerland	-11.3177
▁memorial	-11.3179
▁nucleus	-11.3179
▁Activities	-11.3181
▁undertaken	-11.3187
▁symbolic	-11.319
▁Dog	-11.319
▁founding	-11.319
▁GPS	-11.319
▁wounded	-11.3192
▁careers	-11.3193
▁modules	-11.3195
▁silent	-11.3197
▁legitimate	-11.3198
▁Magazine	-11.3198
▁imagery	-11.3199
▁courage	-11.32
▁inherent	-11.32
▁elevation	-11.3205
DS	-11.3207
▁SS	-11.3207
▁Ab	-11.3208
▁intermediate	-11.3211
two	-11.3213
▁breakdown	-11.3214
▁glory	-11.3214
▁forgotten	-11.3214
▁lighter	-11.3214
▁gallons	-11.3215
▁69	-11.3216
▁Evolution	-11.3218
▁revised	-11.3221
graph	-11.3222
▁Gu	-11.3223
▁Enter	-11.3227
rum	-11.3228
osa	-11.3228
▁Origin	-11.3229
elli	-11.3229
▁terrible	-11.323
▁birthday	-11.323
▁freshwater	-11.3231
five	-11.3232
mus	-11.3233
▁(6	-11.3233
▁Clinic	-11.3234
▁keyboard	-11.3234
ces	-11.3235
▁tries	-11.3235
▁Professional	-11.3236
ien	-11.3241
ug	-11.3243
▁ruler	-11.3244
▁functionality	-11.3244
▁Basin	-11.3245
▁Range	-11.3247
▁Sarah	-11.325
▁Ser	-11.3252
▁assessing	-11.3253
▁Box	-11.3253
elle	-11.3254
▁workforce	-11.3256
▁wetlands	-11.3259
▁weren	-11.3261
▁1994	-11.3261
▁Front	-11.3261
▁Portuguese	-11.3262
▁Fa	-11.3262
03	-11.3266
▁Khan	-11.3266
▁Cuba	-11.3266
ora	-11.3267
▁relax	-11.3267
▁commander	-11.3269
1)	-11.3274
▁releases	-11.3275
▁offspring	-11.3276
▁Pat	-11.3277
phy	-11.3277
▁(15	-11.3279
▁triggered	-11.3281
▁denied	-11.3281
▁ozone	-11.3282
▁Dar	-11.3282
▁lacking	-11.3283
▁Emergency	-11.3287
▁Economics	-11.3289
▁speaks	-11.329
▁voters	-11.3291
▁Luke	-11.3292
▁chains	-11.3295
▁diesel	-11.3295
▁raises	-11.3296
▁evaluating	-11.3297
▁bay	-11.3297
▁imposed	-11.3298
▁Problems	-11.33
▁pronounced	-11.3304
stein	-11.3305
▁Eventually	-11.3307
▁patches	-11.3309
OC	-11.331
▁actors	-11.331
57	-11.3313
▁surgeon	-11.3316
▁Pay	-11.3316
▁Carl	-11.3316
▁transmit	-11.3317
▁4%	-11.3318
▁Parkinson	-11.3319
▁Imagine	-11.3319
▁Jordan	-11.332
▁sweat	-11.332
▁Anderson	-11.3321
▁Software	-11.3321
▁Ross	-11.3321
▁intervals	-11.3323
▁bee	-11.3325
▁Ta	-11.3326
TC	-11.333
▁burial	-11.3333
▁Bad	-11.3335
▁complement	-11.3335
▁explanations	-11.3335
▁Che	-11.3337
▁thumb	-11.3338
▁unprecedented	-11.3338
·	-11.3339
▁Rio	-11.334
▁interval	-11.3341
▁mixing	-11.3341
▁inputs	-11.3342
▁Direct	-11.3343
matic	-11.3345
▁Academic	-11.3345
55	-11.3347
ye	-11.3348
IR	-11.335
▁Fox	-11.3352
▁emergence	-11.3356
▁27,	-11.3357
▁Record	-11.3358
▁architect	-11.3362
▁preferences	-11.3363
▁Late	-11.3363
▁Police	-11.3365
ties	-11.3366
▁Higher	-11.3366
▁loaded	-11.3366
▁lateral	-11.3366
600	-11.3369
aging	-11.3373
bio	-11.3374
▁constitute	-11.3374
▁Curriculum	-11.3377
▁loads	-11.3378
nal	-11.338
▁dated	-11.3381
▁charts	-11.3382
▁Run	-11.3383
▁disciplines	-11.3387
▁Com	-11.3388
▁Tan	-11.3389
▁Victorian	-11.3391
▁scattered	-11.3392
▁deemed	-11.3393
▁forecast	-11.3395
▁worms	-11.3397
▁Region	-11.3398
▁Ap	-11.3399
din	-11.3401
▁Southeast	-11.3402
oe	-11.3402
▁Accessed	-11.3404
▁beer	-11.3406
="	-11.3406
▁twentieth	-11.3408
▁crust	-11.3411
▁titles	-11.3417
star	-11.3418
yo	-11.3422
▁Op	-11.3424
▁lesions	-11.3425
▁Dakota	-11.3425
▁fears	-11.3425
▁intact	-11.3427
induced	-11.3428
▁trillion	-11.3431
▁29,	-11.3439
▁hills	-11.344
▁plastics	-11.3441
▁identifies	-11.3441
▁Ottoman	-11.3442
▁impaired	-11.3444
cap	-11.3451
▁delicate	-11.3451
▁remembered	-11.3451
▁extracted	-11.3456
▁Swedish	-11.3457
CP	-11.3459
▁modify	-11.3459
▁08	-11.3459
▁impacted	-11.3463
▁earthquakes	-11.3463
▁crossed	-11.3463
▁controversy	-11.3463
▁autonomous	-11.3465
▁lock	-11.3468
▁96	-11.3468
value	-11.3468
▁buffer	-11.3468
▁median	-11.3472
▁25,	-11.3474
pet	-11.3474
▁trapped	-11.3477
▁astronomers	-11.3478
▁advocates	-11.3478
▁import	-11.3479
▁continually	-11.3481
▁eternal	-11.3481
▁Ltd	-11.3483
TH	-11.3484
▁kings	-11.3486
▁NO	-11.3489
▁segments	-11.349
▁bold	-11.3491
▁provinces	-11.3491
▁ma	-11.3492
▁lesser	-11.3496
▁Bor	-11.3498
▁slower	-11.3498
▁tutorial	-11.3502
row	-11.3503
▁snakes	-11.3503
▁ties	-11.3509
oli	-11.3512
esteem	-11.3513
▁bulbs	-11.3514
▁foundations	-11.3514
band	-11.3515
▁chemotherapy	-11.3516
▁seats	-11.3517
▁Dry	-11.3517
▁coating	-11.3518
800	-11.3518
5,000	-11.3518
▁gov	-11.3524
▁gauge	-11.3524
ique	-11.3525
▁Multiple	-11.3526
▁ta	-11.353
▁Night	-11.3531
▁spill	-11.3532
▁Apollo	-11.3532
Ha	-11.3533
▁Task	-11.3534
▁drilling	-11.3534
▁rent	-11.3535
▁deposit	-11.3536
▁Char	-11.3536
ious	-11.3537
▁Notes	-11.3537
pers	-11.3538
▁Live	-11.354
▁depicted	-11.3543
▁prototype	-11.3543
▁(4)	-11.3543
▁Square	-11.3545
▁impairment	-11.3547
▁alignment	-11.3548
04	-11.3552
▁decreasing	-11.3552
▁shower	-11.3554
▁elaborate	-11.3556
▁stretching	-11.3557
▁Chronic	-11.3557
▁authentic	-11.3559
▁Form	-11.3568
▁glue	-11.357
▁Tower	-11.3571
py	-11.3572
▁veins	-11.3572
health	-11.3572
▁triangle	-11.3572
▁2-	-11.3573
und	-11.3574
▁78	-11.3577
▁rehabilitation	-11.3578
▁Plus	-11.3579
▁operates	-11.3583
▁bitter	-11.3584
MP	-11.3588
▁silicon	-11.3592
▁reproduce	-11.3593
late	-11.3595
sis	-11.3596
▁pneumonia	-11.3597
▁ultra	-11.3598
▁antioxidant	-11.3599
▁eliminated	-11.36
▁activists	-11.3602
▁packed	-11.3606
▁strengths	-11.3607
▁instant	-11.3611
LE	-11.3612
▁profits	-11.3614
▁builds	-11.3615
28	-11.3616
▁quantitative	-11.3618
▁wires	-11.3624
▁Geo	-11.3625
▁generator	-11.3625
▁icon	-11.3626
▁preference	-11.3627
▁inspection	-11.3629
▁abdomen	-11.3632
▁systemic	-11.3637
▁titled	-11.3637
▁Traditional	-11.364
▁pole	-11.3641
▁negatively	-11.3641
▁sphere	-11.3642
▁Industry	-11.3642
▁Construction	-11.3643
39	-11.3644
▁pi	-11.3645
▁legislative	-11.3647
▁Want	-11.3648
▁OK	-11.3648
▁manuscript	-11.3651
▁cultivation	-11.3653
96	-11.3656
▁instructor	-11.3657
depth	-11.3659
▁poultry	-11.3661
form	-11.3662
lie	-11.3663
ess	-11.3664
▁(10	-11.3666
May	-11.3667
win	-11.3668
▁confined	-11.3668
▁mankind	-11.3668
▁Sept	-11.3673
▁inquiry	-11.3673
▁Gra	-11.3674
▁senses	-11.3674
▁SA	-11.3678
economic	-11.368
▁hosts	-11.3681
▁MRI	-11.3682
ute	-11.3683
94	-11.3684
▁blocked	-11.3685
▁Command	-11.3686
ua	-11.369
▁pediatric	-11.3692
▁honest	-11.3694
▁combustion	-11.3698
was	-11.3699
▁cooperative	-11.3699
▁Role	-11.3699
▁corporations	-11.37
:1	-11.3702
▁threatening	-11.3709
95	-11.3711
▁banking	-11.3712
▁notably	-11.3713
▁binary	-11.3713
▁Imperial	-11.3714
▁institutional	-11.3715
ding	-11.3715
▁Eric	-11.3717
▁voluntary	-11.3717
▁delayed	-11.3719
▁Ray	-11.3723
▁bridges	-11.3727
lum	-11.3728
tur	-11.373
▁breeds	-11.3731
▁lymph	-11.3732
▁Count	-11.3732
▁1981	-11.3735
▁priests	-11.3736
▁joining	-11.3736
rid	-11.3736
ale	-11.3737
▁03	-11.3739
sub	-11.374
▁resort	-11.3743
▁drag	-11.3743
▁Recently	-11.3743
▁fossils	-11.3746
▁friction	-11.3748
▁travels	-11.3748
81	-11.3748
▁gardening	-11.3752
▁examines	-11.3753
▁journals	-11.3754
▁True	-11.3755
▁standardized	-11.3755
▁Joint	-11.3758
▁eliminating	-11.3758
oni	-11.3758
▁strictly	-11.3758
▁deployed	-11.3761
▁Moscow	-11.3763
97	-11.3763
lic	-11.3763
▁fantastic	-11.3765
▁Joe	-11.3766
▁puzzle	-11.3767
▁separately	-11.3769
▁undergraduate	-11.3773
kg	-11.3775
▁exclusive	-11.3775
▁mysterious	-11.3775
▁wax	-11.3782
▁swim	-11.3783
▁united	-11.3784
▁similarly	-11.3785
▁drill	-11.3785
▁forcing	-11.379
▁Orthodox	-11.379
▁comprised	-11.3791
▁convey	-11.3792
▁gently	-11.3792
▁YouTube	-11.3794
▁Critical	-11.3794
▁brilliant	-11.3794
▁Bull	-11.3795
powered	-11.3796
▁spiral	-11.3796
EN	-11.3797
▁Yellow	-11.3798
▁weeds	-11.3799
▁Sports	-11.38
▁5)	-11.3807
▁2005.	-11.3807
▁76	-11.3807
control	-11.3808
▁gross	-11.381
▁wounds	-11.3811
▁wastewater	-11.3813
first	-11.3813
▁1977	-11.3815
▁14.	-11.3818
▁pit	-11.3818
▁similarities	-11.3818
58	-11.3821
▁clinic	-11.3821
▁tar	-11.3821
▁alarm	-11.3822
ele	-11.3822
▁Skin	-11.3823
▁prompt	-11.3828
▁anxious	-11.3829
ily	-11.3833
▁emperor	-11.3835
▁restaurants	-11.3835
▁jurisdiction	-11.3836
▁socially	-11.3836
▁parasites	-11.3837
▁activated	-11.3839
▁tablets	-11.3839
▁2017,	-11.3839
▁Zoo	-11.3839
▁tomatoes	-11.384
▁dispute	-11.3841
third	-11.3843
▁101	-11.3845
▁favour	-11.3846
52	-11.3848
▁Ball	-11.3851
▁maximize	-11.3853
sel	-11.3854
▁grasp	-11.3854
▁bats	-11.3854
▁Could	-11.3858
▁Production	-11.3858
▁pointing	-11.3858
▁dozens	-11.386
▁lawyer	-11.3861
▁Agreement	-11.3863
ec	-11.3869
▁stayed	-11.3871
▁Ur	-11.3872
▁cooler	-11.3872
▁obstacles	-11.3873
▁1979	-11.3875
▁77	-11.3877
▁customs	-11.3877
▁terrain	-11.3879
▁constraints	-11.388
▁110	-11.388
▁landscapes	-11.3881
▁recipe	-11.3883
▁disabled	-11.3884
▁bulb	-11.3888
▁evolve	-11.3888
mile	-11.3889
▁rash	-11.389
▁thinks	-11.389
▁Save	-11.3891
▁piano	-11.3891
▁Rep	-11.3891
▁destructive	-11.3894
especially	-11.3894
▁recognise	-11.3894
ATION	-11.3895
-14	-11.3897
lit	-11.3899
ON	-11.3902
▁Less	-11.3903
▁absent	-11.3903
▁7%	-11.3904
▁1963	-11.3905
▁therapist	-11.3906
06	-11.3906
▁surely	-11.3907
▁Christopher	-11.3908
there	-11.3908
▁occasions	-11.391
▁interference	-11.3911
lands	-11.3912
▁maternal	-11.3915
▁folks	-11.3917
▁critically	-11.3918
DA	-11.3919
self	-11.392
▁declaration	-11.392
▁publishing	-11.3922
▁alternate	-11.3922
▁Turn	-11.3924
▁untreated	-11.3927
ub	-11.3928
▁Howard	-11.3929
▁Would	-11.393
▁remedy	-11.393
▁bases	-11.3932
▁broadcast	-11.3933
▁rolling	-11.3934
▁6%	-11.3938
▁Torah	-11.3938
DC	-11.394
▁investigations	-11.394
▁behave	-11.3943
▁tourists	-11.3943
▁Hot	-11.3944
▁nasal	-11.3944
▁Experience	-11.3947
▁Guinea	-11.3947
▁surroundings	-11.3948
▁fired	-11.3948
▁74	-11.3949
▁NC	-11.3951
tive	-11.3951
▁Database	-11.3952
▁wool	-11.3953
▁contexts	-11.3953
-11	-11.3954
▁permits	-11.3957
▁plug	-11.3957
▁flowering	-11.3958
▁Peninsula	-11.3958
▁Northwest	-11.3959
▁Zone	-11.396
▁lasted	-11.3961
▁intestine	-11.3963
minute	-11.3963
las	-11.3967
▁Anna	-11.397
▁desirable	-11.3971
▁peripheral	-11.3973
▁acknowledged	-11.3976
▁hang	-11.3978
▁extensively	-11.3978
▁watched	-11.3979
▁Delhi	-11.3979
▁04	-11.398
▁instructional	-11.398
body	-11.3985
▁realm	-11.3985
ku	-11.3985
▁sixth	-11.3986
▁mechanics	-11.3987
▁88	-11.3987
▁Nelson	-11.3988
▁appreciation	-11.399
▁fungus	-11.3992
▁underwater	-11.3994
RI	-11.3999
▁tourist	-11.4
▁altogether	-11.4001
▁lo	-11.4001
▁Solomon	-11.4003
▁companion	-11.4003
▁harmony	-11.4005
▁divisions	-11.4006
▁combinations	-11.4007
PR	-11.4007
Ra	-11.401
▁dependence	-11.4011
▁1992	-11.4012
▁inserted	-11.4012
▁wheels	-11.4013
▁Peru	-11.4013
▁retention	-11.4014
▁achievements	-11.4014
▁shifts	-11.4018
▁Bangladesh	-11.4019
▁Anglo	-11.4025
▁honour	-11.4027
ef	-11.4028
lor	-11.4028
▁agreements	-11.4029
▁Hamilton	-11.403
▁secular	-11.4032
▁volcano	-11.4034
▁Denmark	-11.4035
tle	-11.4036
DR	-11.4037
▁gluten	-11.4037
▁employer	-11.4038
▁positively	-11.404
▁Margaret	-11.4041
Fig	-11.4043
tte	-11.4044
▁Gospel	-11.4045
85	-11.4045
▁Hu	-11.4046
CE	-11.405
ado	-11.4051
▁sugars	-11.4051
▁Certain	-11.4052
▁sends	-11.4057
▁traces	-11.4058
▁indirect	-11.406
▁biblical	-11.4069
▁Frederick	-11.407
▁planes	-11.4073
▁Lead	-11.4074
▁teenagers	-11.4074
▁leap	-11.4074
▁attribute	-11.4075
▁recognised	-11.4077
gg	-11.4079
sia	-11.4081
▁Proceedings	-11.4081
▁countless	-11.4082
▁98	-11.4082
ole	-11.4083
▁2000,	-11.4084
▁retained	-11.4084
Mar	-11.4087
▁Consequently	-11.4088
▁feathers	-11.4091
▁refined	-11.4092
▁quoted	-11.4093
▁riding	-11.4093
▁insufficient	-11.4093
CI	-11.4097
▁Virtual	-11.4101
▁ports	-11.4105
▁Manual	-11.4105
▁Focus	-11.4107
▁RE	-11.4108
▁Growth	-11.4111
▁Norman	-11.4112
EP	-11.4113
▁hungry	-11.4114
tar	-11.4114
▁sa	-11.4114
ening	-11.4116
▁transported	-11.4121
▁Price	-11.4121
fall	-11.4123
oon	-11.4124
▁Harry	-11.4124
▁Senior	-11.4125
▁tens	-11.4126
92	-11.4127
▁compiled	-11.4128
▁Greeks	-11.4129
▁upset	-11.4129
▁Band	-11.4131
▁mar	-11.4131
worth	-11.4132
▁CEO	-11.4136
▁Miss	-11.4137
under	-11.4138
▁remind	-11.4139
▁exit	-11.4139
▁electro	-11.4141
▁warfare	-11.4142
▁variability	-11.4144
▁modes	-11.4146
▁uncomfortable	-11.4146
▁2004,	-11.4147
IL	-11.4147
▁traumatic	-11.4149
▁prediction	-11.4152
borne	-11.4154
only	-11.4155
get	-11.4157
▁Sierra	-11.4157
▁73	-11.4158
tr	-11.4164
▁shells	-11.4165
▁Used	-11.4165
▁floods	-11.4167
IV	-11.4168
▁PMID	-11.4168
els	-11.417
▁publish	-11.417
▁ka	-11.4173
▁norms	-11.4176
▁Organic	-11.4177
▁luck	-11.4179
▁designer	-11.418
▁Guidelines	-11.4181
▁wellbeing	-11.4181
▁march	-11.4183
▁Classroom	-11.4183
▁hoped	-11.4186
▁blade	-11.4186
▁ye	-11.4188
▁reads	-11.4189
▁mosquitoes	-11.4189
▁heading	-11.419
▁sake	-11.419
cept	-11.4191
▁baseline	-11.4191
▁handful	-11.4192
▁trunk	-11.4193
▁Federation	-11.4196
▁bug	-11.4197
▁2018.	-11.4197
az	-11.42
▁Mid	-11.42
▁bloom	-11.42
act	-11.4202
▁margin	-11.4203
▁listing	-11.4204
▁legally	-11.4204
▁Dark	-11.4208
▁fled	-11.4212
CH	-11.4212
has	-11.4213
▁outlined	-11.4217
▁Province	-11.422
4,	-11.422
▁Ger	-11.4221
▁Animals	-11.4221
▁socio	-11.4224
▁municipal	-11.4225
▁spite	-11.4227
▁investigating	-11.4229
▁recommendation	-11.4231
▁diamond	-11.4232
▁Staff	-11.4235
▁linguistic	-11.4235
▁invisible	-11.4236
▁utilizing	-11.4237
▁ranks	-11.4238
▁requested	-11.4241
▁walked	-11.4244
▁vulnerability	-11.4244
▁bin	-11.4245
app	-11.4246
oriented	-11.4246
▁critics	-11.4246
▁fits	-11.4248
ture	-11.4252
▁Stay	-11.4253
vis	-11.4254
br	-11.4256
▁potato	-11.4256
▁noble	-11.4256
▁uncommon	-11.4257
▁Marshall	-11.4263
▁convention	-11.4266
▁asteroid	-11.4269
flow	-11.4269
▁cervical	-11.427
▁rat	-11.4273
▁portable	-11.4274
▁failing	-11.4275
▁bell	-11.4275
▁individually	-11.4276
▁urgent	-11.4277
▁Vo	-11.428
▁delivering	-11.428
▁Forum	-11.4281
▁Side	-11.4281
▁25%	-11.4282
▁preliminary	-11.4285
▁blank	-11.4286
▁sexually	-11.4287
▁Nepal	-11.4292
▁crack	-11.4293
IM	-11.4293
nic	-11.4294
NC	-11.4294
▁Travel	-11.4295
bu	-11.4296
GA	-11.4296
▁$5	-11.4297
▁Period	-11.4301
cur	-11.4301
▁kindergarten	-11.4302
▁dissolved	-11.4303
▁microbial	-11.4303
▁Hal	-11.4304
▁prosperity	-11.4306
▁empathy	-11.4306
▁tears	-11.4306
▁Posted	-11.4307
▁infrared	-11.4308
rt	-11.4309
▁signature	-11.431
▁8%	-11.4312
▁nationwide	-11.4313
OD	-11.4314
93	-11.4316
▁Gender	-11.4317
▁imp	-11.4318
burg	-11.432
▁gel	-11.4326
ban	-11.4327
▁Yu	-11.4332
hon	-11.4333
▁(0.	-11.4333
▁ventilation	-11.4336
▁Ber	-11.4337
▁appliances	-11.4339
▁investing	-11.4339
▁berries	-11.434
mas	-11.4342
dal	-11.4342
▁electromagnetic	-11.4342
▁analytical	-11.4343
ther	-11.4344
stra	-11.4348
east	-11.435
ato	-11.4354
▁stopping	-11.4354
▁700	-11.4355
▁strikes	-11.4357
▁App	-11.4358
▁Snow	-11.436
▁factories	-11.4363
75	-11.4363
▁Rule	-11.4366
▁settlements	-11.4367
▁preschool	-11.4368
▁execute	-11.4372
▁outbreaks	-11.4372
▁presentations	-11.4372
▁conceptual	-11.4373
▁Pet	-11.4376
65	-11.4377
▁explicitly	-11.4377
▁supportive	-11.4378
▁scholar	-11.438
▁permanently	-11.438
tre	-11.4381
▁mitigate	-11.4381
plant	-11.4381
▁adventure	-11.4381
gas	-11.4381
▁tense	-11.4381
▁connects	-11.4382
▁10-	-11.4385
eri	-11.4385
▁hanging	-11.4386
berry	-11.4386
▁competing	-11.4387
▁twin	-11.4391
▁courtesy	-11.4391
▁pound	-11.4392
38	-11.4393
▁strings	-11.4394
MO	-11.4395
▁medicinal	-11.4396
▁guilty	-11.4397
▁printer	-11.4403
▁7:	-11.4405
active	-11.4406
▁billions	-11.4407
▁potent	-11.4407
▁proceed	-11.4408
mp	-11.441
▁passenger	-11.441
▁witnessed	-11.4411
▁Einstein	-11.4412
▁weigh	-11.4413
▁gasoline	-11.4413
▁odds	-11.4414
▁cultivated	-11.4414
TP	-11.4416
▁84	-11.4419
▁TB	-11.442
▁coupled	-11.4421
▁fluoride	-11.4421
▁races	-11.4425
▁160	-11.4427
▁hasn	-11.4429
▁4-	-11.443
▁matching	-11.4431
energy	-11.4431
▁portrait	-11.4432
▁pig	-11.4435
▁stocks	-11.4436
gy	-11.4436
▁cookies	-11.4437
▁Notice	-11.444
▁translate	-11.444
▁hypo	-11.4441
▁unwanted	-11.4442
▁specify	-11.4444
▁somehow	-11.4445
▁learner	-11.4445
driven	-11.4448
▁solved	-11.4448
▁sits	-11.4448
path	-11.4448
▁summit	-11.4449
▁valued	-11.445
▁colorful	-11.4452
iff	-11.4456
▁Active	-11.4457
▁passages	-11.4458
▁Chris	-11.4459
effective	-11.446
▁Provide	-11.4462
▁79	-11.4463
▁afterwards	-11.4464
▁recipes	-11.4465
▁1890	-11.4466
▁weed	-11.4466
▁primitive	-11.4466
▁formerly	-11.4471
▁Gi	-11.4476
▁Capital	-11.4479
▁variants	-11.4479
▁commissioned	-11.4479
ground	-11.448
mal	-11.4482
▁Highway	-11.4482
▁trains	-11.4482
▁networking	-11.4484
▁promises	-11.4486
amine	-11.4488
▁monetary	-11.4489
▁innovations	-11.4491
▁Born	-11.4491
▁fitting	-11.4493
▁silence	-11.4494
▁pipeline	-11.4498
▁landed	-11.45
▁Signs	-11.4503
▁disappeared	-11.4503
▁petition	-11.4511
▁coping	-11.4511
▁vet	-11.4515
▁reservoir	-11.4516
▁limestone	-11.4519
▁rot	-11.4519
▁editors	-11.452
▁seizures	-11.452
▁beverages	-11.4522
▁Orleans	-11.4523
▁pumps	-11.4523
▁genuine	-11.4526
▁lightning	-11.4534
▁Donald	-11.4535
▁1993	-11.4536
UR	-11.4536
▁palace	-11.4537
▁virtue	-11.4539
avi	-11.4539
▁cubic	-11.4541
▁bull	-11.4544
▁Baptist	-11.4546
▁economically	-11.4552
▁strengthening	-11.4556
▁votes	-11.4559
▁citizenship	-11.4562
▁turtles	-11.4562
▁Ground	-11.4563
▁radius	-11.4566
▁Ste	-11.4567
87	-11.4568
▁inability	-11.4569
▁st	-11.457
▁suspended	-11.4571
▁Silver	-11.4573
▁71	-11.4576
▁myths	-11.4576
des	-11.4578
▁frost	-11.4579
▁arrangements	-11.4579
▁Festival	-11.4581
▁bra	-11.4583
▁Del	-11.4583
▁Houston	-11.4586
71	-11.4586
using	-11.4587
▁trash	-11.4591
▁temples	-11.4592
▁Explore	-11.4592
▁adjusted	-11.4595
▁exceptional	-11.4595
▁hearts	-11.4597
atory	-11.4598
Le	-11.4599
▁battles	-11.4599
▁weekend	-11.4602
▁SQL	-11.4602
-01	-11.4603
3)	-11.4605
▁metric	-11.4606
▁subjected	-11.4608
far	-11.4611
▁Susan	-11.4611
▁3,000	-11.4611
▁Pur	-11.4616
▁indoors	-11.4619
▁inevitable	-11.462
▁Regular	-11.4621
▁burns	-11.4621
▁tonnes	-11.4624
▁boom	-11.4625
▁Near	-11.4627
83	-11.4627
▁sink	-11.4631
▁emphasize	-11.4632
▁gravitational	-11.4633
▁tender	-11.4634
AR	-11.4634
▁exploitation	-11.4636
▁temporal	-11.4636
PO	-11.4637
▁Hurricane	-11.4637
▁Lakes	-11.4638
yr	-11.4639
▁sc	-11.4641
▁DO	-11.4644
BA	-11.4644
▁Steve	-11.4648
gue	-11.4649
▁restaurant	-11.4649
▁reforms	-11.4651
73	-11.4654
▁ultrasound	-11.4654
▁''	-11.4656
books	-11.466
▁retired	-11.466
▁07	-11.4661
▁judges	-11.4666
▁satisfied	-11.4667
Di	-11.4668
▁Size	-11.4668
▁hat	-11.4669
verse	-11.467
▁geological	-11.467
▁crystals	-11.467
▁activation	-11.4671
▁citation	-11.4671
▁organizational	-11.4672
▁documentary	-11.4672
▁sanitation	-11.4674
▁highway	-11.4675
▁freeze	-11.4676
▁Olympic	-11.4679
LC	-11.4685
▁formally	-11.4687
used	-11.4687
▁Avenue	-11.4688
▁Matt	-11.4688
ibility	-11.4691
▁Sky	-11.4692
▁Nearly	-11.4692
▁episodes	-11.4693
▁generates	-11.4693
▁differential	-11.4698
▁86	-11.47
▁plague	-11.4703
▁reinforce	-11.4705
▁garlic	-11.4706
▁spider	-11.4707
▁modest	-11.4708
▁70%	-11.4714
▁pocket	-11.4715
▁parish	-11.4717
▁1941	-11.4718
cer	-11.4719
▁cargo	-11.472
▁82	-11.472
eng	-11.472
▁shark	-11.4721
▁accordingly	-11.4721
▁horizon	-11.4721
▁1910	-11.4721
▁2003,	-11.4723
▁irritation	-11.4727
▁urinary	-11.4727
▁sore	-11.4728
ona	-11.4731
▁lets	-11.4731
bound	-11.4731
face	-11.4732
hen	-11.4734
▁Publication	-11.4735
▁composite	-11.4735
By	-11.4736
▁harvesting	-11.4737
gal	-11.4739
makers	-11.4739
▁foam	-11.4741
▁everybody	-11.4742
▁Antarctic	-11.4742
▁remedies	-11.4743
▁priorities	-11.4745
cost	-11.4747
▁Win	-11.4748
▁2020.	-11.4748
▁wilderness	-11.475
▁variant	-11.4753
▁shield	-11.4754
▁combines	-11.4754
▁counterparts	-11.4755
▁cry	-11.4757
▁Hyper	-11.4759
och	-11.4761
▁1850	-11.4762
▁Oak	-11.4766
str	-11.4766
▁parameter	-11.4768
▁Puerto	-11.4768
▁mandatory	-11.4775
▁Originally	-11.4775
▁Isaac	-11.4775
rat	-11.4778
▁authorized	-11.4779
▁Seven	-11.478
▁hurricane	-11.4781
▁Various	-11.4782
▁Panel	-11.4783
▁touching	-11.4785
▁toxicity	-11.4787
▁Foods	-11.4787
▁offensive	-11.4787
CR	-11.4788
▁Nile	-11.4789
▁discourse	-11.4789
▁Cro	-11.4789
▁AT	-11.4791
▁problematic	-11.4791
▁retail	-11.4791
▁pursuit	-11.4791
▁besides	-11.4794
learning	-11.4795
▁dysfunction	-11.4797
▁formats	-11.4798
▁apples	-11.4798
▁1860	-11.4799
bel	-11.4799
▁Soon	-11.48
▁wishes	-11.48
▁Auto	-11.4801
▁resolved	-11.4802
▁Apart	-11.4803
iya	-11.4803
▁Performance	-11.4803
▁Hopkins	-11.4805
▁vascular	-11.4805
▁entries	-11.4807
▁recreational	-11.4808
▁carved	-11.4808
▁IBM	-11.4812
▁alleviate	-11.4814
▁Application	-11.4815
▁melt	-11.4815
▁lectures	-11.4816
ras	-11.4818
▁CC	-11.4819
▁Mercury	-11.4819
68	-11.4821
▁nearest	-11.4822
▁descent	-11.4824
▁theatre	-11.4824
Un	-11.4825
▁distribute	-11.4827
▁appropriately	-11.4828
▁illustrates	-11.4829
▁elephant	-11.4829
▁prohibited	-11.483
▁Present	-11.4831
43	-11.4831
▁Innovation	-11.4835
AI	-11.4836
anda	-11.4837
▁attorney	-11.4838
▁BCE	-11.4838
gastrointestinal	-11.484
▁Doctor	-11.4841
▁tomb	-11.4841
▁civilian	-11.4842
▁foliage	-11.4842
▁Ecology	-11.4845
▁shortage	-11.4846
▁secured	-11.4848
Ro	-11.4848
▁preventive	-11.4849
▁uncertain	-11.4849
▁Hope	-11.485
▁Channel	-11.485
▁Mur	-11.485
▁1880	-11.485
▁shelf	-11.4851
▁fulfill	-11.4851
▁clicking	-11.4851
IS	-11.4851
▁Individual	-11.4856
RS	-11.4859
▁phosphorus	-11.4861
▁fans	-11.4861
▁Vision	-11.4862
▁1973	-11.4863
▁pressing	-11.4865
▁reef	-11.4866
▁1942	-11.4867
▁1961	-11.4868
▁disappear	-11.487
▁readings	-11.487
chen	-11.4873
▁pray	-11.4874
▁fraud	-11.4875
▁Canal	-11.4875
▁Swiss	-11.4875
second	-11.4876
▁parking	-11.4877
▁rigid	-11.4878
uring	-11.4881
▁Fu	-11.4882
▁transplant	-11.4885
▁SP	-11.4885
▁eruption	-11.4885
▁Member	-11.4888
▁Nevada	-11.4889
away	-11.489
▁slip	-11.489
▁assign	-11.4891
▁130	-11.4892
▁81	-11.4894
▁bare	-11.4897
▁abnormalities	-11.4899
gs	-11.4899
▁ambitious	-11.49
▁attachment	-11.4901
▁Changes	-11.4901
xi	-11.4902
▁lit	-11.4904
▁Records	-11.4906
▁textbook	-11.4909
▁blend	-11.4909
▁harbor	-11.491
▁neighborhoods	-11.491
▁und	-11.4913
uf	-11.4913
▁Pin	-11.4916
▁Sim	-11.4916
▁Cha	-11.4917
▁obligation	-11.4918
63	-11.4921
▁dynasty	-11.4924
▁charging	-11.4926
▁97	-11.4926
▁Memory	-11.4929
▁1918	-11.493
▁Waste	-11.4931
bus	-11.4931
82	-11.4932
▁counseling	-11.4934
▁pdf	-11.4934
gram	-11.4935
▁attach	-11.4936
▁queen	-11.4937
▁confusing	-11.4942
▁Morgan	-11.4944
▁1966	-11.4946
▁den	-11.4947
▁hoping	-11.4947
pen	-11.4949
▁watering	-11.4949
▁filed	-11.495
▁Sugar	-11.4952
▁Written	-11.4957
General	-11.4959
▁stigma	-11.496
▁quotes	-11.496
▁60%	-11.496
▁strongest	-11.4961
▁Identify	-11.4964
carbon	-11.4966
nan	-11.4966
▁neighboring	-11.4967
eye	-11.4967
social	-11.4967
▁bush	-11.4968
▁dwarf	-11.4972
▁paradigm	-11.4973
▁Lack	-11.4973
▁masks	-11.4973
rk	-11.4975
▁blacks	-11.4975
▁Important	-11.4979
▁Newton	-11.4981
▁Experts	-11.4981
▁acidic	-11.4981
69	-11.4982
▁clarity	-11.4982
▁demanding	-11.4982
▁switching	-11.4983
▁spotted	-11.4983
▁ants	-11.4983
▁83	-11.4984
▁Ze	-11.4984
▁centres	-11.4985
▁headquarters	-11.4985
▁erected	-11.4985
Why	-11.4986
▁easiest	-11.4989
qu	-11.499
ving	-11.4991
▁proximity	-11.4991
DI	-11.4993
▁dies	-11.4995
when	-11.4995
▁anyway	-11.4996
▁teachings	-11.4997
▁IoT	-11.4997
▁Fact	-11.4999
▁elephants	-11.5001
▁revision	-11.5002
MD	-11.5002
▁freezing	-11.5005
aged	-11.5011
▁manipulation	-11.5013
▁checks	-11.5013
▁draws	-11.5014
▁upcoming	-11.5014
▁negotiations	-11.5016
▁spectacular	-11.5017
▁Phil	-11.5018
▁respondents	-11.5019
▁incorporating	-11.502
▁depressed	-11.502
▁explicit	-11.5021
▁vi	-11.5021
▁Ci	-11.5023
▁Corn	-11.5025
▁Truth	-11.5026
▁induce	-11.5026
▁2001,	-11.5026
▁Job	-11.5029
round	-11.5029
▁pile	-11.5029
▁reefs	-11.5031
▁advise	-11.5031
▁sequencing	-11.5032
kh	-11.5033
▁Kings	-11.5034
▁Block	-11.5035
▁93	-11.5036
▁verify	-11.5036
▁30,	-11.5036
▁turbine	-11.504
▁schemes	-11.5041
▁illustration	-11.5042
hal	-11.5043
lot	-11.5044
ev	-11.5045
PP	-11.5045
west	-11.5047
▁vein	-11.5048
▁clues	-11.5049
▁ON	-11.505
▁Gallery	-11.5051
▁balls	-11.5051
▁coordinate	-11.5052
mel	-11.5052
▁Sep	-11.5052
▁Taiwan	-11.5053
▁Manager	-11.5053
▁harvested	-11.5054
▁Commonwealth	-11.5058
▁contaminants	-11.5059
▁immense	-11.5059
▁Seattle	-11.5063
▁spirits	-11.5064
service	-11.5066
▁Communications	-11.5066
▁5,000	-11.5067
▁fa	-11.5069
ural	-11.507
▁premature	-11.5071
▁Mah	-11.5073
▁estrogen	-11.5075
lis	-11.5075
▁enhancing	-11.5075
ila	-11.5076
▁wherever	-11.5076
▁communicating	-11.5077
▁specially	-11.5077
▁pulmonary	-11.5077
▁reconstruction	-11.508
ever	-11.5081
▁tomorrow	-11.5085
▁Th	-11.5086
▁yards	-11.5086
▁approaching	-11.5086
EL	-11.5087
▁beaches	-11.5093
pr	-11.5094
▁processor	-11.5096
▁Communist	-11.5097
▁asleep	-11.5097
▁frames	-11.5098
▁exercising	-11.5098
▁aggression	-11.5098
▁assembled	-11.51
▁curiosity	-11.51
▁Antarctica	-11.5101
▁neglect	-11.5103
▁charity	-11.5103
▁drying	-11.5103
▁scans	-11.5104
▁tide	-11.5105
▁Alcohol	-11.5108
▁pressures	-11.5109
▁Observatory	-11.511
ides	-11.5113
pot	-11.5114
II	-11.5115
▁Baltimore	-11.5117
▁Universal	-11.5121
▁comprises	-11.5121
▁Effect	-11.5122
▁obtaining	-11.5122
▁lowering	-11.5123
▁allies	-11.5125
▁modification	-11.5129
▁producer	-11.5129
building	-11.5129
▁2004.	-11.5131
▁veterans	-11.5132
▁petroleum	-11.5134
▁epi	-11.5135
lar	-11.5135
▁lemon	-11.5135
bra	-11.5137
▁Yale	-11.5138
▁Kan	-11.5139
▁refuge	-11.5139
▁Handbook	-11.5141
▁restrict	-11.5142
real	-11.5142
▁tragedy	-11.5143
▁sins	-11.5144
▁admit	-11.5144
-13	-11.5145
▁prize	-11.5145
▁whites	-11.5145
▁conditioning	-11.5147
TE	-11.5147
burn	-11.5149
56	-11.515
pat	-11.5151
▁Anthony	-11.5153
▁87	-11.5155
▁responding	-11.5156
case	-11.5158
▁maintains	-11.5163
place	-11.5164
▁Ethiopia	-11.5165
SD	-11.5166
▁crude	-11.5167
▁embryo	-11.5168
▁Individuals	-11.5169
▁92	-11.5174
▁Nicholas	-11.5174
▁nonprofit	-11.5175
▁Store	-11.5176
▁20,	-11.5176
▁proposals	-11.5176
▁Articles	-11.5177
▁compelling	-11.5177
▁quit	-11.5178
ax	-11.518
▁Race	-11.5182
▁substrate	-11.5183
▁(8	-11.5183
gel	-11.5187
▁hotel	-11.5189
dra	-11.5189
▁Members	-11.519
▁respected	-11.5193
stat	-11.5193
▁Columbus	-11.5195
aga	-11.5197
▁Private	-11.5198
▁fracture	-11.5198
▁occasional	-11.52
▁guitar	-11.5201
▁pencil	-11.5202
▁Legal	-11.5203
MC	-11.5204
▁retreat	-11.5207
▁elite	-11.5208
oh	-11.5209
▁adulthood	-11.5211
press	-11.5215
▁140	-11.5216
threatening	-11.5217
htm	-11.5218
▁dawn	-11.5218
▁charter	-11.522
▁paste	-11.522
just	-11.5224
▁Institutions	-11.5224
▁Sk	-11.5225
▁Disorders	-11.5225
▁dinosaurs	-11.5225
▁Mobile	-11.5227
▁Wang	-11.5227
▁Oral	-11.5229
Go	-11.523
▁1972	-11.5231
▁bloodstream	-11.5231
▁Alan	-11.5238
▁disciples	-11.524
▁Discovery	-11.524
▁regards	-11.5243
▁setup	-11.5243
▁resting	-11.5244
▁eclipse	-11.5244
▁Abstract	-11.5244
▁runoff	-11.5245
▁imperative	-11.5246
▁deficit	-11.5246
sey	-11.5247
▁1968	-11.5249
▁thou	-11.5249
▁op	-11.5249
▁handled	-11.525
rie	-11.525
77	-11.5252
▁Nu	-11.5252
▁Phase	-11.5253
▁Cognitive	-11.5253
▁Birds	-11.5254
ome	-11.5254
▁Ring	-11.5255
▁museums	-11.5255
▁straightforward	-11.5256
▁mo	-11.5257
▁cylinder	-11.5257
▁Mat	-11.5258
▁cleaner	-11.5258
▁intra	-11.5258
▁excluded	-11.5259
▁abortion	-11.5259
▁Montana	-11.5261
▁temporarily	-11.5263
▁dignity	-11.5266
▁Register	-11.5266
▁Letter	-11.5267
▁trusted	-11.5268
▁Value	-11.527
▁Principles	-11.527
▁supporters	-11.527
▁Evaluation	-11.527
▁tsunami	-11.5271
▁Chile	-11.5271
▁obligations	-11.5274
zen	-11.5275
▁relaxation	-11.5277
eb	-11.5278
play	-11.5278
ender	-11.528
▁06	-11.5282
change	-11.5282
▁surprisingly	-11.5284
BS	-11.5288
▁hay	-11.5288
▁flame	-11.5289
▁herbal	-11.5291
ash	-11.5291
▁Yoga	-11.5291
mont	-11.5296
án	-11.5297
fu	-11.5301
▁organizing	-11.5301
▁Letters	-11.5303
▁aligned	-11.5303
▁Dogs	-11.5307
▁Teach	-11.5307
▁anemia	-11.5314
▁Surgery	-11.5314
▁shoot	-11.5317
▁_	-11.5318
▁reminder	-11.5318
▁Framework	-11.5319
tom	-11.532
▁unions	-11.5321
▁sufficiently	-11.5322
▁el	-11.5324
▁encryption	-11.5324
▁Past	-11.5326
▁Clinton	-11.5327
▁Orange	-11.5331
▁hemisphere	-11.5332
▁microorganisms	-11.5336
▁precautions	-11.5336
▁09	-11.5337
▁Tools	-11.5337
▁Increased	-11.5337
▁momentum	-11.5338
▁inventory	-11.534
▁Literacy	-11.534
▁pharmaceutical	-11.534
▁fisheries	-11.5342
▁soy	-11.5343
▁shops	-11.5343
▁9%	-11.5344
/2	-11.5345
▁gospel	-11.5346
▁$4	-11.5349
▁2002,	-11.5349
▁compassion	-11.535
▁struggles	-11.5351
▁brands	-11.5353
ston	-11.5353
▁1-	-11.5354
▁Left	-11.5355
code	-11.5355
▁deployment	-11.5357
ali	-11.5357
▁31,	-11.5357
▁1962	-11.5357
▁1870	-11.5363
▁maturity	-11.5363
▁Autism	-11.5363
▁periodic	-11.5364
▁storing	-11.5365
▁Meeting	-11.5369
▁veterinarian	-11.5369
gu	-11.537
▁washed	-11.5371
▁humanitarian	-11.5374
aki	-11.5375
▁sharks	-11.5379
qua	-11.5381
▁astronomy	-11.5382
▁Simply	-11.5385
▁Everything	-11.5388
▁coli	-11.5389
▁Express	-11.539
▁picking	-11.539
via	-11.539
44	-11.5393
▁purely	-11.5397
▁supervision	-11.5397
▁preserving	-11.5398
▁tactics	-11.5398
▁Os	-11.5399
▁Eco	-11.5403
▁conception	-11.5403
card	-11.5403
▁airport	-11.5405
▁inexpensive	-11.5406
▁VA	-11.5407
▁UNESCO	-11.5409
▁marble	-11.541
▁justify	-11.5412
▁limb	-11.5416
genic	-11.5416
▁Arabia	-11.5419
▁Independent	-11.542
▁matches	-11.5421
▁ministry	-11.5424
gin	-11.5424
mark	-11.5425
▁alien	-11.5426
▁salary	-11.5427
▁expressing	-11.5428
▁Dun	-11.5429
TS	-11.5433
▁Log	-11.5434
▁Palace	-11.5434
▁Protestant	-11.5435
PE	-11.5436
▁Crown	-11.5439
▁1933	-11.544
▁newsletter	-11.544
▁incorrect	-11.5441
▁sculpture	-11.5441
▁animation	-11.5441
▁wrap	-11.5444
▁Had	-11.5445
▁PE	-11.5446
▁Stop	-11.5447
▁butterflies	-11.5449
▁pleasant	-11.5449
▁traced	-11.5449
▁limbs	-11.5449
▁Mike	-11.545
▁Princeton	-11.5451
▁Sources	-11.5452
▁),	-11.5457
▁Describe	-11.5458
ifying	-11.5458
▁uterus	-11.5459
▁cortex	-11.5459
▁seventh	-11.5459
▁Baker	-11.5461
▁withstand	-11.5463
▁Speech	-11.5464
itch	-11.5466
▁consistency	-11.5466
▁Bro	-11.5467
▁Penn	-11.547
than	-11.547
▁considers	-11.547
▁bronze	-11.5471
▁1945	-11.5473
igh	-11.5476
59	-11.5476
Po	-11.5477
▁Geographic	-11.548
adi	-11.5481
ij	-11.5482
▁LA	-11.5483
▁94	-11.5485
▁farther	-11.5485
▁Discuss	-11.5486
▁Ebola	-11.5486
▁alpha	-11.5489
▁coloring	-11.5489
▁exports	-11.5489
▁Morris	-11.5491
▁modifications	-11.5493
▁CH	-11.5494
mu	-11.5497
▁Mag	-11.5498
▁woods	-11.5501
▁attraction	-11.5502
▁targeting	-11.5502
▁SE	-11.5506
▁Links	-11.5507
▁GP	-11.551
▁1976	-11.551
▁Applied	-11.551
data	-11.5511
▁advocacy	-11.5512
▁89	-11.5512
▁mega	-11.5513
▁MO	-11.5514
▁Belgium	-11.5515
▁Hydro	-11.5518
▁su	-11.5519
▁simpler	-11.5519
▁fibre	-11.5519
week	-11.5522
▁cosmic	-11.5523
▁inappropriate	-11.5526
▁worthy	-11.5528
yer	-11.553
▁convenience	-11.553
▁pronunciation	-11.553
▁180	-11.5531
▁1989	-11.5532
▁delicious	-11.5533
▁Link	-11.5533
▁letting	-11.5537
▁introduces	-11.5539
hard	-11.5542
▁Athens	-11.5543
▁lamp	-11.5543
▁specimen	-11.5544
62	-11.5549
aq	-11.5549
▁philosopher	-11.555
▁Comp	-11.555
RE	-11.555
pass	-11.5552
▁administrators	-11.5553
▁numerical	-11.5555
▁relay	-11.5556
▁Remove	-11.5556
▁reflecting	-11.5558
▁1919	-11.5559
▁evolving	-11.556
▁fake	-11.5561
▁stack	-11.5562
▁Parks	-11.5566
cing	-11.5566
▁Money	-11.5566
cre	-11.5567
▁AR	-11.5568
▁Response	-11.5568
–18	-11.5568
▁Reports	-11.557
▁Arkansas	-11.557
▁magnet	-11.5571
▁mate	-11.5571
▁Qur	-11.5571
▁CPU	-11.5571
▁linking	-11.5572
She	-11.5573
▁Strong	-11.5575
dom	-11.5577
▁lion	-11.5577
▁Gro	-11.5577
▁Issues	-11.5579
▁Dead	-11.558
▁Hispanic	-11.5583
▁BE	-11.5584
▁baking	-11.5585
▁differentiate	-11.5587
▁ceiling	-11.5587
▁hosted	-11.5589
▁rulers	-11.5589
▁kilometres	-11.5589
▁overseas	-11.5594
CD	-11.5595
take	-11.5595
▁Thailand	-11.5596
▁chromosome	-11.5597
▁holidays	-11.5598
SU	-11.5598
▁brushing	-11.5602
▁(7	-11.5602
▁Hol	-11.5602
▁Tea	-11.5603
-30	-11.5604
▁acceleration	-11.5605
▁shrubs	-11.5605
▁Bel	-11.5605
▁Scripture	-11.5605
▁Style	-11.5607
▁dirty	-11.5607
▁incentives	-11.5607
▁Previous	-11.5607
▁mess	-11.5608
▁shoulders	-11.5611
▁Kit	-11.5611
▁gradual	-11.5612
lim	-11.5614
▁Gandhi	-11.5615
PI	-11.5618
▁2000.	-11.5618
ivity	-11.5618
▁quiz	-11.5619
▁hammer	-11.5623
▁adhere	-11.5624
▁cons	-11.5625
▁tales	-11.5625
▁Harbor	-11.5625
▁retirement	-11.5625
72	-11.5626
▁Challenge	-11.5629
▁Song	-11.5629
▁protests	-11.563
▁concludes	-11.563
▁exhibits	-11.5631
fin	-11.5633
▁stressful	-11.5636
otic	-11.5636
▁fifteen	-11.5638
▁Factors	-11.5639
speed	-11.564
07	-11.5641
▁trucks	-11.5644
▁emphasized	-11.5644
▁Fast	-11.5645
▁comply	-11.5648
▁perceptions	-11.5649
▁Version	-11.565
▁cite	-11.565
▁leather	-11.565
▁poses	-11.5653
▁Cur	-11.5654
▁voted	-11.5655
ple	-11.5656
▁firmly	-11.5656
▁Robinson	-11.5658
▁sunscreen	-11.5658
cor	-11.5659
▁salvation	-11.5663
▁Eve	-11.5667
▁bind	-11.5669
▁generic	-11.5669
▁parliament	-11.5669
▁differs	-11.567
▁planetary	-11.567
▁CBD	-11.567
▁Brian	-11.5671
will	-11.5674
▁aesthetic	-11.5674
▁continental	-11.5676
▁antibody	-11.5676
▁grocery	-11.5678
ima	-11.5678
▁accessibility	-11.568
▁chord	-11.568
▁Say	-11.5684
PT	-11.5685
▁CI	-11.5688
78	-11.5688
▁Madison	-11.5689
▁lucky	-11.5693
num	-11.5693
▁persist	-11.5698
▁Likewise	-11.5698
▁transparency	-11.5701
▁fiscal	-11.5703
▁Molecular	-11.5703
▁pulling	-11.5704
▁Transportation	-11.5704
▁compatible	-11.5705
▁marry	-11.5707
▁damages	-11.571
▁blast	-11.571
John	-11.5712
▁Come	-11.5716
▁marijuana	-11.5718
after	-11.5719
▁1944	-11.5719
▁friendship	-11.5721
▁Gray	-11.5728
▁keen	-11.5728
▁grazing	-11.5728
▁Elementary	-11.5728
▁Finland	-11.5729
▁barely	-11.573
ensis	-11.573
▁membranes	-11.5732
group	-11.5732
▁rebellion	-11.5733
▁Knowing	-11.5735
▁RA	-11.5737
▁Android	-11.5738
▁adaptive	-11.5739
▁saliva	-11.574
▁lips	-11.574
chemical	-11.5741
SO	-11.5742
▁query	-11.5742
▁Argentina	-11.5743
▁talent	-11.5747
rel	-11.5747
▁guest	-11.5749
color	-11.5749
ill	-11.575
▁Delta	-11.575
▁retina	-11.575
67	-11.5751
▁Room	-11.5751
▁manifest	-11.5751
▁captain	-11.5753
bal	-11.5755
▁reactor	-11.5755
▁Virgin	-11.5757
▁Geological	-11.5757
▁Server	-11.5758
▁Adult	-11.5758
▁Location	-11.5767
▁prop	-11.5767
▁aquarium	-11.5769
▁coronary	-11.5769
▁anchor	-11.5769
▁surrender	-11.5769
▁Gene	-11.5774
▁underneath	-11.5774
bad	-11.5775
▁claiming	-11.5777
▁Film	-11.5779
onia	-11.5779
▁Tokyo	-11.5779
▁renowned	-11.5779
ically	-11.578
▁multiply	-11.578
6,	-11.5781
▁nesting	-11.5782
▁declare	-11.5784
▁Workers	-11.5784
▁Ob	-11.5786
▁enforce	-11.5787
▁hits	-11.5787
dr	-11.5789
fe	-11.5793
▁Products	-11.5794
▁si	-11.5795
Ch	-11.5795
▁computational	-11.5797
▁Fourth	-11.5798
▁poison	-11.5799
usually	-11.58
▁Overview	-11.5803
▁downward	-11.5803
▁Judaism	-11.5805
▁mulch	-11.5805
▁1964	-11.5809
▁ju	-11.5809
▁grab	-11.5815
thirds	-11.5817
▁NOAA	-11.5818
▁Earl	-11.5819
▁Blog	-11.5819
▁wolf	-11.582
hy	-11.5822
▁Alfred	-11.5823
▁escaped	-11.5825
▁SO	-11.5827
hill	-11.5827
▁pepper	-11.5828
▁Fat	-11.5831
▁Pick	-11.5831
▁enrolled	-11.5832
▁mount	-11.5832
▁Napoleon	-11.5833
aci	-11.5833
▁failures	-11.5834
▁HPV	-11.5834
▁declining	-11.5835
▁Pass	-11.5837
▁surge	-11.5837
HA	-11.5838
▁dams	-11.584
▁Starting	-11.584
OT	-11.5841
LY	-11.5842
▁Assistant	-11.5843
▁baseball	-11.5844
▁fitted	-11.5844
▁bo	-11.5846
▁defect	-11.5846
▁digest	-11.5847
▁loving	-11.5847
▁95%	-11.5847
▁Ultimately	-11.5847
▁garbage	-11.5848
▁Thinking	-11.585
▁daughters	-11.5852
▁cigarettes	-11.5852
SL	-11.5855
▁aerial	-11.5856
▁northwest	-11.5857
▁overnight	-11.5859
▁Awareness	-11.5861
▁Base	-11.5861
▁breastfeeding	-11.5863
arch	-11.5864
▁snack	-11.5866
▁equilibrium	-11.5868
▁tie	-11.5869
▁Shah	-11.5869
▁Des	-11.5869
open	-11.587
▁ethanol	-11.587
▁Whatever	-11.587
▁tolerate	-11.5871
▁defensive	-11.5871
▁Railroad	-11.5871
▁coach	-11.5871
▁Desert	-11.5874
▁1912	-11.5877
any	-11.5877
▁Za	-11.5879
▁balloon	-11.588
▁expose	-11.588
▁opera	-11.5885
▁republic	-11.5886
▁ink	-11.5886
▁internationally	-11.5886
▁1969	-11.5886
▁venture	-11.5888
dor	-11.5888
▁commerce	-11.5888
aba	-11.589
▁Electronic	-11.5892
▁recognizing	-11.5892
▁exhaust	-11.5896
NO	-11.5896
▁tin	-11.5897
▁featuring	-11.5897
▁couples	-11.5899
▁watershed	-11.59
▁satisfy	-11.59
▁territorial	-11.59
▁mindfulness	-11.5901
▁1939	-11.5903
▁holistic	-11.5905
▁currents	-11.5907
AF	-11.5909
his	-11.5909
▁herb	-11.591
▁defence	-11.5911
cia	-11.5912
▁None	-11.5912
▁romantic	-11.5912
food	-11.5913
▁contest	-11.5913
▁2003.	-11.5914
▁hollow	-11.5915
▁disruption	-11.5915
fire	-11.592
▁Den	-11.5921
▁marking	-11.5921
▁appearing	-11.5922
▁Flu	-11.5923
▁northeast	-11.5926
▁fractures	-11.5926
▁hub	-11.5927
▁smartphone	-11.5928
▁arises	-11.5928
▁climbing	-11.5929
▁overlap	-11.593
▁desk	-11.5932
▁1975	-11.5934
ids	-11.5934
▁Applications	-11.5935
▁backup	-11.5937
ister	-11.5937
▁southwest	-11.5938
▁lava	-11.594
▁Drive	-11.594
ili	-11.5941
▁exceptions	-11.5943
ington	-11.5943
▁Boy	-11.5944
RT	-11.5945
sion	-11.5946
▁1965	-11.5946
▁portfolio	-11.5948
▁Saudi	-11.5951
Ref	-11.5953
▁predominantly	-11.5956
▁diabetic	-11.5957
▁fastest	-11.596
▁rituals	-11.5961
▁Product	-11.5961
▁Genetic	-11.5962
▁1971	-11.5962
▁Austin	-11.5963
▁cartilage	-11.5964
▁widow	-11.5964
▁prophet	-11.5967
MB	-11.597
▁favorable	-11.5972
print	-11.5974
▁shifting	-11.5975
▁tune	-11.5975
▁turtle	-11.5976
emia	-11.5978
▁1936	-11.5978
▁Alice	-11.5981
▁timely	-11.5982
▁resemble	-11.5985
▁penalty	-11.5985
▁acted	-11.5985
▁tablet	-11.5986
▁deny	-11.5989
▁upward	-11.599
▁sap	-11.5991
▁displaced	-11.5992
DD	-11.5993
▁Developing	-11.5995
▁Cho	-11.5996
▁Railway	-11.6001
▁Jun	-11.6008
▁Quebec	-11.6008
▁overhead	-11.6009
▁Palestinian	-11.6009
▁wedding	-11.6009
▁visually	-11.601
ators	-11.6011
▁Oh	-11.6011
▁passwords	-11.6013
▁Plastic	-11.6014
▁manure	-11.6014
▁judicial	-11.6015
▁visualization	-11.6018
▁qualitative	-11.6019
▁commanded	-11.6021
▁Solutions	-11.6023
▁wolves	-11.6024
▁deciding	-11.6024
▁terrestrial	-11.6024
▁Keeping	-11.6025
▁spell	-11.6025
▁Juan	-11.6026
▁coconut	-11.6026
▁relevance	-11.6026
▁infinite	-11.6027
▁Pu	-11.6028
▁Ever	-11.6031
▁stimulus	-11.6032
▁favourite	-11.6033
▁cannabis	-11.6034
bridge	-11.6035
▁loading	-11.6035
▁laying	-11.6037
▁Encourage	-11.6037
▁insert	-11.6037
▁fold	-11.6039
With	-11.6039
▁align	-11.6039
▁Popular	-11.604
▁Against	-11.6042
▁sketch	-11.6042
▁Programs	-11.6043
05	-11.6044
▁amendment	-11.6044
▁wrist	-11.6045
normal	-11.6048
PM	-11.6049
▁profiles	-11.6051
bird	-11.6052
▁nutritious	-11.6053
lines	-11.6053
▁commercially	-11.6058
▁tags	-11.606
▁Hudson	-11.606
put	-11.6062
▁DE	-11.6062
▁dancing	-11.6063
▁armies	-11.6065
▁scratch	-11.6067
▁destroying	-11.6067
▁remainder	-11.6068
▁wa	-11.6069
▁Stock	-11.6069
▁pesticide	-11.607
▁initiate	-11.607
▁packet	-11.6071
▁goddess	-11.6073
▁violation	-11.6073
▁Essential	-11.6075
▁genre	-11.6076
▁autoimmune	-11.6076
sex	-11.6078
▁demanded	-11.6078
lio	-11.6081
▁Ridge	-11.6082
▁Lin	-11.6082
▁Gordon	-11.6084
▁counted	-11.6087
▁sponsored	-11.6089
▁stating	-11.609
▁minorities	-11.6093
▁Collins	-11.6094
▁astronauts	-11.6096
▁ABC	-11.6097
▁welding	-11.6097
▁Em	-11.6098
ching	-11.6101
ache	-11.6102
Man	-11.6103
ways	-11.6104
▁Flight	-11.6104
▁outward	-11.6106
▁nut	-11.6106
▁shame	-11.6106
▁Artificial	-11.6108
Pre	-11.6108
OM	-11.6108
▁needles	-11.6109
▁dealt	-11.6111
▁grasses	-11.6112
lee	-11.6113
▁Engineers	-11.6113
LA	-11.6114
▁blocking	-11.6114
▁Walker	-11.6115
▁Officer	-11.6117
▁fertile	-11.6118
ened	-11.612
▁attain	-11.6121
▁91	-11.6121
▁ST	-11.6122
▁anatomy	-11.6122
▁Finding	-11.6122
▁hiding	-11.6123
▁flora	-11.6124
-7	-11.6124
▁likewise	-11.6126
▁simplest	-11.613
▁printable	-11.613
▁invested	-11.6131
ean	-11.6131
▁monuments	-11.6132
▁sovereignty	-11.6134
▁screens	-11.6136
lation	-11.6136
▁Monitoring	-11.6138
▁1946	-11.6138
▁Europeans	-11.6139
▁butterfly	-11.6139
▁Senator	-11.6141
▁histories	-11.6142
▁simulations	-11.6143
sy	-11.6143
▁manipulate	-11.6149
▁Lanka	-11.615
▁guaranteed	-11.6152
▁arose	-11.6154
▁approached	-11.6156
▁adolescent	-11.6156
▁Ly	-11.6157
▁demonstrating	-11.6158
▁hydraulic	-11.6158
▁pulp	-11.6158
++	-11.6158
LS	-11.6159
▁2018,	-11.6161
▁practically	-11.6161
▁Aid	-11.6163
▁Jonathan	-11.6163
▁Creation	-11.6164
enberg	-11.6167
▁antenna	-11.6168
▁sticks	-11.617
▁southeast	-11.6172
▁Cover	-11.6176
▁2030	-11.6178
▁suppliers	-11.6178
logy	-11.6181
ira	-11.6182
nch	-11.6184
▁Vienna	-11.6184
▁Statement	-11.6185
▁adjustments	-11.6185
▁PTSD	-11.6185
▁1016/	-11.6187
▁1938	-11.6189
▁herd	-11.6191
▁Architecture	-11.6192
▁brave	-11.6193
▁imperial	-11.6193
▁Min	-11.6194
▁validity	-11.6195
▁faithful	-11.6196
ses	-11.6196
▁Bear	-11.6197
speaking	-11.6198
▁refuse	-11.6199
▁knife	-11.62
▁signaling	-11.6202
▁frustration	-11.6203
▁exclusion	-11.6205
▁wellness	-11.6207
▁cleaned	-11.6209
▁quest	-11.6209
▁grinding	-11.6211
▁sickness	-11.6212
▁corrosion	-11.6213
▁exotic	-11.6214
▁wondering	-11.6216
▁Glass	-11.6216
▁Pra	-11.6217
▁edible	-11.6217
▁BY	-11.6219
▁Psychological	-11.6221
▁1974	-11.6224
▁unfortunately	-11.6225
▁packages	-11.6226
▁broadly	-11.6227
▁imbalance	-11.6228
▁verses	-11.6229
▁comparative	-11.6231
▁controller	-11.6231
▁stresses	-11.6233
▁participant	-11.6234
▁reuse	-11.6234
▁2001.	-11.6234
▁societal	-11.6235
▁secretary	-11.6239
▁bend	-11.624
▁mentally	-11.624
▁theater	-11.6241
▁nests	-11.6242
WA	-11.6242
▁suggestion	-11.6242
▁boiling	-11.6243
▁testimony	-11.6243
▁Generation	-11.6243
▁ancestor	-11.6245
▁Participants	-11.6245
CL	-11.6246
▁prompted	-11.6247
▁aboard	-11.6247
▁1949	-11.625
▁float	-11.6253
▁instrumental	-11.6254
▁turbines	-11.626
▁cracks	-11.6261
▁Meaning	-11.6262
88	-11.6264
▁centered	-11.6265
▁rounded	-11.6265
▁Internal	-11.6267
zer	-11.6267
ency	-11.6268
▁backgrounds	-11.627
▁damp	-11.6271
▁conquest	-11.6272
▁firing	-11.6273
▁20,000	-11.6274
▁1917	-11.6274
▁prescribe	-11.6275
▁1967	-11.6275
▁adequately	-11.6276
uz	-11.6277
▁treasure	-11.6277
▁Motor	-11.628
▁Fun	-11.628
▁Sin	-11.6281
▁Stra	-11.6284
▁installing	-11.6284
▁routinely	-11.6285
▁Scale	-11.6287
46	-11.6288
▁descriptive	-11.6288
▁Br	-11.6289
▁1948	-11.6289
▁mitigation	-11.6291
▁Beginning	-11.6291
▁hierarchy	-11.6291
▁Anyone	-11.6291
leg	-11.6295
▁shifted	-11.6295
▁repetition	-11.6296
▁fungal	-11.6299
▁straw	-11.6299
watch	-11.6299
▁conserve	-11.6299
▁bunch	-11.63
▁placebo	-11.6301
▁Bru	-11.6305
▁ruins	-11.6309
▁neighbor	-11.6309
▁chlorine	-11.631
▁shake	-11.631
▁impose	-11.6312
▁Doctors	-11.6314
▁(5)	-11.6315
▁Interestingly	-11.6317
san	-11.632
▁Associate	-11.6321
▁admission	-11.6321
shire	-11.6322
▁rigorous	-11.6323
▁juvenile	-11.6323
sea	-11.6326
▁terror	-11.6326
▁Updated	-11.6328
▁persecution	-11.6328
▁stimuli	-11.6328
▁Structure	-11.6332
▁textbooks	-11.6333
▁Var	-11.6334
▁verbs	-11.6334
▁Mormon	-11.6337
ters	-11.6339
▁Build	-11.6339
▁pools	-11.6341
▁pots	-11.6342
▁segregation	-11.6342
▁Friends	-11.6343
▁painter	-11.6343
ulation	-11.6344
▁termed	-11.6347
▁microwave	-11.6348
▁clause	-11.6348
▁pm	-11.6349
▁overlooked	-11.6349
1/	-11.635
uh	-11.6351
▁audit	-11.6351
▁durable	-11.6353
master	-11.6355
iti	-11.636
horn	-11.6361
▁(9	-11.6362
▁bass	-11.6363
▁deforestation	-11.6366
▁receiver	-11.6366
▁propose	-11.6367
▁desktop	-11.6369
▁2020,	-11.6371
generation	-11.6372
Is	-11.6376
▁fence	-11.6377
▁drove	-11.6378
▁1916	-11.6378
▁cavities	-11.638
▁Caesar	-11.638
natural	-11.6381
▁Growing	-11.6381
ENT	-11.6382
▁subjective	-11.6382
▁lifespan	-11.6382
▁shots	-11.6383
▁caregivers	-11.6383
▁mainland	-11.6383
Ba	-11.6384
▁sooner	-11.6385
▁rated	-11.6385
▁Kin	-11.6385
▁Hay	-11.6387
▁parental	-11.6388
▁endless	-11.6389
▁parasite	-11.6389
▁singular	-11.6389
▁occupational	-11.639
▁governing	-11.639
▁odor	-11.639
ify	-11.639
▁Thompson	-11.6391
▁Effective	-11.6391
▁accelerate	-11.6392
▁scholarship	-11.6392
||3	-11.6393
▁covenant	-11.6396
▁Singh	-11.6396
mg	-11.6399
▁Ag	-11.6399
▁Village	-11.6399
▁domains	-11.6401
-24	-11.6401
cu	-11.6404
▁sac	-11.6406
▁recreation	-11.6407
Table	-11.6408
▁sq	-11.641
▁worm	-11.6411
▁coalition	-11.6412
▁marrow	-11.6413
aff	-11.6413
▁Bruce	-11.6414
▁Strategy	-11.6415
▁vaccinated	-11.6416
Bo	-11.6419
▁acoustic	-11.6419
▁collision	-11.6425
▁premium	-11.6426
▁robotic	-11.6428
▁implant	-11.6429
▁Horse	-11.6432
lets	-11.6433
gra	-11.6436
▁athletic	-11.6436
▁hired	-11.6437
RO	-11.6438
VI	-11.6439
▁complaints	-11.644
section	-11.644
▁Lyme	-11.6442
▁treats	-11.6443
▁badly	-11.6443
▁burst	-11.6443
▁apnea	-11.6447
solving	-11.6448
lessness	-11.6451
▁Flood	-11.6451
▁Tel	-11.6452
▁opt	-11.6453
▁belonged	-11.6454
▁scanning	-11.6459
▁kills	-11.6459
▁shaft	-11.6461
▁decorated	-11.6462
word	-11.6462
▁Politics	-11.6464
tru	-11.6468
ori	-11.647
▁GI	-11.6471
▁cigarette	-11.6471
▁18.	-11.6471
▁tan	-11.6472
dan	-11.6472
▁veterinary	-11.6472
▁dye	-11.6472
▁strive	-11.6475
▁Barbara	-11.6475
lip	-11.6475
▁Antonio	-11.6477
uro	-11.6477
▁dosage	-11.6477
▁Malaysia	-11.648
other	-11.648
▁Canyon	-11.6481
▁injected	-11.6482
▁urge	-11.6483
front	-11.6485
▁Beijing	-11.6485
▁rendered	-11.6486
▁surveyed	-11.6487
▁altar	-11.6488
bury	-11.6488
▁Norwegian	-11.6488
▁Karl	-11.6488
▁Gre	-11.6489
▁Birth	-11.6493
▁Atlanta	-11.6496
▁Allied	-11.6498
▁laboratories	-11.6499
▁chat	-11.6499
▁weakened	-11.6503
▁Flag	-11.6504
FS	-11.6504
▁Russell	-11.651
▁Positive	-11.6511
▁Inside	-11.6512
▁towers	-11.6512
▁1914	-11.6513
▁laptop	-11.6514
▁legislature	-11.6514
tha	-11.6515
▁sensing	-11.6515
▁Wide	-11.6516
▁selective	-11.6517
its	-11.6517
▁drum	-11.6519
inter	-11.652
▁provincial	-11.6521
▁yesterday	-11.6521
▁lime	-11.6521
▁grief	-11.6524
▁archive	-11.6527
▁Single	-11.6529
▁empirical	-11.6529
▁Off	-11.6535
▁Regardless	-11.6538
▁jail	-11.6541
▁anticipated	-11.6541
▁servants	-11.6542
▁servant	-11.6546
▁Portugal	-11.6546
▁convince	-11.6548
▁Mont	-11.6549
▁donor	-11.6549
▁IL	-11.655
▁stays	-11.6551
▁touched	-11.6551
▁Apr	-11.6552
▁Harris	-11.6553
TER	-11.6553
▁poles	-11.6554
▁artillery	-11.6554
▁newer	-11.6554
▁Catherine	-11.6557
▁throwing	-11.6557
black	-11.6558
▁demographic	-11.6561
▁Areas	-11.6562
▁harassment	-11.6562
▁Gil	-11.6564
▁Cleveland	-11.6565
▁enamel	-11.6565
▁dehydration	-11.6568
▁compromised	-11.6569
▁Fi	-11.657
Or	-11.6571
▁Naval	-11.6574
lings	-11.6576
▁bodily	-11.6576
▁injustice	-11.6577
▁deaf	-11.6578
▁handed	-11.6579
▁grip	-11.658
tail	-11.6581
▁dots	-11.6583
▁Marie	-11.6583
▁Card	-11.6583
▁bicycle	-11.6583
▁partnerships	-11.6586
▁Progress	-11.6586
▁1915	-11.6587
▁125	-11.6588
itt	-11.6589
▁disagree	-11.6592
▁Technologies	-11.6593
▁trait	-11.6593
▁conform	-11.6594
▁Colonel	-11.6595
▁References	-11.6595
▁specifications	-11.6603
▁Homo	-11.6605
base	-11.6606
▁acne	-11.6609
▁leak	-11.6611
▁recycle	-11.6611
aj	-11.6611
▁License	-11.6612
▁elimination	-11.6612
▁utilities	-11.6612
▁flights	-11.6615
▁comet	-11.6617
▁developer	-11.6617
ret	-11.6618
▁emitted	-11.6619
had	-11.662
wise	-11.6621
▁MB	-11.6621
▁outlines	-11.6623
zy	-11.6623
▁advancement	-11.6625
▁adjustment	-11.6626
▁Ju	-11.6629
▁tragic	-11.6633
▁twist	-11.6634
▁muscular	-11.6634
▁2002.	-11.6635
▁reductions	-11.6639
▁Path	-11.6641
▁Die	-11.6642
▁rover	-11.6644
Note	-11.6646
▁Marx	-11.6648
▁Telescope	-11.6648
▁accounted	-11.6649
▁1937	-11.665
▁designation	-11.665
▁Vice	-11.6651
▁reject	-11.6651
▁definite	-11.6652
▁displacement	-11.6654
▁sulfur	-11.6657
▁Falls	-11.6659
▁Territory	-11.6659
▁alliance	-11.6659
▁polymer	-11.6659
▁winner	-11.666
▁ver	-11.6661
▁ED	-11.6665
four	-11.6666
▁16.	-11.6666
▁lady	-11.6671
▁Alberta	-11.6675
▁posed	-11.6675
▁feasible	-11.6676
▁repetitive	-11.6676
▁undertake	-11.6677
▁mat	-11.6678
▁Rice	-11.6678
▁Dream	-11.6679
▁Buy	-11.6681
▁GM	-11.6683
▁mesh	-11.6685
▁tomato	-11.6687
▁sewage	-11.6687
cultural	-11.6691
▁Steel	-11.6691
▁em	-11.6692
▁assisted	-11.6693
edge	-11.6694
▁civic	-11.6695
▁Liberty	-11.6698
▁offshore	-11.67
▁autonomy	-11.6701
▁cables	-11.6702
▁accepting	-11.6703
▁Era	-11.6703
▁connectivity	-11.6704
▁accompanying	-11.6704
lia	-11.6707
▁thrust	-11.6708
▁novels	-11.6709
ET	-11.671
▁rush	-11.671
ending	-11.6711
▁q	-11.6711
▁mindset	-11.6713
▁Arm	-11.6714
▁informative	-11.6715
grass	-11.6716
cle	-11.6719
▁Plato	-11.6721
▁pie	-11.6723
▁fragile	-11.6723
▁boot	-11.6724
load	-11.6727
▁commentary	-11.6727
ias	-11.6727
▁Picture	-11.6728
▁quarters	-11.6729
▁plural	-11.6731
▁communist	-11.6731
▁valves	-11.6738
▁Danish	-11.6738
▁credits	-11.6739
▁capita	-11.6741
▁Address	-11.6742
▁hire	-11.6742
▁font	-11.6742
▁nicotine	-11.6743
▁cease	-11.6743
▁Cornell	-11.6746
▁migrate	-11.6748
▁NA	-11.675
▁malware	-11.6751
▁Ak	-11.6752
▁Sudan	-11.6753
▁cone	-11.6755
▁carriers	-11.6756
▁Ol	-11.6758
▁engineered	-11.6759
ath	-11.6763
ago	-11.6764
wall	-11.6764
▁Object	-11.6765
▁prayers	-11.6766
▁excitement	-11.6768
▁Greenland	-11.6772
▁menstrual	-11.6774
▁gravel	-11.6774
dependent	-11.6775
▁sealed	-11.6776
▁ISO	-11.678
▁kick	-11.678
▁Syrian	-11.6785
▁guests	-11.6785
<	-11.6788
▁voyage	-11.679
▁clip	-11.6793
bot	-11.6795
▁aviation	-11.6796
▁catalog	-11.6797
▁Guardian	-11.6799
▁1957	-11.6801
GE	-11.6801
▁Final	-11.6802
▁coordinated	-11.6803
▁2019.	-11.6803
▁liked	-11.6804
▁Democrats	-11.6806
English	-11.6807
RP	-11.6809
▁8:	-11.6811
▁rod	-11.6812
▁decimal	-11.6819
▁depths	-11.6819
▁handy	-11.6821
▁editorial	-11.6822
jan	-11.6824
▁Nano	-11.6824
▁Leadership	-11.6824
▁innocent	-11.6824
wy	-11.6825
▁rewards	-11.6826
ump	-11.6827
▁regulating	-11.6827
▁Costa	-11.6828
▁logging	-11.6828
▁serial	-11.683
▁1500	-11.6831
▁liability	-11.6833
▁lifting	-11.6834
89	-11.6834
▁endemic	-11.6835
▁calorie	-11.6839
▁User	-11.684
chin	-11.6842
lab	-11.6843
▁rocky	-11.6843
▁collar	-11.6844
▁releasing	-11.6845
▁Meta	-11.6848
TI	-11.6848
▁enjoying	-11.685
▁Stories	-11.6851
▁lip	-11.6852
EA	-11.6852
▁Welsh	-11.6853
sur	-11.6854
▁ankle	-11.6855
lib	-11.6856
▁deserve	-11.6856
▁pigment	-11.6856
▁osteoporosis	-11.6858
▁housed	-11.686
▁sail	-11.686
▁succession	-11.6862
▁reply	-11.6863
▁growers	-11.6864
▁coil	-11.6864
▁biography	-11.6865
tone	-11.6865
headed	-11.6866
▁1911	-11.6871
tain	-11.6872
▁musicians	-11.6872
▁mu	-11.6872
▁walks	-11.6876
▁Horn	-11.6877
▁oven	-11.6878
▁cues	-11.6881
▁donated	-11.6881
▁chewing	-11.6882
▁exterior	-11.6884
▁locked	-11.6886
▁Ye	-11.6887
▁whereby	-11.6887
▁#1	-11.6888
zing	-11.6889
▁1956	-11.689
Read	-11.6892
▁dome	-11.6894
▁Quick	-11.6894
▁Cathedral	-11.6898
▁Cities	-11.6898
▁divorce	-11.6898
▁bites	-11.6901
▁mast	-11.6902
cl	-11.6903
▁wore	-11.6903
▁intricate	-11.6904
both	-11.6904
▁1959	-11.6904
▁crater	-11.6906
▁plots	-11.6907
▁pour	-11.6908
▁spike	-11.6909
weight	-11.6909
▁financing	-11.6909
iva	-11.6914
▁arrow	-11.6914
▁trails	-11.6915
▁1861	-11.6915
▁mythology	-11.6916
▁triple	-11.6916
▁Trees	-11.6916
▁Wars	-11.6918
▁darker	-11.6918
▁Mol	-11.6918
▁heavier	-11.6918
▁ponds	-11.6918
▁sisters	-11.692
▁cemetery	-11.6921
74	-11.6922
▁capitalism	-11.6927
▁Recovery	-11.6927
▁Sur	-11.6929
▁Protein	-11.693
▁cycling	-11.693
ense	-11.693
▁flip	-11.693
▁newborn	-11.6932
▁17.	-11.6934
▁Rat	-11.6934
media	-11.6936
▁Roger	-11.6937
bor	-11.6937
Some	-11.6938
▁rope	-11.6939
▁li	-11.6939
▁deposited	-11.694
anna	-11.6941
▁bent	-11.6944
▁beloved	-11.6944
vid	-11.6945
▁mercy	-11.6947
▁hostile	-11.6948
▁norm	-11.6948
▁Chart	-11.6948
hol	-11.6949
cis	-11.695
▁Bon	-11.695
▁Nothing	-11.6951
▁constitutes	-11.6954
▁Branch	-11.6954
▁automation	-11.6955
▁Delaware	-11.6955
▁proportional	-11.6956
bert	-11.6958
▁anymore	-11.6959
▁exploit	-11.696
▁bore	-11.6961
▁Ghana	-11.6963
-25	-11.6963
rian	-11.6964
▁dip	-11.6966
ame	-11.6968
84	-11.6971
EST	-11.6971
▁tightly	-11.6972
▁Fo	-11.6972
ied	-11.6973
▁Understand	-11.6975
version	-11.6978
▁resonance	-11.6978
▁Papers	-11.6978
▁fathers	-11.698
▁randomly	-11.6981
▁mom	-11.6981
▁lifelong	-11.6982
▁Companies	-11.6984
▁revealing	-11.6985
▁junction	-11.6985
▁scarce	-11.6986
▁Hy	-11.6987
▁incomplete	-11.6987
▁Congo	-11.6988
▁accountability	-11.6988
▁terminology	-11.699
▁kindness	-11.699
taking	-11.6991
God	-11.6995
▁yogurt	-11.6998
▁Mt	-11.6999
▁Sta	-11.7001
▁authentication	-11.7002
IE	-11.7003
bro	-11.7004
▁naked	-11.7004
stage	-11.7006
▁opposing	-11.7007
▁Geography	-11.7007
sensitive	-11.7007
▁monarch	-11.701
▁15%	-11.7012
▁Celsius	-11.7013
growing	-11.7015
▁Queensland	-11.7016
▁Nebraska	-11.7016
▁beetles	-11.7016
▁wanting	-11.7017
▁rotating	-11.7019
▁nail	-11.7019
▁hunters	-11.7019
▁Religious	-11.7021
▁Circuit	-11.7024
▁glaciers	-11.7026
▁microscopic	-11.703
▁emphasizes	-11.703
▁migrants	-11.703
gun	-11.7031
met	-11.7031
una	-11.7034
sson	-11.7039
▁immigrant	-11.704
▁knees	-11.704
▁Baby	-11.7041
▁desires	-11.7041
▁Campaign	-11.7041
▁lithium	-11.7044
IST	-11.7045
▁gloves	-11.7045
▁adopting	-11.7046
▁mating	-11.7047
▁scroll	-11.7047
▁jar	-11.7049
dent	-11.7052
▁staple	-11.7053
▁focal	-11.7053
AB	-11.7055
▁correction	-11.7056
▁Specifically	-11.7062
child	-11.7063
%20	-11.7063
||2	-11.7063
▁Specific	-11.7066
▁timeline	-11.7067
▁celebrating	-11.7067
▁constipation	-11.7067
ition	-11.7068
▁digit	-11.7069
▁instantly	-11.707
▁merchant	-11.7071
▁Made	-11.7072
▁invite	-11.7072
fo	-11.7073
▁Detroit	-11.7073
▁tended	-11.7074
▁Biblical	-11.7075
une	-11.7076
▁strips	-11.7076
rous	-11.7078
▁cart	-11.7081
▁steadily	-11.7082
▁nobody	-11.7083
cin	-11.7084
cas	-11.7086
▁slopes	-11.7087
▁Uganda	-11.7088
▁collectively	-11.709
▁exhibited	-11.7091
▁morality	-11.7093
uma	-11.7096
▁pleased	-11.7097
trans	-11.7098
oke	-11.7099
gene	-11.71
▁psychologist	-11.71
▁duct	-11.7103
▁attendance	-11.7103
▁ideology	-11.7105
▁Sample	-11.7105
▁Circle	-11.7109
dale	-11.711
▁Colombia	-11.711
▁hosting	-11.711
sive	-11.7112
▁exile	-11.7113
▁penetrate	-11.7114
▁excuse	-11.7115
▁travelling	-11.7116
▁artwork	-11.7117
Ho	-11.7117
▁Pages	-11.7118
▁Reduce	-11.7119
▁Regiment	-11.712
▁1).	-11.7124
▁genital	-11.7125
▁Hearing	-11.7126
▁Cre	-11.7128
▁governed	-11.7128
76	-11.7129
▁gates	-11.713
▁1913	-11.713
rit	-11.7133
▁render	-11.7133
▁Ana	-11.7134
▁populated	-11.7136
▁Consumer	-11.7138
oids	-11.7139
▁Covid	-11.714
▁translations	-11.7141
▁hatch	-11.7142
▁rooted	-11.7142
ls	-11.7145
▁MI	-11.7147
▁Lang	-11.7147
▁jury	-11.715
▁Chen	-11.715
▁Listen	-11.715
▁Electrical	-11.7153
▁1929	-11.7153
itz	-11.7153
▁Warren	-11.7154
▁shaping	-11.7155
-22	-11.7155
▁technically	-11.7155
▁earnings	-11.7159
▁bamboo	-11.716
▁inheritance	-11.7161
▁optimize	-11.7161
▁privilege	-11.7164
▁Leave	-11.7164
▁clubs	-11.7167
▁Contents	-11.7168
▁McC	-11.7169
▁carbohydrate	-11.717
▁metaphor	-11.7172
▁dividing	-11.7175
▁germs	-11.7176
▁consequently	-11.7177
▁dinosaur	-11.7177
▁pursuing	-11.7178
▁researching	-11.7179
▁Normal	-11.718
▁sh	-11.718
People	-11.7182
▁mentions	-11.7184
▁epic	-11.7184
▁fasting	-11.7185
▁bishop	-11.7187
▁regression	-11.7187
▁motors	-11.7189
▁comprehend	-11.719
▁midst	-11.719
▁rabbit	-11.7192
▁router	-11.7193
▁Palm	-11.7194
▁Laws	-11.7196
▁1958	-11.7197
▁Goals	-11.7197
Dis	-11.7197
▁detecting	-11.7197
bol	-11.7199
▁mph	-11.7199
▁Helen	-11.7199
▁chromosomes	-11.7199
ico	-11.7201
▁stunning	-11.7201
From	-11.7202
▁BP	-11.7203
▁1954	-11.7204
▁liquids	-11.7206
▁15.	-11.7207
▁1935	-11.721
ologist	-11.721
▁sovereign	-11.7213
▁implants	-11.7214
▁pad	-11.7215
▁studio	-11.7217
▁API	-11.7217
▁aggregate	-11.722
ova	-11.7221
PL	-11.7221
▁poster	-11.7222
▁unstable	-11.7223
IF	-11.7224
▁landmark	-11.7227
900	-11.7227
colored	-11.7229
▁militia	-11.7231
▁vibrant	-11.7234
▁illusion	-11.7234
index	-11.7234
ral	-11.7235
▁inferior	-11.7236
▁violations	-11.7237
▁relied	-11.724
▁Draw	-11.7241
oy	-11.7241
mine	-11.7242
▁detector	-11.7242
▁suspension	-11.7243
▁Bengal	-11.7244
▁Roll	-11.7248
▁enthusiasm	-11.7251
▁350	-11.7252
▁rendering	-11.7252
▁multitude	-11.7252
vent	-11.7254
have	-11.7255
ration	-11.7255
hot	-11.7256
wave	-11.7257
▁prairie	-11.7257
▁canvas	-11.7258
▁flux	-11.7259
▁Comments	-11.7259
Na	-11.7259
▁horn	-11.7259
▁celebrations	-11.726
▁Pressure	-11.726
▁prejudice	-11.7261
try	-11.7261
▁Brazilian	-11.7262
▁resilient	-11.7263
▁Fred	-11.7267
▁announcement	-11.7267
▁seas	-11.7268
bank	-11.7268
▁feeds	-11.7269
▁drift	-11.7269
▁propaganda	-11.7272
DE	-11.7274
▁po	-11.7274
▁flew	-11.7275
AN	-11.7278
▁Fr	-11.7278
▁Develop	-11.7279
▁hell	-11.728
▁frontier	-11.728
PD	-11.7281
▁Thanksgiving	-11.7281
▁Kal	-11.7281
▁wipe	-11.7282
▁nursery	-11.7283
▁Scientist	-11.7285
▁Institutes	-11.7285
eal	-11.7286
▁(20	-11.7287
apa	-11.7287
▁Stalin	-11.7288
▁somebody	-11.7289
▁patience	-11.729
▁Byzantine	-11.7292
▁wavelength	-11.7293
Not	-11.7293
esh	-11.7294
▁Revolutionary	-11.7295
▁Vermont	-11.7296
▁urged	-11.7296
▁schizophrenia	-11.7299
▁disrupt	-11.7299
▁cr	-11.7304
▁corners	-11.7306
▁unconscious	-11.7308
ancy	-11.7308
▁emotionally	-11.7308
▁syn	-11.7308
brain	-11.7309
▁spark	-11.731
▁Economy	-11.7311
ELL	-11.7312
▁warnings	-11.7316
▁Abuse	-11.7317
▁insomnia	-11.7319
▁Secondary	-11.7319
▁Potential	-11.732
▁fluorescent	-11.7322
▁visitor	-11.7323
▁Commissioner	-11.7323
AA	-11.7324
▁calculator	-11.7324
▁1999,	-11.7328
▁funeral	-11.7328
▁journalist	-11.7333
▁airplane	-11.7335
▁credited	-11.7335
▁cleared	-11.7336
▁pyramid	-11.7337
▁Tip	-11.7337
sexual	-11.7337
▁Tro	-11.7338
▁frogs	-11.7339
▁archives	-11.734
▁Campbell	-11.734
▁compressed	-11.7341
▁900	-11.7342
▁Rules	-11.7343
▁Cave	-11.7343
▁Charter	-11.7345
▁stake	-11.7346
EE	-11.7347
▁suppose	-11.7347
▁orbital	-11.7347
▁advent	-11.7349
▁11:	-11.7349
▁Breast	-11.7349
dic	-11.735
▁DOI	-11.735
▁iconic	-11.7352
▁Close	-11.7354
▁pupil	-11.7359
▁1955	-11.7362
▁contacts	-11.7362
▁Carter	-11.7364
▁blades	-11.7365
▁disadvantages	-11.7365
▁uncovered	-11.7366
▁Approach	-11.7367
En	-11.7367
▁serum	-11.7368
▁Otherwise	-11.7374
▁jumping	-11.7376
▁lowered	-11.7377
▁caves	-11.7377
▁Yo	-11.7378
▁punch	-11.7378
▁earning	-11.7379
▁advancing	-11.7379
▁Coal	-11.738
▁imply	-11.7381
▁Exposure	-11.7382
▁ranked	-11.7383
Source	-11.7388
▁Acid	-11.7391
▁Fisher	-11.7392
▁syrup	-11.7394
▁Above	-11.7394
▁revolt	-11.7395
▁imports	-11.7395
▁enacted	-11.7395
▁lid	-11.7395
▁pressed	-11.7396
▁audiences	-11.7399
▁Arch	-11.74
▁Vas	-11.7401
Ed	-11.7402
▁ratios	-11.7403
MR	-11.7403
▁ob	-11.7403
▁Flow	-11.7404
▁outlet	-11.7405
▁Faith	-11.7406
▁Tai	-11.7407
▁manuscripts	-11.7409
▁definitive	-11.7409
▁upright	-11.741
ines	-11.7411
▁eager	-11.7411
▁Exchange	-11.7412
▁athlete	-11.7413
tta	-11.7413
▁ME	-11.7413
hl	-11.7413
▁Pop	-11.7414
▁noticeable	-11.7414
▁radicals	-11.7414
▁blooms	-11.7414
▁Americas	-11.7414
▁cage	-11.7416
▁Ty	-11.7417
▁Violence	-11.7418
▁1947	-11.7418
▁BA	-11.7418
DM	-11.7422
▁blessed	-11.7423
▁Rico	-11.7423
▁Adults	-11.7424
▁suppress	-11.7425
hole	-11.7425
▁scalp	-11.7427
▁heroes	-11.7427
▁replied	-11.743
World	-11.7433
▁magnificent	-11.7433
stick	-11.7434
▁dressing	-11.7434
RF	-11.7437
▁parenting	-11.7438
▁Protect	-11.7439
▁Tool	-11.7439
▁Hawaiian	-11.744
▁snacks	-11.744
ME	-11.7441
tric	-11.7442
▁positioned	-11.7443
▁chi	-11.7443
AIDS	-11.7444
worm	-11.7444
▁DNS	-11.7444
View	-11.7445
▁hormonal	-11.7445
▁strokes	-11.7445
▁Habitat	-11.7446
tam	-11.7447
weed	-11.7448
▁Ms	-11.7448
▁arriving	-11.7448
acy	-11.7449
▁investigators	-11.745
▁gotten	-11.7451
▁magical	-11.7453
▁22.	-11.7454
▁blindness	-11.7455
controlled	-11.7456
tag	-11.7457
▁smokers	-11.746
▁alleged	-11.746
▁Sho	-11.7463
char	-11.7465
▁reflux	-11.7466
▁backyard	-11.7467
▁interacting	-11.7467
▁debates	-11.7468
▁USB	-11.7468
▁curb	-11.7469
image	-11.7471
▁Rabbi	-11.7472
▁9:	-11.7473
Ta	-11.7474
nom	-11.7475
▁yearly	-11.7476
cri	-11.7478
ough	-11.7478
▁traps	-11.748
▁Topics	-11.748
▁Publications	-11.7481
▁Easy	-11.7481
▁Institution	-11.7483
oz	-11.7484
▁backed	-11.7484
▁Pri	-11.7485
▁Bus	-11.7487
▁Zo	-11.7488
▁oxidation	-11.7488
▁representations	-11.749
▁Murray	-11.7491
▁acre	-11.7494
order	-11.7494
▁saint	-11.7498
▁ulcers	-11.7498
▁collaborate	-11.7499
DP	-11.7501
virus	-11.7501
ison	-11.7501
▁hitting	-11.7503
FC	-11.7504
rm	-11.7504
language	-11.7505
ended	-11.7506
▁disturbance	-11.7507
TR	-11.7507
▁CS	-11.7509
▁Apply	-11.7509
▁daylight	-11.7512
▁arrange	-11.7514
▁vegan	-11.7516
loss	-11.7516
▁occupy	-11.7517
▁chloride	-11.7517
▁spiders	-11.7519
▁stimulating	-11.752
▁1988	-11.752
▁Haiti	-11.7521
▁corresponds	-11.7523
▁psychiatric	-11.7523
▁Allow	-11.7524
▁PR	-11.7527
▁Intel	-11.7528
▁Prevent	-11.7529
▁12-	-11.7529
oil	-11.7531
▁apparatus	-11.7533
▁Associated	-11.7533
▁analog	-11.7534
▁Term	-11.7535
▁Dor	-11.7536
▁Partnership	-11.7536
▁civilians	-11.7536
▁folder	-11.7537
▁cake	-11.7543
▁candy	-11.7543
▁weaknesses	-11.7543
▁Compare	-11.7544
▁oppression	-11.7545
▁bombing	-11.7546
positive	-11.7546
flu	-11.7548
▁mad	-11.7548
half	-11.7549
▁inspiring	-11.7549
▁undergoing	-11.7549
▁refugee	-11.755
▁tuberculosis	-11.7551
oxy	-11.7552
▁void	-11.7553
▁ammonia	-11.7554
EM	-11.7554
ged	-11.7556
▁coordinates	-11.7558
sum	-11.7559
▁105	-11.7559
June	-11.7559
Gen	-11.7561
▁coastline	-11.7563
▁ultraviolet	-11.7563
▁clearing	-11.7563
▁accumulated	-11.7565
▁Bee	-11.7565
▁deficiencies	-11.7566
▁fu	-11.7567
▁Gun	-11.7567
arian	-11.7569
▁probable	-11.7569
▁captive	-11.7569
▁politically	-11.757
▁malicious	-11.7572
▁bipolar	-11.7572
▁AL	-11.7575
▁Reform	-11.7576
▁monkeys	-11.7576
▁Sex	-11.7577
▁cache	-11.7577
▁shrub	-11.7578
▁theology	-11.7581
Edit	-11.7582
▁Woman	-11.7585
▁1943	-11.7587
▁LORD	-11.7587
▁1953	-11.7592
▁catastrophic	-11.7594
▁activist	-11.7594
▁signing	-11.7595
▁delays	-11.7596
▁rejection	-11.7598
▁forum	-11.7598
hara	-11.7598
▁Operation	-11.7599
▁soup	-11.7599
▁converting	-11.7601
...”	-11.7604
▁resin	-11.7606
▁seedlings	-11.7606
▁Forces	-11.7609
▁Rich	-11.761
▁Nat	-11.7612
▁pe	-11.7612
▁Hat	-11.7613
rah	-11.7615
aya	-11.7616
▁graduates	-11.7617
▁Genetics	-11.7618
▁TR	-11.7618
▁Whole	-11.7618
▁humble	-11.7619
▁behaviours	-11.762
▁Negro	-11.762
▁seismic	-11.7621
▁multiplication	-11.7621
▁Discussion	-11.7624
ved	-11.7626
▁accelerated	-11.7627
hat	-11.7628
▁mimic	-11.7629
chy	-11.7629
AG	-11.763
▁wondered	-11.7631
▁migraine	-11.7633
▁perennial	-11.7633
▁simulate	-11.7634
maker	-11.7635
ect	-11.7636
▁guilt	-11.7638
▁recession	-11.7638
▁Jul	-11.7639
▁Jay	-11.7639
▁Holland	-11.7639
til	-11.764
▁comprise	-11.7643
▁pause	-11.7645
▁rub	-11.7646
▁transcription	-11.7648
▁schooling	-11.7649
▁Greater	-11.7649
uli	-11.765
▁allocation	-11.7652
▁Nazis	-11.7653
▁bypass	-11.7653
▁Tre	-11.7655
root	-11.7656
▁algebra	-11.766
Now	-11.7662
▁YOU	-11.7662
▁performs	-11.7664
▁killer	-11.7664
▁Us	-11.7665
▁Austrian	-11.7665
bur	-11.7667
▁gallery	-11.7667
uda	-11.7668
▁Gal	-11.767
web	-11.7673
aro	-11.7673
▁Half	-11.7676
▁Aristotle	-11.7678
▁activate	-11.7678
▁Hampshire	-11.7679
▁Dragon	-11.768
ectomy	-11.7682
▁deliberately	-11.7684
▁Indo	-11.7685
▁justified	-11.7685
▁marginal	-11.7686
▁pioneer	-11.7686
Per	-11.7689
▁fauna	-11.769
ign	-11.769
▁surplus	-11.7692
-03	-11.7692
▁GA	-11.7693
▁Tra	-11.7693
nis	-11.7695
▁socket	-11.7696
rn	-11.77
▁floors	-11.77
▁envelope	-11.77
▁uranium	-11.7701
▁tele	-11.7701
▁pseudo	-11.7702
▁Medieval	-11.7703
▁preceding	-11.7704
▁Eagle	-11.7704
▁Jew	-11.7704
▁Joshua	-11.7705
▁ward	-11.7706
▁1999.	-11.7707
▁mortgage	-11.7707
▁6)	-11.7708
▁blessing	-11.7708
▁matched	-11.7708
▁feared	-11.7708
▁Shin	-11.7709
▁belly	-11.7709
▁assuming	-11.7712
▁accumulate	-11.7712
▁Families	-11.7713
▁Few	-11.7714
▁genius	-11.7716
▁grapes	-11.7719
▁Fruit	-11.7719
▁PV	-11.772
▁donation	-11.772
▁NE	-11.7721
▁prospect	-11.7721
yu	-11.7724
▁detrimental	-11.7727
▁angel	-11.7727
▁observer	-11.7728
▁peculiar	-11.7728
party	-11.7728
▁instability	-11.7729
VA	-11.7734
▁1865	-11.7734
▁triumph	-11.7734
▁fortune	-11.7734
▁Tibetan	-11.7735
▁1862	-11.7736
▁Classical	-11.7737
▁publisher	-11.7737
▁refrigerator	-11.7738
▁lawyers	-11.7739
▁Evans	-11.774
▁commodity	-11.7741
▁Wash	-11.7741
▁reinforced	-11.7742
▁Pediatrics	-11.7742
▁outlook	-11.7744
▁Dynasty	-11.7744
▁th	-11.7745
▁diagrams	-11.7745
▁renal	-11.775
SM	-11.7752
▁regiment	-11.7753
▁pancreas	-11.7753
▁Commercial	-11.7754
▁Neo	-11.7754
▁scholarly	-11.7755
live	-11.7756
BI	-11.7756
▁cerebral	-11.7756
▁Fahrenheit	-11.7756
▁chickens	-11.7757
ici	-11.7758
▁recipient	-11.7758
▁journalists	-11.7759
▁projections	-11.7762
eus	-11.7764
▁expectancy	-11.7766
bell	-11.7767
▁vacation	-11.7769
▁correspondence	-11.7769
▁complementary	-11.777
▁conquered	-11.777
▁relaxed	-11.7772
▁degeneration	-11.7772
hem	-11.7772
▁eighth	-11.7774
cycle	-11.7775
roll	-11.7776
CM	-11.7777
▁reasonably	-11.7778
▁Czech	-11.7778
▁Gor	-11.7779
▁Fine	-11.7779
▁1998,	-11.7783
▁educator	-11.7787
";	-11.7787
▁unpleasant	-11.7788
▁Ri	-11.779
lig	-11.779
mos	-11.779
▁Update	-11.7792
eu	-11.7794
▁Egyptians	-11.7794
▁generous	-11.7795
tile	-11.7796
▁interpretations	-11.7796
▁endurance	-11.7797
▁wiring	-11.78
▁Childhood	-11.7801
frame	-11.7803
▁correlated	-11.7804
three	-11.7805
ui	-11.7806
▁meats	-11.7807
ois	-11.7809
click	-11.7811
▁168	-11.7813
▁nevertheless	-11.7816
action	-11.7817
▁Transport	-11.7821
▁Career	-11.7822
Pa	-11.7825
▁capsule	-11.7825
▁architects	-11.7825
▁springs	-11.7828
▁Kent	-11.7829
ode	-11.783
mor	-11.7831
▁nails	-11.7832
▁pagan	-11.7836
-04	-11.7837
▁downstream	-11.7837
file	-11.784
▁1908	-11.7841
▁(12	-11.7841
▁Clear	-11.7842
▁Mayo	-11.7843
▁partition	-11.7843
▁characterize	-11.7844
▁Hor	-11.7846
▁bullet	-11.7846
▁Divine	-11.7848
▁170	-11.7848
▁manually	-11.7848
▁mandate	-11.7849
▁harmless	-11.785
▁bubble	-11.7855
▁Strategies	-11.7856
ela	-11.7857
▁Smithsonian	-11.7858
▁undoubtedly	-11.7859
▁drone	-11.786
▁Anxiety	-11.7862
▁identities	-11.7862
▁Gregory	-11.7863
▁Face	-11.7865
▁utilization	-11.7869
▁Euro	-11.7871
▁Material	-11.7875
▁measles	-11.7875
▁Drawing	-11.7875
▁neglected	-11.7878
terdisciplinary	-11.788
▁glad	-11.7881
▁compensate	-11.7882
▁Graham	-11.7885
▁Seed	-11.7886
bl	-11.7887
▁corporation	-11.7888
▁believing	-11.7889
▁str	-11.7889
▁recognizes	-11.7889
position	-11.7889
▁monitors	-11.7891
National	-11.7892
▁Strait	-11.7894
▁Double	-11.7896
▁risky	-11.7896
▁threaten	-11.7897
▁ridge	-11.7898
▁hopefully	-11.7899
Time	-11.7899
▁grateful	-11.79
▁appealing	-11.79
▁switches	-11.7901
▁bathroom	-11.7902
▁qualify	-11.7904
:15	-11.7905
ear	-11.7906
▁openly	-11.7909
▁PO	-11.7909
▁discovering	-11.7912
hall	-11.7912
▁shoe	-11.7913
▁pilots	-11.7916
▁shuttle	-11.7916
▁expenditure	-11.7917
▁creator	-11.7918
analysis	-11.7918
▁Tor	-11.7919
help	-11.792
▁proportions	-11.792
▁fin	-11.792
▁rolled	-11.7921
▁dropping	-11.7922
▁syntax	-11.7922
▁tire	-11.7923
▁intersection	-11.7926
FP	-11.7929
▁Iceland	-11.7929
▁Wal	-11.7929
▁successor	-11.793
▁fertilizers	-11.7931
▁risen	-11.7932
vers	-11.7932
▁Organisation	-11.7935
▁Labour	-11.7936
ema	-11.7938
▁Rob	-11.7939
ore	-11.7941
▁dear	-11.7941
national	-11.7943
electric	-11.7943
▁1863	-11.7944
▁Brief	-11.7945
▁prospective	-11.7949
▁dataset	-11.795
▁prints	-11.7952
zu	-11.7952
inus	-11.7953
▁Hans	-11.7954
through	-11.7955
▁replication	-11.7955
▁ti	-11.7955
▁rape	-11.7955
FT	-11.7956
▁biopsy	-11.7957
▁2-3	-11.7958
▁Ny	-11.7961
story	-11.7962
▁tiger	-11.7963
▁congestion	-11.7963
NP	-11.7967
▁miners	-11.7967
▁Humans	-11.7968
▁automobile	-11.7969
▁emit	-11.7971
▁inland	-11.7971
LP	-11.7971
ulating	-11.7972
ml	-11.7972
imp	-11.7973
▁1986	-11.7974
▁loves	-11.7974
▁Acts	-11.7979
▁Las	-11.7981
▁cruel	-11.7982
▁Alex	-11.7983
▁geology	-11.7983
▁Der	-11.7983
Br	-11.7985
▁plains	-11.7985
▁Edinburgh	-11.7985
amp	-11.7986
▁Conditions	-11.7986
▁inhabited	-11.7988
▁faint	-11.7988
rant	-11.7988
▁Countries	-11.7989
▁Ways	-11.799
▁shear	-11.799
▁Bernard	-11.799
▁fluctuations	-11.7991
▁zoo	-11.7994
▁SI	-11.7995
▁unaware	-11.7996
▁ceremonies	-11.7998
▁decorative	-11.7998
▁Limited	-11.7998
▁Hubble	-11.7998
▁obey	-11.7999
▁ticks	-11.7999
▁spreads	-11.8
▁Maya	-11.8001
▁curved	-11.8001
ben	-11.8002
▁buttons	-11.8003
▁cohort	-11.8004
▁4,000	-11.8005
▁prince	-11.8006
▁enlarged	-11.8006
▁conceived	-11.8007
▁Approximately	-11.8008
gon	-11.8008
▁organised	-11.801
people	-11.801
lus	-11.8011
lla	-11.8012
▁disputes	-11.8013
▁virgin	-11.8014
▁digging	-11.8014
▁genocide	-11.8016
▁intentions	-11.8018
▁Springs	-11.8022
▁rust	-11.8024
▁intimate	-11.8025
▁Cooper	-11.8027
may	-11.8027
▁steal	-11.8028
▁Cycle	-11.8031
arm	-11.8031
▁Cyber	-11.8031
▁rival	-11.8032
ook	-11.8033
▁Sexual	-11.8034
▁derive	-11.8035
[...]
