<unk>	0
<s>	0
</s>	0
b'\x01'	0
b'\x02'	0
b'\x03'	0
b'\x04'	0
b'\x05'	0
b'\x06'	0
b'\x07'	0
b'\x08'	0
b'\t'	0
b'\n'	0
b'\x0b'	0
b'\x0c'	0
b'\r'	0
b'\x0e'	0
b'\x0f'	0
b'\x10'	0
b'\x11'	0
b'\x12'	0
b'\x13'	0
b'\x14'	0
b'\x15'	0
b'\x16'	0
b'\x17'	0
b'\x18'	0
b'\x19'	0
b'\x1a'	0
b'\x1b'	0
b'\x1c'	0
b'\x1d'	0
b'\x1e'	0
b'\x1f'	0
b' '	0
b'!'	0
b'"'	0
b'#'	0
b'$'	0
b'%'	0
b'&'	0
b"'"	0
b'('	0
b')'	0
b'*'	0
b'+'	0
b','	0
b'-'	0
b'.'	0
b'/'	0
b'0'	0
b'1'	0
b'2'	0
b'3'	0
b'4'	0
b'5'	0
b'6'	0
b'7'	0
b'8'	0
b'9'	0
b':'	0
b';'	0
b'<'	0
b'='	0
b'>'	0
b'?'	0
b'@'	0
b'A'	0
b'B'	0
b'C'	0
b'D'	0
b'E'	0
b'F'	0
b'G'	0
b'H'	0
b'I'	0
b'J'	0
b'K'	0
b'L'	0
b'M'	0
b'N'	0
b'O'	0
b'P'	0
b'Q'	0
b'R'	0
b'S'	0
b'T'	0
b'U'	0
b'V'	0
b'W'	0
b'X'	0
b'Y'	0
b'Z'	0
b'['	0
b'\\'	0
b']'	0
b'^'	0
b'_'	0
b'`'	0
b'a'	0
b'b'	0
b'c'	0
b'd'	0
b'e'	0
b'f'	0
b'g'	0
b'h'	0
b'i'	0
b'j'	0
b'k'	0
b'l'	0
b'm'	0
b'n'	0
b'o'	0
b'p'	0
b'q'	0
b'r'	0
b's'	0
b't'	0
b'u'	0
b'v'	0
b'w'	0
b'x'	0
b'y'	0
b'z'	0
b'{'	0
b'|'	0
b'}'	0
b'~'	0
b'\x7f'	0
b'\x80'	0
b'\x81'	0
b'\x82'	0
b'\x83'	0
b'\x84'	0
b'\x85'	0
b'\x86'	0
b'\x87'	0
b'\x88'	0
b'\x89'	0
b'\x8a'	0
b'\x8b'	0
b'\x8c'	0
b'\x8d'	0
b'\x8e'	0
b'\x8f'	0
b'\x90'	0
b'\x91'	0
b'\x92'	0
b'\x93'	0
b'\x94'	0
b'\x95'	0
b'\x96'	0
b'\x97'	0
b'\x98'	0
b'\x99'	0
b'\x9a'	0
b'\x9b'	0
b'\x9c'	0
b'\x9d'	0
b'\x9e'	0
b'\x9f'	0
b'\xa0'	0
b'\xa1'	0
b'\xa2'	0
b'\xa3'	0
b'\xa4'	0
b'\xa5'	0
b'\xa6'	0
b'\xa7'	0
b'\xa8'	0
b'\xa9'	0
b'\xaa'	0
b'\xab'	0
b'\xac'	0
b'\xad'	0
b'\xae'	0
b'\xaf'	0
b'\xb0'	0
b'\xb1'	0
b'\xb2'	0
b'\xb3'	0
b'\xb4'	0
b'\xb5'	0
b'\xb6'	0
b'\xb7'	0
b'\xb8'	0
b'\xb9'	0
b'\xba'	0
b'\xbb'	0
b'\xbc'	0
b'\xbd'	0
b'\xbe'	0
b'\xbf'	0
b'\xc0'	0
b'\xc1'	0
b'\xc2'	0
b'\xc3'	0
b'\xc4'	0
b'\xc5'	0
b'\xc6'	0
b'\xc7'	0
b'\xc8'	0
b'\xc9'	0
b'\xca'	0
b'\xcb'	0
b'\xcc'	0
b'\xcd'	0
b'\xce'	0
b'\xcf'	0
b'\xd0'	0
b'\xd1'	0
b'\xd2'	0
b'\xd3'	0
b'\xd4'	0
b'\xd5'	0
b'\xd6'	0
b'\xd7'	0
b'\xd8'	0
b'\xd9'	0
b'\xda'	0
b'\xdb'	0
b'\xdc'	0
b'\xdd'	0
b'\xde'	0
b'\xdf'	0
b'\xe0'	0
b'\xe1'	0
b'\xe2'	0
b'\xe3'	0
b'\xe4'	0
b'\xe5'	0
b'\xe6'	0
b'\xe7'	0
b'\xe8'	0
b'\xe9'	0
b'\xea'	0
b'\xeb'	0
b'\xec'	0
b'\xed'	0
b'\xee'	0
b'\xef'	0
b'\xf0'	0
b'\xf1'	0
b'\xf2'	0
b'\xf3'	0
b'\xf4'	0
b'\xf5'	0
b'\xf6'	0
b'\xf7'	0
b'\xf8'	0
b'\xf9'	0
b'\xfa'	0
b'\xfb'	0
b'\xfc'	0
b'\xfd'	0
b'\xfe'	0
b'\xff'	0
<1>	0
<2>	0
<3>	0
<4>	0
<5>	0
<6>	0
<7>	0
<8>	0
<9>	0
<10>	0
<11>	0
<12>	0
<13>	0
<14>	0
<15>	0
<16>	0
<17>	0
<18>	0
<19>	0
<20>	0
<21>	0
<22>	0
<23>	0
<24>	0
<25>	0
<26>	0
<27>	0
<28>	0
<29>	0
<30>	0
<EOS>	0
<0x00>	0
<0x01>	0
<0x02>	0
<0x03>	0
<0x04>	0
<0x05>	0
<0x06>	0
<0x07>	0
<0x08>	0
<0x09>	0
<0x0A>	0
<0x0B>	0
<0x0C>	0
<0x0D>	0
<0x0E>	0
<0x0F>	0
<0x10>	0
<0x11>	0
<0x12>	0
<0x13>	0
<0x14>	0
<0x15>	0
<0x16>	0
<0x17>	0
<0x18>	0
<0x19>	0
<0x1A>	0
<0x1B>	0
<0x1C>	0
<0x1D>	0
<0x1E>	0
<0x1F>	0
<0x20>	0
<0x21>	0
<0x22>	0
<0x23>	0
<0x24>	0
<0x25>	0
<0x26>	0
<0x27>	0
<0x28>	0
<0x29>	0
<0x2A>	0
<0x2B>	0
<0x2C>	0
<0x2D>	0
<0x2E>	0
<0x2F>	0
<0x30>	0
<0x31>	0
<0x32>	0
<0x33>	0
<0x34>	0
<0x35>	0
<0x36>	0
<0x37>	0
<0x38>	0
<0x39>	0
<0x3A>	0
<0x3B>	0
<0x3C>	0
<0x3D>	0
<0x3E>	0
<0x3F>	0
<0x40>	0
<0x41>	0
<0x42>	0
<0x43>	0
<0x44>	0
<0x45>	0
<0x46>	0
<0x47>	0
<0x48>	0
<0x49>	0
<0x4A>	0
<0x4B>	0
<0x4C>	0
<0x4D>	0
<0x4E>	0
<0x4F>	0
<0x50>	0
<0x51>	0
<0x52>	0
<0x53>	0
<0x54>	0
<0x55>	0
<0x56>	0
<0x57>	0
<0x58>	0
<0x59>	0
<0x5A>	0
<0x5B>	0
<0x5C>	0
<0x5D>	0
<0x5E>	0
<0x5F>	0
<0x60>	0
<0x61>	0
<0x62>	0
<0x63>	0
<0x64>	0
<0x65>	0
<0x66>	0
<0x67>	0
<0x68>	0
<0x69>	0
<0x6A>	0
<0x6B>	0
<0x6C>	0
<0x6D>	0
<0x6E>	0
<0x6F>	0
<0x70>	0
<0x71>	0
<0x72>	0
<0x73>	0
<0x74>	0
<0x75>	0
<0x76>	0
<0x77>	0
<0x78>	0
<0x79>	0
<0x7A>	0
<0x7B>	0
<0x7C>	0
<0x7D>	0
<0x7E>	0
<0x7F>	0
<0x80>	0
<0x81>	0
<0x82>	0
<0x83>	0
<0x84>	0
<0x85>	0
<0x86>	0
<0x87>	0
<0x88>	0
<0x89>	0
<0x8A>	0
<0x8B>	0
<0x8C>	0
<0x8D>	0
<0x8E>	0
<0x8F>	0
<0x90>	0
<0x91>	0
<0x92>	0
<0x93>	0
<0x94>	0
<0x95>	0
<0x96>	0
<0x97>	0
<0x98>	0
<0x99>	0
<0x9A>	0
<0x9B>	0
<0x9C>	0
<0x9D>	0
<0x9E>	0
<0x9F>	0
<0xA0>	0
<0xA1>	0
<0xA2>	0
<0xA3>	0
<0xA4>	0
<0xA5>	0
<0xA6>	0
<0xA7>	0
<0xA8>	0
<0xA9>	0
<0xAA>	0
<0xAB>	0
<0xAC>	0
<0xAD>	0
<0xAE>	0
<0xAF>	0
<0xB0>	0
<0xB1>	0
<0xB2>	0
<0xB3>	0
<0xB4>	0
<0xB5>	0
<0xB6>	0
<0xB7>	0
<0xB8>	0
<0xB9>	0
<0xBA>	0
<0xBB>	0
<0xBC>	0
<0xBD>	0
<0xBE>	0
<0xBF>	0
<0xC0>	0
<0xC1>	0
<0xC2>	0
<0xC3>	0
<0xC4>	0
<0xC5>	0
<0xC6>	0
<0xC7>	0
<0xC8>	0
<0xC9>	0
<0xCA>	0
<0xCB>	0
<0xCC>	0
<0xCD>	0
<0xCE>	0
<0xCF>	0
<0xD0>	0
<0xD1>	0
<0xD2>	0
<0xD3>	0
<0xD4>	0
<0xD5>	0
<0xD6>	0
<0xD7>	0
<0xD8>	0
<0xD9>	0
<0xDA>	0
<0xDB>	0
<0xDC>	0
<0xDD>	0
<0xDE>	0
<0xDF>	0
<0xE0>	0
<0xE1>	0
<0xE2>	0
<0xE3>	0
<0xE4>	0
<0xE5>	0
<0xE6>	0
<0xE7>	0
<0xE8>	0
<0xE9>	0
<0xEA>	0
<0xEB>	0
<0xEC>	0
<0xED>	0
<0xEE>	0
<0xEF>	0
<0xF0>	0
<0xF1>	0
<0xF2>	0
<0xF3>	0
<0xF4>	0
<0xF5>	0
<0xF6>	0
<0xF7>	0
<0xF8>	0
<0xF9>	0
<0xFA>	0
<0xFB>	0
<0xFC>	0
<0xFD>	0
<0xFE>	0
<0xFF>	0
de	-0
▁e	-1
▁de	-2
os	-3
▁l	-4
▁p	-5
en	-6
▁c	-7
ra	-8
es	-9
▁a	-10
▁s	-11
er	-12
ci	-13
on	-14
as	-15
ar	-16
or	-17
an	-18
ue	-19
▁m	-20
▁en	-21
in	-22
un	-23
▁la	-24
re	-25
te	-26
ad	-27
ti	-28
al	-29
▁es	-30
▁y	-31
▁el	-32
que	-33
ón	-34
di	-35
▁t	-36
▁un	-37
ro	-38
▁que	-39
ta	-40
om	-41
do	-42
▁h	-43
▁se	-44
▁n	-45
▁con	-46
ic	-47
ent	-48
▁los	-49
ción	-50
▁f	-51
▁E	-52
is	-53
ara	-54
▁in	-55
▁o	-56
▁v	-57
am	-58
▁com	-59
▁re	-60
ol	-61
id	-62
▁L	-63
to	-64
ente	-65
ec	-66
▁una	-67
us	-68
ri	-69
▁para	-70
le	-71
bi	-72
▁g	-73
res	-74
▁al	-75
▁pro	-76
▁di	-77
ul	-78
▁S	-79
cion	-80
▁C	-81
▁est	-82
im	-83
ía	-84
▁A	-85
ado	-86
▁las	-87
▁del	-88
▁su	-89
ación	-90
▁b	-91
▁d	-92
▁P	-93
▁ha	-94
ran	-95
ás	-96
uc	-97
tu	-98
li	-99
la	-100
tra	-101
lo	-102
qu	-103
▁por	-104
da	-105
▁per	-106
ient	-107
ter	-108
tos	-109
▁1	-110
▁M	-111
▁des	-112
▁si	-113
▁no	-114
tr	-115
era	-116
em	-117
▁cu	-118
▁(	-119
tiv	-120
mente	-121
tic	-122
▁pue	-123
gu	-124
ab	-125
▁Es	-126
cia	-127
ales	-128
▁D	-129
ma	-130
▁ex	-131
den	-132
ciones	-133
ando	-134
vi	-135
ica	-136
tes	-137
▁más	-138
go	-139
ari	-140
▁como	-141
el	-142
ados	-143
▁ti	-144
tor	-145
▁La	-146
bre	-147
▁T	-148
aj	-149
cu	-150
idad	-151
ten	-152
po	-153
▁El	-154
des	-155
▁tra	-156
án	-157
▁lo	-158
ada	-159
▁me	-160
il	-161
mo	-162
▁N	-163
▁so	-164
▁"	-165
▁2	-166
ce	-167
▁comp	-168
▁an	-169
▁U	-170
ión	-171
ir	-172
▁H	-173
▁R	-174
tas	-175
les	-176
um	-177
ras	-178
▁ser	-179
dad	-180
ia	-181
dos	-182
ues	-183
▁B	-184
▁ma	-185
▁I	-186
ores	-187
se	-188
tro	-189
iento	-190
ida	-191
▁te	-192
▁res	-193
ac	-194
por	-195
▁po	-196
▁En	-197
ambi	-198
▁-	-199
za	-200
ier	-201
▁esp	-202
▁to	-203
uer	-204
orm	-205
▁im	-206
iv	-207
és	-208
it	-209
▁par	-210
ble	-211
én	-212
▁ca	-213
fer	-214
▁Los	-215
▁ac	-216
▁Un	-217
tura	-218
▁man	-219
ños	-220
entes	-221
olo	-222
00	-223
▁G	-224
▁sobre	-225
fic	-226
ici	-227
ch	-228
lan	-229
ca	-230
mp	-231
▁pr	-232
▁F	-233
tar	-234
▁sus	-235
uch	-236
▁j	-237
ones	-238
gun	-239
cl	-240
tan	-241
▁pre	-242
▁ap	-243
▁son	-244
ien	-245
▁cons	-246
duc	-247
son	-248
▁esta	-249
▁u	-250
▁pa	-251
iz	-252
co	-253
ren	-254
las	-255
jo	-256
▁puede	-257
▁dis	-258
▁inf	-259
uy	-260
▁tu	-261
ud	-262
tre	-263
mos	-264
pi	-265
▁ob	-266
▁ar	-267
udi	-268
▁exp	-269
tros	-270
▁esc	-271
ig	-272
ces	-273
ún	-274
con	-275
▁qu	-276
los	-277
lic	-278
ambién	-279
tili	-280
ño	-281
der	-282
eces	-283
eg	-284
▁cre	-285
min	-286
pa	-287
amente	-288
almente	-289
ero	-290
adas	-291
▁J	-292
cul	-293
ín	-294
▁as	-295
ib	-296
gar	-297
cer	-298
ers	-299
encia	-300
▁fue	-301
esti	-302
▁person	-303
fici	-304
▁O	-305
mas	-306
ru	-307
▁utili	-308
▁tien	-309
me	-310
▁cor	-311
▁pueden	-312
baj	-313
▁estudi	-314
io	-315
gra	-316
uev	-317
▁inv	-318
tal	-319
mb	-320
ina	-321
▁mo	-322
miento	-323
▁much	-324
enta	-325
ens	-326
endo	-327
▁In	-328
▁ni	-329
ing	-330
▁medi	-331
ros	-332
▁le	-333
ico	-334
▁Las	-335
ento	-336
ora	-337
ís	-338
▁¿	-339
antes	-340
▁también	-341
▁or	-342
▁sal	-343
▁incl	-344
▁entre	-345
ba	-346
▁V	-347
argo	-348
▁us	-349
rim	-350
▁19	-351
osi	-352
gía	-353
▁sig	-354
▁este	-355
▁du	-356
▁sin	-357
▁cas	-358
▁pero	-359
das	-360
oci	-361
▁W	-362
▁ten	-363
ga	-364
▁men	-365
emp	-366
).	-367
ide	-368
ie	-369
▁inter	-370
▁utiliz	-371
eci	-372
tica	-373
fec	-374
▁na	-375
▁trabaj	-376
man	-377
tri	-378
▁may	-379
ur	-380
▁ra	-381
gen	-382
ido	-383
du	-384
rar	-385
▁deb	-386
eb	-387
na	-388
▁ver	-389
▁pres	-390
▁gen	-391
▁fuer	-392
ve	-393
▁cal	-394
rol	-395
▁car	-396
▁cuando	-397
no	-398
idos	-399
idades	-400
▁años	-401
▁gran	-402
▁3	-403
▁mis	-404
ías	-405
▁pe	-406
ómo	-407
▁ve	-408
tivo	-409
▁neces	-410
rante	-411
rá	-412
tados	-413
▁hab	-414
gua	-415
▁nues	-416
iste	-417
je	-418
mi	-419
▁imp	-420
teri	-421
arrol	-422
▁20	-423
▁inform	-424
▁col	-425
▁bi	-426
▁reg	-427
cias	-428
fica	-429
▁ej	-430
entos	-431
icos	-432
▁lu	-433
ían	-434
▁ab	-435
ea	-436
▁hay	-437
▁pas	-438
▁emb	-439
ay	-440
▁plan	-441
▁están	-442
▁K	-443
ech	-444
ver	-445
▁á	-446
▁ro	-447
aron	-448
lam	-449
cip	-450
▁prim	-451
▁desarrol	-452
▁vari	-453
pu	-454
per	-455
adores	-456
ante	-457
▁ay	-458
▁solo	-459
▁da	-460
rec	-461
▁Con	-462
cio	-463
iones	-464
▁dos	-465
▁han	-466
ven	-467
bil	-468
ér	-469
▁lle	-470
▁nuev	-471
cional	-472
ub	-473
tras	-474
ili	-475
ni	-476
th	-477
▁durante	-478
tin	-479
ario	-480
▁está	-481
▁cer	-482
empo	-483
tado	-484
▁am	-485
▁todos	-486
▁impor	-487
▁personas	-488
▁algun	-489
gan	-490
▁cos	-491
iden	-492
▁segu	-493
▁investi	-494
▁manera	-495
tico	-496
▁difer	-497
▁mayor	-498
▁tiempo	-499
▁mar	-500
▁embargo	-501
pe	-502
pon	-503
▁hacer	-504
tiva	-505
▁tan	-506
▁ins	-507
lar	-508
▁Se	-509
▁prin	-510
ana	-511
▁Si	-512
▁Por	-513
▁cómo	-514
▁agua	-515
porcion	-516
▁fin	-517
tener	-518
▁ho	-519
ular	-520
▁for	-521
▁his	-522
tivos	-523
▁especi	-524
▁comple	-525
aje	-526
▁vis	-527
▁do	-528
▁comun	-529
▁siste	-530
ticas	-531
▁vi	-532
▁importan	-533
▁gra	-534
▁estado	-535
pués	-536
▁Re	-537
▁co	-538
▁has	-539
▁produc	-540
dor	-541
dr	-542
pos	-543
ador	-544
▁Al	-545
quier	-546
cen	-547
▁au	-548
aliz	-549
▁fun	-550
eron	-551
▁mi	-552
▁proporcion	-553
ton	-554
▁can	-555
ios	-556
rans	-557
▁sol	-558
▁niños	-559
▁cam	-560
▁cambi	-561
icas	-562
▁Sin	-563
▁*	-564
▁investig	-565
▁cada	-566
et	-567
▁genera	-568
▁4	-569
trar	-570
▁lugar	-571
▁Com	-572
▁otros	-573
car	-574
▁emp	-575
anos	-576
eros	-577
▁ag	-578
zar	-579
▁ci	-580
▁incluy	-581
toria	-582
tir	-583
tamente	-584
▁5	-585
▁encon	-586
ícul	-587
▁pol	-588
dades	-589
),	-590
▁lib	-591
duci	-592
vis	-593
ral	-594
▁201	-595
▁mun	-596
▁trav	-597
bier	-598
▁hasta	-599
▁her	-600
tores	-601
▁través	-602
▁bas	-603
va	-604
▁De	-605
cos	-606
▁op	-607
amos	-608
▁todo	-609
ion	-610
▁signi	-611
cial	-612
▁llam	-613
able	-614
he	-615
emos	-616
ano	-617
▁trans	-618
dem	-619
ene	-620
▁hum	-621
▁Y	-622
▁posi	-623
amiento	-624
cil	-625
▁cual	-626
▁vida	-627
▁Esto	-628
▁tiene	-629
tó	-630
cri	-631
lica	-632
ología	-633
gos	-634
▁prof	-635
Qu	-636
▁información	-637
▁ri	-638
▁No	-639
▁mé	-640
▁proble	-641
uel	-642
▁ev	-643
▁Este	-644
▁ayud	-645
▁apren	-646
▁efec	-647
ivers	-648
▁mu	-649
▁mil	-650
ja	-651
▁cl	-652
▁sim	-653
▁“	-654
omb	-655
lig	-656
qui	-657
▁día	-658
ífic	-659
▁cr	-660
▁escri	-661
▁enfer	-662
▁estudiantes	-663
cur	-664
▁parte	-665
lu	-666
▁princip	-667
▁mej	-668
cn	-669
arios	-670
▁rep	-671
▁baj	-672
▁super	-673
▁ad	-674
cep	-675
▁ejemp	-676
▁don	-677
ío	-678
▁caus	-679
ino	-680
▁tom	-681
▁exper	-682
▁reci	-683
ientos	-684
▁sea	-685
▁–	-686
▁ú	-687
entar	-688
zo	-689
▁r	-690
▁200	-691
▁Para	-692
▁Cu	-693
▁esto	-694
▁rela	-695
▁dijo	-696
jos	-697
▁salud	-698
▁Ch	-699
tación	-700
▁ter	-701
ticos	-702
▁encu	-703
ivel	-704
▁fu	-705
nos	-706
▁mundo	-707
▁desde	-708
▁menos	-709
ración	-710
▁forma	-711
ientras	-712
com	-713
cios	-714
▁estos	-715
▁proces	-716
óg	-717
demás	-718
▁aum	-719
él	-720
pues	-721
▁contra	-722
can	-723
▁después	-724
▁trabajo	-725
▁obje	-726
ord	-727
▁den	-728
bilidad	-729
▁resul	-730
▁sistema	-731
▁donde	-732
▁nivel	-733
▁18	-734
▁mucho	-735
uda	-736
▁qué	-737
ena	-738
▁of	-739
ña	-740
▁tienen	-741
idas	-742
bido	-743
ita	-744
gún	-745
cas	-746
tom	-747
ard	-748
▁muy	-749
▁val	-750
▁enferme	-751
xim	-752
▁conf	-753
van	-754
▁prote	-755
▁uno	-756
▁.	-757
▁deci	-758
ge	-759
▁Des	-760
edad	-761
ric	-762
quí	-763
▁form	-764
▁era	-765
▁Na	-766
uso	-767
".	-768
▁6	-769
▁vez	-770
▁ejemplo	-771
jas	-772
dia	-773
▁uso	-774
▁podr	-775
▁ener	-776
aria	-777
▁historia	-778
▁pal	-779
tis	-780
▁conoci	-781
▁antes	-782
▁datos	-783
▁significa	-784
▁encuent	-785
▁sab	-786
▁progra	-787
cidad	-788
▁pi	-789
cción	-790
▁peque	-791
eo	-792
▁estar	-793
ap	-794
tamiento	-795
▁i	-796
▁bien	-797
▁permi	-798
▁indi	-799
amili	-800
▁Estados	-801
unque	-802
tera	-803
▁Esta	-804
▁tanto	-805
▁importante	-806
▁constr	-807
▁temp	-808
til	-809
ed	-810
ús	-811
▁cul	-812
▁Unidos	-813
señ	-814
jer	-815
▁general	-816
ber	-817
▁An	-818
▁w	-819
▁fueron	-820
ha	-821
titu	-822
ares	-823
▁espec	-824
▁cent	-825
▁ref	-826
▁anti	-827
▁país	-828
▁go	-829
oso	-830
hora	-831
▁investigación	-832
▁mues	-833
▁enf	-834
▁diferentes	-835
erv	-836
Qué	-837
▁pun	-838
▁famili	-839
lti	-840
▁pes	-841
▁cualquier	-842
▁capa	-843
▁ayudar	-844
▁cab	-845
uego	-846
ista	-847
▁contro	-848
▁lín	-849
▁conside	-850
▁cap	-851
▁natura	-852
ución	-853
so	-854
▁mon	-855
vo	-856
ombre	-857
▁Además	-858
▁energía	-859
ológ	-860
▁cuer	-861
▁apro	-862
tícul	-863
ts	-864
▁mientras	-865
",	-866
▁ya	-867
▁Cuando	-868
▁sigu	-869
▁les	-870
ban	-871
▁mejor	-872
▁otras	-873
▁áre	-874
lación	-875
▁hi	-876
▁muchos	-877
▁Pro	-878
▁ciu	-879
▁pla	-880
ducir	-881
lor	-882
ección	-883
▁clas	-884
▁espa	-885
tivas	-886
▁propi	-887
▁pregun	-888
▁bu	-889
▁direc	-890
ag	-891
▁sido	-892
▁neg	-893
▁Una	-894
▁año	-895
▁actu	-896
rede	-897
▁algunos	-898
pen	-899
▁gru	-900
▁tar	-901
▁7	-902
und	-903
▁mujer	-904
▁ne	-905
úm	-906
▁evi	-907
para	-908
▁nuestra	-909
▁mismo	-910
▁real	-911
▁activ	-912
▁alim	-913
▁tres	-914
rededor	-915
av	-916
▁anim	-917
úb	-918
▁sen	-919
rech	-920
dio	-921
▁min	-922
▁prue	-923
gi	-924
ist	-925
▁llev	-926
▁rá	-927
▁largo	-928
▁prob	-929
sión	-930
000	-931
▁así	-932
yec	-933
▁pub	-934
trib	-935
udo	-936
cionales	-937
..	-938
▁10	-939
▁def	-940
▁mayoría	-941
par	-942
zas	-943
ciales	-944
▁educ	-945
rado	-946
poy	-947
▁Su	-948
▁tener	-949
▁Univers	-950
▁Mar	-951
pera	-952
▁palab	-953
▁estudio	-954
▁fal	-955
aran	-956
▁sue	-957
▁mejo	-958
ple	-959
tific	-960
▁últi	-961
▁8	-962
▁As	-963
▁lim	-964
▁debe	-965
▁ries	-966
uro	-967
ác	-968
inas	-969
ama	-970
mento	-971
sos	-972
▁debido	-973
▁estr	-974
▁alrededor	-975
▁También	-976
▁desarrollo	-977
imiento	-978
▁polí	-979
bles	-980
▁apoy	-981
▁tier	-982
▁veces	-983
▁comen	-984
▁esti	-985
bo	-986
▁Me	-987
▁problemas	-988
▁li	-989
▁encontrar	-990
▁estas	-991
▁vol	-992
sa	-993
▁af	-994
▁jun	-995
▁escue	-996
ál	-997
▁(1	-998
ismo	-999
vers	-1000
vir	-1001
▁puedes	-1002
▁aprendi	-1003
▁profes	-1004
▁sub	-1005
▁ide	-1006
▁Ha	-1007
hi	-1008
▁9	-1009
tidad	-1010
▁había	-1011
ne	-1012
ior	-1013
ós	-1014
▁podría	-1015
▁línea	-1016
emb	-1017
ula	-1018
▁hace	-1019
▁dif	-1020
mis	-1021
▁sí	-1022
▁ing	-1023
▁|	-1024
▁fá	-1025
tido	-1026
-1	-1027
uir	-1028
▁núm	-1029
▁porque	-1030
▁X	-1031
▁Hay	-1032
ito	-1033
▁muer	-1034
bas	-1035
▁Ar	-1036
▁cuerpo	-1037
encias	-1038
gas	-1039
▁materi	-1040
bri	-1041
turas	-1042
▁ciudad	-1043
ine	-1044
▁deben	-1045
▁incluso	-1046
▁equi	-1047
▁hacia	-1048
▁tus	-1049
▁Le	-1050
▁obtener	-1051
▁dentro	-1052
▁empres	-1053
▁proceso	-1054
▁san	-1055
▁pob	-1056
orte	-1057
▁organ	-1058
▁ley	-1059
▁comer	-1060
iencia	-1061
dera	-1062
ona	-1063
mpli	-1064
▁cient	-1065
▁derech	-1066
mer	-1067
▁ru	-1068
at	-1069
uerra	-1070
be	-1071
."	-1072
▁condi	-1073
▁primera	-1074
▁enfermedad	-1075
ron	-1076
bol	-1077
ual	-1078
20	-1079
pec	-1080
▁menudo	-1081
▁proyec	-1082
ulas	-1083
ental	-1084
ril	-1085
vid	-1086
pia	-1087
▁elec	-1088
▁pap	-1089
▁gu	-1090
▁ju	-1091
ientes	-1092
▁mujeres	-1093
▁ven	-1094
ger	-1095
▁pos	-1096
▁mal	-1097
▁muchas	-1098
oc	-1099
ombres	-1100
ece	-1101
▁púb	-1102
len	-1103
▁hech	-1104
▁lí	-1105
▁cara	-1106
iente	-1107
▁conta	-1108
▁realiz	-1109
dencia	-1110
ex	-1111
▁sec	-1112
▁creci	-1113
ias	-1114
ific	-1115
ridad	-1116
▁tipo	-1117
▁artícul	-1118
▁gobier	-1119
▁repres	-1120
ques	-1121
▁Universidad	-1122
lones	-1123
entación	-1124
óm	-1125
ible	-1126
▁public	-1127
▁relacion	-1128
▁ahora	-1129
▁To	-1130
▁ráp	-1131
▁rec	-1132
ág	-1133
bir	-1134
▁ind	-1135
ram	-1136
tion	-1137
ibles	-1138
termin	-1139
▁tecn	-1140
resión	-1141
▁incluyendo	-1142
▁k	-1143
▁ellos	-1144
▁persona	-1145
▁contin	-1146
▁nuevo	-1147
▁ba	-1148
▁dice	-1149
itos	-1150
▁respon	-1151
.,	-1152
▁casa	-1153
graf	-1154
ñas	-1155
▁paci	-1156
▁siti	-1157
▁mes	-1158
▁aquí	-1159
Es	-1160
arse	-1161
▁control	-1162
ería	-1163
tró	-1164
▁médi	-1165
eta	-1166
▁pens	-1167
▁mantener	-1168
▁niño	-1169
ital	-1170
▁obs	-1171
aba	-1172
▁afec	-1173
▁inte	-1174
oo	-1175
▁común	-1176
▁econ	-1177
ficiente	-1178
▁papel	-1179
▁mos	-1180
and	-1181
▁tierra	-1182
bilidades	-1183
▁fi	-1184
▁ambi	-1185
0.	-1186
▁méto	-1187
rando	-1188
▁mom	-1189
reg	-1190
zón	-1191
isis	-1192
▁edi	-1193
▁varias	-1194
posi	-1195
ducción	-1196
▁pad	-1197
lec	-1198
▁prác	-1199
alu	-1200
iza	-1201
▁servi	-1202
ire	-1203
▁ún	-1204
▁utiliza	-1205
▁Par	-1206
▁gas	-1207
osa	-1208
entan	-1209
▁é	-1210
▁quien	-1211
▁parti	-1212
▁tri	-1213
▁'	-1214
for	-1215
▁otro	-1216
▁Ma	-1217
▁iden	-1218
ura	-1219
▁gan	-1220
istas	-1221
▁posible	-1222
▁Nuev	-1223
tencia	-1224
▁riesgo	-1225
▁pie	-1226
▁1.	-1227
ará	-1228
▁millones	-1229
tán	-1230
▁cél	-1231
▁sino	-1232
▁muestra	-1233
mientos	-1234
éc	-1235
dida	-1236
▁cir	-1237
0,	-1238
terior	-1239
▁respues	-1240
▁encuentra	-1241
▁loc	-1242
▁bajo	-1243
▁probable	-1244
zaje	-1245
íficos	-1246
▁bus	-1247
▁pri	-1248
▁otra	-1249
▁cantidad	-1250
▁té	-1251
▁Aunque	-1252
▁poder	-1253
▁adi	-1254
ím	-1255
▁comb	-1256
▁bene	-1257
▁primer	-1258
▁determin	-1259
▁int	-1260
▁Ro	-1261
▁toda	-1262
▁tratamiento	-1263
ves	-1264
▁fac	-1265
atro	-1266
▁descri	-1267
má	-1268
▁garan	-1269
▁varios	-1270
▁orig	-1271
asa	-1272
▁sín	-1273
▁correc	-1274
▁recon	-1275
▁tér	-1276
▁gobierno	-1277
▁algo	-1278
▁grande	-1279
▁alta	-1280
▁z	-1281
▁nuestros	-1282
▁Como	-1283
ivo	-1284
▁eran	-1285
ala	-1286
▁Pue	-1287
inar	-1288
▁cambio	-1289
▁ayuda	-1290
ris	-1291
▁conten	-1292
▁algunas	-1293
ono	-1294
estión	-1295
▁bar	-1296
aciones	-1297
▁199	-1298
▁fís	-1299
▁recur	-1300
▁cier	-1301
▁fe	-1302
▁ren	-1303
▁cin	-1304
▁Dios	-1305
▁fuera	-1306
▁según	-1307
truc	-1308
ustri	-1309
▁acu	-1310
eran	-1311
▁Jo	-1312
ke	-1313
▁revis	-1314
▁benefici	-1315
embre	-1316
torio	-1317
▁momento	-1318
▁compren	-1319
▁mode	-1320
▁difí	-1321
▁fácil	-1322
▁bo	-1323
aban	-1324
ables	-1325
▁15	-1326
▁extra	-1327
▁carac	-1328
trón	-1329
▁clase	-1330
ización	-1331
ulo	-1332
▁experim	-1333
▁beb	-1334
▁estaba	-1335
▁cur	-1336
nas	-1337
ho	-1338
▁casi	-1339
▁días	-1340
jar	-1341
▁lec	-1342
tt	-1343
áncer	-1344
tien	-1345
▁programa	-1346
▁utilizar	-1347
▁seguridad	-1348
tención	-1349
▁áreas	-1350
all	-1351
che	-1352
▁hoy	-1353
undi	-1354
▁número	-1355
tun	-1356
▁poco	-1357
ps	-1358
▁desarroll	-1359
▁aplic	-1360
▁descu	-1361
▁pág	-1362
ecu	-1363
▁cereb	-1364
usión	-1365
▁siglo	-1366
▁ampli	-1367
▁medio	-1368
rada	-1369
oma	-1370
empre	-1371
▁mov	-1372
eas	-1373
▁algún	-1374
ám	-1375
anza	-1376
▁vuel	-1377
▁objetivo	-1378
▁dispon	-1379
▁garanti	-1380
form	-1381
▁San	-1382
▁plantas	-1383
▁cosas	-1384
af	-1385
▁aprendizaje	-1386
tió	-1387
▁ella	-1388
▁docu	-1389
▁células	-1390
▁caracter	-1391
▁estruc	-1392
▁má	-1393
▁palabras	-1394
▁evalu	-1395
▁animales	-1396
▁términ	-1397
▁all	-1398
▁seman	-1399
▁educación	-1400
▁nombre	-1401
▁esf	-1402
▁continu	-1403
iendo	-1404
▁miemb	-1405
entemente	-1406
▁oc	-1407
ef	-1408
tran	-1409
▁grupo	-1410
▁ir	-1411
▁pul	-1412
▁Algun	-1413
are	-1414
▁enseñ	-1415
▁grandes	-1416
▁fo	-1417
▁técn	-1418
cado	-1419
▁equipo	-1420
rig	-1421
▁blan	-1422
▁recom	-1423
▁clim	-1424
bió	-1425
▁Z	-1426
tad	-1427
▁comida	-1428
▁is	-1429
▁interes	-1430
▁él	-1431
▁públic	-1432
tonces	-1433
▁aire	-1434
▁ch	-1435
inos	-1436
minis	-1437
▁principal	-1438
▁simil	-1439
oluc	-1440
▁problema	-1441
▁nueva	-1442
adamente	-1443
▁autor	-1444
▁opera	-1445
iere	-1446
▁fuerza	-1447
trado	-1448
▁usar	-1449
▁12	-1450
cho	-1451
▁comenz	-1452
vil	-1453
íos	-1454
▁cáncer	-1455
▁pan	-1456
▁ofici	-1457
▁niveles	-1458
▁libro	-1459
eza	-1460
▁vac	-1461
▁tecnología	-1462
una	-1463
▁utilizan	-1464
▁Ex	-1465
▁hombres	-1466
▁ban	-1467
▁mejorar	-1468
tá	-1469
▁cuid	-1470
▁ár	-1471
▁cuatro	-1472
▁artículo	-1473
▁hu	-1474
▁cla	-1475
▁luego	-1476
▁et	-1477
▁crear	-1478
▁17	-1479
ocu	-1480
▁suficiente	-1481
tando	-1482
▁fr	-1483
▁misma	-1484
▁Ho	-1485
▁the	-1486
▁involuc	-1487
▁siempre	-1488
▁segun	-1489
▁necesita	-1490
ut	-1491
▁individ	-1492
▁familia	-1493
▁Pa	-1494
ingún	-1495
▁2.	-1496
▁norm	-1497
▁resultados	-1498
▁superfici	-1499
ell	-1500
▁industri	-1501
cipi	-1502
▁escuela	-1503
lob	-1504
ór	-1505
▁mer	-1506
▁sa	-1507
xto	-1508
▁guerra	-1509
▁especialmente	-1510
ph	-1511
ódi	-1512
uniden	-1513
▁Co	-1514
licaciones	-1515
tiene	-1516
terna	-1517
▁alma	-1518
▁caso	-1519
▁flu	-1520
▁regis	-1521
ment	-1522
▁proporcionar	-1523
▁mol	-1524
bajo	-1525
▁tab	-1526
▁pruebas	-1527
esta	-1528
reso	-1529
▁herram	-1530
tec	-1531
▁maes	-1532
▁Nueva	-1533
unca	-1534
▁Am	-1535
▁recursos	-1536
▁necesit	-1537
arias	-1538
ró	-1539
▁productos	-1540
▁base	-1541
▁disposi	-1542
▁fav	-1543
▁Pero	-1544
▁síntom	-1545
▁web	-1546
álisis	-1547
▁estudios	-1548
anci	-1549
ígen	-1550
▁nuestro	-1551
▁dom	-1552
zos	-1553
tante	-1554
▁habilidades	-1555
▁funcion	-1556
▁espera	-1557
▁ata	-1558
▁países	-1559
▁detal	-1560
▁mayores	-1561
▁len	-1562
cre	-1563
▁sur	-1564
▁árbol	-1565
▁compor	-1566
▁Lo	-1567
ajes	-1568
▁ale	-1569
▁tempera	-1570
▁suf	-1571
vía	-1572
▁estadouniden	-1573
▁viv	-1574
▁condiciones	-1575
▁Después	-1576
▁reducir	-1577
▁cultura	-1578
▁dolor	-1579
▁sistemas	-1580
▁cuenta	-1581
▁fuerte	-1582
ticular	-1583
vier	-1584
gre	-1585
▁investigadores	-1586
▁particip	-1587
ciden	-1588
▁identific	-1589
▁hecho	-1590
▁Cent	-1591
ug	-1592
irm	-1593
▁colo	-1594
▁usu	-1595
▁Cons	-1596
▁humanos	-1597
▁luz	-1598
▁tipos	-1599
▁sitio	-1600
▁asoci	-1601
tivamente	-1602
usti	-1603
mentos	-1604
▁calidad	-1605
▁tradi	-1606
▁pacientes	-1607
quel	-1608
▁dise	-1609
▁mús	-1610
▁desarrollar	-1611
pre	-1612
demos	-1613
▁esfuer	-1614
▁exam	-1615
▁final	-1616
ferencia	-1617
ífico	-1618
▁comunes	-1619
ww	-1620
▁buen	-1621
▁población	-1622
1.	-1623
▁proporciona	-1624
▁ado	-1625
tales	-1626
▁Ne	-1627
▁capacidad	-1628
▁punto	-1629
▁compar	-1630
idamente	-1631
hn	-1632
▁utilizando	-1633
inación	-1634
▁inten	-1635
▁estable	-1636
ísticas	-1637
▁efectos	-1638
tren	-1639
▁tomar	-1640
ustra	-1641
▁incluyen	-1642
▁financi	-1643
▁Sal	-1644
▁tienes	-1645
▁mus	-1646
dió	-1647
ork	-1648
ceso	-1649
▁ens	-1650
col	-1651
ráfic	-1652
▁az	-1653
▁—	-1654
▁impac	-1655
recu	-1656
tud	-1657
▁sens	-1658
ez	-1659
▁valor	-1660
▁16	-1661
▁cerca	-1662
▁tor	-1663
,000	-1664
rica	-1665
torno	-1666
▁Haz	-1667
▁fil	-1668
▁situ	-1669
▁muerte	-1670
▁Estos	-1671
▁síntomas	-1672
ck	-1673
▁Mo	-1674
▁tempran	-1675
cto	-1676
▁ocur	-1677
portun	-1678
▁difícil	-1679
Cómo	-1680
▁vir	-1681
▁probablemente	-1682
▁favor	-1683
▁proyecto	-1684
▁decir	-1685
▁particular	-1686
icación	-1687
▁efecto	-1688
▁univers	-1689
▁natural	-1690
▁entonces	-1691
▁considera	-1692
▁din	-1693
▁diseñ	-1694
▁Car	-1695
leza	-1696
▁señ	-1697
▁amb	-1698
utri	-1699
▁clave	-1700
▁haber	-1701
2.	-1702
▁recu	-1703
▁rápidamente	-1704
cido	-1705
▁principi	-1706
trás	-1707
▁campo	-1708
ill	-1709
▁Is	-1710
▁blo	-1711
▁quier	-1712
▁aproxim	-1713
▁alcan	-1714
▁inici	-1715
▁conver	-1716
ite	-1717
▁vo	-1718
echa	-1719
▁respuesta	-1720
▁espacio	-1721
▁crecimiento	-1722
▁[	-1723
▁Seg	-1724
▁Col	-1725
▁Cal	-1726
▁cambios	-1727
▁preocu	-1728
▁ofre	-1729
cha	-1730
▁quím	-1731
iva	-1732
▁Po	-1733
▁origin	-1734
▁área	-1735
▁ningún	-1736
▁económ	-1737
▁explo	-1738
▁Cor	-1739
ierra	-1740
dido	-1741
cel	-1742
▁oportun	-1743
▁edad	-1744
▁piel	-1745
▁principalmente	-1746
▁confi	-1747
▁lar	-1748
▁os	-1749
▁red	-1750
laz	-1751
El	-1752
▁tal	-1753
▁pér	-1754
▁almacen	-1755
dar	-1756
▁aunque	-1757
▁científicos	-1758
AS	-1759
jun	-1760
▁Según	-1761
▁materiales	-1762
▁pers	-1763
ética	-1764
▁defin	-1765
▁exten	-1766
▁elem	-1767
▁casos	-1768
▁color	-1769
▁perío	-1770
osición	-1771
▁comunidad	-1772
rales	-1773
▁atención	-1774
▁evitar	-1775
▁padres	-1776
▁enfo	-1777
▁igu	-1778
día	-1779
▁sos	-1780
▁fuente	-1781
uales	-1782
▁construc	-1783
entales	-1784
▁eso	-1785
▁ese	-1786
▁tras	-1787
▁nunca	-1788
pas	-1789
istencia	-1790
dic	-1791
▁compara	-1792
▁enfermedades	-1793
erdo	-1794
▁carb	-1795
▁$	-1796
▁completamente	-1797
nes	-1798
▁glob	-1799
ático	-1800
▁producción	-1801
tada	-1802
▁mediante	-1803
este	-1804
agen	-1805
mon	-1806
▁frecu	-1807
▁leg	-1808
▁aprender	-1809
ign	-1810
▁siendo	-1811
▁emo	-1812
pendi	-1813
▁mas	-1814
ft	-1815
▁futu	-1816
oría	-1817
rados	-1818
rio	-1819
▁cora	-1820
eras	-1821
▁simple	-1822
olución	-1823
ancia	-1824
▁garantizar	-1825
liz	-1826
osotros	-1827
▁permite	-1828
▁ejer	-1829
▁estructura	-1830
dan	-1831
▁prueba	-1832
▁pueb	-1833
▁grupos	-1834
▁inm	-1835
▁social	-1836
anas	-1837
ít	-1838
▁¡	-1839
▁requ	-1840
▁requier	-1841
▁generalmente	-1842
▁eleg	-1843
▁estra	-1844
▁agu	-1845
▁todavía	-1846
▁especies	-1847
▁entren	-1848
▁estás	-1849
▁avan	-1850
▁equ	-1851
▁cinco	-1852
▁importantes	-1853
grafía	-1854
▁adul	-1855
▁pelig	-1856
▁er	-1857
▁hacen	-1858
▁principales	-1859
▁termin	-1860
▁Fran	-1861
▁Tra	-1862
▁reun	-1863
3.	-1864
▁mic	-1865
▁demos	-1866
▁hombre	-1867
▁11	-1868
▁Tierra	-1869
▁actividades	-1870
▁il	-1871
ció	-1872
▁personal	-1873
▁baja	-1874
▁total	-1875
ich	-1876
▁Á	-1877
▁signific	-1878
gado	-1879
▁(2	-1880
▁imagen	-1881
▁he	-1882
▁tama	-1883
II	-1884
▁aquel	-1885
▁rev	-1886
▁suelo	-1887
lio	-1888
▁compu	-1889
▁análisis	-1890
▁Much	-1891
▁ace	-1892
▁fon	-1893
▁Can	-1894
▁causa	-1895
ición	-1896
lla	-1897
▁antigu	-1898
▁idea	-1899
▁prepara	-1900
▁soci	-1901
▁sigue	-1902
▁hier	-1903
▁Dr	-1904
▁intro	-1905
▁parece	-1906
▁preven	-1907
▁Nacional	-1908
▁dig	-1909
▁realidad	-1910
4.	-1911
▁habi	-1912
▁movimiento	-1913
▁Res	-1914
emor	-1915
▁derechos	-1916
La	-1917
▁contrib	-1918
cent	-1919
▁resultado	-1920
▁crí	-1921
▁página	-1922
▁realmente	-1923
ses	-1924
ulación	-1925
▁tema	-1926
▁nego	-1927
▁presión	-1928
▁preguntas	-1929
▁vers	-1930
▁política	-1931
▁siguiente	-1932
▁acción	-1933
▁miembros	-1934
▁decl	-1935
illa	-1936
▁Dis	-1937
pular	-1938
ry	-1939
▁abs	-1940
ciendo	-1941
▁poten	-1942
▁diseño	-1943
▁servicios	-1944
izo	-1945
ach	-1946
cular	-1947
▁Ins	-1948
▁tem	-1949
▁nosotros	-1950
▁superficie	-1951
▁carre	-1952
▁apoyo	-1953
▁electrón	-1954
▁John	-1955
▁Ap	-1956
cor	-1957
▁clic	-1958
umen	-1959
lia	-1960
▁nuevos	-1961
▁3.	-1962
▁fund	-1963
▁gri	-1964
masi	-1965
olu	-1966
5.	-1967
▁pró	-1968
▁fa	-1969
genes	-1970
▁Pre	-1971
cina	-1972
▁ensay	-1973
▁mad	-1974
▁nos	-1975
ka	-1976
▁nutri	-1977
▁partes	-1978
bu	-1979
érica	-1980
▁pon	-1981
▁superior	-1982
idente	-1983
▁demasi	-1984
▁actividad	-1985
▁seguir	-1986
abe	-1987
▁encuentran	-1988
▁llevar	-1989
dores	-1990
▁emple	-1991
▁convir	-1992
▁Euro	-1993
ya	-1994
▁ejerci	-1995
▁orden	-1996
▁buena	-1997
▁cri	-1998
▁atra	-1999
▁há	-2000
▁conocimiento	-2001
▁allí	-2002
▁profesion	-2003
▁estaban	-2004
▁conec	-2005
ífica	-2006
▁últimos	-2007
▁construcción	-2008
▁pérdida	-2009
▁=	-2010
ele	-2011
ervi	-2012
▁observ	-2013
ricul	-2014
ivos	-2015
ecen	-2016
▁tej	-2017
pti	-2018
▁romp	-2019
▁lista	-2020
▁relig	-2021
▁auto	-2022
▁foto	-2023
▁empresa	-2024
rac	-2025
▁The	-2026
▁centro	-2027
▁desaf	-2028
▁dar	-2029
ecer	-2030
,"	-2031
▁apar	-2032
▁relación	-2033
▁and	-2034
▁Aquí	-2035
▁función	-2036
land	-2037
éctr	-2038
▁actual	-2039
▁enfr	-2040
ware	-2041
▁30	-2042
▁explic	-2043
cla	-2044
teg	-2045
▁Du	-2046
2,	-2047
net	-2048
▁factores	-2049
▁daño	-2050
end	-2051
▁mez	-2052
▁elim	-2053
▁próxim	-2054
▁temas	-2055
▁nacional	-2056
dir	-2057
edades	-2058
▁manten	-2059
▁Man	-2060
ly	-2061
”,	-2062
▁cono	-2063
1,	-2064
▁saluda	-2065
pción	-2066
▁14	-2067
▁interna	-2068
lante	-2069
▁práctica	-2070
▁horas	-2071
▁cabeza	-2072
parta	-2073
▁Algunos	-2074
venes	-2075
ial	-2076
▁meses	-2077
▁Wil	-2078
ev	-2079
||	-2080
ieron	-2081
iencias	-2082
fa	-2083
▁amena	-2084
óvenes	-2085
▁Rec	-2086
▁moder	-2087
__	-2088
▁luch	-2089
▁Ob	-2090
▁Gran	-2091
▁&	-2092
▁naturaleza	-2093
ólo	-2094
dap	-2095
▁empresas	-2096
▁expres	-2097
▁pin	-2098
▁saber	-2099
▁necesitan	-2100
▁So	-2101
lés	-2102
▁on	-2103
▁Per	-2104
▁York	-2105
fi	-2106
▁todas	-2107
▁métodos	-2108
▁impacto	-2109
table	-2110
▁sangre	-2111
▁tarde	-2112
▁serie	-2113
▁será	-2114
▁Pres	-2115
▁esen	-2116
▁abier	-2117
▁198	-2118
▁formas	-2119
▁experiencia	-2120
tadas	-2121
▁ub	-2122
▁jóvenes	-2123
▁acceso	-2124
9.	-2125
▁descubri	-2126
▁Sh	-2127
▁sir	-2128
▁pl	-2129
▁método	-2130
▁podemos	-2131
▁Estas	-2132
▁hubi	-2133
▁Puedes	-2134
▁aumentar	-2135
rin	-2136
guien	-2137
mar	-2138
▁arte	-2139
▁pies	-2140
▁consum	-2141
rir	-2142
▁lugares	-2143
▁contamin	-2144
▁programas	-2145
▁mejores	-2146
culos	-2147
▁limpi	-2148
▁cru	-2149
▁escuch	-2150
▁palabra	-2151
▁cerebro	-2152
▁gestión	-2153
ensa	-2154
▁tamaño	-2155
//	-2156
6.	-2157
▁público	-2158
▁ade	-2159
▁futuro	-2160
▁alguna	-2161
▁extre	-2162
▁norte	-2163
ang	-2164
lesia	-2165
▁deber	-2166
▁variedad	-2167
▁mul	-2168
tantes	-2169
ritán	-2170
▁ellas	-2171
▁comien	-2172
...	-2173
▁Mon	-2174
▁reac	-2175
▁llama	-2176
▁corre	-2177
ielo	-2178
itas	-2179
▁primeros	-2180
▁informe	-2181
▁escuelas	-2182
8.	-2183
▁sex	-2184
izar	-2185
▁logra	-2186
▁13	-2187
▁esa	-2188
torias	-2189
▁sociales	-2190
lex	-2191
▁material	-2192
ordar	-2193
▁popular	-2194
▁siguientes	-2195
▁eléctr	-2196
▁período	-2197
▁(19	-2198
ES	-2199
▁estab	-2200
▁visión	-2201
▁beneficios	-2202
tón	-2203
▁25	-2204
▁aproximadamente	-2205
▁lab	-2206
▁Ac	-2207
▁divers	-2208
ER	-2209
tividad	-2210
▁compa	-2211
ins	-2212
▁adap	-2213
▁compon	-2214
ern	-2215
▁inde	-2216
▁tera	-2217
▁hojas	-2218
ID	-2219
rea	-2220
▁sem	-2221
▁profun	-2222
▁autom	-2223
▁anterior	-2224
abric	-2225
▁jud	-2226
▁diag	-2227
7.	-2228
porte	-2229
▁bac	-2230
▁envi	-2231
▁Norte	-2232
temá	-2233
▁similar	-2234
▁libros	-2235
▁bás	-2236
cam	-2237
▁alimentos	-2238
▁comportamiento	-2239
icamente	-2240
ió	-2241
uesto	-2242
▁mens	-2243
▁ciencia	-2244
▁peso	-2245
▁aquellos	-2246
▁nuevas	-2247
▁Th	-2248
▁completa	-2249
▁conjun	-2250
://	-2251
▁falta	-2252
▁entra	-2253
dific	-2254
▁Bo	-2255
▁separa	-2256
▁lado	-2257
▁conse	-2258
▁jard	-2259
▁sac	-2260
▁EE	-2261
▁llegar	-2262
ys	-2263
talla	-2264
▁corazón	-2265
erva	-2266
tancia	-2267
greso	-2268
vas	-2269
▁suce	-2270
▁alguien	-2271
▁fru	-2272
ificación	-2273
tual	-2274
▁bienes	-2275
▁costos	-2276
isti	-2277
▁viol	-2278
▁enla	-2279
▁Q	-2280
▁agre	-2281
▁hizo	-2282
▁planta	-2283
ff	-2284
▁CO	-2285
uye	-2286
▁fl	-2287
▁Centro	-2288
▁Pe	-2289
▁incluye	-2290
ht	-2291
▁pasado	-2292
▁seguro	-2293
ted	-2294
ientas	-2295
▁ps	-2296
▁seis	-2297
▁velo	-2298
▁diferente	-2299
▁India	-2300
▁pequeñas	-2301
genier	-2302
ley	-2303
▁tenía	-2304
▁jue	-2305
▁encontra	-2306
--	-2307
▁acep	-2308
▁convertir	-2309
▁Sur	-2310
eral	-2311
▁intera	-2312
▁mag	-2313
3,	-2314
▁fuentes	-2315
ash	-2316
▁región	-2317
▁gente	-2318
▁términos	-2319
dios	-2320
cis	-2321
▁ví	-2322
▁cel	-2323
▁hacerlo	-2324
▁hermos	-2325
▁instal	-2326
ong	-2327
▁<	-2328
uestos	-2329
ienta	-2330
▁Más	-2331
▁características	-2332
▁concent	-2333
▁infec	-2334
▁conte	-2335
entado	-2336
ítulo	-2337
▁causar	-2338
▁Or	-2339
▁edifici	-2340
dimiento	-2341
5,	-2342
▁fabric	-2343
▁concep	-2344
▁industria	-2345
▁arch	-2346
nia	-2347
utos	-2348
ágenes	-2349
▁aumento	-2350
▁nuestras	-2351
▁temperatura	-2352
▁trabajar	-2353
▁pequeña	-2354
▁tur	-2355
ológica	-2356
▁crea	-2357
culo	-2358
▁colon	-2359
▁100	-2360
▁texto	-2361
▁juego	-2362
itar	-2363
▁enten	-2364
ith	-2365
omía	-2366
ines	-2367
val	-2368
tienen	-2369
▁intelig	-2370
▁hábi	-2371
▁pel	-2372
▁enfoque	-2373
▁gus	-2374
▁proteín	-2375
abora	-2376
▁imágenes	-2377
▁zona	-2378
omas	-2379
▁Ca	-2380
▁ig	-2381
▁mano	-2382
▁semana	-2383
▁mit	-2384
▁agricul	-2385
▁mane	-2386
AR	-2387
▁dem	-2388
ministra	-2389
zado	-2390
▁dinero	-2391
▁0	-2392
isión	-2393
ibilidad	-2394
▁fer	-2395
pres	-2396
viles	-2397
▁grado	-2398
▁compro	-2399
ws	-2400
▁evidencia	-2401
▁Gu	-2402
olog	-2403
ki	-2404
▁salv	-2405
▁necesario	-2406
▁estados	-2407
visión	-2408
▁determinar	-2409
▁mor	-2410
▁puer	-2411
▁bril	-2412
▁calor	-2413
▁regular	-2414
▁modelo	-2415
▁ambiente	-2416
▁libre	-2417
▁Ba	-2418
eleb	-2419
entó	-2420
▁especial	-2421
4,	-2422
▁árboles	-2423
▁viaj	-2424
ks	-2425
▁hablar	-2426
partamento	-2427
▁He	-2428
▁mismos	-2429
ológico	-2430
▁lan	-2431
▁hogar	-2432
uls	-2433
unt	-2434
entas	-2435
▁ases	-2436
▁org	-2437
dero	-2438
ulos	-2439
pro	-2440
tiles	-2441
▁proteger	-2442
▁eventos	-2443
duce	-2444
▁trata	-2445
9,	-2446
▁ciento	-2447
):	-2448
▁histó	-2449
▁labora	-2450
▁sociedad	-2451
▁fuego	-2452
leo	-2453
▁global	-2454
▁50	-2455
media	-2456
▁Inter	-2457
▁sug	-2458
▁pare	-2459
▁interés	-2460
▁distrib	-2461
▁medida	-2462
▁compañ	-2463
▁dientes	-2464
▁puntos	-2465
▁lleg	-2466
▁debajo	-2467
entando	-2468
▁influ	-2469
▁Ing	-2470
▁peligros	-2471
▁UU	-2472
▁Har	-2473
▁memor	-2474
▁cuán	-2475
▁reti	-2476
ística	-2477
▁llamado	-2478
▁Ge	-2479
dose	-2480
llas	-2481
▁pron	-2482
▁cuidado	-2483
▁sería	-2484
▁noche	-2485
▁posición	-2486
▁humano	-2487
▁secund	-2488
▁His	-2489
▁demasiado	-2490
6,	-2491
▁194	-2492
▁inglés	-2493
▁pesar	-2494
fo	-2495
▁micro	-2496
▁prome	-2497
▁local	-2498
ase	-2499
▁Ahora	-2500
rió	-2501
▁Di	-2502
▁estamos	-2503
▁tempo	-2504
8,	-2505
▁celeb	-2506
▁carga	-2507
10	-2508
olver	-2509
zan	-2510
▁err	-2511
ticamente	-2512
▁medicam	-2513
▁ta	-2514
▁clara	-2515
-2	-2516
ém	-2517
▁Mi	-2518
▁disponibles	-2519
vieron	-2520
▁estrés	-2521
org	-2522
▁4.	-2523
Por	-2524
▁atrás	-2525
▁simplemente	-2526
▁comprensión	-2527
rano	-2528
▁197	-2529
▁computado	-2530
▁estilo	-2531
▁virus	-2532
▁madera	-2533
▁música	-2534
taron	-2535
▁comenzó	-2536
▁herramientas	-2537
▁conocido	-2538
▁China	-2539
▁flujo	-2540
▁matemá	-2541
cito	-2542
▁vista	-2543
▁gras	-2544
▁Ad	-2545
ington	-2546
7,	-2547
▁Mundi	-2548
est	-2549
▁mec	-2550
▁éx	-2551
▁previ	-2552
▁mercado	-2553
lem	-2554
gura	-2555
▁servicio	-2556
ham	-2557
▁cic	-2558
▁códi	-2559
▁ojos	-2560
lin	-2561
▁convirtió	-2562
▁médico	-2563
illas	-2564
rán	-2565
▁lengu	-2566
▁estadounidenses	-2567
▁mostrar	-2568
▁verda	-2569
▁litera	-2570
ler	-2571
cimiento	-2572
▁locales	-2573
▁lig	-2574
tur	-2575
▁paso	-2576
▁raz	-2577
▁igual	-2578
▁verdad	-2579
▁útil	-2580
▁acuerdo	-2581
iles	-2582
▁domin	-2583
▁hijo	-2584
▁propia	-2585
▁Cam	-2586
▁hid	-2587
tamin	-2588
▁exposición	-2589
▁relacionados	-2590
▁DE	-2591
izaciones	-2592
▁depen	-2593
▁clar	-2594
▁estim	-2595
ity	-2596
▁escribir	-2597
▁adultos	-2598
▁contenido	-2599
▁Ten	-2600
▁Mundial	-2601
▁elementos	-2602
▁requiere	-2603
▁leer	-2604
wn	-2605
aría	-2606
▁construir	-2607
dis	-2608
▁hon	-2609
ola	-2610
frica	-2611
▁combusti	-2612
cal	-2613
▁nega	-2614
▁pied	-2615
ingun	-2616
▁selec	-2617
▁camino	-2618
▁diferencia	-2619
eles	-2620
▁fran	-2621
▁física	-2622
▁Da	-2623
▁máxim	-2624
▁va	-2625
▁pier	-2626
▁Guerra	-2627
▁pu	-2628
▁hues	-2629
▁máqu	-2630
▁pequeño	-2631
▁ideas	-2632
▁fuerzas	-2633
▁lectura	-2634
rag	-2635
▁manos	-2636
▁razón	-2637
▁promo	-2638
uos	-2639
deres	-2640
▁ejecu	-2641
▁produce	-2642
▁desp	-2643
▁ór	-2644
olar	-2645
▁situación	-2646
▁deman	-2647
▁derecho	-2648
▁solar	-2649
▁velocidad	-2650
▁pregunta	-2651
▁río	-2652
ulta	-2653
▁juntos	-2654
▁gl	-2655
▁cli	-2656
yo	-2657
cidos	-2658
▁reemp	-2659
▁etc	-2660
▁mili	-2661
▁única	-2662
▁196	-2663
▁protección	-2664
▁cubier	-2665
▁comenzar	-2666
▁Durante	-2667
▁entorno	-2668
Cu	-2669
▁emis	-2670
▁junto	-2671
ráfico	-2672
▁minutos	-2673
▁disc	-2674
▁producir	-2675
▁amig	-2676
▁llen	-2677
▁preocup	-2678
▁Institu	-2679
bur	-2680
hor	-2681
▁infer	-2682
▁Cali	-2683
▁Europa	-2684
”.	-2685
▁Ag	-2686
gación	-2687
▁incor	-2688
▁respi	-2689
▁britán	-2690
ond	-2691
▁utilizado	-2692
irma	-2693
▁comunidades	-2694
osp	-2695
▁ran	-2696
OS	-2697
▁audi	-2698
tric	-2699
▁evaluación	-2700
▁emer	-2701
édi	-2702
▁documento	-2703
▁organización	-2704
▁viaje	-2705
▁único	-2706
▁Sa	-2707
▁integra	-2708
▁Qu	-2709
▁peces	-2710
▁objetivos	-2711
siones	-2712
ético	-2713
▁reconoci	-2714
▁representa	-2715
▁acciones	-2716
▁inmun	-2717
alización	-2718
▁carbono	-2719
▁oportunidad	-2720
▁aplicación	-2721
▁pequeños	-2722
ército	-2723
▁alto	-2724
orma	-2725
▁suel	-2726
▁Jes	-2727
dado	-2728
eric	-2729
htt	-2730
▁necesidades	-2731
▁sentido	-2732
tina	-2733
▁bos	-2734
ciles	-2735
▁éxito	-2736
▁exac	-2737
50	-2738
▁argu	-2739
cin	-2740
▁trabajadores	-2741
▁dieta	-2742
▁sor	-2743
▁término	-2744
▁lech	-2745
▁tro	-2746
▁Salud	-2747
uido	-2748
▁medios	-2749
tidos	-2750
▁llamada	-2751
▁directamente	-2752
▁nada	-2753
▁preci	-2754
▁entrenamiento	-2755
cando	-2756
ciencia	-2757
▁familias	-2758
▁quieres	-2759
▁dañ	-2760
▁proce	-2761
▁comunicación	-2762
NA	-2763
úsque	-2764
▁estre	-2765
▁jug	-2766
▁condición	-2767
▁agreg	-2768
▁noti	-2769
▁alimento	-2770
▁disf	-2771
rí	-2772
eos	-2773
▁habían	-2774
zada	-2775
▁aplicaciones	-2776
ualmente	-2777
▁dirección	-2778
▁altas	-2779
ides	-2780
fornia	-2781
▁tendr	-2782
▁bloque	-2783
▁Amer	-2784
▁conduc	-2785
▁quer	-2786
▁descon	-2787
▁considerar	-2788
▁hora	-2789
▁venta	-2790
▁conserv	-2791
▁ingenier	-2792
▁conex	-2793
hol	-2794
▁Muchos	-2795
ip	-2796
▁dific	-2797
taciones	-2798
▁limit	-2799
▁libera	-2800
▁tasa	-2801
▁bor	-2802
ológicos	-2803
▁Inv	-2804
enda	-2805
▁fácilmente	-2806
No	-2807
wa	-2808
201	-2809
▁sel	-2810
▁California	-2811
▁prop	-2812
▁corri	-2813
▁invers	-2814
▁respons	-2815
▁Nues	-2816
▁sección	-2817
▁Soci	-2818
▁toma	-2819
etas	-2820
▁at	-2821
▁Mientras	-2822
▁teoría	-2823
▁guía	-2824
▁fron	-2825
▁dirig	-2826
▁importancia	-2827
▁Gen	-2828
teriores	-2829
▁dej	-2830
▁cambiar	-2831
torios	-2832
▁comprender	-2833
▁establec	-2834
▁estudiante	-2835
▁valores	-2836
▁Cre	-2837
▁dep	-2838
▁hemos	-2839
liote	-2840
▁Todos	-2841
▁priv	-2842
▁recupera	-2843
▁Medi	-2844
▁esfuerzos	-2845
▁bacteri	-2846
▁detec	-2847
▁refer	-2848
▁jus	-2849
▁haciendo	-2850
▁ox	-2851
ftware	-2852
▁inmedia	-2853
eno	-2854
▁ur	-2855
▁perfec	-2856
tero	-2857
▁declara	-2858
▁debería	-2859
▁Cada	-2860
▁naturales	-2861
teria	-2862
▁Desde	-2863
▁tenían	-2864
ear	-2865
▁Ley	-2866
▁sosten	-2867
▁humana	-2868
vera	-2869
:1	-2870
có	-2871
▁dispositivos	-2872
lé	-2873
uciones	-2874
tus	-2875
ood	-2876
▁Esc	-2877
▁disponible	-2878
▁relaciones	-2879
▁lleva	-2880
▁institu	-2881
▁repro	-2882
oro	-2883
▁climático	-2884
▁búsque	-2885
▁caliente	-2886
▁coci	-2887
ima	-2888
her	-2889
▁invier	-2890
▁hor	-2891
▁último	-2892
tique	-2893
▁ó	-2894
▁realizar	-2895
▁rey	-2896
▁altos	-2897
▁números	-2898
▁ejercicio	-2899
fac	-2900
▁adicional	-2901
ído	-2902
▁particularmente	-2903
▁levan	-2904
▁ga	-2905
▁América	-2906
▁sencil	-2907
▁maestros	-2908
▁necesidad	-2909
onas	-2910
▁equili	-2911
▁sueño	-2912
▁conven	-2913
▁expresión	-2914
▁proyectos	-2915
▁pod	-2916
▁técnicas	-2917
▁presidente	-2918
▁cuar	-2919
ome	-2920
▁escritura	-2921
▁ocu	-2922
ámara	-2923
▁resta	-2924
▁muestran	-2925
▁hubiera	-2926
ind	-2927
ans	-2928
▁grados	-2929
pido	-2930
enci	-2931
▁curso	-2932
▁detalles	-2933
terra	-2934
▁cuales	-2935
▁dismin	-2936
▁vitamin	-2937
▁concl	-2938
▁bio	-2939
ack	-2940
▁señal	-2941
▁Ni	-2942
luvi	-2943
▁lejos	-2944
▁discu	-2945
▁psic	-2946
ucle	-2947
bern	-2948
▁sitios	-2949
▁segundo	-2950
▁mental	-2951
▁enci	-2952
▁24	-2953
uela	-2954
▁quienes	-2955
raciones	-2956
tino	-2957
▁Prim	-2958
▁Gra	-2959
▁pasa	-2960
▁excep	-2961
▁herman	-2962
▁captura	-2963
tarse	-2964
▁aún	-2965
▁herramienta	-2966
▁encontró	-2967
▁mitad	-2968
▁visto	-2969
▁ses	-2970
lev	-2971
▁idi	-2972
▁Reino	-2973
vin	-2974
enes	-2975
▁nav	-2976
diendo	-2977
▁ol	-2978
▁jo	-2979
▁/	-2980
▁divi	-2981
abetes	-2982
▁verano	-2983
▁ali	-2984
▁tarea	-2985
▁contiene	-2986
▁Canad	-2987
ulio	-2988
▁prácticas	-2989
▁principio	-2990
▁entender	-2991
IS	-2992
▁radi	-2993
tamos	-2994
▁ocas	-2995
▁ofrece	-2996
▁plazo	-2997
▁adecu	-2998
▁interac	-2999
▁Reg	-3000
▁pueblo	-3001
rero	-3002
tornos	-3003
▁original	-3004
▁compe	-3005
▁Go	-3006
▁cristi	-3007
30	-3008
▁militar	-3009
alizar	-3010
▁oscu	-3011
▁distin	-3012
ick	-3013
▁Estu	-3014
úcar	-3015
istente	-3016
▁cuad	-3017
▁AD	-3018
ática	-3019
▁huev	-3020
ice	-3021
▁excel	-3022
▁médicos	-3023
iri	-3024
▁liber	-3025
tim	-3026
▁código	-3027
▁memoria	-3028
▁ningun	-3029
▁producto	-3030
▁Lu	-3031
▁aceite	-3032
▁clín	-3033
▁búsqueda	-3034
AC	-3035
▁padre	-3036
▁riesgos	-3037
▁ensayo	-3038
yos	-3039
▁completo	-3040
▁software	-3041
▁hal	-3042
▁identificar	-3043
EN	-3044
▁Utili	-3045
▁Ab	-3046
▁lluvi	-3047
imo	-3048
▁proporcionan	-3049
▁destr	-3050
▁mó	-3051
▁Pol	-3052
▁líneas	-3053
▁dejar	-3054
laciones	-3055
▁infección	-3056
▁artículos	-3057
trucción	-3058
▁perman	-3059
▁cabo	-3060
▁recono	-3061
▁incluir	-3062
▁Americ	-3063
▁avi	-3064
▁estadounidense	-3065
▁opciones	-3066
▁opción	-3067
jus	-3068
▁suger	-3069
▁entrada	-3070
▁disfru	-3071
ben	-3072
▁además	-3073
trones	-3074
▁aspec	-3075
▁Austra	-3076
▁corte	-3077
duras	-3078
▁fondo	-3079
▁plata	-3080
▁primero	-3081
▁Ej	-3082
▁madre	-3083
ll	-3084
▁Investi	-3085
▁vivi	-3086
IC	-3087
▁españ	-3088
ducido	-3089
▁azúcar	-3090
pol	-3091
▁semanas	-3092
ién	-3093
▁creación	-3094
▁normal	-3095
▁similares	-3096
▁requer	-3097
tones	-3098
▁marzo	-3099
puesto	-3100
▁constante	-3101
tubre	-3102
▁aumenta	-3103
▁Fin	-3104
▁lon	-3105
▁escala	-3106
▁media	-3107
inado	-3108
nós	-3109
▁raí	-3110
amientos	-3111
imientos	-3112
▁altamente	-3113
ester	-3114
▁residen	-3115
▁especie	-3116
▁reciente	-3117
ty	-3118
▁costo	-3119
▁propiedad	-3120
▁perros	-3121
lesc	-3122
▁pública	-3123
▁mente	-3124
▁ambos	-3125
▁Min	-3126
▁usuarios	-3127
En	-3128
▁recol	-3129
alo	-3130
▁gol	-3131
▁segunda	-3132
▁implem	-3133
▁podrían	-3134
liam	-3135
▁perspec	-3136
▁estu	-3137
▁Imp	-3138
▁ciudades	-3139
imos	-3140
ptiembre	-3141
tn	-3142
▁40	-3143
▁gén	-3144
▁seleccion	-3145
capa	-3146
▁Pas	-3147
▁haga	-3148
▁potencial	-3149
uyó	-3150
if	-3151
▁escla	-3152
▁Ella	-3153
▁Plan	-3154
▁impres	-3155
▁administra	-3156
istentes	-3157
▁telé	-3158
▁log	-3159
▁líqu	-3160
ismos	-3161
▁haz	-3162
▁Departamento	-3163
▁pocos	-3164
deral	-3165
ical	-3166
▁sobrevi	-3167
▁bol	-3168
bar	-3169
▁medicamentos	-3170
▁permitir	-3171
▁versión	-3172
ther	-3173
▁Ver	-3174
aco	-3175
onos	-3176
▁decisiones	-3177
.)	-3178
▁iglesia	-3179
▁políticas	-3180
▁finalmente	-3181
▁Ale	-3182
▁Fa	-3183
paña	-3184
▁conjunto	-3185
▁solución	-3186
dente	-3187
▁refle	-3188
▁esfuerzo	-3189
▁lograr	-3190
▁Bib	-3191
▁menor	-3192
▁fecha	-3193
▁teléf	-3194
▁interpre	-3195
▁5.	-3196
▁bal	-3197
▁déc	-3198
▁específic	-3199
laterra	-3200
▁revel	-3201
▁establecer	-3202
▁mucha	-3203
▁fib	-3204
▁pueda	-3205
▁profesor	-3206
▁abril	-3207
▁resolver	-3208
radas	-3209
zadas	-3210
▁mencion	-3211
cidades	-3212
▁Jesús	-3213
▁central	-3214
▁caden	-3215
umo	-3216
tancias	-3217
▁leche	-3218
▁leyes	-3219
▁millas	-3220
▁última	-3221
▁solici	-3222
▁junio	-3223
▁paciente	-3224
idores	-3225
▁etique	-3226
▁Bar	-3227
▁hijos	-3228
▁diabetes	-3229
▁obten	-3230
▁comparación	-3231
▁cerc	-3232
▁monta	-3233
▁Inglaterra	-3234
▁resid	-3235
▁Mus	-3236
▁mayo	-3237
▁Unido	-3238
ko	-3239
▁educa	-3240
▁afirm	-3241
ish	-3242
ubo	-3243
omo	-3244
▁distancia	-3245
▁adicionales	-3246
▁pasar	-3247
▁191	-3248
ples	-3249
▁gradu	-3250
gadas	-3251
bia	-3252
▁rápido	-3253
ashington	-3254
tres	-3255
tidades	-3256
▁esperan	-3257
▁adolesc	-3258
zando	-3259
▁saludable	-3260
www	-3261
ema	-3262
áticos	-3263
ete	-3264
zados	-3265
AN	-3266
itales	-3267
▁exitos	-3268
▁famos	-3269
▁estándar	-3270
▁siguen	-3271
▁corta	-3272
osas	-3273
▁películ	-3274
▁expan	-3275
▁claro	-3276
▁Mc	-3277
▁casas	-3278
▁vidas	-3279
▁William	-3280
▁procesos	-3281
▁alco	-3282
▁naveg	-3283
▁colores	-3284
▁economía	-3285
▁lengua	-3286
▁rendimiento	-3287
▁independi	-3288
▁coment	-3289
▁novi	-3290
si	-3291
▁presenta	-3292
ría	-3293
▁Estado	-3294
▁llevó	-3295
▁1,	-3296
▁x	-3297
edores	-3298
▁sangu	-3299
▁Otros	-3300
▁ejemplos	-3301
▁principios	-3302
▁septiembre	-3303
▁amigos	-3304
dientes	-3305
▁sugiere	-3306
▁ambas	-3307
▁invierno	-3308
▁clases	-3309
▁julio	-3310
▁cumpli	-3311
pan	-3312
▁Canadá	-3313
▁intentar	-3314
▁objetos	-3315
pal	-3316
▁organizaciones	-3317
▁Interna	-3318
▁desemp	-3319
▁conflic	-3320
té	-3321
▁medidas	-3322
óx	-3323
▁gobern	-3324
.”	-3325
▁nombres	-3326
osto	-3327
▁religios	-3328
▁medicina	-3329
▁convers	-3330
▁ocul	-3331
▁dici	-3332
grafías	-3333
▁colabora	-3334
gaciones	-3335
zó	-3336
▁Washington	-3337
▁eta	-3338
▁octubre	-3339
▁der	-3340
▁esencial	-3341
▁trabajos	-3342
bó	-3343
▁respuestas	-3344
pren	-3345
▁publicado	-3346
bus	-3347
▁buscar	-3348
▁hici	-3349
aces	-3350
▁sanguín	-3351
▁fundam	-3352
▁longi	-3353
▁Be	-3354
bili	-3355
▁depor	-3356
▁ans	-3357
ker	-3358
▁responsa	-3359
bert	-3360
▁yo	-3361
▁Ph	-3362
▁enero	-3363
▁dibu	-3364
▁histór	-3365
▁Do	-3366
▁conciencia	-3367
▁pobre	-3368
▁Educ	-3369
▁hac	-3370
terio	-3371
▁cultiv	-3372
▁+	-3373
▁recientemente	-3374
▁apropi	-3375
▁terapia	-3376
▁Ste	-3377
metros	-3378
dujo	-3379
asas	-3380
▁modific	-3381
bos	-3382
quitec	-3383
▁comprar	-3384
▁euro	-3385
íamos	-3386
uyendo	-3387
▁lenguaje	-3388
-3	-3389
▁formación	-3390
▁Australia	-3391
▁enseñanza	-3392
leg	-3393
ulares	-3394
▁secu	-3395
adém	-3396
▁pueblos	-3397
▁objeto	-3398
▁comidas	-3399
▁historias	-3400
▁agregar	-3401
▁pensamiento	-3402
▁lide	-3403
▁profesionales	-3404
▁diagnós	-3405
▁masa	-3406
▁valios	-3407
▁dio	-3408
▁finales	-3409
▁frutos	-3410
▁propio	-3411
▁diciembre	-3412
▁verduras	-3413
uyen	-3414
▁encima	-3415
ford	-3416
▁nervi	-3417
▁tuvo	-3418
▁efica	-3419
▁21	-3420
▁indígen	-3421
misión	-3422
▁negro	-3423
▁terri	-3424
▁costa	-3425
cra	-3426
▁obra	-3427
▁mejora	-3428
▁mezcla	-3429
▁193	-3430
▁expertos	-3431
▁refiere	-3432
▁convier	-3433
▁propiedades	-3434
one	-3435
osos	-3436
▁ataque	-3437
▁ham	-3438
▁emisiones	-3439
▁dispositivo	-3440
▁inflam	-3441
▁Sus	-3442
uri	-3443
▁vacun	-3444
tida	-3445
▁pic	-3446
edor	-3447
▁suminis	-3448
▁maneras	-3449
uelo	-3450
▁ciru	-3451
▁contacto	-3452
tranj	-3453
▁tenemos	-3454
tori	-3455
izquier	-3456
▁embara	-3457
▁multi	-3458
-19	-3459
dro	-3460
▁español	-3461
▁larga	-3462
pañ	-3463
trum	-3464
▁flo	-3465
▁program	-3466
▁plás	-3467
▁ec	-3468
▁habl	-3469
▁técnica	-3470
▁bib	-3471
▁poner	-3472
▁corpo	-3473
forma	-3474
▁Tal	-3475
▁caí	-3476
br	-3477
▁miles	-3478
▁tareas	-3479
▁tabla	-3480
▁perro	-3481
don	-3482
▁tum	-3483
▁opin	-3484
tuvo	-3485
▁arri	-3486
gle	-3487
▁alterna	-3488
▁peri	-3489
▁diez	-3490
tiendo	-3491
▁África	-3492
▁serán	-3493
▁sentir	-3494
mania	-3495
▁mundi	-3496
pes	-3497
gias	-3498
▁...	-3499
we	-3500
tería	-3501
▁dicen	-3502
▁rápida	-3503
lioteca	-3504
AT	-3505
cidental	-3506
▁meta	-3507
▁oro	-3508
▁restau	-3509
▁lími	-3510
▁(200	-3511
▁decisión	-3512
▁contras	-3513
enso	-3514
▁Mic	-3515
▁transmi	-3516
▁Gre	-3517
▁fres	-3518
▁Lond	-3519
ale	-3520
▁jardín	-3521
▁pensar	-3522
▁tele	-3523
▁conocida	-3524
▁apoyar	-3525
teras	-3526
ok	-3527
▁imag	-3528
▁Mé	-3529
demia	-3530
ebrero	-3531
▁Bro	-3532
tel	-3533
▁blanco	-3534
▁contaminación	-3535
▁hielo	-3536
▁Hoy	-3537
▁195	-3538
▁horm	-3539
▁libertad	-3540
vió	-3541
▁Cl	-3542
▁emerg	-3543
ega	-3544
▁académ	-3545
▁estad	-3546
▁noviembre	-3547
ologías	-3548
edi	-3549
▁dese	-3550
deo	-3551
▁Algunas	-3552
▁líderes	-3553
rael	-3554
▁antigua	-3555
▁lis	-3556
▁aler	-3557
tista	-3558
▁agosto	-3559
tría	-3560
iores	-3561
illo	-3562
Los	-3563
▁tes	-3564
ieren	-3565
ames	-3566
▁hosp	-3567
▁oportunidades	-3568
▁Sch	-3569
▁redes	-3570
ficiencia	-3571
▁género	-3572
▁transform	-3573
▁insec	-3574
▁dura	-3575
▁hallaz	-3576
▁colección	-3577
OR	-3578
▁visit	-3579
▁modelos	-3580
▁interior	-3581
▁boca	-3582
▁izquier	-3583
▁razones	-3584
▁Pub	-3585
▁extranj	-3586
▁cabal	-3587
íp	-3588
▁afirma	-3589
▁Internet	-3590
▁usuario	-3591
▁piedra	-3592
▁Asoci	-3593
▁puedan	-3594
▁mie	-3595
▁ninguna	-3596
▁internacional	-3597
▁frente	-3598
▁páginas	-3599
ore	-3600
▁anun	-3601
▁correo	-3602
▁correctamente	-3603
▁aves	-3604
▁prevenir	-3605
adora	-3606
▁esos	-3607
▁prove	-3608
▁Solo	-3609
▁transporte	-3610
biendo	-3611
orías	-3612
▁referencia	-3613
▁Fi	-3614
▁amor	-3615
▁alcohol	-3616
▁gratu	-3617
▁gi	-3618
▁recolec	-3619
▁pasos	-3620
▁cree	-3621
▁adop	-3622
▁resistencia	-3623
▁incre	-3624
▁sufri	-3625
▁veci	-3626
▁demostrado	-3627
▁diferencias	-3628
▁án	-3629
▁intens	-3630
dados	-3631
▁componentes	-3632
▁unidad	-3633
▁corto	-3634
▁modo	-3635
▁capaz	-3636
▁hábita	-3637
▁allá	-3638
rimon	-3639
▁temprano	-3640
tismo	-3641
▁ros	-3642
PA	-3643
▁Fe	-3644
▁Luego	-3645
▁ante	-3646
icia	-3647
▁semillas	-3648
undación	-3649
▁trabajando	-3650
▁químicos	-3651
▁generación	-3652
irse	-3653
▁parecen	-3654
▁capital	-3655
▁vig	-3656
▁ayudarte	-3657
ky	-3658
▁literatura	-3659
ológicas	-3660
▁dro	-3661
▁oficiales	-3662
gin	-3663
jan	-3664
▁ingres	-3665
▁estánd	-3666
▁específico	-3667
vista	-3668
▁respec	-3669
▁consul	-3670
▁consumo	-3671
▁convertirse	-3672
▁partícul	-3673
▁espiri	-3674
▁proba	-3675
▁correcta	-3676
▁inferior	-3677
ficaciones	-3678
▁origen	-3679
▁pronto	-3680
itor	-3681
▁colec	-3682
▁tierras	-3683
cambi	-3684
▁vas	-3685
▁creen	-3686
▁vivir	-3687
▁bienestar	-3688
▁nucle	-3689
dice	-3690
iene	-3691
vención	-3692
como	-3693
▁actualmente	-3694
▁ge	-3695
rantes	-3696
cados	-3697
▁arquitec	-3698
▁fis	-3699
AD	-3700
▁azul	-3701
▁longitud	-3702
▁temprana	-3703
▁perio	-3704
▁cosa	-3705
▁amplia	-3706
▁funciona	-3707
▁bacterias	-3708
▁matemáticas	-3709
▁recomien	-3710
▁carne	-3711
▁orgán	-3712
ov	-3713
tía	-3714
▁patrones	-3715
acción	-3716
▁60	-3717
▁cámara	-3718
vos	-3719
risto	-3720
ficientes	-3721
▁afecta	-3722
puesta	-3723
erio	-3724
▁verde	-3725
tegias	-3726
▁máquina	-3727
▁ajus	-3728
hícul	-3729
jeron	-3730
▁altura	-3731
▁tasas	-3732
brio	-3733
usticia	-3734
▁Nor	-3735
▁individuales	-3736
▁22	-3737
▁flores	-3738
▁segura	-3739
pto	-3740
▁reempla	-3741
▁van	-3742
▁profesional	-3743
▁radio	-3744
tesis	-3745
han	-3746
▁mig	-3747
▁periódi	-3748
▁excl	-3749
aja	-3750
geno	-3751
▁XX	-3752
▁miembro	-3753
▁encontraron	-3754
▁desempe	-3755
▁Así	-3756
ulaciones	-3757
▁encontrado	-3758
▁funciones	-3759
▁ácido	-3760
▁Investigación	-3761
▁hubo	-3762
▁Escri	-3763
éticos	-3764
tistas	-3765
▁haya	-3766
▁Ci	-3767
▁XI	-3768
▁febrero	-3769
▁atrib	-3770
▁demanda	-3771
▁abordar	-3772
▁antiguo	-3773
▁computadora	-3774
▁Ber	-3775
▁obras	-3776
▁judíos	-3777
▁Ju	-3778
ave	-3779
▁repe	-3780
▁regiones	-3781
ctor	-3782
ensión	-3783
▁Rus	-3784
▁Ellos	-3785
▁Londres	-3786
▁electrónico	-3787
manes	-3788
▁Instituto	-3789
gel	-3790
▁evaluar	-3791
▁tratar	-3792
▁negocios	-3793
▁agra	-3794
▁absor	-3795
▁emi	-3796
▁promedio	-3797
▁cardía	-3798
▁Otro	-3799
dieron	-3800
▁categ	-3801
▁campos	-3802
▁eliminar	-3803
▁evento	-3804
▁presencia	-3805
▁ciertos	-3806
isten	-3807
▁maestro	-3808
▁elegir	-3809
▁detrás	-3810
apón	-3811
▁detall	-3812
▁tales	-3813
▁Lib	-3814
▁juegos	-3815
▁tex	-3816
▁Ka	-3817
▁Fu	-3818
▁ciclo	-3819
▁inver	-3820
▁controlar	-3821
▁secre	-3822
▁diri	-3823
▁documentos	-3824
▁específica	-3825
▁negros	-3826
▁requis	-3827
▁armas	-3828
▁reglas	-3829
11	-3830
lantes	-3831
▁--	-3832
▁habla	-3833
▁nad	-3834
▁Ta	-3835
▁desarrollado	-3836
avid	-3837
▁pudi	-3838
miso	-3839
▁depresión	-3840
▁estándares	-3841
▁escal	-3842
▁capaces	-3843
▁producen	-3844
estion	-3845
▁roman	-3846
▁deri	-3847
▁discusión	-3848
▁prac	-3849
▁mecan	-3850
▁Lin	-3851
▁circ	-3852
cialmente	-3853
▁grave	-3854
▁agricultura	-3855
▁Te	-3856
ultades	-3857
rador	-3858
▁inno	-3859
▁Antes	-3860
▁salida	-3861
ígeno	-3862
▁Deb	-3863
▁publicación	-3864
▁ubicación	-3865
▁pais	-3866
▁huevos	-3867
▁Her	-3868
▁Tu	-3869
▁seres	-3870
▁frecuencia	-3871
▁cump	-3872
▁Asociación	-3873
bun	-3874
omin	-3875
▁New	-3876
▁fortal	-3877
▁instrum	-3878
uth	-3879
▁sorpren	-3880
▁factor	-3881
▁Historia	-3882
▁diver	-3883
▁supera	-3884
▁vehícul	-3885
▁elev	-3886
▁reunión	-3887
▁precios	-3888
grama	-3889
▁comercio	-3890
▁geo	-3891
▁específicos	-3892
tador	-3893
▁comienza	-3894
▁aguas	-3895
▁conexión	-3896
arma	-3897
▁ganado	-3898
drá	-3899
▁temperaturas	-3900
ass	-3901
tieron	-3902
rícol	-3903
http	-3904
▁ruta	-3905
▁Francia	-3906
▁contexto	-3907
▁proteína	-3908
titud	-3909
▁pen	-3910
▁demo	-3911
icaciones	-3912
▁voz	-3913
▁consci	-3914
▁tarje	-3915
▁edificios	-3916
▁estoy	-3917
▁respe	-3918
▁Tex	-3919
ure	-3920
▁viven	-3921
▁revisión	-3922
▁viento	-3923
▁unos	-3924
▁escribió	-3925
cinas	-3926
▁constitu	-3927
▁Cap	-3928
▁eléctrica	-3929
▁explica	-3930
▁utilizados	-3931
▁Val	-3932
▁David	-3933
▁asign	-3934
▁contraste	-3935
▁Alemania	-3936
▁clima	-3937
▁describe	-3938
plic	-3939
▁compartir	-3940
▁II	-3941
▁bra	-3942
▁Prof	-3943
▁aband	-3944
▁propias	-3945
vent	-3946
▁bebé	-3947
▁XV	-3948
ganos	-3949
tección	-3950
▁épo	-3951
mbi	-3952
▁descar	-3953
▁Ig	-3954
▁neu	-3955
▁interesante	-3956
zación	-3957
ité	-3958
▁médica	-3959
orge	-3960
▁perspectiva	-3961
▁marc	-3962
pea	-3963
▁laboratorio	-3964
▁At	-3965
gres	-3966
▁edición	-3967
onia	-3968
▁apari	-3969
▁familiar	-3970
▁Ti	-3971
▁ilum	-3972
rup	-3973
▁animal	-3974
ír	-3975
▁cuestión	-3976
▁almacenamiento	-3977
▁exces	-3978
▁Ra	-3979
▁cadena	-3980
▁tenido	-3981
▁rango	-3982
▁23	-3983
▁participantes	-3984
▁reducción	-3985
▁planes	-3986
▁símb	-3987
▁dul	-3988
use	-3989
▁estrategias	-3990
▁punta	-3991
▁Día	-3992
ria	-3993
ds	-3994
▁escrito	-3995
▁siete	-3996
▁num	-3997
▁inspi	-3998
▁relacionadas	-3999
▁IS	-4000
cidas	-4001
▁hallazgos	-4002
▁prom	-4003
▁vitamina	-4004
▁recl	-4005
▁env	-4006
▁perf	-4007
▁Puede	-4008
▁rayos	-4009
mán	-4010
▁correcto	-4011
▁tr	-4012
▁necesitas	-4013
▁precio	-4014
tio	-4015
ASA	-4016
▁relev	-4017
metro	-4018
▁sean	-4019
▁sonido	-4020
▁hechos	-4021
fera	-4022
ivas	-4023
▁dificultades	-4024
arlo	-4025
▁crón	-4026
▁Entre	-4027
▁reserv	-4028
IN	-4029
ED	-4030
▁Fo	-4031
▁arriba	-4032
-4	-4033
▁prima	-4034
ner	-4035
gencias	-4036
▁cuidados	-4037
▁organiz	-4038
tional	-4039
▁Bre	-4040
▁equilibrio	-4041
▁dado	-4042
▁intercambi	-4043
▁ensayos	-4044
▁progreso	-4045
cili	-4046
▁Escuela	-4047
ose	-4048
▁ayudan	-4049
▁Japón	-4050
▁Mr	-4051
▁ocup	-4052
▁ocho	-4053
▁desafíos	-4054
ugh	-4055
▁gal	-4056
▁líder	-4057
▁presente	-4058
▁Segun	-4059
▁Servi	-4060
▁batalla	-4061
▁hí	-4062
▁usted	-4063
ública	-4064
emente	-4065
▁fotografías	-4066
▁Inform	-4067
▁recordar	-4068
▁6.	-4069
▁fuertes	-4070
▁cantidades	-4071
▁brillante	-4072
▁Vir	-4073
ep	-4074
▁espacial	-4075
ON	-4076
▁fem	-4077
▁ambientales	-4078
▁Ed	-4079
▁combustible	-4080
▁miedo	-4081
▁Unión	-4082
▁acum	-4083
▁regres	-4084
▁domés	-4085
▁arm	-4086
▁colum	-4087
▁saludables	-4088
▁partículas	-4089
▁anteriores	-4090
pio	-4091
▁isla	-4092
▁US	-4093
quía	-4094
▁suje	-4095
▁remo	-4096
▁detener	-4097
▁edificio	-4098
▁bueno	-4099
▁blancos	-4100
▁encan	-4101
▁sexual	-4102
EC	-4103
▁carrera	-4104
____	-4105
deros	-4106
▁oeste	-4107
▁distribución	-4108
▁siglos	-4109
▁océ	-4110
▁Esp	-4111
▁,	-4112
rue	-4113
ting	-4114
▁enseñar	-4115
▁clientes	-4116
▁ampliamente	-4117
▁época	-4118
▁responsabilidad	-4119
▁cumplir	-4120
yn	-4121
▁menores	-4122
lico	-4123
entaron	-4124
▁acer	-4125
▁temporada	-4126
▁comúnmente	-4127
▁Congreso	-4128
▁186	-4129
▁registros	-4130
▁Internacional	-4131
▁científico	-4132
▁cirugía	-4133
oogle	-4134
tifici	-4135
▁enlace	-4136
▁recibir	-4137
▁oficial	-4138
▁escolar	-4139
▁suav	-4140
ello	-4141
rón	-4142
▁federal	-4143
▁abandon	-4144
▁físico	-4145
▁genes	-4146
▁frecuentemente	-4147
▁Conse	-4148
gni	-4149
▁Mis	-4150
trimon	-4151
▁estructuras	-4152
▁confianza	-4153
▁indígenas	-4154
ónde	-4155
▁ropa	-4156
▁profesores	-4157
▁sucede	-4158
eve	-4159
▁em	-4160
ráfica	-4161
▁Au	-4162
▁afectar	-4163
▁podían	-4164
▁necesaria	-4165
);	-4166
lí	-4167
▁distri	-4168
▁ger	-4169
▁difíciles	-4170
lares	-4171
▁hierro	-4172
▁poblaciones	-4173
▁archivos	-4174
▁Li	-4175
▁significado	-4176
▁oxígeno	-4177
▁científica	-4178
▁tecnologías	-4179
▁suave	-4180
▁exterior	-4181
▁tejido	-4182
▁James	-4183
▁dé	-4184
▁ejército	-4185
▁be	-4186
▁Oc	-4187
▁misión	-4188
▁metros	-4189
▁reduce	-4190
▁alimentación	-4191
▁post	-4192
og	-4193
ándose	-4194
▁máximo	-4195
▁promover	-4196
úa	-4197
diente	-4198
▁requieren	-4199
▁propios	-4200
▁utilizó	-4201
▁intenta	-4202
▁Mu	-4203
▁revista	-4204
▁comunic	-4205
▁alcance	-4206
didas	-4207
▁explorar	-4208
▁lic	-4209
▁adolescentes	-4210
▁Israel	-4211
▁raíces	-4212
▁monitor	-4213
12	-4214
▁renov	-4215
cle	-4216
amb	-4217
▁emociones	-4218
▁operaciones	-4219
▁económico	-4220
▁veg	-4221
▁esque	-4222
tructura	-4223
▁26	-4224
▁alum	-4225
▁ello	-4226
▁equipos	-4227
usiones	-4228
olucion	-4229
▁efectivo	-4230
▁28	-4231
▁Ter	-4232
ñana	-4233
▁buscando	-4234
▁mín	-4235
▁paz	-4236
omos	-4237
▁antiguos	-4238
▁tejidos	-4239
▁requisitos	-4240
▁hicieron	-4241
▁conservación	-4242
hat	-4243
▁indica	-4244
migo	-4245
▁proteínas	-4246
▁ben	-4247
▁motor	-4248
▁actuales	-4249
▁entrar	-4250
▁For	-4251
▁quieren	-4252
▁Ay	-4253
▁planeta	-4254
▁aprob	-4255
▁pulgadas	-4256
5%	-4257
▁consecu	-4258
xico	-4259
▁muestras	-4260
AM	-4261
▁archivo	-4262
▁paj	-4263
▁Debido	-4264
terial	-4265
▁agrícol	-4266
▁NASA	-4267
▁consejos	-4268
▁tablas	-4269
▁ciudadanos	-4270
hu	-4271
▁lesiones	-4272
▁impuls	-4273
ivamente	-4274
ánd	-4275
istir	-4276
echas	-4277
au	-4278
▁errores	-4279
iso	-4280
tegia	-4281
arán	-4282
cons	-4283
▁frío	-4284
icio	-4285
▁europe	-4286
▁desap	-4287
▁instruc	-4288
▁mensaje	-4289
▁joven	-4290
▁diagnóstico	-4291
iedad	-4292
▁crédi	-4293
▁Naciones	-4294
terrán	-4295
▁bre	-4296
▁oblig	-4297
▁nar	-4298
▁practic	-4299
▁materia	-4300
▁idioma	-4301
▁fra	-4302
▁espal	-4303
▁coche	-4304
▁mone	-4305
▁recientes	-4306
rarse	-4307
▁romper	-4308
hib	-4309
▁movimientos	-4310
▁digital	-4311
▁Educación	-4312
▁27	-4313
▁fondos	-4314
▁calef	-4315
▁Us	-4316
▁carbón	-4317
▁nomb	-4318
-0	-4319
▁observa	-4320
▁basada	-4321
mentación	-4322
fe	-4323
▁transmisión	-4324
▁drogas	-4325
▁ahor	-4326
ordin	-4327
raz	-4328
▁realiza	-4329
▁Yo	-4330
▁soluciones	-4331
▁autores	-4332
▁Medio	-4333
▁experiencias	-4334
▁recep	-4335
onal	-4336
centa	-4337
ror	-4338
▁bomb	-4339
▁proto	-4340
▁registro	-4341
▁artifici	-4342
▁preserv	-4343
▁camp	-4344
ional	-4345
▁influencia	-4346
▁Jer	-4347
▁mover	-4348
▁Hum	-4349
▁excepto	-4350
▁Sol	-4351
▁vul	-4352
cionalmente	-4353
▁llegó	-4354
ariamente	-4355
▁mí	-4356
ueve	-4357
▁provi	-4358
▁escuchar	-4359
▁epi	-4360
▁excelente	-4361
▁suele	-4362
ár	-4363
▁cuan	-4364
AL	-4365
▁Señ	-4366
▁Ban	-4367
▁arro	-4368
usa	-4369
▁prevención	-4370
trol	-4371
▁décadas	-4372
▁cerebral	-4373
▁llevado	-4374
▁mañana	-4375
cien	-4376
▁dó	-4377
eld	-4378
▁recuer	-4379
▁violencia	-4380
▁due	-4381
IT	-4382
▁cubri	-4383
▁nota	-4384
▁tradicional	-4385
▁paque	-4386
tamientos	-4387
▁bebés	-4388
▁luc	-4389
▁estará	-4390
▁debes	-4391
80	-4392
▁creciente	-4393
▁dependi	-4394
▁80	-4395
▁Sociedad	-4396
▁Son	-4397
▁General	-4398
▁universidad	-4399
▁podía	-4400
▁mam	-4401
▁secundaria	-4402
Pue	-4403
jes	-4404
▁responsable	-4405
▁exactamente	-4406
rios	-4407
▁examin	-4408
▁esca	-4409
zca	-4410
tuales	-4411
▁nub	-4412
▁comentarios	-4413
▁ras	-4414
▁intes	-4415
ile	-4416
lido	-4417
▁gracias	-4418
tario	-4419
▁aspectos	-4420
▁examen	-4421
▁prefer	-4422
▁claramente	-4423
▁propós	-4424
▁Desarrol	-4425
roso	-4426
▁individual	-4427
▁Recuer	-4428
igh	-4429
▁mantiene	-4430
ung	-4431
▁2,	-4432
▁Der	-4433
asta	-4434
▁Fue	-4435
▁amari	-4436
▁ratones	-4437
respon	-4438
▁normalmente	-4439
▁química	-4440
uma	-4441
▁rojo	-4442
▁ataques	-4443
teo	-4444
ST	-4445
olina	-4446
cida	-4447
▁impresión	-4448
▁Ir	-4449
▁192	-4450
▁bajos	-4451
echo	-4452
▁May	-4453
▁golpe	-4454
▁nutrientes	-4455
▁tradicionales	-4456
▁conflicto	-4457
▁contienen	-4458
▁acciden	-4459
ters	-4460
▁human	-4461
curso	-4462
▁huel	-4463
▁XIX	-4464
▁dosis	-4465
▁investigaciones	-4466
wer	-4467
▁tráfico	-4468
▁trastornos	-4469
▁noticias	-4470
▁Amb	-4471
hibi	-4472
▁tard	-4473
▁posibles	-4474
▁invi	-4475
rus	-4476
▁Asia	-4477
▁conoce	-4478
ini	-4479
▁Oeste	-4480
▁religión	-4481
▁impi	-4482
▁México	-4483
▁za	-4484
▁recha	-4485
▁desta	-4486
▁invas	-4487
▁complejo	-4488
In	-4489
▁George	-4490
▁km	-4491
uesta	-4492
▁patrón	-4493
▁estrellas	-4494
▁satis	-4495
enn	-4496
▁vie	-4497
EM	-4498
mio	-4499
iga	-4500
▁ingeniería	-4501
▁combinación	-4502
▁190	-4503
▁trabajan	-4504
sas	-4505
▁sola	-4506
tróleo	-4507
▁deberían	-4508
▁infecciones	-4509
▁Mal	-4510
mática	-4511
▁Flor	-4512
últi	-4513
▁innov	-4514
▁ín	-4515
culares	-4516
▁pagar	-4517
▁amenaza	-4518
▁pobres	-4519
drome	-4520
▁Encon	-4521
▁aé	-4522
▁(201	-4523
▁increí	-4524
▁publicó	-4525
teros	-4526
taña	-4527
▁comba	-4528
uras	-4529
▁volumen	-4530
▁0.	-4531
istema	-4532
▁significativa	-4533
▁recomend	-4534
ceder	-4535
igu	-4536
▁definición	-4537
▁preocupa	-4538
nera	-4539
▁Trans	-4540
▁carta	-4541
▁Char	-4542
▁bro	-4543
dimientos	-4544
▁justo	-4545
▁espalda	-4546
▁insectos	-4547
▁económica	-4548
ices	-4549
▁infl	-4550
▁Señor	-4551
izás	-4552
tadores	-4553
3)	-4554
▁estudiar	-4555
efe	-4556
▁abor	-4557
▁vide	-4558
ámica	-4559
▁ambiental	-4560
cti	-4561
▁Unidas	-4562
▁Wal	-4563
▁efectiva	-4564
▁huesos	-4565
▁calefacción	-4566
▁escen	-4567
▁desconoci	-4568
trando	-4569
▁Bi	-4570
▁Ori	-4571
cripción	-4572
del	-4573
▁barco	-4574
▁Texas	-4575
▁ansiedad	-4576
▁Press	-4577
entados	-4578
▁Sta	-4579
▁basa	-4580
▁pp	-4581
▁útiles	-4582
nal	-4583
▁perten	-4584
▁relativamente	-4585
fía	-4586
▁percep	-4587
▁asociados	-4588
▁hueso	-4589
▁operación	-4590
▁189	-4591
▁lucha	-4592
▁suelen	-4593
▁vent	-4594
▁trastorno	-4595
▁bosques	-4596
uns	-4597
▁abierto	-4598
▁Sm	-4599
▁ocurrir	-4600
▁mundial	-4601
▁Ser	-4602
▁probabilidad	-4603
▁cierto	-4604
▁Google	-4605
▁cientos	-4606
ienen	-4607
bes	-4608
▁certific	-4609
ráficos	-4610
▁cubierta	-4611
illos	-4612
▁derecha	-4613
▁estrategia	-4614
ultura	-4615
▁resolución	-4616
▁incorpo	-4617
écul	-4618
▁rode	-4619
▁permiten	-4620
▁ase	-4621
▁negocio	-4622
▁mezcl	-4623
▁inicio	-4624
▁motiv	-4625
int	-4626
▁crisis	-4627
▁medir	-4628
mens	-4629
▁90	-4630
▁anal	-4631
▁tratamientos	-4632
▁Cas	-4633
▁crecer	-4634
▁Wi	-4635
▁preguntar	-4636
alizado	-4637
▁caída	-4638
eso	-4639
▁Organ	-4640
▁cuerpos	-4641
íz	-4642
▁70	-4643
▁hue	-4644
▁ingresos	-4645
▁cortar	-4646
uo	-4647
ificar	-4648
▁empleados	-4649
21	-4650
ame	-4651
▁somb	-4652
yas	-4653
▁confirm	-4654
▁firm	-4655
▁demás	-4656
▁inteligencia	-4657
istro	-4658
Cuán	-4659
▁especiales	-4660
▁Ofici	-4661
▁discapa	-4662
pers	-4663
▁explicar	-4664
cés	-4665
▁Mor	-4666
▁volunt	-4667
▁legal	-4668
▁raza	-4669
▁obli	-4670
▁ofrec	-4671
▁profundi	-4672
▁Pla	-4673
ons	-4674
▁Apren	-4675
▁Cristo	-4676
▁petróleo	-4677
▁primavera	-4678
▁corriente	-4679
▁Vol	-4680
▁ubic	-4681
▁flex	-4682
▁cogni	-4683
▁volver	-4684
▁hierba	-4685
erales	-4686
ultad	-4687
▁nacimiento	-4688
▁flor	-4689
▁peligro	-4690
▁comprome	-4691
▁extien	-4692
DA	-4693
rse	-4694
gada	-4695
▁pantalla	-4696
▁esenciales	-4697
▁diá	-4698
▁Sim	-4699
▁presentar	-4700
by	-4701
▁unidades	-4702
▁neuro	-4703
▁notas	-4704
▁produci	-4705
dón	-4706
▁próxima	-4707
▁Ga	-4708
▁medicinas	-4709
▁fines	-4710
itario	-4711
60	-4712
▁introducción	-4713
▁película	-4714
didos	-4715
▁torm	-4716
pedia	-4717
▁pocas	-4718
▁causas	-4719
▁habitación	-4720
onel	-4721
▁crítica	-4722
▁pec	-4723
▁clás	-4724
▁marco	-4725
▁7.	-4726
empos	-4727
ance	-4728
▁fen	-4729
▁cielo	-4730
▁Rich	-4731
▁grasa	-4732
▁encar	-4733
▁verdadera	-4734
▁anteriormente	-4735
▁gama	-4736
▁dios	-4737
▁Bus	-4738
ture	-4739
▁resto	-4740
▁Iglesia	-4741
▁Ham	-4742
ward	-4743
▁vícti	-4744
▁Mac	-4745
▁contac	-4746
▁pros	-4747
▁izquierda	-4748
▁vesti	-4749
▁enlaces	-4750
▁etapa	-4751
▁reacción	-4752
▁frag	-4753
▁vulnera	-4754
vidad	-4755
▁eres	-4756
▁fós	-4757
cán	-4758
▁cultural	-4759
▁inicia	-4760
hid	-4761
idge	-4762
Las	-4763
cy	-4764
▁ojo	-4765
▁elemento	-4766
▁Incl	-4767
▁traducción	-4768
▁pasó	-4769
▁coo	-4770
chas	-4771
40	-4772
▁ilustra	-4773
anda	-4774
▁Ind	-4775
▁profundo	-4776
▁preocupación	-4777
▁cál	-4778
▁dan	-4779
▁10.	-4780
▁magn	-4781
▁Todo	-4782
▁plástico	-4783
gue	-4784
▁empe	-4785
▁nacionales	-4786
▁porcenta	-4787
▁rit	-4788
▁visita	-4789
teral	-4790
▁servid	-4791
ings	-4792
▁teléfono	-4793
áticas	-4794
▁precisión	-4795
▁error	-4796
untos	-4797
lización	-4798
▁específicas	-4799
▁abajo	-4800
▁responder	-4801
▁competi	-4802
pl	-4803
▁músculos	-4804
▁justicia	-4805
licidad	-4806
▁molécul	-4807
▁límites	-4808
▁emergencia	-4809
▁tenga	-4810
▁sabemos	-4811
▁diagnos	-4812
estructura	-4813
▁só	-4814
via	-4815
▁prede	-4816
▁descubier	-4817
▁Bu	-4818
▁Sen	-4819
▁Ben	-4820
▁residentes	-4821
sen	-4822
▁circu	-4823
▁hidró	-4824
qué	-4825
▁informa	-4826
▁Sha	-4827
▁políticos	-4828
▁alcanzar	-4829
▁anual	-4830
▁habilidad	-4831
▁cocina	-4832
▁señales	-4833
▁barre	-4834
▁colocar	-4835
▁reconocer	-4836
▁consideran	-4837
▁amigo	-4838
todo	-4839
▁inversión	-4840
▁proteg	-4841
▁identidad	-4842
▁ayudará	-4843
▁residuos	-4844
▁líquido	-4845
PS	-4846
logo	-4847
▁ep	-4848
▁negra	-4849
bios	-4850
▁estima	-4851
MS	-4852
▁desas	-4853
▁th	-4854
éticas	-4855
▁Pal	-4856
▁elección	-4857
ET	-4858
▁equiv	-4859
▁capas	-4860
▁coin	-4861
rena	-4862
▁cuch	-4863
▁acces	-4864
▁vídeo	-4865
▁aus	-4866
▁enorm	-4867
trimonio	-4868
▁suaves	-4869
gica	-4870
▁Tim	-4871
▁concentración	-4872
cera	-4873
▁correspon	-4874
▁Finalmente	-4875
ila	-4876
▁situaciones	-4877
▁conden	-4878
▁pieza	-4879
25	-4880
▁Tom	-4881
viendo	-4882
▁femen	-4883
▁recomienda	-4884
▁desapar	-4885
▁University	-4886
▁moderna	-4887
▁participación	-4888
▁signos	-4889
▁Ja	-4890
▁incen	-4891
▁vuelta	-4892
▁espacios	-4893
▁Rev	-4894
▁comenzaron	-4895
▁perder	-4896
raron	-4897
▁próximo	-4898
▁ruido	-4899
entamiento	-4900
▁fras	-4901
▁diaria	-4902
▁individuos	-4903
▁estableció	-4904
rícul	-4905
▁Mary	-4906
▁examinar	-4907
▁gluc	-4908
▁Era	-4909
▁hoja	-4910
▁incorrec	-4911
▁presu	-4912
rum	-4913
▁piezas	-4914
▁cortes	-4915
ati	-4916
▁marcha	-4917
uyeron	-4918
▁llamó	-4919
▁agricultores	-4920
▁crítico	-4921
ms	-4922
▁hábitat	-4923
▁buenas	-4924
▁muertes	-4925
ches	-4926
▁ligera	-4927
▁desplaz	-4928
.;	-4929
▁necesitamos	-4930
2)	-4931
▁suple	-4932
íb	-4933
inta	-4934
-5	-4935
acer	-4936
▁Nuevo	-4937
pendencia	-4938
▁Robert	-4939
ejas	-4940
▁caf	-4941
▁personales	-4942
▁Museo	-4943
bióticos	-4944
▁Dos	-4945
▁parque	-4946
▁electro	-4947
▁oral	-4948
▁beneficio	-4949
▁29	-4950
▁dens	-4951
vela	-4952
▁genética	-4953
▁Hen	-4954
alth	-4955
itaria	-4956
▁vigil	-4957
▁calle	-4958
▁Emp	-4959
▁energ	-4960
▁enfren	-4961
pó	-4962
▁cans	-4963
▁figura	-4964
▁Fundación	-4965
▁exter	-4966
▁ciencias	-4967
▁necesarios	-4968
▁arterial	-4969
▁come	-4970
▁inclu	-4971
▁Thomas	-4972
▁conocidos	-4973
▁prior	-4974
▁lóg	-4975
inf	-4976
▁vacuna	-4977
▁Tur	-4978
ian	-4979
▁pobreza	-4980
▁puedo	-4981
▁musul	-4982
▁tall	-4983
unda	-4984
▁Sam	-4985
▁VI	-4986
▁desempeñ	-4987
▁basado	-4988
▁múlti	-4989
▁dólares	-4990
mós	-4991
▁televisión	-4992
▁tradición	-4993
▁dónde	-4994
▁frances	-4995
▁pensamientos	-4996
▁bajas	-4997
deras	-4998
▁Fre	-4999
▁representan	-5000
▁sector	-5001
crimin	-5002
▁artes	-5003
SA	-5004
▁instituciones	-5005
crip	-5006
▁dic	-5007
▁Comun	-5008
▁sient	-5009
▁dren	-5010
▁lluvias	-5011
▁diversidad	-5012
▁polic	-5013
19	-5014
▁var	-5015
ane	-5016
▁celular	-5017
▁Colo	-5018
▁Edi	-5019
▁mantenimiento	-5020
▁relacionado	-5021
▁civil	-5022
▁escol	-5023
viv	-5024
▁reales	-5025
ray	-5026
▁informes	-5027
lores	-5028
▁nación	-5029
ville	-5030
kes	-5031
▁Mer	-5032
quil	-5033
▁quién	-5034
▁convierte	-5035
reas	-5036
▁pien	-5037
entada	-5038
▁automó	-5039
▁hierbas	-5040
▁dorm	-5041
▁sil	-5042
men	-5043
▁ganar	-5044
▁americ	-5045
▁seguros	-5046
▁regularmente	-5047
▁guías	-5048
▁inmediatamente	-5049
▁maíz	-5050
dencias	-5051
15	-5052
tidas	-5053
▁creado	-5054
▁ciertas	-5055
▁mapa	-5056
tle	-5057
▁provin	-5058
0,000	-5059
▁gripe	-5060
▁porcentaje	-5061
▁lenta	-5062
▁paisaje	-5063
uera	-5064
Po	-5065
▁detectar	-5066
▁mecán	-5067
▁completar	-5068
▁Rusia	-5069
▁recuperación	-5070
▁defens	-5071
▁calientes	-5072
guridad	-5073
ani	-5074
kin	-5075
ólogos	-5076
▁limpieza	-5077
▁repor	-5078
▁acele	-5079
ciar	-5080
▁posibilidad	-5081
ístico	-5082
▁computadoras	-5083
▁Muchas	-5084
▁utilizada	-5085
▁manejar	-5086
ney	-5087
▁radiación	-5088
▁Nuestra	-5089
▁café	-5090
▁comput	-5091
▁tiempos	-5092
licos	-5093
▁Def	-5094
vado	-5095
▁involucra	-5096
▁estación	-5097
▁opinión	-5098
▁pará	-5099
▁título	-5100
ek	-5101
▁)	-5102
▁director	-5103
▁absolu	-5104
▁Bur	-5105
llo	-5106
▁Hol	-5107
▁vid	-5108
▁intereses	-5109
▁financiamiento	-5110
▁indic	-5111
▁Tri	-5112
▁abund	-5113
▁pintura	-5114
▁Que	-5115
▁basura	-5116
▁puerta	-5117
pias	-5118
▁recomenda	-5119
▁alg	-5120
▁arque	-5121
▁Win	-5122
▁hambre	-5123
▁constru	-5124
Si	-5125
▁resumen	-5126
eres	-5127
▁asum	-5128
tz	-5129
▁forman	-5130
▁áng	-5131
▁conceptos	-5132
▁Rep	-5133
tenga	-5134
▁esperanza	-5135
▁depende	-5136
▁desarrolló	-5137
▁aplicar	-5138
16	-5139
▁tercer	-5140
▁creó	-5141
enca	-5142
▁fas	-5143
▁presentación	-5144
▁mari	-5145
▁nadie	-5146
ego	-5147
eración	-5148
tás	-5149
▁hospital	-5150
▁Consejo	-5151
▁predi	-5152
▁"¿	-5153
ites	-5154
seña	-5155
▁aguj	-5156
▁Exp	-5157
▁gig	-5158
▁centros	-5159
eció	-5160
▁afric	-5161
▁Utiliza	-5162
▁2020	-5163
▁vuelve	-5164
berg	-5165
▁procesamiento	-5166
▁desafío	-5167
▁respira	-5168
▁propiet	-5169
talmente	-5170
bieron	-5171
▁facili	-5172
▁esposa	-5173
▁significativo	-5174
▁profunda	-5175
▁contrario	-5176
▁formar	-5177
▁soldados	-5178
▁Tor	-5179
▁conocer	-5180
▁ADN	-5181
▁metal	-5182
way	-5183
istemas	-5184
▁Pens	-5185
▁ja	-5186
▁capítulo	-5187
▁Sp	-5188
▁prés	-5189
osofía	-5190
▁inicial	-5191
▁terren	-5192
▁defensa	-5193
▁combin	-5194
▁ríos	-5195
CI	-5196
▁Gol	-5197
▁frontera	-5198
▁lectores	-5199
mica	-5200
▁Segunda	-5201
▁Americana	-5202
▁crédito	-5203
▁Pac	-5204
▁autoridades	-5205
▁”	-5206
▁gobiernos	-5207
▁comportamientos	-5208
▁infan	-5209
▁188	-5210
sh	-5211
▁diseñado	-5212
▁tendrá	-5213
▁desper	-5214
▁Ejército	-5215
▁regul	-5216
▁cro	-5217
▁ofrecen	-5218
titución	-5219
▁carretera	-5220
▁Bos	-5221
▁Lee	-5222
gú	-5223
▁familiares	-5224
▁barcos	-5225
▁tre	-5226
▁tribun	-5227
▁zapa	-5228
▁adelante	-5229
▁Recuerda	-5230
▁har	-5231
▁qued	-5232
▁descen	-5233
▁repu	-5234
▁comercial	-5235
tive	-5236
▁polvo	-5237
▁ll	-5238
▁hiper	-5239
▁tol	-5240
RO	-5241
▁vivo	-5242
-8	-5243
▁acus	-5244
▁pulm	-5245
▁187	-5246
icales	-5247
terios	-5248
ox	-5249
tualmente	-5250
▁rue	-5251
▁humo	-5252
▁2010	-5253
▁autoridad	-5254
arca	-5255
▁demostrar	-5256
4)	-5257
▁independiente	-5258
▁letras	-5259
▁político	-5260
?"	-5261
▁declaración	-5262
py	-5263
',	-5264
▁preparación	-5265
▁verdes	-5266
▁pareja	-5267
ix	-5268
ernam	-5269
▁jugar	-5270
▁sabes	-5271
cionado	-5272
▁extrem	-5273
▁bosque	-5274
gió	-5275
▁estrech	-5276
ew	-5277
ubernam	-5278
▁dev	-5279
▁Ambi	-5280
▁prensa	-5281
▁alivi	-5282
▁(199	-5283
▁Sud	-5284
▁continuar	-5285
▁sagra	-5286
▁piernas	-5287
▁cuánto	-5288
▁ofrecer	-5289
▁quem	-5290
ey	-5291
▁descubrimiento	-5292
▁Sec	-5293
Hay	-5294
▁2012	-5295
▁recons	-5296
ision	-5297
▁ingre	-5298
pía	-5299
istán	-5300
ling	-5301
▁infra	-5302
Esto	-5303
▁gestion	-5304
íti	-5305
▁seguimiento	-5306
▁Smith	-5307
▁inflamación	-5308
III	-5309
esa	-5310
▁voc	-5311
▁lección	-5312
▁contar	-5313
▁gatos	-5314
▁Af	-5315
RI	-5316
posición	-5317
▁Bra	-5318
tudes	-5319
▁inmig	-5320
▁consumidores	-5321
▁pelo	-5322
▁restric	-5323
▁mesa	-5324
▁derro	-5325
▁océano	-5326
▁Public	-5327
▁humedad	-5328
▁vapor	-5329
▁Han	-5330
▁repara	-5331
▁bur	-5332
▁senti	-5333
▁fotografía	-5334
▁sp	-5335
▁marca	-5336
▁sesión	-5337
▁defec	-5338
quis	-5339
▁vic	-5340
▁involucrados	-5341
'.	-5342
▁esté	-5343
▁esas	-5344
▁campaña	-5345
▁gui	-5346
up	-5347
bal	-5348
▁diario	-5349
▁división	-5350
▁vuelto	-5351
echos	-5352
ólogo	-5353
adoras	-5354
▁pat	-5355
▁directo	-5356
uf	-5357
▁(18	-5358
▁Biblia	-5359
▁Virgin	-5360
▁propor	-5361
▁impuestos	-5362
▁acero	-5363
▁atmós	-5364
▁reduci	-5365
▁reconocimiento	-5366
▁om	-5367
mpor	-5368
▁luna	-5369
▁enfrentar	-5370
tron	-5371
▁duración	-5372
▁fabricación	-5373
▁enviar	-5374
▁video	-5375
▁biblioteca	-5376
▁occidental	-5377
▁lanz	-5378
▁Gracias	-5379
▁Nota	-5380
cepti	-5381
▁Oficina	-5382
▁verdadero	-5383
▁públicas	-5384
▁herencia	-5385
DF	-5386
▁obes	-5387
▁populares	-5388
▁oficina	-5389
▁libres	-5390
▁murió	-5391
▁enem	-5392
▁vuelo	-5393
▁dedic	-5394
teor	-5395
▁Enfer	-5396
▁evolución	-5397
▁tensión	-5398
razgo	-5399
IV	-5400
▁robo	-5401
▁acom	-5402
▁vuelven	-5403
▁programación	-5404
▁progres	-5405
▁describir	-5406
▁gubernam	-5407
▁lá	-5408
▁fáciles	-5409
▁2011	-5410
▁retras	-5411
▁asociado	-5412
▁existencia	-5413
lado	-5414
▁conce	-5415
bio	-5416
▁ritmo	-5417
▁quizás	-5418
▁nú	-5419
iana	-5420
▁niñas	-5421
tilidad	-5422
torial	-5423
rer	-5424
▁transpor	-5425
▁rica	-5426
▁comerciales	-5427
-6	-5428
▁Sab	-5429
lón	-5430
▁espe	-5431
▁suministro	-5432
▁experimentar	-5433
▁compuestos	-5434
▁fibra	-5435
ost	-5436
▁blog	-5437
▁períodos	-5438
orit	-5439
▁pose	-5440
▁gradualmente	-5441
teles	-5442
▁empezar	-5443
▁posterior	-5444
▁bara	-5445
▁memb	-5446
▁vidrio	-5447
▁sosp	-5448
▁fiesta	-5449
▁deco	-5450
▁plataforma	-5451
éndose	-5452
ld	-5453
▁mismas	-5454
▁ais	-5455
▁Prin	-5456
americ	-5457
▁Gal	-5458
▁propósito	-5459
▁centra	-5460
▁colaboración	-5461
▁minerales	-5462
▁básicos	-5463
▁ámbi	-5464
wit	-5465
▁recor	-5466
,”	-5467
▁sh	-5468
CC	-5469
▁grab	-5470
▁estarán	-5471
▁estatal	-5472
▁lecciones	-5473
▁planificación	-5474
gados	-5475
▁afectan	-5476
▁recibió	-5477
well	-5478
▁currícul	-5479
▁Medicina	-5480
▁vacunas	-5481
▁gases	-5482
▁cursos	-5483
▁design	-5484
▁8.	-5485
▁realizó	-5486
▁pared	-5487
▁cuarto	-5488
▁compra	-5489
▁consejo	-5490
▁rara	-5491
▁eficiente	-5492
▁mala	-5493
▁ideal	-5494
▁máxima	-5495
▁guar	-5496
▁jefe	-5497
▁causan	-5498
▁000	-5499
▁internacionales	-5500
reo	-5501
▁ocurren	-5502
▁Revista	-5503
▁condado	-5504
▁Cómo	-5505
toño	-5506
mag	-5507
▁preocupaciones	-5508
▁implementación	-5509
▁detección	-5510
hidra	-5511
▁pares	-5512
▁suces	-5513
▁Ev	-5514
▁selección	-5515
▁elecciones	-5516
▁descan	-5517
▁procedimientos	-5518
▁Virginia	-5519
▁puesto	-5520
▁relo	-5521
▁activos	-5522
▁llaman	-5523
bel	-5524
▁acceder	-5525
▁Bretaña	-5526
▁Mos	-5527
▁doctor	-5528
▁rodi	-5529
▁siente	-5530
VID	-5531
▁resal	-5532
▁seca	-5533
BC	-5534
78	-5535
▁gr	-5536
úme	-5537
▁regla	-5538
jado	-5539
▁abierta	-5540
▁Estamos	-5541
tol	-5542
▁Florida	-5543
inte	-5544
▁potencia	-5545
inal	-5546
▁participar	-5547
▁ocurre	-5548
▁ul	-5549
▁llevan	-5550
▁vio	-5551
▁cír	-5552
13	-5553
▁próximos	-5554
▁tóx	-5555
▁Esco	-5556
EL	-5557
▁entien	-5558
▁conocimientos	-5559
▁beber	-5560
▁enfrentan	-5561
▁disco	-5562
izado	-5563
▁Francis	-5564
▁legis	-5565
▁desarrollan	-5566
enos	-5567
▁protes	-5568
▁entrega	-5569
▁Primero	-5570
ies	-5571
▁partir	-5572
▁Web	-5573
AP	-5574
guir	-5575
▁Br	-5576
▁Todas	-5577
▁necesarias	-5578
organ	-5579
▁vino	-5580
▁ecos	-5581
▁Bal	-5582
perado	-5583
▁tran	-5584
mit	-5585
▁discrimin	-5586
▁responsables	-5587
▁manejo	-5588
▁Direc	-5589
▁corporal	-5590
▁embarazo	-5591
iano	-5592
▁esperar	-5593
▁peor	-5594
▁Ve	-5595
▁sostenible	-5596
22	-5597
▁sabor	-5598
▁estén	-5599
▁enga	-5600
▁fol	-5601
ness	-5602
▁primaria	-5603
▁informó	-5604
▁escolares	-5605
▁duro	-5606
▁tendencia	-5607
▁Servicio	-5608
ock	-5609
ecución	-5610
tern	-5611
▁ingles	-5612
▁tomó	-5613
▁2013	-5614
éndo	-5615
▁proviene	-5616
▁eficaz	-5617
tid	-5618
blemente	-5619
▁cuyo	-5620
▁Alim	-5621
dre	-5622
▁satisfac	-5623
yac	-5624
▁nuclear	-5625
▁superviv	-5626
▁Ener	-5627
▁reco	-5628
▁blanca	-5629
▁cero	-5630
▁activo	-5631
▁explos	-5632
dy	-5633
▁registra	-5634
▁Pan	-5635
▁Natura	-5636
tions	-5637
▁índice	-5638
▁nativos	-5639
éis	-5640
▁Pregun	-5641
▁CD	-5642
chool	-5643
▁acompañ	-5644
▁caballos	-5645
▁húme	-5646
ik	-5647
▁composición	-5648
tirá	-5649
▁formato	-5650
▁columna	-5651
▁Desarrollo	-5652
▁diagnostic	-5653
▁fum	-5654
70	-5655
▁dulce	-5656
pone	-5657
▁hipo	-5658
▁Estoy	-5659
▁fir	-5660
▁superiores	-5661
ficación	-5662
▁paredes	-5663
▁descubrir	-5664
▁1:	-5665
▁basadas	-5666
▁div	-5667
▁configu	-5668
▁185	-5669
▁infraestructura	-5670
▁tuber	-5671
▁Neces	-5672
▁trigo	-5673
▁Jun	-5674
▁Egi	-5675
▁hel	-5676
▁sonidos	-5677
▁aprov	-5678
ight	-5679
▁Charles	-5680
▁apre	-5681
enti	-5682
esía	-5683
▁mantenerse	-5684
▁máquinas	-5685
▁terror	-5686
▁tarjetas	-5687
▁Norm	-5688
▁Wa	-5689
▁35	-5690
▁Juan	-5691
▁escribe	-5692
▁Pacífico	-5693
▁eficiencia	-5694
▁vin	-5695
▁civiles	-5696
▁Ciencia	-5697
▁nieve	-5698
▁automóviles	-5699
▁sirve	-5700
rocar	-5701
▁tesis	-5702
▁oído	-5703
denes	-5704
▁Richard	-5705
▁dedi	-5706
estas	-5707
▁On	-5708
CO	-5709
▁EL	-5710
▁Rey	-5711
▁oración	-5712
amento	-5713
ienes	-5714
▁discurso	-5715
ífer	-5716
éli	-5717
emplo	-5718
▁concepto	-5719
▁deja	-5720
▁candida	-5721
▁debemos	-5722
▁proveedores	-5723
https	-5724
var	-5725
▁orient	-5726
▁sanguíneo	-5727
▁gar	-5728
▁Vis	-5729
▁glánd	-5730
▁potenciales	-5731
book	-5732
▁pollo	-5733
▁Clar	-5734
▁Ciencias	-5735
▁ventana	-5736
▁francés	-5737
▁seg	-5738
ándo	-5739
%.	-5740
win	-5741
▁culturales	-5742
▁dolores	-5743
menta	-5744
▁originalmente	-5745
▁resulta	-5746
▁Indi	-5747
▁graves	-5748
▁filosofía	-5749
▁capaci	-5750
rido	-5751
▁Ital	-5752
▁necesitar	-5753
▁apariencia	-5754
▁tiro	-5755
▁esqu	-5756
1)	-5757
▁limpia	-5758
▁ingreso	-5759
▁cliente	-5760
5)	-5761
----	-5762
▁complejos	-5763
▁reemplaz	-5764
▁coopera	-5765
▁otoño	-5766
alizados	-5767
▁canal	-5768
puestos	-5769
ess	-5770
▁hogares	-5771
éu	-5772
▁North	-5773
▁basados	-5774
apones	-5775
▁tonel	-5776
▁amplio	-5777
▁hermoso	-5778
▁razon	-5779
▁tron	-5780
▁impresion	-5781
▁Control	-5782
▁antibióticos	-5783
din	-5784
▁gusta	-5785
mana	-5786
▁variables	-5787
▁instalación	-5788
▁guer	-5789
▁2009	-5790
américa	-5791
▁suscepti	-5792
▁sólo	-5793
▁emocional	-5794
▁Información	-5795
▁UN	-5796
▁predic	-5797
▁calcul	-5798
▁otor	-5799
▁Egipto	-5800
▁produjo	-5801
▁plane	-5802
▁tomado	-5803
▁suficientes	-5804
▁adver	-5805
▁profundidad	-5806
ement	-5807
▁inmunológico	-5808
▁Enferme	-5809
▁densidad	-5810
rieron	-5811
▁nutrición	-5812
▁lun	-5813
▁encuesta	-5814
▁universo	-5815
▁subterrán	-5816
▁perdido	-5817
14	-5818
▁cató	-5819
▁distrito	-5820
▁creo	-5821
▁glucosa	-5822
▁célula	-5823
▁arena	-5824
▁restos	-5825
▁tren	-5826
uta	-5827
aca	-5828
▁cosecha	-5829
▁Cos	-5830
▁calorías	-5831
▁insul	-5832
▁cardíaca	-5833
▁nueve	-5834
▁retro	-5835
adura	-5836
▁Ps	-5837
▁liderazgo	-5838
18	-5839
▁banda	-5840
pens	-5841
burg	-5842
chos	-5843
uestra	-5844
▁COVID	-5845
▁noticia	-5846
terías	-5847
rique	-5848
▁event	-5849
▁(3	-5850
▁Vie	-5851
▁extensión	-5852
▁inteligente	-5853
atéli	-5854
▁fenóm	-5855
ísticos	-5856
▁Tec	-5857
ezas	-5858
ye	-5859
▁Stre	-5860
▁creía	-5861
▁gravedad	-5862
▁Frank	-5863
▁Bas	-5864
▁fase	-5865
▁arquitectura	-5866
▁hígado	-5867
gén	-5868
▁ST	-5869
ak	-5870
▁Reci	-5871
▁largas	-5872
▁Scien	-5873
▁República	-5874
▁ligeramente	-5875
▁Aca	-5876
▁Bla	-5877
▁usualmente	-5878
▁Seguridad	-5879
▁Jack	-5880
▁esclavos	-5881
▁ejercicios	-5882
▁Anti	-5883
▁estrella	-5884
esterol	-5885
▁compañía	-5886
▁Irlan	-5887
▁propuesta	-5888
▁Gar	-5889
▁silves	-5890
▁Hab	-5891
ild	-5892
▁ganan	-5893
tein	-5894
▁severa	-5895
▁directa	-5896
hal	-5897
▁existe	-5898
▁visual	-5899
cir	-5900
étr	-5901
fas	-5902
▁circul	-5903
▁:	-5904
▁pilo	-5905
▁compuesto	-5906
▁admi	-5907
▁Especi	-5908
inados	-5909
▁Recu	-5910
▁atrac	-5911
▁2014	-5912
▁Proporcion	-5913
▁recomendaciones	-5914
tú	-5915
IA	-5916
▁típ	-5917
▁islas	-5918
▁matar	-5919
▁superar	-5920
▁mortal	-5921
▁vienen	-5922
▁brillantes	-5923
▁extin	-5924
▁abejas	-5925
▁circuns	-5926
▁militares	-5927
▁grasas	-5928
▁duda	-5929
▁juicio	-5930
art	-5931
óxido	-5932
▁cartas	-5933
▁espectro	-5934
▁Organización	-5935
rom	-5936
▁Hasta	-5937
CS	-5938
▁dominio	-5939
▁calcio	-5940
▁ileg	-5941
▁inci	-5942
tical	-5943
mun	-5944
▁investigar	-5945
▁instrucciones	-5946
▁500	-5947
▁teléfonos	-5948
▁piedras	-5949
ilip	-5950
▁sustancias	-5951
▁largos	-5952
▁fertili	-5953
ders	-5954
ionales	-5955
omen	-5956
▁aumentado	-5957
▁represent	-5958
let	-5959
▁Mad	-5960
▁descripción	-5961
▁suficientemente	-5962
▁>	-5963
Con	-5964
▁británicos	-5965
▁múltiples	-5966
▁Mil	-5967
▁184	-5968
izon	-5969
▁respecto	-5970
▁Sí	-5971
▁hija	-5972
rupción	-5973
igan	-5974
▁constantemente	-5975
▁positivo	-5976
▁España	-5977
igo	-5978
hibición	-5979
▁vehículos	-5980
▁utilizadas	-5981
▁deba	-5982
▁electrónicos	-5983
▁Río	-5984
-9	-5985
▁Colum	-5986
Un	-5987
▁Ros	-5988
right	-5989
▁parec	-5990
▁contenedor	-5991
BN	-5992
▁compañeros	-5993
▁neur	-5994
▁bases	-5995
▁impul	-5996
▁farma	-5997
▁pedir	-5998
▁tabaco	-5999
▁iguales	-6000
▁experimentos	-6001
▁evidente	-6002
hael	-6003
▁específicamente	-6004
ej	-6005
▁territorio	-6006
▁agencias	-6007
▁tox	-6008
▁coinci	-6009
▁símbolo	-6010
▁2008	-6011
▁montañas	-6012
omba	-6013
▁defini	-6014
200	-6015
▁0,	-6016
▁vistas	-6017
▁hábitos	-6018
▁componente	-6019
▁enter	-6020
▁reemplazar	-6021
▁fan	-6022
▁hayan	-6023
▁cocin	-6024
▁sensación	-6025
▁ricos	-6026
▁físicos	-6027
ilar	-6028
▁mud	-6029
▁subs	-6030
▁ára	-6031
▁administración	-6032
▁currículum	-6033
▁St	-6034
▁órganos	-6035
▁bebidas	-6036
▁define	-6037
▁naciones	-6038
op	-6039
▁Carolina	-6040
▁Sig	-6041
▁artificial	-6042
▁públicos	-6043
▁Arch	-6044
ferencias	-6045
23	-6046
▁prol	-6047
▁Roma	-6048
▁manz	-6049
▁equival	-6050
▁sencillo	-6051
500	-6052
▁West	-6053
▁Baj	-6054
▁básica	-6055
▁avión	-6056
tory	-6057
▁relacionada	-6058
tigo	-6059
esión	-6060
▁desarrolla	-6061
▁notable	-6062
▁coleg	-6063
▁hablando	-6064
▁humanas	-6065
▁ecu	-6066
▁uni	-6067
clo	-6068
▁cm	-6069
▁Sco	-6070
▁llena	-6071
▁característica	-6072
▁alf	-6073
▁histori	-6074
▁estuvo	-6075
▁comunicaciones	-6076
▁parecer	-6077
▁británico	-6078
▁proporcionando	-6079
▁refug	-6080
▁Rom	-6081
▁caminar	-6082
▁congel	-6083
▁testi	-6084
entarse	-6085
bita	-6086
elos	-6087
▁descubrió	-6088
▁visitantes	-6089
▁creencias	-6090
▁dia	-6091
olos	-6092
▁imper	-6093
ducen	-6094
▁llamados	-6095
▁culturas	-6096
▁aman	-6097
▁Lan	-6098
▁personajes	-6099
ímenes	-6100
▁tengan	-6101
heim	-6102
▁bote	-6103
▁Vi	-6104
▁alea	-6105
▁supervivencia	-6106
▁Irlanda	-6107
▁Sea	-6108
▁interacción	-6109
▁urb	-6110
▁temporal	-6111
lege	-6112
▁arreg	-6113
▁parejas	-6114
▁abrir	-6115
▁aplica	-6116
▁31	-6117
▁escena	-6118
cionario	-6119
▁creencia	-6120
▁moléculas	-6121
7)	-6122
▁exca	-6123
▁cama	-6124
▁licencia	-6125
▁mensajes	-6126
▁establecido	-6127
▁entregar	-6128
▁hermosa	-6129
▁propa	-6130
ítulos	-6131
▁enfrenta	-6132
▁síndrome	-6133
▁económicos	-6134
▁abuso	-6135
ecta	-6136
▁Comisión	-6137
6)	-6138
▁representación	-6139
▁ocasiones	-6140
▁Dec	-6141
▁frac	-6142
▁3,	-6143
▁cultivo	-6144
▁inverna	-6145
dadores	-6146
ficar	-6147
▁tela	-6148
▁mm	-6149
▁mostra	-6150
▁sensor	-6151
▁Del	-6152
▁enc	-6153
tración	-6154
▁ine	-6155
▁impactos	-6156
▁lesión	-6157
gráfica	-6158
▁infancia	-6159
▁causado	-6160
alizada	-6161
cionar	-6162
▁exclus	-6163
▁enz	-6164
▁atmósfera	-6165
▁Entonces	-6166
▁policía	-6167
ux	-6168
cieron	-6169
▁requerir	-6170
▁ácidos	-6171
▁algorit	-6172
▁presentes	-6173
▁saben	-6174
uros	-6175
▁existentes	-6176
hip	-6177
7).	-6178
icago	-6179
▁óp	-6180
▁grues	-6181
Este	-6182
▁creer	-6183
▁300	-6184
5).	-6185
▁conexiones	-6186
▁puedas	-6187
▁satéli	-6188
▁inteligentes	-6189
cicle	-6190
▁respiración	-6191
tén	-6192
▁Niños	-6193
▁Ox	-6194
▁Italia	-6195
▁doble	-6196
▁colesterol	-6197
▁olvid	-6198
▁Tecn	-6199
ulario	-6200
▁agrega	-6201
▁triste	-6202
▁plu	-6203
▁cristianos	-6204
RA	-6205
▁llegaron	-6206
▁destrucción	-6207
▁histórico	-6208
▁aviones	-6209
▁hubieran	-6210
▁cola	-6211
▁moral	-6212
▁feliz	-6213
▁Fuente	-6214
▁caza	-6215
tano	-6216
ket	-6217
▁cobre	-6218
ítica	-6219
▁sev	-6220
▁Pad	-6221
▁suer	-6222
deos	-6223
▁Central	-6224
▁conversación	-6225
▁meteor	-6226
tillas	-6227
▁cá	-6228
▁matrimonio	-6229
▁comienzo	-6230
▁fie	-6231
▁sufrir	-6232
▁micros	-6233
▁toneladas	-6234
cleo	-6235
▁llamadas	-6236
▁Os	-6237
▁dental	-6238
▁mostró	-6239
▁observación	-6240
▁direcciones	-6241
▁asociación	-6242
ENT	-6243
ning	-6244
▁hermano	-6245
▁cub	-6246
▁lago	-6247
▁digitales	-6248
uk	-6249
derales	-6250
▁implementar	-6251
▁Red	-6252
▁secuencia	-6253
▁pajar	-6254
▁legales	-6255
▁aprovech	-6256
▁gato	-6257
▁electri	-6258
▁masco	-6259
▁increíble	-6260
▁poesía	-6261
peran	-6262
▁sacerdo	-6263
▁permitió	-6264
▁roja	-6265
ídos	-6266
▁idiomas	-6267
▁consciente	-6268
▁intervención	-6269
▁concre	-6270
▁gastos	-6271
▁Estudios	-6272
▁bel	-6273
▁dimens	-6274
▁IP	-6275
dentes	-6276
▁Van	-6277
▁honor	-6278
▁We	-6279
venciones	-6280
▁conclusión	-6281
▁minim	-6282
▁Lim	-6283
▁resuel	-6284
ñones	-6285
ariz	-6286
alax	-6287
▁descom	-6288
lag	-6289
undamente	-6290
▁sup	-6291
▁copia	-6292
colo	-6293
▁japones	-6294
▁extens	-6295
Re	-6296
▁continuación	-6297
▁positiva	-6298
▁9.	-6299
dría	-6300
▁nació	-6301
▁artic	-6302
▁||	-6303
lán	-6304
puestas	-6305
igual	-6306
▁templo	-6307
▁fundamental	-6308
fos	-6309
emia	-6310
▁moderno	-6311
▁cuentas	-6312
▁jardines	-6313
▁extraordin	-6314
tral	-6315
jec	-6316
▁ópti	-6317
▁trop	-6318
▁Intro	-6319
▁fósiles	-6320
▁presiden	-6321
▁Die	-6322
6).	-6323
▁limpiar	-6324
king	-6325
▁caer	-6326
▁aspecto	-6327
▁desh	-6328
▁cortos	-6329
udas	-6330
▁papeles	-6331
▁45	-6332
tem	-6333
▁actuar	-6334
Has	-6335
copio	-6336
erador	-6337
anzas	-6338
▁bloques	-6339
▁alemanes	-6340
▁conocen	-6341
▁Presidente	-6342
LA	-6343
▁sabe	-6344
▁serían	-6345
▁probables	-6346
▁variedades	-6347
▁bru	-6348
ígenes	-6349
▁ventaja	-6350
▁relevantes	-6351
▁revisar	-6352
▁compromiso	-6353
▁víctimas	-6354
▁dram	-6355
▁estés	-6356
▁Cambi	-6357
▁prescri	-6358
▁implica	-6359
▁París	-6360
▁capturar	-6361
urnal	-6362
▁drenaje	-6363
▁blancas	-6364
▁Chicago	-6365
▁taza	-6366
▁construyó	-6367
▁clasific	-6368
unci	-6369
▁adecuado	-6370
fre	-6371
▁marcas	-6372
onde	-6373
▁retirar	-6374
iales	-6375
ocia	-6376
ursos	-6377
ueva	-6378
▁2000	-6379
▁reacciones	-6380
▁resultar	-6381
▁reproducción	-6382
▁busca	-6383
▁breve	-6384
▁Espa	-6385
▁financiera	-6386
▁tercera	-6387
▁batería	-6388
▁sencilla	-6389
▁sól	-6390
gal	-6391
▁gla	-6392
▁III	-6393
▁sexo	-6394
RE	-6395
▁bandera	-6396
▁dificultad	-6397
▁mel	-6398
▁núcleo	-6399
▁visitar	-6400
dador	-6401
▁destin	-6402
▁perfecto	-6403
▁by	-6404
▁estatales	-6405
the	-6406
tín	-6407
low	-6408
▁simples	-6409
▁caballo	-6410
▁hipó	-6411
▁activa	-6412
▁caja	-6413
▁mínimo	-6414
▁mirar	-6415
▁quería	-6416
▁segundos	-6417
▁eventualmente	-6418
▁renta	-6419
▁proveedor	-6420
▁Super	-6421
▁Michael	-6422
▁interesantes	-6423
▁Uno	-6424
▁malo	-6425
▁roca	-6426
▁utilizaron	-6427
▁desa	-6428
▁internet	-6429
▁lentamente	-6430
▁servidor	-6431
▁humanidad	-6432
▁referencias	-6433
▁luchar	-6434
▁cif	-6435
▁Conside	-6436
▁consecuencias	-6437
▁cubrir	-6438
teb	-6439
▁dijeron	-6440
▁críticos	-6441
▁vigilancia	-6442
▁ancho	-6443
ude	-6444
gon	-6445
▁textos	-6446
▁silen	-6447
▁Estatal	-6448
▁limita	-6449
éase	-6450
rana	-6451
▁Escocia	-6452
75	-6453
▁sobrevivir	-6454
▁Oh	-6455
▁trabaja	-6456
▁independencia	-6457
▁intentando	-6458
emas	-6459
▁mecanismo	-6460
▁consiste	-6461
▁profundamente	-6462
▁ventajas	-6463
▁quiere	-6464
ull	-6465
▁EN	-6466
su	-6467
▁vemos	-6468
gó	-6469
▁modernos	-6470
▁Fac	-6471
▁Henry	-6472
24	-6473
▁Biblioteca	-6474
tring	-6475
▁departamento	-6476
▁ago	-6477
eca	-6478
▁Proyec	-6479
guen	-6480
▁puente	-6481
▁trá	-6482
itarios	-6483
▁gris	-6484
▁computación	-6485
▁películas	-6486
zcan	-6487
▁integral	-6488
adien	-6489
▁Fer	-6490
idor	-6491
▁Navidad	-6492
▁antiguas	-6493
▁optim	-6494
▁muertos	-6495
▁extiende	-6496
ami	-6497
▁importa	-6498
st	-6499
▁traer	-6500
▁Comité	-6501
▁presion	-6502
▁Sir	-6503
▁explora	-6504
▁Ase	-6505
encaden	-6506
▁intercambio	-6507
▁asocia	-6508
▁Santa	-6509
▁observaciones	-6510
▁hacemos	-6511
▁gira	-6512
▁National	-6513
▁disfrutar	-6514
▁Fuer	-6515
▁discip	-6516
▁Stan	-6517
uría	-6518
igna	-6519
▁normales	-6520
▁figu	-6521
▁calles	-6522
elec	-6523
▁Trabaj	-6524
▁empleo	-6525
lece	-6526
▁afuera	-6527
úr	-6528
▁cit	-6529
iss	-6530
licas	-6531
▁Green	-6532
▁obesidad	-6533
bado	-6534
De	-6535
▁desencaden	-6536
▁federales	-6537
▁instrumentos	-6538
▁intelec	-6539
▁Paul	-6540
▁sacri	-6541
▁artistas	-6542
▁presupuesto	-6543
▁permiso	-6544
▁ondas	-6545
▁interpretación	-6546
▁civi	-6547
▁183	-6548
▁móviles	-6549
▁europeos	-6550
▁esquema	-6551
▁mascul	-6552
▁ingredientes	-6553
▁llamar	-6554
▁respeto	-6555
▁generar	-6556
bor	-6557
▁monedas	-6558
dición	-6559
char	-6560
pli	-6561
orar	-6562
domin	-6563
▁globales	-6564
▁universidades	-6565
▁Alex	-6566
▁extremo	-6567
mago	-6568
uerto	-6569
▁funcional	-6570
▁Constitución	-6571
vel	-6572
▁Porque	-6573
▁tomando	-6574
▁causando	-6575
▁quema	-6576
▁usando	-6577
▁canción	-6578
▁secundarios	-6579
▁cercana	-6580
▁alternativa	-6581
▁Dar	-6582
▁obliga	-6583
ant	-6584
▁horizon	-6585
▁pesca	-6586
▁rique	-6587
éro	-6588
▁numeros	-6589
ise	-6590
▁coloc	-6591
rente	-6592
▁placa	-6593
▁recuerda	-6594
▁ISBN	-6595
▁Martin	-6596
his	-6597
▁Britán	-6598
▁cardio	-6599
▁fic	-6600
▁esclavi	-6601
▁transición	-6602
▁lleno	-6603
▁Ko	-6604
▁Sistema	-6605
▁viajes	-6606
▁mantienen	-6607
ets	-6608
▁generales	-6609
esor	-6610
rueba	-6611
▁sugieren	-6612
imas	-6613
▁mód	-6614
▁detalle	-6615
▁elegido	-6616
▁iluminación	-6617
2).	-6618
dal	-6619
gramas	-6620
▁tuvieron	-6621
▁hermanos	-6622
▁estó	-6623
▁futuros	-6624
▁Bio	-6625
▁terres	-6626
▁it	-6627
▁College	-6628
▁deten	-6629
▁expansión	-6630
▁orgul	-6631
▁Mun	-6632
▁canadien	-6633
▁agres	-6634
▁generaciones	-6635
uestas	-6636
▁Recuperado	-6637
▁escritor	-6638
▁pis	-6639
▁War	-6640
▁combustibles	-6641
▁identificación	-6642
▁buenos	-6643
oxid	-6644
lim	-6645
▁luces	-6646
terin	-6647
rate	-6648
▁unas	-6649
▁fiebre	-6650
▁vege	-6651
▁provo	-6652
▁vuelva	-6653
blic	-6654
tición	-6655
TM	-6656
utili	-6657
▁galax	-6658
▁desafi	-6659
field	-6660
▁detallada	-6661
▁negativos	-6662
riendo	-6663
▁vitaminas	-6664
▁suministros	-6665
trac	-6666
▁afirmación	-6667
undaciones	-6668
▁equilib	-6669
▁agrícolas	-6670
▁empez	-6671
orden	-6672
itis	-6673
row	-6674
▁tendrán	-6675
yth	-6676
▁espiritual	-6677
▁surg	-6678
▁suerte	-6679
▁diferenci	-6680
hire	-6681
▁2:	-6682
sey	-6683
▁probar	-6684
▁montaña	-6685
lera	-6686
▁industrial	-6687
▁Encu	-6688
▁corona	-6689
▁AP	-6690
▁Mass	-6691
entanas	-6692
▁baño	-6693
▁puertas	-6694
▁etapas	-6695
tificación	-6696
▁descubierto	-6697
▁cita	-6698
▁Gru	-6699
▁físicas	-6700
▁line	-6701
▁interesados	-6702
▁histórica	-6703
▁quin	-6704
yó	-6705
▁NO	-6706
▁paquete	-6707
▁cercano	-6708
▁espar	-6709
▁pastor	-6710
▁prisión	-6711
mporán	-6712
▁gestionar	-6713
▁Bri	-6714
gs	-6715
wood	-6716
▁equip	-6717
▁tengo	-6718
▁gubernamentales	-6719
▁2015	-6720
pla	-6721
erar	-6722
▁listo	-6723
▁defen	-6724
▁premio	-6725
iduría	-6726
▁estómago	-6727
▁VIH	-6728
▁reuniones	-6729
ísica	-6730
▁oscuro	-6731
▁sentirse	-6732
▁Vic	-6733
▁desigual	-6734
▁mapas	-6735
▁ira	-6736
▁compens	-6737
▁asistencia	-6738
▁realizado	-6739
▁Trabajo	-6740
▁Jose	-6741
▁queremos	-6742
▁peg	-6743
lero	-6744
▁Div	-6745
▁aliment	-6746
▁record	-6747
▁dependiendo	-6748
tables	-6749
▁puntu	-6750
▁carbo	-6751
▁intención	-6752
ombros	-6753
▁históricos	-6754
▁lector	-6755
imen	-6756
▁LA	-6757
▁Jos	-6758
iló	-6759
ii	-6760
▁clínica	-6761
▁hol	-6762
▁básicas	-6763
▁hidrógeno	-6764
▁jugadores	-6765
▁vehículo	-6766
▁viajar	-6767
▁existen	-6768
▁Brown	-6769
tuvieron	-6770
cionados	-6771
amble	-6772
▁parale	-6773
▁crean	-6774
▁deriv	-6775
oy	-6776
▁contenedores	-6777
▁anci	-6778
▁AC	-6779
▁extremos	-6780
▁enferm	-6781
▁presentan	-6782
▁agencia	-6783
▁fel	-6784
▁primeras	-6785
▁ester	-6786
áticamente	-6787
▁bomba	-6788
taje	-6789
▁monum	-6790
▁King	-6791
▁hipótesis	-6792
▁dispers	-6793
lamento	-6794
▁arroz	-6795
▁1/	-6796
▁crimin	-6797
▁invernadero	-6798
▁use	-6799
▁cober	-6800
▁regulaciones	-6801
▁cambia	-6802
▁PC	-6803
▁alemán	-6804
▁salvar	-6805
dujeron	-6806
▁preguntó	-6807
▁refor	-6808
▁calentamiento	-6809
uce	-6810
US	-6811
▁dormir	-6812
▁étn	-6813
▁Cla	-6814
▁Tab	-6815
▁radic	-6816
▁abord	-6817
iernes	-6818
lement	-6819
▁vál	-6820
4).	-6821
▁Peter	-6822
ilas	-6823
▁Real	-6824
▁mara	-6825
▁36	-6826
▁Georg	-6827
▁totalmente	-6828
ole	-6829
▁presentó	-6830
▁reciben	-6831
▁famoso	-6832
ah	-6833
▁ital	-6834
blo	-6835
▁htt	-6836
idez	-6837
▁nariz	-6838
▁marrón	-6839
▁granos	-6840
▁hormonas	-6841
▁producido	-6842
▁fabricantes	-6843
▁cultivar	-6844
▁secciones	-6845
▁conocidas	-6846
▁discriminación	-6847
venta	-6848
▁ling	-6849
▁Island	-6850
▁busc	-6851
▁rutas	-6852
gías	-6853
▁garantiza	-6854
▁fauna	-6855
▁Econ	-6856
▁caminos	-6857
▁riqueza	-6858
dable	-6859
▁sensores	-6860
▁opiniones	-6861
▁imposi	-6862
dias	-6863
-7	-6864
▁sent	-6865
pp	-6866
mentar	-6867
ianos	-6868
▁explicación	-6869
tia	-6870
ring	-6871
▁almacenar	-6872
▁dueños	-6873
logía	-6874
titudes	-6875
▁relevante	-6876
▁metales	-6877
▁libras	-6878
Se	-6879
▁instalaciones	-6880
ñón	-6881
▁crecen	-6882
▁coloca	-6883
▁órdenes	-6884
▁solicitud	-6885
▁narra	-6886
▁Primera	-6887
▁cabello	-6888
▁musulmanes	-6889
▁expresar	-6890
▁mostrado	-6891
IM	-6892
▁hemb	-6893
▁construido	-6894
▁ano	-6895
▁museo	-6896
trop	-6897
▁tubo	-6898
▁2016	-6899
anismo	-6900
▁Francisco	-6901
▁IN	-6902
idación	-6903
▁preparar	-6904
▁combina	-6905
▁cuanto	-6906
▁inciden	-6907
▁medicamento	-6908
28	-6909
tone	-6910
▁analizar	-6911
▁austra	-6912
▁átom	-6913
▁realizan	-6914
▁personaje	-6915
▁Europea	-6916
▁tienden	-6917
▁rocas	-6918
unty	-6919
órm	-6920
▁mecanismos	-6921
▁establece	-6922
▁permanente	-6923
▁cambiado	-6924
▁turb	-6925
ulado	-6926
▁representar	-6927
▁baterías	-6928
quen	-6929
▁alber	-6930
▁Mat	-6931
▁apoya	-6932
▁Recursos	-6933
▁preval	-6934
TA	-6935
▁abre	-6936
▁definir	-6937
▁posiblemente	-6938
▁década	-6939
90	-6940
▁categoría	-6941
▁conv	-6942
▁ventanas	-6943
ng	-6944
▁Núm	-6945
▁recibido	-6946
▁cumpl	-6947
▁reclam	-6948
bridge	-6949
▁sabía	-6950
▁tempranos	-6951
▁circunstancias	-6952
hidratos	-6953
▁abo	-6954
▁deseo	-6955
▁oscura	-6956
Al	-6957
▁evolucion	-6958
▁hongos	-6959
▁esclavitud	-6960
▁Están	-6961
1).	-6962
▁seco	-6963
▁Ningún	-6964
zi	-6965
▁Derechos	-6966
▁categorías	-6967
▁molec	-6968
▁ign	-6969
▁Dem	-6970
▁toman	-6971
▁Health	-6972
íferos	-6973
▁aumentan	-6974
▁Programa	-6975
vemente	-6976
▁dimensiones	-6977
3).	-6978
▁habitantes	-6979
▁alumnos	-6980
▁Marte	-6981
ped	-6982
sor	-6983
▁continuo	-6984
▁estaciones	-6985
ugi	-6986
▁Mag	-6987
▁interacciones	-6988
ácter	-6989
▁contemporán	-6990
incl	-6991
▁lás	-6992
rosión	-6993
▁reserva	-6994
▁efectividad	-6995
▁transmitir	-6996
▁ré	-6997
ína	-6998
ics	-6999
▁electricidad	-7000
▁Inf	-7001
▁aparece	-7002
▁servir	-7003
▁biología	-7004
▁Kar	-7005
tum	-7006
dows	-7007
esis	-7008
▁computador	-7009
▁metas	-7010
▁significativos	-7011
▁pudiera	-7012
terri	-7013
17	-7014
▁normas	-7015
ls	-7016
▁negativo	-7017
▁daños	-7018
▁Mas	-7019
▁clasificación	-7020
▁limitada	-7021
▁creando	-7022
▁aten	-7023
EP	-7024
ange	-7025
▁pérdidas	-7026
▁crece	-7027
▁Geo	-7028
idi	-7029
▁lluvia	-7030
tificar	-7031
esto	-7032
▁reflex	-7033
9)	-7034
alos	-7035
▁Ven	-7036
▁sabiduría	-7037
pati	-7038
▁psicología	-7039
SS	-7040
iera	-7041
tillo	-7042
▁torre	-7043
▁Cab	-7044
▁Condado	-7045
▁investigador	-7046
ráficas	-7047
▁tendencias	-7048
orld	-7049
▁versiones	-7050
▁aprendices	-7051
▁momentos	-7052
har	-7053
▁expor	-7054
▁mueve	-7055
▁durar	-7056
uno	-7057
bs	-7058
▁unión	-7059
▁tocar	-7060
▁usa	-7061
▁periódico	-7062
▁negras	-7063
ily	-7064
▁pasan	-7065
▁originales	-7066
▁eléctricos	-7067
▁33	-7068
▁positivos	-7069
cara	-7070
▁llegado	-7071
ciona	-7072
▁Corea	-7073
triz	-7074
▁ingenieros	-7075
▁South	-7076
▁cabezas	-7077
▁Street	-7078
lice	-7079
▁gráficos	-7080
▁especta	-7081
cismo	-7082
▁imagin	-7083
▁jugue	-7084
▁Bras	-7085
▁Edad	-7086
▁inundaciones	-7087
▁fotos	-7088
▁mercados	-7089
▁raíz	-7090
▁infantil	-7091
▁estatu	-7092
45	-7093
▁desarrollando	-7094
▁Está	-7095
▁Haw	-7096
▁eva	-7097
▁Em	-7098
▁intestin	-7099
▁2017	-7100
▁proporcionó	-7101
ology	-7102
trato	-7103
▁correr	-7104
▁conjuntos	-7105
▁conscientes	-7106
irman	-7107
od	-7108
▁diversos	-7109
-18	-7110
▁Bay	-7111
26	-7112
▁hidro	-7113
▁vital	-7114
▁salvajes	-7115
▁celulares	-7116
▁amenazas	-7117
▁autismo	-7118
▁teorías	-7119
▁dicho	-7120
▁solares	-7121
heimer	-7122
▁crónica	-7123
▁Sobre	-7124
▁visible	-7125
usal	-7126
gl	-7127
▁variable	-7128
▁naran	-7129
▁contribuir	-7130
▁tropas	-7131
▁formal	-7132
▁hem	-7133
▁cardiovas	-7134
▁aprenden	-7135
▁agentes	-7136
▁levantar	-7137
▁Gro	-7138
bierno	-7139
▁intensidad	-7140
▁zor	-7141
▁desvi	-7142
yección	-7143
▁percepción	-7144
100	-7145
pul	-7146
▁planetas	-7147
CD	-7148
▁Ingenier	-7149
íficas	-7150
▁vecinos	-7151
tí	-7152
▁recolectar	-7153
ella	-7154
▁utilizarse	-7155
▁conectar	-7156
▁centrales	-7157
▁imposible	-7158
▁bicicle	-7159
CA	-7160
▁www	-7161
▁torn	-7162
▁funcionan	-7163
usto	-7164
▁Men	-7165
▁tormenta	-7166
▁metá	-7167
▁símbolos	-7168
▁concepción	-7169
▁Energía	-7170
udad	-7171
tox	-7172
▁escritos	-7173
▁carbohidratos	-7174
▁Aún	-7175
▁uniform	-7176
▁ramas	-7177
▁reino	-7178
▁estadísticas	-7179
ablo	-7180
▁Imperio	-7181
▁proporcionado	-7182
▁pone	-7183
▁diarias	-7184
landes	-7185
▁periodo	-7186
▁mono	-7187
▁estilos	-7188
▁volun	-7189
▁tratado	-7190
▁gratuita	-7191
▁Blan	-7192
▁rurales	-7193
▁comerci	-7194
▁semilla	-7195
8)	-7196
▁móvil	-7197
▁diversas	-7198
▁County	-7199
▁asesina	-7200
▁elimin	-7201
▁Sem	-7202
rión	-7203
▁estatus	-7204
▁Jef	-7205
▁Espera	-7206
ób	-7207
▁circuito	-7208
▁económicas	-7209
▁cobertura	-7210
▁conducir	-7211
▁Artícul	-7212
▁ultra	-7213
▁mostraron	-7214
▁Luis	-7215
▁plano	-7216
▁sensibilidad	-7217
▁griego	-7218
▁agrícola	-7219
▁fórm	-7220
▁decidir	-7221
fil	-7222
▁apropiado	-7223
▁Corte	-7224
▁discutir	-7225
▁Columbia	-7226
▁magni	-7227
sion	-7228
▁peligroso	-7229
yl	-7230
")	-7231
▁Sub	-7232
▁diges	-7233
ann	-7234
kh	-7235
anes	-7236
▁transferencia	-7237
▁Oxford	-7238
lad	-7239
▁nitró	-7240
IP	-7241
▁partidos	-7242
▁compleja	-7243
▁apel	-7244
▁Agencia	-7245
▁Cient	-7246
▁Pueden	-7247
uck	-7248
▁insulina	-7249
▁pref	-7250
áfrica	-7251
▁Obs	-7252
▁Labora	-7253
▁comité	-7254
▁conferencia	-7255
▁siento	-7256
▁explicó	-7257
▁aumentando	-7258
▁falla	-7259
UN	-7260
▁diseñados	-7261
line	-7262
▁molde	-7263
▁tribunal	-7264
BS	-7265
▁Hal	-7266
cebook	-7267
▁ES	-7268
coln	-7269
▁puerto	-7270
▁eno	-7271
entra	-7272
▁morir	-7273
▁Zel	-7274
▁nervioso	-7275
▁desea	-7276
tipo	-7277
ison	-7278
rias	-7279
▁ejecutar	-7280
▁limitado	-7281
▁enorme	-7282
▁pán	-7283
ajeros	-7284
▁nubes	-7285
▁canciones	-7286
▁sé	-7287
▁discipl	-7288
▁cerem	-7289
▁difusión	-7290
▁naturalmente	-7291
vido	-7292
▁carácter	-7293
▁personalidad	-7294
▁consulte	-7295
▁AR	-7296
▁destruir	-7297
▁círculo	-7298
ander	-7299
▁Times	-7300
▁Hill	-7301
▁Sue	-7302
▁decidió	-7303
amentos	-7304
▁tú	-7305
ritu	-7306
ranos	-7307
▁restricciones	-7308
▁Windows	-7309
▁sujetos	-7310
▁agregó	-7311
vania	-7312
diar	-7313
▁lógica	-7314
▁parámetros	-7315
▁extraño	-7316
▁valioso	-7317
▁Alrededor	-7318
▁Journal	-7319
▁mama	-7320
▁fallo	-7321
▁figuras	-7322
▁bil	-7323
▁australi	-7324
▁individuo	-7325
▁plomo	-7326
▁complejas	-7327
itán	-7328
▁varía	-7329
▁lenguas	-7330
▁Park	-7331
▁depós	-7332
9).	-7333
▁farmac	-7334
▁únicos	-7335
eria	-7336
▁veterin	-7337
▁gobernador	-7338
▁Joseph	-7339
ómica	-7340
▁artista	-7341
▁mantuvo	-7342
▁tiendas	-7343
▁fortalecer	-7344
▁2007	-7345
uto	-7346
ilo	-7347
▁cib	-7348
habili	-7349
sal	-7350
▁Norteamérica	-7351
▁tendrás	-7352
isterio	-7353
zones	-7354
▁intestino	-7355
IL	-7356
▁consulta	-7357
▁hecha	-7358
▁Tiene	-7359
▁vasos	-7360
▁vincul	-7361
▁sirvió	-7362
tritis	-7363
▁discapacidades	-7364
eck	-7365
▁niña	-7366
▁ferrocar	-7367
taría	-7368
▁coord	-7369
▁posiciones	-7370
▁granja	-7371
▁Ken	-7372
▁Administra	-7373
▁Pat	-7374
▁cuel	-7375
▁recicla	-7376
▁32	-7377
▁Blo	-7378
▁etiqueta	-7379
▁combate	-7380
tnam	-7381
pir	-7382
▁conoc	-7383
▁escrita	-7384
▁AS	-7385
▁conductores	-7386
▁ministro	-7387
▁practicar	-7388
▁registrar	-7389
▁fus	-7390
▁Sín	-7391
udis	-7392
▁tarjeta	-7393
▁periodis	-7394
▁placer	-7395
▁Neg	-7396
▁art	-7397
▁enfoques	-7398
▁continuó	-7399
▁previamente	-7400
less	-7401
▁Pri	-7402
▁encontramos	-7403
▁implicaciones	-7404
▁respal	-7405
▁héro	-7406
▁vacío	-7407
zz	-7408
▁virtual	-7409
▁Encontrar	-7410
▁Revolución	-7411
▁supervis	-7412
▁letra	-7413
▁criterios	-7414
ventud	-7415
▁Ohio	-7416
▁expecta	-7417
dería	-7418
▁técnicos	-7419
▁American	-7420
▁150	-7421
▁químico	-7422
▁subyac	-7423
▁tradiciones	-7424
▁lee	-7425
▁repi	-7426
▁IV	-7427
▁Parte	-7428
▁dedos	-7429
▁fuertemente	-7430
cilla	-7431
▁Johnson	-7432
▁onda	-7433
▁("	-7434
].	-7435
▁electrónica	-7436
hen	-7437
kins	-7438
▁experto	-7439
▁industrias	-7440
▁poderes	-7441
▁Maes	-7442
▁rojos	-7443
▁belleza	-7444
▁liberación	-7445
▁Ari	-7446
▁expresiones	-7447
zheimer	-7448
▁Coo	-7449
▁financieros	-7450
faz	-7451
▁Sil	-7452
▁Sudáfrica	-7453
▁obtuvo	-7454
▁banco	-7455
8).	-7456
utas	-7457
▁rico	-7458
▁cálculo	-7459
aste	-7460
▁Ali	-7461
plan	-7462
▁tortu	-7463
▁Lincoln	-7464
▁sienten	-7465
▁bron	-7466
▁Ambiente	-7467
mal	-7468
arlos	-7469
▁efectivos	-7470
▁aproximación	-7471
▁potencialmente	-7472
▁Enfermedades	-7473
Cuando	-7474
umb	-7475
Cuánto	-7476
▁sentimientos	-7477
▁etiquetas	-7478
▁rojas	-7479
orn	-7480
▁proporción	-7481
▁ic	-7482
▁hom	-7483
▁Jul	-7484
▁Tecnología	-7485
▁extranjeros	-7486
táculos	-7487
▁peligrosos	-7488
▁ayudó	-7489
▁impuesto	-7490
▁espaciales	-7491
endas	-7492
35	-7493
▁límite	-7494
▁dioses	-7495
▁experimento	-7496
tch	-7497
cracia	-7498
▁refugio	-7499
▁metabol	-7500
▁secos	-7501
▁laboral	-7502
▁igualdad	-7503
TS	-7504
▁queda	-7505
ju	-7506
▁procedimiento	-7507
▁ceb	-7508
▁voluntad	-7509
lah	-7510
▁muerto	-7511
▁celebra	-7512
▁modera	-7513
▁Sing	-7514
▁sedi	-7515
▁enve	-7516
uelos	-7517
▁Dise	-7518
▁inmigrantes	-7519
▁Alzheimer	-7520
▁cierta	-7521
▁dinám	-7522
▁excesiva	-7523
▁kiló	-7524
▁afectados	-7525
▁fronteras	-7526
espera	-7527
▁hos	-7528
▁amarillo	-7529
virus	-7530
▁líquidos	-7531
▁fores	-7532
bin	-7533
▁tumores	-7534
▁ang	-7535
▁previa	-7536
Lo	-7537
▁rese	-7538
▁religiosa	-7539
▁organismos	-7540
▁orina	-7541
▁periódicos	-7542
ferir	-7543
▁simul	-7544
▁Análisis	-7545
▁Boston	-7546
▁zonas	-7547
ócra	-7548
aya	-7549
▁Supre	-7550
ive	-7551
▁funcionar	-7552
▁extremadamente	-7553
▁innovación	-7554
▁privada	-7555
▁aterri	-7556
▁dióxido	-7557
alizadas	-7558
▁volcán	-7559
▁deuda	-7560
genos	-7561
ota	-7562
▁pudo	-7563
ute	-7564
▁fueran	-7565
▁causada	-7566
fit	-7567
▁reform	-7568
▁Pap	-7569
▁suici	-7570
erancia	-7571
etts	-7572
▁navegación	-7573
▁codific	-7574
cus	-7575
▁aceptar	-7576
▁tallos	-7577
▁400	-7578
viera	-7579
tallas	-7580
▁moverse	-7581
▁provincia	-7582
▁fija	-7583
▁nube	-7584
▁Proyecto	-7585
▁advers	-7586
▁180	-7587
▁erudi	-7588
gues	-7589
▁Partido	-7590
▁Facebook	-7591
▁Casa	-7592
▁asociada	-7593
▁My	-7594
▁Zelanda	-7595
tamo	-7596
▁lanzamiento	-7597
▁adecuada	-7598
ervación	-7599
%,	-7600
▁brazo	-7601
▁Inc	-7602
▁diseños	-7603
▁atrap	-7604
▁frase	-7605
To	-7606
▁exploración	-7607
▁4,	-7608
▁recurso	-7609
OL	-7610
▁aparecer	-7611
▁refugi	-7612
▁varían	-7613
▁Comp	-7614
try	-7615
▁cubre	-7616
▁hacía	-7617
▁millón	-7618
▁comparar	-7619
▁implic	-7620
▁Abra	-7621
ecido	-7622
enten	-7623
▁vs	-7624
▁orto	-7625
▁muscular	-7626
▁escritores	-7627
▁químicas	-7628
risti	-7629
▁rein	-7630
jora	-7631
▁vive	-7632
▁felicidad	-7633
▁reloj	-7634
▁fiscal	-7635
▁viernes	-7636
▁Tan	-7637
▁MD	-7638
▁Hosp	-7639
▁cortas	-7640
▁igualmente	-7641
▁Agua	-7642
▁gana	-7643
▁intento	-7644
▁canales	-7645
▁cultivos	-7646
▁señala	-7647
endario	-7648
▁expedi	-7649
▁munici	-7650
▁corrientes	-7651
ast	-7652
▁colonias	-7653
▁reconoce	-7654
ionalmente	-7655
▁Foto	-7656
▁alas	-7657
gy	-7658
rimir	-7659
▁Pen	-7660
▁lados	-7661
▁sequía	-7662
▁comentario	-7663
remos	-7664
▁maravil	-7665
▁Lake	-7666
▁importar	-7667
▁divertido	-7668
▁ilus	-7669
▁vende	-7670
▁bombar	-7671
bra	-7672
cidentales	-7673
▁terminó	-7674
mico	-7675
▁manif	-7676
áus	-7677
▁cerebrales	-7678
▁publicaciones	-7679
▁Georgia	-7680
tedes	-7681
estamento	-7682
▁revolucion	-7683
▁contaminantes	-7684
▁destino	-7685
▁utilizamos	-7686
▁Clas	-7687
san	-7688
▁crucial	-7689
▁manchas	-7690
▁cuándo	-7691
▁Arm	-7692
▁ventas	-7693
llos	-7694
umas	-7695
▁clínicos	-7696
▁Nunca	-7697
▁audio	-7698
▁arco	-7699
▁1)	-7700
mes	-7701
▁confiable	-7702
duzca	-7703
▁voluntarios	-7704
kipedia	-7705
▁judía	-7706
▁vender	-7707
▁fertiliz	-7708
▁competencia	-7709
▁realizaron	-7710
▁Hi	-7711
gma	-7712
▁anualmente	-7713
▁marcadores	-7714
▁Ayuda	-7715
33	-7716
▁aline	-7717
▁News	-7718
▁viendo	-7719
▁basándose	-7720
arm	-7721
▁filtro	-7722
▁PM	-7723
▁salir	-7724
▁lento	-7725
sin	-7726
▁Luna	-7727
▁Parque	-7728
▁episo	-7729
▁edades	-7730
vard	-7731
omal	-7732
▁pulmones	-7733
gico	-7734
▁Nuestros	-7735
An	-7736
▁heridas	-7737
▁dirige	-7738
▁asistir	-7739
▁quede	-7740
▁fría	-7741
▁ganancias	-7742
27	-7743
lín	-7744
tenta	-7745
▁ocasión	-7746
▁cali	-7747
▁Gobierno	-7748
▁aproac	-7749
tora	-7750
laje	-7751
▁Occidental	-7752
▁inser	-7753
▁Incluso	-7754
▁rever	-7755
▁restring	-7756
▁hábitats	-7757
▁quiero	-7758
▁esperaba	-7759
▁Io	-7760
▁mide	-7761
HA	-7762
▁acerca	-7763
▁cuello	-7764
▁AL	-7765
▁cris	-7766
▁capacidades	-7767
▁Brasil	-7768
▁Academia	-7769
ónica	-7770
▁agrade	-7771
▁ov	-7772
▁eficacia	-7773
▁observar	-7774
▁bienven	-7775
ulf	-7776
ebra	-7777
▁debili	-7778
▁rastre	-7779
▁ofer	-7780
▁entreten	-7781
▁Vida	-7782
▁agujeros	-7783
▁65	-7784
▁Contin	-7785
▁City	-7786
▁Ill	-7787
▁diámetro	-7788
achus	-7789
ansas	-7790
▁barrera	-7791
▁playa	-7792
▁revolución	-7793
▁sombra	-7794
▁teatro	-7795
▁acoso	-7796
▁felices	-7797
▁exitoso	-7798
aniel	-7799
ming	-7800
▁Science	-7801
▁comienzan	-7802
▁Mel	-7803
▁Histó	-7804
▁avanzada	-7805
▁Je	-7806
▁precisa	-7807
Pro	-7808
▁efectivamente	-7809
▁pár	-7810
▁convertido	-7811
▁instrumento	-7812
▁sospech	-7813
▁estric	-7814
29	-7815
▁complej	-7816
▁vib	-7817
táculo	-7818
xic	-7819
▁Person	-7820
vada	-7821
▁Elec	-7822
▁novela	-7823
▁eléctrico	-7824
▁fla	-7825
▁Publicado	-7826
lea	-7827
▁2018	-7828
▁Evalu	-7829
▁Er	-7830
Puedes	-7831
▁creían	-7832
▁introducir	-7833
IDA	-7834
ecimiento	-7835
ges	-7836
▁(4	-7837
▁biom	-7838
▁Federal	-7839
▁curva	-7840
▁gusanos	-7841
▁pez	-7842
▁terminar	-7843
▁cables	-7844
▁School	-7845
htm	-7846
OC	-7847
▁Jerusal	-7848
▁láser	-7849
▁seguido	-7850
▁paneles	-7851
▁respectivamente	-7852
▁Ram	-7853
▁Black	-7854
lesias	-7855
igos	-7856
▁accidentes	-7857
▁mosqui	-7858
▁interfaz	-7859
▁restaurar	-7860
▁educativos	-7861
▁descanso	-7862
tomía	-7863
ust	-7864
▁Bir	-7865
▁humed	-7866
▁antioxid	-7867
▁paquetes	-7868
▁aprendido	-7869
uya	-7870
▁Ear	-7871
egos	-7872
isa	-7873
▁engañ	-7874
▁hagan	-7875
▁Comer	-7876
▁pasando	-7877
túan	-7878
▁trip	-7879
entimiento	-7880
▁dec	-7881
tumb	-7882
▁Boo	-7883
▁firme	-7884
▁considerado	-7885
▁salvaje	-7886
▁refleja	-7887
▁barreras	-7888
mental	-7889
▁rég	-7890
▁Pak	-7891
▁reducido	-7892
▁Vamos	-7893
▁Hel	-7894
▁variación	-7895
lie	-7896
▁modi	-7897
▁ustedes	-7898
▁disminución	-7899
-10	-7900
▁pierna	-7901
tensión	-7902
▁Paso	-7903
▁curación	-7904
achusetts	-7905
▁académico	-7906
▁cad	-7907
▁comand	-7908
▁juntas	-7909
▁estabilidad	-7910
▁Colorado	-7911
▁cómodo	-7912
▁significativas	-7913
▁rece	-7914
ducciones	-7915
▁utilizaban	-7916
▁complicaciones	-7917
▁presa	-7918
▁irri	-7919
▁Adam	-7920
PR	-7921
▁adulto	-7922
anía	-7923
▁gráfico	-7924
▁convirtieron	-7925
▁maríti	-7926
mina	-7927
▁pecho	-7928
▁abiertos	-7929
▁ausencia	-7930
▁vecin	-7931
▁desier	-7932
▁motivo	-7933
▁urg	-7934
▁enseña	-7935
▁urban	-7936
▁Les	-7937
▁nano	-7938
▁document	-7939
piente	-7940
▁enfri	-7941
▁pesti	-7942
▁Pra	-7943
▁vulnerables	-7944
lamos	-7945
▁editor	-7946
▁parecía	-7947
▁perci	-7948
▁bastante	-7949
▁necesariamente	-7950
▁promin	-7951
▁superficies	-7952
Quién	-7953
▁manual	-7954
▁iniciativa	-7955
HD	-7956
haus	-7957
terapia	-7958
▁motores	-7959
▁disposición	-7960
▁Form	-7961
remo	-7962
▁doi	-7963
iver	-7964
▁Massachusetts	-7965
▁Rad	-7966
iller	-7967
▁Wood	-7968
▁indicar	-7969
▁integración	-7970
▁vídeos	-7971
earch	-7972
▁esco	-7973
inio	-7974
▁indican	-7975
fol	-7976
▁mostrando	-7977
▁universal	-7978
▁difundi	-7979
▁configuración	-7980
▁botón	-7981
▁informar	-7982
▁porta	-7983
▁rama	-7984
▁valle	-7985
its	-7986
ira	-7987
lab	-7988
▁compañías	-7989
udos	-7990
▁mac	-7991
izada	-7992
gúrate	-7993
▁teles	-7994
▁Lou	-7995
▁cierre	-7996
usos	-7997
demi	-7998
▁Té	-7999
▁fórmula	-8000
▁comenzado	-8001
▁regulares	-8002
▁Ama	-8003
▁Cer	-8004
▁restauración	-8005
▁institución	-8006
tha	-8007
gers	-8008
▁examina	-8009
▁202	-8010
▁olas	-8011
▁sanguíneos	-8012
▁relaj	-8013
▁determina	-8014
visiones	-8015
▁cerrar	-8016
▁régimen	-8017
▁pertur	-8018
▁técnico	-8019
▁encontraba	-8020
▁planos	-8021
▁ejecución	-8022
▁Bel	-8023
▁suplementos	-8024
▁compuesta	-8025
▁instrucción	-8026
▁sesiones	-8027
uegos	-8028
▁famosa	-8029
▁inmediato	-8030
▁doc	-8031
▁Autor	-8032
▁terrenos	-8033
▁permitiendo	-8034
orth	-8035
▁diente	-8036
▁diciendo	-8037
▁Wh	-8038
▁Hospital	-8039
▁plantar	-8040
▁kilómetros	-8041
▁escán	-8042
ieres	-8043
▁dispu	-8044
ze	-8045
▁Cámara	-8046
▁básico	-8047
lántico	-8048
▁Exper	-8049
ilvania	-8050
▁nativas	-8051
arla	-8052
▁Capítulo	-8053
▁ib	-8054
oración	-8055
▁microorgan	-8056
▁Ciudad	-8057
▁variaciones	-8058
▁privadas	-8059
▁verificar	-8060
▁transpar	-8061
▁motivación	-8062
patía	-8063
▁educativo	-8064
▁transformación	-8065
▁secas	-8066
▁hard	-8067
▁Ambos	-8068
▁fresca	-8069
▁choc	-8070
▁fundación	-8071
▁diseñar	-8072
▁pandemia	-8073
▁vieron	-8074
▁conducción	-8075
▁Toda	-8076
osiciones	-8077
liotecas	-8078
▁zo	-8079
nea	-8080
▁Secre	-8081
▁privado	-8082
oles	-8083
▁ficción	-8084
mann	-8085
damente	-8086
ertura	-8087
▁comando	-8088
▁Inde	-8089
▁Bl	-8090
▁Grupo	-8091
▁tienda	-8092
▁alternativas	-8093
▁cura	-8094
▁asma	-8095
▁huevo	-8096
▁ángulo	-8097
▁migración	-8098
crá	-8099
▁entrevis	-8100
Ar	-8101
▁entornos	-8102
izados	-8103
▁tablero	-8104
▁Edward	-8105
osis	-8106
▁incapa	-8107
▁bolsa	-8108
abulario	-8109
▁listas	-8110
▁aumentó	-8111
MA	-8112
▁cristal	-8113
▁alimentar	-8114
IR	-8115
▁parás	-8116
dora	-8117
▁independientes	-8118
▁ele	-8119
▁Star	-8120
▁34	-8121
▁Oriente	-8122
▁jardin	-8123
▁Cambridge	-8124
rones	-8125
▁Jerusalén	-8126
▁vec	-8127
▁profesora	-8128
▁Mari	-8129
▁recuperar	-8130
onía	-8131
▁cámaras	-8132
▁posibilidades	-8133
▁quitar	-8134
▁multiplic	-8135
▁cebol	-8136
▁resca	-8137
▁piso	-8138
▁británica	-8139
▁Tro	-8140
▁pató	-8141
▁ratón	-8142
EE	-8143
▁dulces	-8144
▁sirven	-8145
▁financiero	-8146
▁gargan	-8147
wi	-8148
formas	-8149
▁MS	-8150
fin	-8151
▁aparecen	-8152
▁Social	-8153
▁árabe	-8154
▁3:	-8155
▁priva	-8156
izadores	-8157
ji	-8158
▁discusiones	-8159
▁mortalidad	-8160
▁tomaron	-8161
quilla	-8162
hite	-8163
▁ove	-8164
ieran	-8165
ueven	-8166
▁mand	-8167
▁voto	-8168
▁lagos	-8169
▁hará	-8170
▁victoria	-8171
▁diet	-8172
▁Fal	-8173
▁elig	-8174
▁adqui	-8175
urs	-8176
▁prision	-8177
▁Med	-8178
▁rota	-8179
▁Fecha	-8180
▁inven	-8181
▁masiva	-8182
▁llevando	-8183
▁prohi	-8184
▁fusión	-8185
▁implement	-8186
▁envej	-8187
▁porción	-8188
▁cable	-8189
▁vag	-8190
pus	-8191
▁ganancia	-8192
▁descrip	-8193
▁desarrollaron	-8194
▁cruz	-8195
▁agente	-8196
deró	-8197
Com	-8198
ary	-8199
▁Harvard	-8200
▁2006	-8201
uris	-8202
rimen	-8203
▁portá	-8204
▁orgánicos	-8205
cada	-8206
tru	-8207
▁calcular	-8208
▁juventud	-8209
▁correg	-8210
99	-8211
▁fall	-8212
▁exitosa	-8213
▁50%	-8214
>.	-8215
▁Ambas	-8216
▁Enseñ	-8217
▁limitar	-8218
▁adaptarse	-8219
▁sufrido	-8220
viética	-8221
▁basan	-8222
▁descub	-8223
áles	-8224
▁reservas	-8225
▁imperio	-8226
AA	-8227
▁experimentan	-8228
▁Revis	-8229
▁Mark	-8230
▁adjun	-8231
▁escenario	-8232
▁publicada	-8233
vaciones	-8234
▁Inglés	-8235
▁Repres	-8236
▁cuidar	-8237
▁alér	-8238
▁alemana	-8239
▁http	-8240
▁arcilla	-8241
▁asociadas	-8242
▁Arte	-8243
38	-8244
ding	-8245
ondo	-8246
▁that	-8247
▁concentraciones	-8248
IO	-8249
▁econom	-8250
alquier	-8251
▁sorprendente	-8252
▁ganó	-8253
▁totalidad	-8254
▁colonia	-8255
war	-8256
▁Bol	-8257
▁ética	-8258
▁cambió	-8259
▁Luc	-8260
▁pion	-8261
▁tún	-8262
▁sensibles	-8263
mad	-8264
▁órbita	-8265
▁Gestión	-8266
▁Ke	-8267
▁concreto	-8268
▁biológica	-8269
▁Banco	-8270
▁dañar	-8271
▁pico	-8272
▁deporte	-8273
ondi	-8274
▁únicas	-8275
▁75	-8276
cómo	-8277
▁borde	-8278
▁sodio	-8279
▁desastres	-8280
▁reproduc	-8281
▁hermosas	-8282
▁Servicios	-8283
▁receptores	-8284
▁susceptibles	-8285
▁48	-8286
65	-8287
creas	-8288
▁cambiando	-8289
▁Guía	-8290
▁Número	-8291
▁propietarios	-8292
iabilidad	-8293
▁orgánica	-8294
▁Consul	-8295
▁aquellas	-8296
▁avanzado	-8297
▁Fun	-8298
▁Mí	-8299
▁contener	-8300
unta	-8301
▁afirman	-8302
▁brin	-8303
▁Len	-8304
▁olor	-8305
▁Mejora	-8306
▁Ly	-8307
▁integ	-8308
▁inn	-8309
▁préstamo	-8310
vita	-8311
▁fascin	-8312
ither	-8313
▁Libro	-8314
▁perspectivas	-8315
▁Docu	-8316
▁carreteras	-8317
▁conflictos	-8318
▁comparten	-8319
▁teór	-8320
▁tendría	-8321
íns	-8322
▁sueldo	-8323
▁quir	-8324
zona	-8325
▁ocasionalmente	-8326
▁pista	-8327
▁fundamentales	-8328
▁Pensilvania	-8329
▁religiosas	-8330
▁País	-8331
▁nucleares	-8332
▁piloto	-8333
▁interme	-8334
▁manip	-8335
________	-8336
▁intentan	-8337
▁Mujer	-8338
▁prece	-8339
▁impide	-8340
▁asuntos	-8341
BT	-8342
pero	-8343
▁involucrado	-8344
▁cargo	-8345
▁37	-8346
▁aparición	-8347
ate	-8348
▁conductor	-8349
▁premi	-8350
▁fragmentos	-8351
acciones	-8352
▁negativa	-8353
psia	-8354
▁contrato	-8355
ime	-8356
▁Civil	-8357
▁ventil	-8358
▁Normalmente	-8359
curio	-8360
tifica	-8361
tock	-8362
amo	-8363
HS	-8364
ficio	-8365
▁Santo	-8366
▁gráfica	-8367
▁Nuestro	-8368
zon	-8369
▁Técn	-8370
▁frases	-8371
▁with	-8372
▁educadores	-8373
▁sever	-8374
▁miel	-8375
▁expectativas	-8376
▁DC	-8377
▁Cur	-8378
clopedia	-8379
▁Tar	-8380
▁pulgas	-8381
túa	-8382
▁Ger	-8383
▁sujeto	-8384
▁far	-8385
▁some	-8386
▁describió	-8387
▁cumplimiento	-8388
▁38	-8389
▁Clin	-8390
▁tono	-8391
dación	-8392
▁pot	-8393
▁(1)	-8394
▁sostenibilidad	-8395
▁romanos	-8396
▁describen	-8397
▁viviendo	-8398
▁publicados	-8399
port	-8400
▁críticas	-8401
▁tribus	-8402
vol	-8403
▁águ	-8404
▁cuchara	-8405
▁2)	-8406
▁Pakistán	-8407
▁Distri	-8408
▁fenómeno	-8409
▁Glob	-8410
▁signo	-8411
▁2005	-8412
▁Palab	-8413
MO	-8414
▁descargar	-8415
▁placas	-8416
▁leyendo	-8417
lis	-8418
▁PDF	-8419
▁mani	-8420
▁préstamos	-8421
▁hilo	-8422
▁gigante	-8423
▁metro	-8424
▁referirse	-8425
▁hardware	-8426
úmenes	-8427
▁griega	-8428
▁granjas	-8429
▁preservar	-8430
quiera	-8431
tara	-8432
▁guard	-8433
quia	-8434
▁perfecta	-8435
▁regulación	-8436
▁proporcione	-8437
▁Cro	-8438
▁budis	-8439
▁productividad	-8440
▁Andre	-8441
▁extraer	-8442
▁cardiovascular	-8443
▁11.	-8444
▁mural	-8445
▁dibujo	-8446
▁cercanos	-8447
▁llega	-8448
▁Enten	-8449
écord	-8450
▁plas	-8451
icidad	-8452
ush	-8453
▁docto	-8454
▁refugiados	-8455
▁camin	-8456
▁sá	-8457
▁últimas	-8458
▁judío	-8459
▁vivienda	-8460
▁proporcionará	-8461
▁dueño	-8462
▁perfil	-8463
▁alcal	-8464
▁ámbito	-8465
▁unirse	-8466
▁microorganismos	-8467
▁dejan	-8468
▁marinos	-8469
▁literal	-8470
▁DNA	-8471
▁sociedades	-8472
▁mg	-8473
▁oficinas	-8474
▁adicción	-8475
uyentes	-8476
▁chinos	-8477
▁usos	-8478
▁háganos	-8479
tbol	-8480
▁desventa	-8481
TP	-8482
edro	-8483
cación	-8484
▁conversión	-8485
phen	-8486
▁Pos	-8487
jados	-8488
amblea	-8489
inc	-8490
▁enrique	-8491
▁resultó	-8492
▁renovable	-8493
▁separación	-8494
▁oli	-8495
▁logrado	-8496
▁antepas	-8497
▁valiosa	-8498
▁rápidos	-8499
món	-8500
▁tribu	-8501
tilla	-8502
▁ruedas	-8503
▁oposición	-8504
df	-8505
▁huella	-8506
▁determinado	-8507
▁contribución	-8508
▁reemplazo	-8509
deración	-8510
▁extranjero	-8511
▁buscan	-8512
▁interval	-8513
▁aborda	-8514
▁vientos	-8515
▁veinte	-8516
▁ilegal	-8517
amp	-8518
▁caracteres	-8519
▁excesivo	-8520
▁gratuito	-8521
▁Cel	-8522
▁débi	-8523
fal	-8524
▁llo	-8525
tho	-8526
▁5,	-8527
▁permitido	-8528
ispo	-8529
▁bul	-8530
▁chino	-8531
▁extracción	-8532
▁mamíferos	-8533
▁SS	-8534
idar	-8535
MP	-8536
▁debate	-8537
▁pí	-8538
▁analiz	-8539
▁alergías	-8540
▁12.	-8541
▁excelentes	-8542
urg	-8543
▁posteriores	-8544
▁Bill	-8545
▁pasaje	-8546
▁EPA	-8547
enza	-8548
▁enemigo	-8549
▁XVIII	-8550
▁terremo	-8551
▁predecir	-8552
▁(20	-8553
onald	-8554
▁iglesias	-8555
▁bíb	-8556
▁magnitud	-8557
fia	-8558
chigan	-8559
▁copias	-8560
▁Leg	-8561
▁industriales	-8562
▁domésticos	-8563
▁dirigido	-8564
▁logro	-8565
itan	-8566
▁Pág	-8567
▁fechas	-8568
aró	-8569
taban	-8570
▁obtiene	-8571
▁azules	-8572
americanos	-8573
▁algodón	-8574
▁Debe	-8575
incluyendo	-8576
▁récord	-8577
▁Va	-8578
▁quedan	-8579
▁esposo	-8580
▁marina	-8581
▁desastre	-8582
▁hind	-8583
▁académicos	-8584
▁Míchigan	-8585
▁mentales	-8586
▁bloqueo	-8587
▁rodilla	-8588
▁animar	-8589
▁crey	-8590
▁Hemos	-8591
▁Iden	-8592
▁deca	-8593
▁antic	-8594
rie	-8595
▁partida	-8596
▁Vietnam	-8597
▁mirando	-8598
▁accidente	-8599
▁estraté	-8600
▁contribuciones	-8601
▁nue	-8602
erra	-8603
witter	-8604
▁envió	-8605
alim	-8606
▁confundi	-8607
ometría	-8608
▁deficiencia	-8609
▁fos	-8610
▁avances	-8611
▁impulso	-8612
mor	-8613
▁rompe	-8614
▁expuls	-8615
Co	-8616
tte	-8617
▁complejidad	-8618
▁parques	-8619
▁médicas	-8620
36	-8621
▁avanzar	-8622
▁cuál	-8623
▁nativa	-8624
▁vamos	-8625
▁ves	-8626
▁puso	-8627
▁defender	-8628
▁Daniel	-8629
cher	-8630
▁cine	-8631
▁Administración	-8632
▁Tre	-8633
eamente	-8634
mino	-8635
▁diseñada	-8636
tré	-8637
▁creatividad	-8638
▁tubos	-8639
▁cuidad	-8640
gip	-8641
▁kg	-8642
▁patri	-8643
útbol	-8644
mpara	-8645
▁oraciones	-8646
UR	-8647
uyente	-8648
▁bordo	-8649
▁reme	-8650
▁glándulas	-8651
wan	-8652
▁machos	-8653
mático	-8654
▁fibras	-8655
▁recorda	-8656
Te	-8657
grado	-8658
gráfico	-8659
▁asi	-8660
▁Jaco	-8661
▁bin	-8662
▁frecuentes	-8663
erdos	-8664
▁(5	-8665
▁Médi	-8666
▁invent	-8667
▁genético	-8668
NS	-8669
eli	-8670
ramos	-8671
▁artritis	-8672
▁tratados	-8673
▁recibieron	-8674
▁Hor	-8675
▁automo	-8676
taba	-8677
▁códigos	-8678
lamiento	-8679
▁regional	-8680
▁agregando	-8681
▁unió	-8682
▁planific	-8683
▁razonable	-8684
ctur	-8685
▁plagas	-8686
▁organizar	-8687
cales	-8688
▁Agricul	-8689
▁colegas	-8690
▁circulación	-8691
▁superficial	-8692
▁subir	-8693
▁Artículo	-8694
▁intervenciones	-8695
▁supuesto	-8696
▁pasajeros	-8697
▁garganta	-8698
▁egip	-8699
▁caz	-8700
▁pecado	-8701
▁gigantes	-8702
▁tanque	-8703
▁introduci	-8704
▁jugador	-8705
éticamente	-8706
aduras	-8707
divers	-8708
▁escapar	-8709
▁evaluaciones	-8710
-20	-8711
ricamente	-8712
As	-8713
▁asigna	-8714
tter	-8715
▁futuras	-8716
▁espiritu	-8717
▁existente	-8718
▁encontrados	-8719
▁interesado	-8720
▁miti	-8721
▁preca	-8722
cóp	-8723
▁considerable	-8724
▁expuestos	-8725
▁afro	-8726
▁Cin	-8727
▁facilitar	-8728
▁profundas	-8729
▁climáticos	-8730
izan	-8731
▁inmediata	-8732
▁ana	-8733
▁Hu	-8734
▁Fort	-8735
▁Alas	-8736
▁humedales	-8737
▁esperando	-8738
▁sentarse	-8739
▁democracia	-8740
inois	-8741
▁Wikipedia	-8742
▁minimizar	-8743
▁Protección	-8744
▁raro	-8745
fortun	-8746
yer	-8747
ciación	-8748
▁cinta	-8749
▁rueda	-8750
misos	-8751
tología	-8752
▁revela	-8753
▁aero	-8754
▁cien	-8755
▁reveló	-8756
▁deberías	-8757
umbre	-8758
EO	-8759
say	-8760
▁tit	-8761
▁ambientes	-8762
:00	-8763
elas	-8764
▁operar	-8765
CP	-8766
▁trabajó	-8767
rológ	-8768
▁soy	-8769
peare	-8770
▁cristiana	-8771
▁conectados	-8772
▁Wat	-8773
▁(198	-8774
▁visite	-8775
▁adulta	-8776
▁orígenes	-8777
▁Bang	-8778
till	-8779
▁aplican	-8780
istía	-8781
▁Ár	-8782
▁calendario	-8783
44	-8784
lace	-8785
▁absorción	-8786
▁vegetación	-8787
IG	-8788
ponés	-8789
than	-8790
▁alerta	-8791
kespeare	-8792
vientes	-8793
▁abar	-8794
▁Common	-8795
gicas	-8796
todos	-8797
▁Testamento	-8798
▁disponibilidad	-8799
rimientos	-8800
cesión	-8801
▁Islas	-8802
▁empresari	-8803
▁pH	-8804
▁cosechas	-8805
▁clásica	-8806
▁rel	-8807
▁ocupa	-8808
oros	-8809
▁declaró	-8810
▁sobrepes	-8811
▁pá	-8812
▁hig	-8813
▁aprendiendo	-8814
▁considerando	-8815
▁calific	-8816
▁notar	-8817
▁envía	-8818
onales	-8819
ficios	-8820
rosoft	-8821
▁Sara	-8822
▁nutricional	-8823
▁fruto	-8824
▁párra	-8825
ser	-8826
▁mantenga	-8827
íncip	-8828
▁franceses	-8829
▁sientan	-8830
jando	-8831
pyright	-8832
dura	-8833
▁glu	-8834
▁vertical	-8835
▁jugo	-8836
▁distra	-8837
!"	-8838
az	-8839
▁She	-8840
olate	-8841
▁Agreg	-8842
▁científicas	-8843
▁hura	-8844
▁informaron	-8845
▁automáticamente	-8846
▁sopor	-8847
▁interactu	-8848
▁Cualquier	-8849
Ex	-8850
▁fundó	-8851
▁Pública	-8852
landia	-8853
▁Estudio	-8854
▁sexuales	-8855
▁diagrama	-8856
▁UV	-8857
▁hospitales	-8858
▁discapacidad	-8859
▁ON	-8860
▁occidentales	-8861
amin	-8862
▁nacido	-8863
poner	-8864
tización	-8865
▁abrió	-8866
▁absoluto	-8867
▁Mol	-8868
▁asesinato	-8869
gráficas	-8870
▁Ara	-8871
▁socio	-8872
▁chi	-8873
▁anunció	-8874
Estamos	-8875
▁Tech	-8876
▁alquil	-8877
▁adición	-8878
▁fumar	-8879
▁Crea	-8880
▁torno	-8881
▁rápidas	-8882
▁afectadas	-8883
▁Dol	-8884
▁aro	-8885
▁visu	-8886
ustria	-8887
▁fes	-8888
▁vestidos	-8889
▁Stu	-8890
zaron	-8891
▁escu	-8892
▁previo	-8893
▁cuerdas	-8894
▁plataformas	-8895
gano	-8896
▁McC	-8897
▁Cir	-8898
▁Jackson	-8899
▁Nature	-8900
▁llevaron	-8901
cula	-8902
key	-8903
%)	-8904
truir	-8905
▁promueve	-8906
▁sorpres	-8907
▁Director	-8908
▁colecciones	-8909
▁civilización	-8910
▁apropiada	-8911
▁178	-8912
cciones	-8913
▁cadenas	-8914
▁logros	-8915
▁from	-8916
/0	-8917
jada	-8918
▁abarca	-8919
▁distritos	-8920
▁(2)	-8921
▁permitirá	-8922
ere	-8923
▁diar	-8924
▁copi	-8925
▁protocolo	-8926
▁aprobación	-8927
▁fuegos	-8928
▁Grecia	-8929
▁cil	-8930
▁linf	-8931
▁Obama	-8932
▁celebrar	-8933
ACI	-8934
rese	-8935
▁viene	-8936
▁inversiones	-8937
▁Illinois	-8938
▁noctur	-8939
▁Hit	-8940
▁Dic	-8941
▁hacerse	-8942
▁vocabulario	-8943
The	-8944
▁lin	-8945
▁és	-8946
▁pistas	-8947
▁resistentes	-8948
▁repent	-8949
ufac	-8950
▁torrente	-8951
▁2012.	-8952
▁ancianos	-8953
▁francesa	-8954
gram	-8955
▁Tenemos	-8956
▁Op	-8957
▁glor	-8958
77	-8959
▁adminis	-8960
ster	-8961
▁musical	-8962
▁pesados	-8963
ái	-8964
hes	-8965
▁sufre	-8966
▁fren	-8967
▁consentimiento	-8968
ctos	-8969
▁darle	-8970
lip	-8971
▁átomos	-8972
▁cooperación	-8973
▁Dan	-8974
▁continuamente	-8975
▁avis	-8976
▁haberse	-8977
uco	-8978
▁algas	-8979
▁estimul	-8980
▁Gales	-8981
▁either	-8982
▁AM	-8983
▁regalo	-8984
▁protector	-8985
▁vivientes	-8986
▁incluido	-8987
▁Introducción	-8988
▁pra	-8989
▁Descar	-8990
▁moneda	-8991
▁dra	-8992
▁informado	-8993
ule	-8994
▁profundos	-8995
▁creciendo	-8996
▁pena	-8997
▁exceso	-8998
▁hambri	-8999
▁hermosos	-9000
▁pajaros	-9001
▁Kent	-9002
▁Pes	-9003
tig	-9004
▁tumor	-9005
▁pesticidas	-9006
ucha	-9007
▁Cru	-9008
▁brazos	-9009
▁Pi	-9010
▁demostró	-9011
▁inferiores	-9012
▁ató	-9013
▁Compañ	-9014
▁adoptar	-9015
EA	-9016
▁dependencia	-9017
▁entrevista	-9018
▁vivían	-9019
▁terminado	-9020
▁Distrito	-9021
▁continente	-9022
riles	-9023
▁colap	-9024
▁hebre	-9025
rillos	-9026
▁pastoreo	-9027
irá	-9028
▁funcionamiento	-9029
▁$1	-9030
▁recompens	-9031
itz	-9032
▁Obje	-9033
fato	-9034
▁División	-9035
▁Ado	-9036
mol	-9037
▁Din	-9038
▁reutili	-9039
plas	-9040
▁Leer	-9041
péu	-9042
▁incom	-9043
▁compras	-9044
▁contenidos	-9045
▁agradable	-9046
lenas	-9047
▁desin	-9048
▁conversaciones	-9049
sar	-9050
ela	-9051
▁suma	-9052
town	-9053
▁motivos	-9054
▁isl	-9055
▁argument	-9056
has	-9057
CT	-9058
▁guerras	-9059
tinas	-9060
▁club	-9061
▁Figura	-9062
▁recicl	-9063
▁ámbitos	-9064
diversidad	-9065
▁Anim	-9066
▁cohe	-9067
escri	-9068
tizar	-9069
▁tripulación	-9070
▁corteza	-9071
▁World	-9072
ienda	-9073
▁Conferencia	-9074
timos	-9075
▁Encuentra	-9076
▁pronunci	-9077
▁Parlamento	-9078
loso	-9079
lara	-9080
rás	-9081
▁distinguir	-9082
▁reciclaje	-9083
▁Utilizando	-9084
jano	-9085
▁neuronas	-9086
▁descendientes	-9087
▁abra	-9088
bac	-9089
Ma	-9090
acto	-9091
▁relaciona	-9092
▁duros	-9093
▁asun	-9094
▁inglesa	-9095
▁abiertas	-9096
.).	-9097
▁ment	-9098
▁membrana	-9099
pace	-9100
tipos	-9101
▁casó	-9102
▁Usando	-9103
gamos	-9104
▁cromos	-9105
▁2010.	-9106
▁hemor	-9107
ally	-9108
▁americanos	-9109
▁impro	-9110
EG	-9111
Fi	-9112
▁eliminación	-9113
▁retar	-9114
▁dibujar	-9115
▁lámpara	-9116
▁Atlántico	-9117
▁inundación	-9118
▁gene	-9119
uelas	-9120
▁lanzar	-9121
▁almacenes	-9122
▁automati	-9123
▁manzanas	-9124
▁culpa	-9125
▁biológicos	-9126
▁facil	-9127
▁endo	-9128
▁sucia	-9129
▁expresa	-9130
▁panel	-9131
▁nave	-9132
▁anuales	-9133
▁tens	-9134
▁avanzados	-9135
▁2011.	-9136
▁norma	-9137
▁poderoso	-9138
gia	-9139
▁afirmaciones	-9140
▁africanos	-9141
▁microbi	-9142
▁tamaños	-9143
of	-9144
▁popularidad	-9145
▁emocion	-9146
íes	-9147
▁Tres	-9148
▁mediev	-9149
▁Microsoft	-9150
▁cibern	-9151
/1	-9152
▁Wis	-9153
tambi	-9154
▁Shakespeare	-9155
▁sufren	-9156
▁confusión	-9157
dían	-9158
BA	-9159
▁cubiertas	-9160
▁módulo	-9161
▁puri	-9162
también	-9163
▁lav	-9164
▁precis	-9165
tinos	-9166
▁grasos	-9167
▁japonés	-9168
▁Oreg	-9169
▁10%	-9170
▁autón	-9171
▁gramos	-9172
▁despe	-9173
erías	-9174
ross	-9175
▁comprobar	-9176
▁ansios	-9177
▁encen	-9178
▁huellas	-9179
▁Abraham	-9180
▁necesitaba	-9181
▁pasta	-9182
▁Jud	-9183
▁ciclos	-9184
▁sensible	-9185
▁cuesti	-9186
▁lidiar	-9187
ube	-9188
▁pues	-9189
xon	-9190
▁mejoras	-9191
gn	-9192
▁María	-9193
▁Ima	-9194
▁Siempre	-9195
▁aprovechar	-9196
▁gor	-9197
▁experimentado	-9198
▁Áng	-9199
▁incer	-9200
yd	-9201
▁mecánica	-9202
▁HIV	-9203
▁Senado	-9204
▁partido	-9205
tuario	-9206
vio	-9207
lando	-9208
▁robó	-9209
▁Temp	-9210
▁elef	-9211
▁olla	-9212
▁habitaciones	-9213
▁desarrollados	-9214
▁dirigida	-9215
reza	-9216
▁percepciones	-9217
▁causó	-9218
▁quedar	-9219
▁hembras	-9220
▁Mundo	-9221
▁Twitter	-9222
▁prioridad	-9223
▁Grande	-9224
▁modificaciones	-9225
▁rup	-9226
had	-9227
▁Agricultura	-9228
ientación	-9229
▁bacteria	-9230
Esta	-9231
grafo	-9232
▁bebida	-9233
▁instalar	-9234
▁hindú	-9235
gov	-9236
▁Lew	-9237
brica	-9238
hía	-9239
▁55	-9240
▁murieron	-9241
▁visuales	-9242
▁ara	-9243
ids	-9244
▁Proble	-9245
▁dirigió	-9246
▁defensores	-9247
ython	-9248
▁establecieron	-9249
▁Arizona	-9250
dle	-9251
▁involucran	-9252
▁ahorrar	-9253
▁ecosistemas	-9254
▁pagos	-9255
▁enzimas	-9256
▁maripos	-9257
▁bibliotecas	-9258
▁terreno	-9259
▁Java	-9260
▁Trum	-9261
▁prohib	-9262
▁bajar	-9263
▁republic	-9264
▁seguidores	-9265
▁rosa	-9266
▁molecular	-9267
▁pinturas	-9268
▁asistente	-9269
work	-9270
▁apoyan	-9271
▁religiosos	-9272
tár	-9273
▁acos	-9274
▁socios	-9275
▁Pin	-9276
▁identificado	-9277
máticas	-9278
▁Recientemente	-9279
trices	-9280
▁Descu	-9281
==	-9282
▁leyenda	-9283
▁productores	-9284
tics	-9285
▁Pablo	-9286
▁Alimentos	-9287
trans	-9288
▁ed	-9289
▁Tes	-9290
itación	-9291
▁controla	-9292
trina	-9293
▁debía	-9294
▁cánceres	-9295
▁UE	-9296
▁dividir	-9297
▁conecta	-9298
▁adaptación	-9299
▁Laboratorio	-9300
▁Alaska	-9301
▁romano	-9302
old	-9303
▁anticip	-9304
▁apara	-9305
▁aliviar	-9306
▁diccionario	-9307
lique	-9308
34	-9309
▁AI	-9310
▁raramente	-9311
▁conducta	-9312
ésped	-9313
▁perfectamente	-9314
▁Lea	-9315
▁listos	-9316
▁extender	-9317
fu	-9318
▁estimación	-9319
▁1000	-9320
▁ubicado	-9321
ns	-9322
▁movi	-9323
▁Conn	-9324
▁compañero	-9325
▁contribuyen	-9326
▁caen	-9327
bable	-9328
▁desierto	-9329
▁simpli	-9330
▁mur	-9331
micos	-9332
▁vacunación	-9333
▁ánimo	-9334
▁rostro	-9335
▁combatir	-9336
▁Mes	-9337
▁certificado	-9338
▁explosión	-9339
▁desconocido	-9340
arte	-9341
▁Hall	-9342
▁descarga	-9343
▁tormentas	-9344
▁2019	-9345
keting	-9346
anahor	-9347
▁Mantenga	-9348
▁tropicales	-9349
vación	-9350
parte	-9351
▁ola	-9352
▁rol	-9353
▁Lab	-9354
▁liberar	-9355
▁White	-9356
▁erosión	-9357
▁inters	-9358
▁enfati	-9359
▁2013.	-9360
▁platos	-9361
▁tranqui	-9362
▁pesado	-9363
▁pulmón	-9364
tta	-9365
▁gem	-9366
▁179	-9367
▁músculo	-9368
▁Az	-9369
cea	-9370
▁ejecutivo	-9371
▁intelectual	-9372
▁Ru	-9373
▁milag	-9374
▁imaginación	-9375
ony	-9376
abeth	-9377
▁desarrolladores	-9378
▁Espacial	-9379
▁Law	-9380
▁Ministerio	-9381
ardo	-9382
OD	-9383
▁variar	-9384
▁visitas	-9385
▁deportes	-9386
▁involucrar	-9387
gando	-9388
▁riñones	-9389
▁fútbol	-9390
▁almacena	-9391
▁emisión	-9392
▁izquierdo	-9393
▁madres	-9394
▁incluyeron	-9395
▁abogado	-9396
oner	-9397
▁expandir	-9398
▁sucedió	-9399
cionistas	-9400
▁marcador	-9401
TC	-9402
hara	-9403
▁exhaus	-9404
▁dominante	-9405
▁verteb	-9406
▁reson	-9407
▁devuel	-9408
▁minería	-9409
▁Sistemas	-9410
▁cercan	-9411
▁Imag	-9412
ométr	-9413
▁expedición	-9414
▁Ingeniería	-9415
▁prema	-9416
▁Aprende	-9417
curidad	-9418
▁Padre	-9419
▁pago	-9420
▁intr	-9421
▁2010,	-9422
▁nervios	-9423
▁valiosos	-9424
▁insu	-9425
▁anfit	-9426
▁vea	-9427
▁suceder	-9428
▁cuadrados	-9429
▁alo	-9430
▁Memor	-9431
▁serio	-9432
▁equivalente	-9433
39	-9434
▁doce	-9435
▁sede	-9436
▁desarrollos	-9437
▁indirec	-9438
▁Inte	-9439
▁aluminio	-9440
▁nacidos	-9441
▁XXI	-9442
▁candidatos	-9443
▁Wilson	-9444
▁elimina	-9445
cente	-9446
▁vice	-9447
▁evolu	-9448
▁velocidades	-9449
▁válv	-9450
▁bandas	-9451
▁Evan	-9452
RC	-9453
▁alm	-9454
copía	-9455
▁end	-9456
▁cargas	-9457
tios	-9458
gráficos	-9459
▁cone	-9460
▁sentidos	-9461
▁mitología	-9462
isiones	-9463
▁Ok	-9464
mante	-9465
37	-9466
▁rural	-9467
▁consistente	-9468
zamos	-9469
▁privacidad	-9470
▁robots	-9471
▁seleccionar	-9472
▁pig	-9473
▁Global	-9474
ulsión	-9475
▁Resumen	-9476
▁avent	-9477
▁llenar	-9478
66	-9479
rak	-9480
▁débil	-9481
▁sobe	-9482
▁judías	-9483
▁Isa	-9484
▁Obtenga	-9485
baciones	-9486
▁emergencias	-9487
▁Tribun	-9488
genera	-9489
▁aproacho	-9490
▁Compan	-9491
▁misiones	-9492
▁irreg	-9493
▁corporales	-9494
▁severo	-9495
▁considere	-9496
▁taller	-9497
▁Den	-9498
▁océanos	-9499
▁2004	-9500
▁limpio	-9501
▁satélite	-9502
▁puntuación	-9503
▁agujero	-9504
▁efectivas	-9505
▁Golfo	-9506
▁Cr	-9507
▁somos	-9508
ilos	-9509
▁unen	-9510
▁dispara	-9511
igas	-9512
▁audición	-9513
uts	-9514
▁silvestre	-9515
▁tos	-9516
▁censo	-9517
▁tác	-9518
iero	-9519
▁silvestres	-9520
▁menciona	-9521
▁terapéu	-9522
▁Británica	-9523
generación	-9524
▁astrón	-9525
▁aéreo	-9526
▁recib	-9527
▁llegada	-9528
▁cere	-9529
▁planear	-9530
▁regionales	-9531
▁diarios	-9532
▁pudieran	-9533
toriales	-9534
▁peligrosa	-9535
▁propietario	-9536
▁39	-9537
▁fresco	-9538
▁audiencia	-9539
áng	-9540
▁seguras	-9541
▁Compañía	-9542
teriales	-9543
▁meditación	-9544
▁ascen	-9545
▁ayudarlos	-9546
▁privados	-9547
▁contex	-9548
▁cuestion	-9549
▁Psic	-9550
▁carreras	-9551
▁Jr	-9552
▁lad	-9553
▁pala	-9554
▁demandas	-9555
▁únicamente	-9556
▁cansan	-9557
▁extinción	-9558
▁agregado	-9559
▁antioxidantes	-9560
▁numerosos	-9561
▁chocolate	-9562
dadas	-9563
▁entero	-9564
▁actitud	-9565
▁120	-9566
▁44	-9567
ligencia	-9568
▁Acu	-9569
emplos	-9570
▁cement	-9571
carse	-9572
▁culp	-9573
▁brech	-9574
▁obtienen	-9575
▁incons	-9576
▁tap	-9577
▁dependen	-9578
▁revistas	-9579
▁Vo	-9580
▁hechas	-9581
ámenes	-9582
▁deriva	-9583
▁aprobó	-9584
▁compil	-9585
▁Mujeres	-9586
▁hablan	-9587
▁invasión	-9588
OM	-9589
▁Tras	-9590
▁ubicaciones	-9591
▁intentó	-9592
ede	-9593
▁desn	-9594
▁vías	-9595
▁eficientes	-9596
▁comunicarse	-9597
▁eje	-9598
censo	-9599
Des	-9600
▁fiscales	-9601
líci	-9602
▁Países	-9603
▁publicidad	-9604
▁marinas	-9605
dicción	-9606
▁habría	-9607
▁eruditos	-9608
▁inevi	-9609
▁regresar	-9610
▁acumulación	-9611
▁You	-9612
▁cuidadosamente	-9613
yen	-9614
▁ricas	-9615
▁Mur	-9616
▁accesible	-9617
▁lanzó	-9618
▁Aus	-9619
▁Conservación	-9620
gran	-9621
▁correctas	-9622
cero	-9623
▁anunci	-9624
▁tiroides	-9625
▁matemática	-9626
▁incluyó	-9627
▁fantas	-9628
▁Kenn	-9629
▁huecos	-9630
▁Educa	-9631
▁barra	-9632
▁Pu	-9633
▁eléctricas	-9634
▁Islam	-9635
▁diseñadas	-9636
▁vecind	-9637
▁flexibilidad	-9638
LE	-9639
▁cuestiones	-9640
▁destru	-9641
▁ninguno	-9642
nab	-9643
▁manda	-9644
▁2012,	-9645
▁indígena	-9646
cap	-9647
▁afectado	-9648
bury	-9649
▁promesa	-9650
intes	-9651
▁rotación	-9652
▁Post	-9653
cua	-9654
▁querían	-9655
▁esperamos	-9656
itarias	-9657
▁cortado	-9658
▁id	-9659
usas	-9660
▁enam	-9661
ladel	-9662
▁historiadores	-9663
▁Explo	-9664
▁china	-9665
▁pulmon	-9666
▁degra	-9667
▁altera	-9668
tará	-9669
▁2014.	-9670
▁Cáncer	-9671
▁Filip	-9672
cimientos	-9673
itamos	-9674
▁polin	-9675
▁catal	-9676
istió	-9677
▁rutina	-9678
▁bancos	-9679
▁empu	-9680
▁metodo	-9681
liza	-9682
▁reina	-9683
▁Convención	-9684
▁externos	-9685
▁representantes	-9686
▁Matemá	-9687
▁parcial	-9688
▁treinta	-9689
▁demencia	-9690
▁Ángeles	-9691
mond	-9692
▁reducen	-9693
▁coco	-9694
▁alimentan	-9695
▁Gil	-9696
▁señalar	-9697
▁distribu	-9698
fasis	-9699
lama	-9700
tip	-9701
▁teniendo	-9702
▁orientación	-9703
izas	-9704
▁inicialmente	-9705
▁vuelvan	-9706
▁Ang	-9707
▁AN	-9708
▁CA	-9709
▁deshacer	-9710
▁ido	-9711
▁Gén	-9712
64	-9713
▁Bajo	-9714
▁Hitler	-9715
▁Famili	-9716
-12	-9717
tanos	-9718
▁sufrimiento	-9719
▁extraña	-9720
▁parcialmente	-9721
▁Dun	-9722
pientes	-9723
tita	-9724
▁tibur	-9725
rico	-9726
▁emperador	-9727
uroso	-9728
bación	-9729
▁martes	-9730
▁lla	-9731
▁Física	-9732
icios	-9733
▁cuya	-9734
▁haces	-9735
▁depósitos	-9736
▁6,	-9737
▁veget	-9738
▁parro	-9739
▁pidió	-9740
▁dibujos	-9741
▁papas	-9742
▁cerdo	-9743
▁discute	-9744
▁venir	-9745
wal	-9746
érico	-9747
▁fundador	-9748
32	-9749
▁infin	-9750
▁Power	-9751
▁oscuridad	-9752
▁nueces	-9753
▁mineral	-9754
dea	-9755
nesota	-9756
▁Ur	-9757
mail	-9758
▁acondi	-9759
▁enviado	-9760
▁tóxicos	-9761
▁Aug	-9762
ence	-9763
▁inyec	-9764
Pero	-9765
▁inher	-9766
▁juz	-9767
ania	-9768
▁columnas	-9769
▁defectos	-9770
▁secreto	-9771
▁raros	-9772
▁cubierto	-9773
▁dipl	-9774
▁giro	-9775
dez	-9776
Cuál	-9777
▁moda	-9778
▁High	-9779
▁modernas	-9780
▁epidemia	-9781
▁escas	-9782
▁Ty	-9783
▁simili	-9784
▁enemigos	-9785
xis	-9786
▁legisla	-9787
▁defici	-9788
▁ballenas	-9789
▁Bea	-9790
▁judi	-9791
▁inevitable	-9792
▁ajuste	-9793
▁receptor	-9794
▁podrías	-9795
▁estimaciones	-9796
▁especific	-9797
UE	-9798
ory	-9799
▁académica	-9800
▁crees	-9801
▁fit	-9802
▁escribiendo	-9803
▁Mayo	-9804
▁Ref	-9805
▁separados	-9806
▁Hy	-9807
▁combustión	-9808
▁exci	-9809
ecieron	-9810
▁Big	-9811
▁internos	-9812
▁positivas	-9813
▁XVI	-9814
▁Scott	-9815
▁viejos	-9816
▁cancer	-9817
▁europea	-9818
▁profesión	-9819
▁argumentos	-9820
▁inyección	-9821
▁LED	-9822
▁Preguntas	-9823
tana	-9824
▁ecuación	-9825
▁ligero	-9826
manas	-9827
▁Aplic	-9828
▁emocionales	-9829
▁racial	-9830
▁Quím	-9831
led	-9832
▁metabolismo	-9833
▁fila	-9834
thy	-9835
▁grano	-9836
▁privi	-9837
▁CDC	-9838
▁financieras	-9839
Ch	-9840
▁alte	-9841
▁Segundo	-9842
▁satisfacer	-9843
▁diab	-9844
▁cong	-9845
▁alguno	-9846
▁garantía	-9847
▁bicicleta	-9848
00.	-9849
ruebas	-9850
mamente	-9851
▁ges	-9852
▁Bien	-9853
▁diálogo	-9854
▁suelos	-9855
▁dedicado	-9856
inea	-9857
teriormente	-9858
▁entran	-9859
▁atacar	-9860
▁osteo	-9861
▁Respuesta	-9862
▁Minnesota	-9863
▁incorporar	-9864
dica	-9865
▁ina	-9866
▁caído	-9867
▁Ele	-9868
▁corregir	-9869
▁subterránea	-9870
▁práctico	-9871
▁Biología	-9872
▁roles	-9873
Ten	-9874
▁higiene	-9875
▁revi	-9876
▁1990	-9877
▁víctima	-9878
▁Profesor	-9879
▁encuestas	-9880
▁aliados	-9881
▁Guar	-9882
▁modificación	-9883
▁Mid	-9884
▁reputación	-9885
UL	-9886
▁Il	-9887
▁out	-9888
▁transacciones	-9889
▁Aé	-9890
▁incertid	-9891
▁orilla	-9892
▁irre	-9893
▁japoneses	-9894
▁impresionante	-9895
elt	-9896
▁argumenta	-9897
táneamente	-9898
▁oficialmente	-9899
tible	-9900
▁interrup	-9901
▁curar	-9902
▁publicar	-9903
▁físicamente	-9904
ticias	-9905
▁anillo	-9906
▁iniciales	-9907
▁Doug	-9908
▁completos	-9909
jó	-9910
▁sale	-9911
▁educativa	-9912
▁2015.	-9913
▁declaraciones	-9914
▁4:	-9915
ódigo	-9916
▁Datos	-9917
▁tecl	-9918
▁depender	-9919
dizaje	-9920
▁Premio	-9921
▁atac	-9922
▁juez	-9923
teli	-9924
▁State	-9925
▁mascota	-9926
▁else	-9927
▁intra	-9928
ee	-9929
▁Nivel	-9930
▁ocupación	-9931
▁dinosa	-9932
▁2003	-9933
viamente	-9934
▁siguió	-9935
▁sueños	-9936
▁Valle	-9937
▁hones	-9938
▁disciplina	-9939
▁peligrosas	-9940
now	-9941
▁premios	-9942
▁reflejan	-9943
▁aspi	-9944
▁famosos	-9945
html	-9946
fis	-9947
▁lum	-9948
▁preguntando	-9949
▁continua	-9950
▁bordes	-9951
▁sectores	-9952
▁lucro	-9953
▁Ejemplos	-9954
▁armon	-9955
▁acord	-9956
▁Williams	-9957
▁FDA	-9958
▁utilizaba	-9959
▁aceites	-9960
▁pene	-9961
▁contactar	-9962
regación	-9963
▁Mul	-9964
▁pozos	-9965
▁apertura	-9966
más	-9967
▁Dig	-9968
▁semi	-9969
▁zanahor	-9970
asión	-9971
tah	-9972
▁poli	-9973
79	-9974
íticas	-9975
▁significar	-9976
▁Natural	-9977
▁sagrado	-9978
dul	-9979
▁herida	-9980
ifica	-9981
▁caluroso	-9982
▁juguetes	-9983
48	-9984
back	-9985
▁propuestas	-9986
▁Soviética	-9987
▁cho	-9988
nesio	-9989
taria	-9990
▁democrá	-9991
▁acumul	-9992
arto	-9993
▁regalos	-9994
pora	-9995
▁Dia	-9996
▁determinación	-9997
utrición	-9998
▁Actualmente	-9999
▁fech	-10000
▁diarrea	-10001
▁Far	-10002
▁Don	-10003
íncipe	-10004
▁malas	-10005
▁CP	-10006
▁Pedro	-10007
▁dieron	-10008
▁permit	-10009
rang	-10010
▁sustancia	-10011
rma	-10012
▁trauma	-10013
pios	-10014
▁instan	-10015
▁espon	-10016
▁unir	-10017
CH	-10018
▁campus	-10019
▁dentista	-10020
gúrese	-10021
▁compartido	-10022
▁Mej	-10023
▁algoritmos	-10024
▁construida	-10025
abilidad	-10026
phy	-10027
▁tempranas	-10028
ny	-10029
▁argumento	-10030
trico	-10031
▁algoritmo	-10032
▁sovi	-10033
▁casti	-10034
▁embarazadas	-10035
▁hacían	-10036
▁invención	-10037
▁adolescente	-10038
68	-10039
▁?	-10040
▁complement	-10041
▁prisioneros	-10042
nam	-10043
▁enfermos	-10044
▁mosquitos	-10045
▁antepasados	-10046
▁Selec	-10047
▁exámenes	-10048
▁genéticas	-10049
▁rig	-10050
▁rebel	-10051
▁opon	-10052
▁mape	-10053
▁ferrocarril	-10054
▁2011,	-10055
▁genéticos	-10056
▁muc	-10057
▁modificar	-10058
▁mexic	-10059
enen	-10060
▁glándula	-10061
▁desempeñan	-10062
▁leve	-10063
▁Victoria	-10064
lizabeth	-10065
▁reforma	-10066
▁divide	-10067
▁preparado	-10068
▁Maryland	-10069
▁Alexander	-10070
BI	-10071
▁1920	-10072
▁ruptura	-10073
guo	-10074
▁Mich	-10075
▁patro	-10076
▁lineal	-10077
perando	-10078
▁Jones	-10079
edy	-10080
▁juven	-10081
▁cerve	-10082
▁crimen	-10083
pot	-10084
ua	-10085
▁respondió	-10086
▁colonial	-10087
▁comenzando	-10088
▁Long	-10089
▁consecuencia	-10090
▁sep	-10091
tarios	-10092
▁previos	-10093
diciones	-10094
▁auten	-10095
▁cansancio	-10096
lados	-10097
▁retirada	-10098
óso	-10099
▁Consulte	-10100
▁avanzadas	-10101
▁espectacular	-10102
estima	-10103
▁queso	-10104
encial	-10105
oramiento	-10106
▁XVII	-10107
▁futura	-10108
yan	-10109
rito	-10110
▁2001	-10111
▁Research	-10112
▁Bene	-10113
▁astron	-10114
▁terape	-10115
▁orgánico	-10116
▁Jeffer	-10117
▁traducir	-10118
▁sostenibles	-10119
▁vín	-10120
▁Doc	-10121
presión	-10122
▁desple	-10123
ett	-10124
▁tortugas	-10125
▁convierten	-10126
▁satura	-10127
▁falsa	-10128
▁oferta	-10129
▁Nic	-10130
▁vete	-10131
Estás	-10132
▁terapias	-10133
▁dejando	-10134
-201	-10135
▁prevalencia	-10136
▁bau	-10137
Puede	-10138
tasio	-10139
CR	-10140
set	-10141
▁irlandes	-10142
▁).	-10143
onesia	-10144
▁proven	-10145
▁ilustraciones	-10146
uega	-10147
pin	-10148
▁1,000	-10149
Una	-10150
▁haci	-10151
▁femenina	-10152
▁Hon	-10153
▁exacta	-10154
▁mito	-10155
▁recomiendan	-10156
▁sugerencias	-10157
▁plantación	-10158
gicos	-10159
ómico	-10160
▁Polonia	-10161
▁cardíaco	-10162
▁abundancia	-10163
▁Opera	-10164
▁Jim	-10165
▁Cultura	-10166
▁nas	-10167
▁kit	-10168
▁ruso	-10169
▁filóso	-10170
▁Agre	-10171
▁significan	-10172
▁organiza	-10173
▁Defin	-10174
▁mando	-10175
▁camina	-10176
kinson	-10177
▁operativo	-10178
ufactura	-10179
IF	-10180
cursos	-10181
▁Company	-10182
▁Dal	-10183
▁arbus	-10184
leto	-10185
55	-10186
▁Lord	-10187
▁Compu	-10188
lada	-10189
▁presentado	-10190
▁favora	-10191
▁parto	-10192
▁Ann	-10193
▁pim	-10194
▁turismo	-10195
▁educativas	-10196
▁ayudando	-10197
▁here	-10198
▁caídas	-10199
ítico	-10200
▁roto	-10201
▁llenos	-10202
▁Jan	-10203
▁conclusiones	-10204
▁Eso	-10205
▁hec	-10206
▁bits	-10207
▁serpientes	-10208
▁manteniendo	-10209
▁controvers	-10210
▁hundi	-10211
▁Samuel	-10212
gro	-10213
▁estím	-10214
▁magnético	-10215
IB	-10216
▁ingeniero	-10217
▁cambian	-10218
▁navegador	-10219
▁soya	-10220
▁cae	-10221
▁determinada	-10222
▁aceptable	-10223
bres	-10224
ries	-10225
▁supre	-10226
▁despla	-10227
▁Volumen	-10228
▁doméstica	-10229
▁inac	-10230
ipi	-10231
▁empo	-10232
▁Diseño	-10233
▁Elizabeth	-10234
▁excepción	-10235
▁cuentos	-10236
vilidad	-10237
▁lavado	-10238
▁clínico	-10239
▁Cra	-10240
▁obligados	-10241
▁diam	-10242
▁aumentada	-10243
▁House	-10244
▁manifes	-10245
▁restantes	-10246
▁banc	-10247
▁mutu	-10248
▁materna	-10249
EF	-10250
▁protege	-10251
▁síntoma	-10252
puestamente	-10253
▁Podemos	-10254
▁severos	-10255
▁tristeza	-10256
▁Ray	-10257
LC	-10258
thur	-10259
▁tramp	-10260
▁gasolina	-10261
ografía	-10262
▁Python	-10263
▁incorrecta	-10264
ors	-10265
▁marino	-10266
▁mutaciones	-10267
consin	-10268
▁exhib	-10269
▁Informe	-10270
▁incon	-10271
▁acres	-10272
▁terremoto	-10273
▁zapatillas	-10274
▁Pers	-10275
▁seguirá	-10276
▁".	-10277
▁fisi	-10278
tecn	-10279
▁introdujo	-10280
▁conform	-10281
▁Tay	-10282
▁hermana	-10283
▁trabajador	-10284
▁177	-10285
▁exposiciones	-10286
▁laboratorios	-10287
▁procedencia	-10288
▁dato	-10289
▁adopción	-10290
▁tari	-10291
▁controles	-10292
▁Pala	-10293
▁predadores	-10294
▁externa	-10295
▁mascotas	-10296
▁históricas	-10297
▁terrestre	-10298
crito	-10299
▁genéticamente	-10300
vey	-10301
▁Turquía	-10302
▁Bit	-10303
▁caball	-10304
▁dinámica	-10305
▁circuitos	-10306
▁ces	-10307
▁Jersey	-10308
▁limitados	-10309
▁obstáculos	-10310
▁filas	-10311
▁desarrollarse	-10312
ittle	-10313
▁tolerancia	-10314
▁Estra	-10315
▁avance	-10316
tabilidad	-10317
erto	-10318
▁termina	-10319
▁pino	-10320
▁ná	-10321
DS	-10322
ombro	-10323
radores	-10324
▁Intenta	-10325
DP	-10326
ulli	-10327
▁refrig	-10328
inastía	-10329
see	-10330
▁7,	-10331
▁definiciones	-10332
▁metabó	-10333
▁prolon	-10334
▁podríamos	-10335
▁Ningun	-10336
▁retorno	-10337
▁pura	-10338
tienes	-10339
▁pila	-10340
▁Andrew	-10341
▁fusion	-10342
▁afectada	-10343
▁20%	-10344
▁fallas	-10345
▁ayudarán	-10346
▁reyes	-10347
▁Excel	-10348
▁ovejas	-10349
▁integridad	-10350
nell	-10351
▁conectado	-10352
ticales	-10353
▁construyeron	-10354
▁cuyos	-10355
▁submar	-10356
▁cuerda	-10357
▁formó	-10358
▁Hawái	-10359
▁navegar	-10360
▁condados	-10361
▁2009.	-10362
▁Lewis	-10363
tratos	-10364
▁RNA	-10365
▁abol	-10366
▁regreso	-10367
▁articulaciones	-10368
▁exclusivamente	-10369
:10.	-10370
▁compos	-10371
▁firma	-10372
beli	-10373
▁pierde	-10374
▁desigualdad	-10375
▁inmunológica	-10376
▁inspec	-10377
▁Wisconsin	-10378
▁Batalla	-10379
▁quirúr	-10380
▁pur	-10381
▁harina	-10382
▁paisajes	-10383
▁limitaciones	-10384
tac	-10385
▁emoción	-10386
▁humor	-10387
▁crímenes	-10388
▁apo	-10389
▁entus	-10390
▁fárma	-10391
▁Evaluación	-10392
▁convencional	-10393
▁delib	-10394
▁dirigir	-10395
▁OS	-10396
▁sugerir	-10397
▁canadiense	-10398
▁pasajes	-10399
▁razas	-10400
logos	-10401
▁nutricionales	-10402
deas	-10403
▁hectá	-10404
▁tronco	-10405
▁prolong	-10406
▁acelerar	-10407
▁fabricante	-10408
▁involucradas	-10409
▁abog	-10410
▁completado	-10411
▁Irán	-10412
▁cig	-10413
▁mirada	-10414
patitis	-10415
▁astero	-10416
▁arres	-10417
▁estres	-10418
▁causados	-10419
dam	-10420
▁colina	-10421
ot	-10422
▁cep	-10423
TO	-10424
▁escalas	-10425
▁bronce	-10426
eciendo	-10427
▁distor	-10428
▁extrema	-10429
▁mira	-10430
▁dispuestos	-10431
▁comiendo	-10432
dri	-10433
▁prog	-10434
▁residencia	-10435
▁Fis	-10436
▁lateral	-10437
▁sustitu	-10438
▁territorios	-10439
▁clínicas	-10440
▁silla	-10441
▁dial	-10442
▁entusias	-10443
31	-10444
ku	-10445
▁MA	-10446
▁tomates	-10447
▁animación	-10448
▁demues	-10449
▁poema	-10450
▁sacar	-10451
▁pac	-10452
ervan	-10453
dí	-10454
TE	-10455
▁13.	-10456
▁minas	-10457
▁sucesivamente	-10458
▁Política	-10459
▁cerrado	-10460
▁visibles	-10461
▁costoso	-10462
urios	-10463
oroeste	-10464
▁Pascua	-10465
▁embal	-10466
▁recomendación	-10467
▁prós	-10468
▁cosech	-10469
▁Davis	-10470
▁hueco	-10471
▁inhib	-10472
▁cálculos	-10473
▁Human	-10474
▁destruc	-10475
▁habló	-10476
▁cerebros	-10477
▁tardío	-10478
▁tengas	-10479
▁veterinario	-10480
▁satélites	-10481
▁consideraba	-10482
▁procesar	-10483
▁pendiente	-10484
▁encontraban	-10485
2),	-10486
trona	-10487
▁toque	-10488
▁mundiales	-10489
▁composi	-10490
▁tumba	-10491
▁Fuerza	-10492
▁Compara	-10493
▁inneces	-10494
▁afi	-10495
▁reproducir	-10496
▁cumplen	-10497
▁contribuye	-10498
▁sienta	-10499
itch	-10500
tánea	-10501
▁utilización	-10502
óp	-10503
▁escul	-10504
▁asesinados	-10505
bús	-10506
▁actualización	-10507
▁marketing	-10508
▁desplazamiento	-10509
▁lev	-10510
▁negativas	-10511
▁supone	-10512
▁celebración	-10513
▁abandonar	-10514
dó	-10515
▁rehabili	-10516
▁reinado	-10517
▁Bor	-10518
▁Jefferson	-10519
▁Armada	-10520
▁preciso	-10521
▁impa	-10522
▁ruidos	-10523
▁Lec	-10524
▁demasiada	-10525
▁ecosistema	-10526
▁patrocin	-10527
▁CON	-10528
▁circund	-10529
▁juris	-10530
BM	-10531
▁alivio	-10532
▁Roy	-10533
▁artificiales	-10534
▁galaxias	-10535
▁inspiración	-10536
▁2009,	-10537
▁modos	-10538
▁estadística	-10539
▁reservados	-10540
istros	-10541
▁Ran	-10542
▁influenci	-10543
lash	-10544
gur	-10545
▁rellen	-10546
▁reparación	-10547
▁poeta	-10548
▁Estudi	-10549
▁discos	-10550
▁exitosos	-10551
▁promete	-10552
econ	-10553
▁tribunales	-10554
▁secuencias	-10555
colos	-10556
▁volar	-10557
▁recuerdos	-10558
tice	-10559
▁cuadrado	-10560
▁Creek	-10561
iro	-10562
▁oídos	-10563
ejemplo	-10564
view	-10565
▁escenas	-10566
▁Media	-10567
▁Bern	-10568
▁zapatos	-10569
▁600	-10570
▁Estad	-10571
▁biodiversidad	-10572
apro	-10573
derson	-10574
▁ADHD	-10575
▁fábrica	-10576
▁verbo	-10577
],	-10578
UC	-10579
▁especialista	-10580
▁apun	-10581
▁proporcionada	-10582
▁Orden	-10583
▁aerop	-10584
▁Of	-10585
▁humil	-10586
▁poderosa	-10587
▁respirar	-10588
▁Mode	-10589
▁anfitrión	-10590
▁favorito	-10591
▁increíbles	-10592
▁nor	-10593
ciente	-10594
▁pasión	-10595
/201	-10596
▁pesada	-10597
▁débiles	-10598
▁inflación	-10599
▁caj	-10600
▁sobrecar	-10601
▁caute	-10602
▁saque	-10603
▁Acción	-10604
▁acondicionado	-10605
▁anomal	-10606
▁aumentos	-10607
▁pelota	-10608
cencia	-10609
▁recién	-10610
▁construye	-10611
cuenta	-10612
▁experimenta	-10613
▁hayas	-10614
▁totales	-10615
▁urbanas	-10616
ink	-10617
orado	-10618
▁amp	-10619
▁crán	-10620
▁negó	-10621
▁claras	-10622
▁iniciativas	-10623
▁acuerdos	-10624
▁mercurio	-10625
▁medias	-10626
▁magnesio	-10627
▁Salv	-10628
▁actúa	-10629
▁magnética	-10630
▁encuentras	-10631
▁secundario	-10632
onto	-10633
▁viviendas	-10634
▁centró	-10635
▁trabajado	-10636
ars	-10637
▁én	-10638
▁Nig	-10639
ilan	-10640
▁plana	-10641
▁qui	-10642
▁postura	-10643
olas	-10644
▁contraseña	-10645
▁crónicas	-10646
▁supuestamente	-10647
▁nombrado	-10648
▁Indonesia	-10649
urch	-10650
ttle	-10651
▁autén	-10652
▁asisti	-10653
▁reconocido	-10654
▁volúmenes	-10655
▁cuáles	-10656
▁ahorros	-10657
íg	-10658
ife	-10659
▁sala	-10660
gicamente	-10661
▁depres	-10662
ganda	-10663
▁sta	-10664
gent	-10665
▁Declara	-10666
49	-10667
andos	-10668
▁Suecia	-10669
▁Documento	-10670
▁asesinado	-10671
▁luchando	-10672
▁certificación	-10673
▁inmunidad	-10674
▁Jane	-10675
▁pato	-10676
▁gasto	-10677
▁logró	-10678
▁Camp	-10679
alla	-10680
▁gramática	-10681
▁Tratamiento	-10682
▁Comen	-10683
▁asociaciones	-10684
▁talleres	-10685
▁Permi	-10686
▁00	-10687
▁Bon	-10688
▁Medic	-10689
▁cima	-10690
▁candidato	-10691
tens	-10692
▁estudiando	-10693
▁atributos	-10694
▁adquis	-10695
▁ID	-10696
▁42	-10697
▁afirmó	-10698
▁Tener	-10699
▁orbi	-10700
▁ayudarnos	-10701
▁Kansas	-10702
▁combinar	-10703
▁Toma	-10704
▁sábado	-10705
▁perdió	-10706
▁monitorizar	-10707
▁Linux	-10708
▁devo	-10709
▁quinto	-10710
▁proporcionados	-10711
▁(6	-10712
▁climática	-10713
3%	-10714
▁tercio	-10715
▁tubería	-10716
▁Tribunal	-10717
").	-10718
▁oriental	-10719
▁Antár	-10720
▁Recom	-10721
1:	-10722
▁selva	-10723
Para	-10724
▁conferencias	-10725
▁capítulos	-10726
▁láp	-10727
usieron	-10728
▁Espero	-10729
▁espí	-10730
▁semb	-10731
exam	-10732
▁Gas	-10733
▁menti	-10734
▁observó	-10735
▁cloro	-10736
▁Stra	-10737
▁potasio	-10738
Me	-10739
▁cayó	-10740
▁osos	-10741
ads	-10742
▁castigo	-10743
▁ordenó	-10744
▁autobús	-10745
▁énfasis	-10746
▁cubiertos	-10747
▁asumir	-10748
▁domingo	-10749
onda	-10750
▁els	-10751
▁quit	-10752
▁esfera	-10753
trica	-10754
▁2016.	-10755
▁probado	-10756
▁relativa	-10757
▁Artes	-10758
amas	-10759
▁conqu	-10760
▁drag	-10761
▁maestría	-10762
▁duplic	-10763
▁notablemente	-10764
▁disminuir	-10765
Is	-10766
▁reca	-10767
▁inespera	-10768
▁amenazadas	-10769
▁vivos	-10770
▁puertos	-10771
mato	-10772
bricas	-10773
▁alcanza	-10774
▁consumación	-10775
ken	-10776
polit	-10777
▁intentos	-10778
fique	-10779
worth	-10780
▁Wol	-10781
omer	-10782
/>	-10783
▁delante	-10784
▁incidencia	-10785
▁top	-10786
▁materias	-10787
▁disminuye	-10788
▁Sand	-10789
▁Ontario	-10790
▁Bajos	-10791
▁metano	-10792
▁Kennedy	-10793
▁cica	-10794
▁Otras	-10795
▁resum	-10796
▁2008,	-10797
▁repos	-10798
▁pedi	-10799
▁deseado	-10800
▁raras	-10801
MC	-10802
▁Pregunta	-10803
▁Escritura	-10804
▁Air	-10805
▁data	-10806
▁ances	-10807
vieran	-10808
inger	-10809
▁hongo	-10810
▁gastro	-10811
▁Evi	-10812
▁replic	-10813
TML	-10814
▁maxim	-10815
▁literalmente	-10816
▁mudó	-10817
▁Pruebas	-10818
hí	-10819
▁3)	-10820
▁conci	-10821
▁genoma	-10822
▁gerente	-10823
▁unieron	-10824
▁Esperamos	-10825
▁prepararse	-10826
idado	-10827
47	-10828
▁consultar	-10829
▁Parece	-10830
▁energética	-10831
▁cerveza	-10832
▁malaria	-10833
venido	-10834
▁manzana	-10835
reros	-10836
▁apareció	-10837
▁griegos	-10838
▁Secretario	-10839
▁Filadel	-10840
tomas	-10841
▁canadienses	-10842
▁romana	-10843
chi	-10844
lizada	-10845
▁Sun	-10846
▁abundante	-10847
▁cerámica	-10848
▁movilidad	-10849
TR	-10850
▁captu	-10851
▁sólida	-10852
▁incorrecto	-10853
izadas	-10854
▁cria	-10855
ísmo	-10856
▁serpiente	-10857
▁junta	-10858
▁Sección	-10859
▁observado	-10860
▁familiari	-10861
▁nativo	-10862
▁redujo	-10863
▁parientes	-10864
▁Imagen	-10865
▁fluido	-10866
bon	-10867
▁intim	-10868
entadas	-10869
▁Harris	-10870
▁enteros	-10871
ónico	-10872
▁Inicia	-10873
▁Filadelfia	-10874
▁silencio	-10875
ciaciones	-10876
osó	-10877
▁Roos	-10878
▁2002	-10879
▁Louis	-10880
▁extremas	-10881
▁aterrizaje	-10882
▁Indiana	-10883
▁telef	-10884
▁Represent	-10885
▁che	-10886
▁propuesto	-10887
▁renovables	-10888
▁sacerdote	-10889
▁discre	-10890
ductor	-10891
▁monumento	-10892
pun	-10893
▁plásticos	-10894
▁Prueba	-10895
▁sorpresa	-10896
▁Filipinas	-10897
entro	-10898
Ha	-10899
▁farmacéu	-10900
▁CR	-10901
▁corriendo	-10902
iti	-10903
▁criminal	-10904
▁Matemáticas	-10905
▁dentales	-10906
▁intestinal	-10907
▁seda	-10908
▁2013,	-10909
▁vacas	-10910
▁interpretar	-10911
▁are	-10912
bales	-10913
▁significaba	-10914
▁regresó	-10915
▁Ana	-10916
▁Cara	-10917
ents	-10918
▁promoción	-10919
mic	-10920
▁aguda	-10921
▁Nombre	-10922
▁181	-10923
▁baile	-10924
hy	-10925
▁CS	-10926
eng	-10927
▁Cuer	-10928
▁Tabla	-10929
▁voltaje	-10930
▁Berlín	-10931
▁Ayud	-10932
▁Código	-10933
▁pájar	-10934
▁2008.	-10935
▁autoestima	-10936
▁maestra	-10937
▁Efec	-10938
▁Blue	-10939
▁escucha	-10940
▁Juegos	-10941
▁neb	-10942
▁ceremonia	-10943
pección	-10944
▁Anton	-10945
▁comandante	-10946
▁interno	-10947
▁querido	-10948
▁Apple	-10949
69	-10950
▁coordinación	-10951
▁Fil	-10952
els	-10953
jeros	-10954
▁europeo	-10955
▁lecturas	-10956
bro	-10957
▁abus	-10958
▁separada	-10959
▁tracto	-10960
▁galaxia	-10961
▁reduciendo	-10962
▁EST	-10963
▁papa	-10964
▁escuchado	-10965
▁Sum	-10966
▁separadas	-10967
▁49	-10968
emo	-10969
▁ave	-10970
▁indicadores	-10971
▁adecuados	-10972
▁Port	-10973
▁Ese	-10974
micas	-10975
▁plumas	-10976
▁delibera	-10977
▁descubrieron	-10978
--------	-10979
▁doméstico	-10980
▁retroalim	-10981
▁balance	-10982
▁servidores	-10983
▁mejorado	-10984
▁completas	-10985
▁estructural	-10986
toría	-10987
mia	-10988
▁fluor	-10989
piter	-10990
▁Irak	-10991
▁hormona	-10992
▁molécula	-10993
▁realizada	-10994
▁concentrarse	-10995
▁poderosos	-10996
▁comprens	-10997
▁Amazon	-10998
ierta	-10999
▁fríos	-11000
▁peores	-11001
▁frías	-11002
▁Int	-11003
▁2015,	-11004
▁sinte	-11005
rección	-11006
▁Pho	-11007
▁flota	-11008
xido	-11009
▁preservación	-11010
▁argumentación	-11011
▁Cri	-11012
▁14.	-11013
▁Franklin	-11014
▁escon	-11015
▁sacerdotes	-11016
▁Neuro	-11017
▁guiar	-11018
▁reflejar	-11019
▁Síndrome	-11020
teres	-11021
▁Cari	-11022
▁héroe	-11023
▁registrado	-11024
▁dará	-11025
▁violación	-11026
▁leal	-11027
▁tranquil	-11028
▁necesites	-11029
▁constitución	-11030
▁José	-11031
▁(8	-11032
▁agru	-11033
dables	-11034
▁aceptación	-11035
▁terrestres	-11036
▁sientes	-11037
▁Mrs	-11038
evelt	-11039
▁separar	-11040
▁Pit	-11041
▁Acto	-11042
▁5:	-11043
▁CH	-11044
▁intentado	-11045
▁Tam	-11046
▁representando	-11047
vados	-11048
▁sueldos	-11049
▁amar	-11050
▁propagación	-11051
▁alar	-11052
▁rebeli	-11053
▁filtros	-11054
▁Asamblea	-11055
▁permanecer	-11056
▁manufactura	-11057
▁cercanas	-11058
▁SP	-11059
ladas	-11060
▁recomen	-11061
▁predicción	-11062
▁telescopio	-11063
▁arran	-11064
▁International	-11065
▁ion	-11066
▁viva	-11067
eja	-11068
67	-11069
coin	-11070
▁tomadas	-11071
▁ala	-11072
str	-11073
ticación	-11074
▁rescate	-11075
▁Carlos	-11076
▁considerados	-11077
citos	-11078
▁aérea	-11079
▁pajeros	-11080
▁test	-11081
▁desf	-11082
tilice	-11083
hum	-11084
clam	-11085
▁fundada	-11086
ecas	-11087
foro	-11088
▁verlo	-11089
rancia	-11090
▁clásico	-11091
ances	-11092
cripciones	-11093
▁978	-11094
▁cuyas	-11095
chester	-11096
▁Véase	-11097
▁poca	-11098
▁campamento	-11099
dimens	-11100
letas	-11101
▁patrimonio	-11102
▁fruta	-11103
▁convencer	-11104
▁interactuar	-11105
pher	-11106
▁Micro	-11107
▁Roosevelt	-11108
▁esencia	-11109
▁anivers	-11110
▁incendios	-11111
▁pudieron	-11112
▁cementerio	-11113
▁Cul	-11114
istales	-11115
▁produciendo	-11116
ndo	-11117
▁Ya	-11118
entador	-11119
▁Cha	-11120
▁pertenece	-11121
▁cognitiva	-11122
▁Stephen	-11123
▁revelar	-11124
▁títulos	-11125
▁bon	-11126
hammad	-11127
▁!	-11128
▁64	-11129
▁severas	-11130
▁250	-11131
▁encantado	-11132
▁actos	-11133
▁escenarios	-11134
rác	-11135
▁culto	-11136
▁rin	-11137
FC	-11138
▁Pie	-11139
Estoy	-11140
▁oculta	-11141
▁calificación	-11142
Pa	-11143
urse	-11144
▁anuncio	-11145
teriza	-11146
▁ensamb	-11147
DL	-11148
▁coron	-11149
▁bl	-11150
▁dim	-11151
▁cres	-11152
"?	-11153
▁arras	-11154
ocal	-11155
▁Emer	-11156
▁advertencia	-11157
▁STEM	-11158
▁cristianismo	-11159
▁preocupar	-11160
quili	-11161
▁sulf	-11162
ógeno	-11163
▁vestido	-11164
▁latín	-11165
inada	-11166
▁sencillos	-11167
▁rocos	-11168
▁Produc	-11169
▁electo	-11170
▁uniforme	-11171
acos	-11172
▁estimular	-11173
▁cen	-11174
▁actualizaciones	-11175
asion	-11176
iciones	-11177
▁historiador	-11178
▁colinas	-11179
▁Ec	-11180
▁;	-11181
▁cuarenta	-11182
▁Use	-11183
▁Suprema	-11184
▁neurológ	-11185
ius	-11186
▁defecto	-11187
partamentos	-11188
▁47	-11189
▁dí	-11190
▁crearon	-11191
▁subyacente	-11192
▁cría	-11193
▁Problemas	-11194
▁Sel	-11195
BD	-11196
▁climáticas	-11197
tival	-11198
▁triáng	-11199
unas	-11200
▁refieren	-11201
▁Año	-11202
▁divertida	-11203
▁Ártico	-11204
▁botella	-11205
▁viral	-11206
▁católica	-11207
▁Experim	-11208
cesa	-11209
▁estudian	-11210
polis	-11211
▁fenómenos	-11212
▁distur	-11213
cionamiento	-11214
▁arma	-11215
▁confiar	-11216
versión	-11217
▁activamente	-11218
▁Water	-11219
máticos	-11220
▁exig	-11221
▁debilidad	-11222
▁Gan	-11223
▁Reina	-11224
▁protocolos	-11225
▁banca	-11226
▁Taylor	-11227
▁consi	-11228
elo	-11229
▁deseos	-11230
▁párrafo	-11231
▁convencionales	-11232
▁esquina	-11233
6%	-11234
▁extraños	-11235
▁ingen	-11236
▁tanques	-11237
▁Fores	-11238
▁simulación	-11239
▁eficaces	-11240
▁llan	-11241
▁venga	-11242
▁entidad	-11243
▁calificaciones	-11244
▁Holo	-11245
▁matriz	-11246
▁correctos	-11247
cura	-11248
▁flexible	-11249
▁mod	-11250
▁pasada	-11251
▁estereo	-11252
▁critic	-11253
▁dietas	-11254
▁haciéndo	-11255
pañas	-11256
▁gruesa	-11257
tribución	-11258
▁mante	-11259
▁ayudado	-11260
▁muestre	-11261
▁invitados	-11262
▁100%	-11263
00,	-11264
▁evange	-11265
▁mandíb	-11266
▁incidente	-11267
▁voces	-11268
mentan	-11269
▁compensación	-11270
▁Tiempo	-11271
▁puntaje	-11272
▁“¿	-11273
ranas	-11274
▁Inici	-11275
▁hipertensión	-11276
1),	-11277
▁esperado	-11278
▁Douglas	-11279
▁empleadores	-11280
▁conduce	-11281
▁Costa	-11282
▁asentamiento	-11283
▁atraer	-11284
▁claros	-11285
▁ajustar	-11286
▁Flo	-11287
plo	-11288
▁Antiguo	-11289
▁potable	-11290
▁viajan	-11291
hr	-11292
▁vengan	-11293
▁produjeron	-11294
▁enfoc	-11295
▁trage	-11296
▁inclusión	-11297
fortunadamente	-11298
lizar	-11299
▁fri	-11300
acen	-11301
cine	-11302
▁evita	-11303
▁filosó	-11304
▁omega	-11305
dita	-11306
iar	-11307
▁demostra	-11308
▁persecución	-11309
▁crónico	-11310
oluciones	-11311
▁trig	-11312
▁preferencias	-11313
▁secundarias	-11314
1%	-11315
▁2007.	-11316
▁horno	-11317
▁conseguir	-11318
▁patógenos	-11319
burgo	-11320
▁doctorado	-11321
▁falle	-11322
▁abdomin	-11323
▁citas	-11324
▁incertidumbre	-11325
ueves	-11326
▁enfrentó	-11327
▁már	-11328
▁caliza	-11329
RL	-11330
▁acto	-11331
top	-11332
iosa	-11333
▁cay	-11334
▁Oregon	-11335
ady	-11336
▁escombros	-11337
▁descubrimientos	-11338
▁mina	-11339
▁cuidadores	-11340
gol	-11341
▁dañinos	-11342
▁epidemi	-11343
▁Alimentación	-11344
▁Kim	-11345
▁votantes	-11346
▁prosper	-11347
▁levantamiento	-11348
▁eval	-11349
▁brevemente	-11350
▁textura	-11351
▁coches	-11352
▁enfermo	-11353
▁Word	-11354
mus	-11355
▁remoción	-11356
osten	-11357
▁creada	-11358
▁pensando	-11359
▁Jard	-11360
▁Deci	-11361
▁Tera	-11362
▁sint	-11363
▁mediciones	-11364
instein	-11365
▁imperial	-11366
▁cilind	-11367
▁fertilizantes	-11368
▁cigar	-11369
▁toxinas	-11370
▁sólido	-11371
▁consume	-11372
▁digestivo	-11373
▁Cora	-11374
▁escáner	-11375
ndice	-11376
▁Ol	-11377
▁exhibición	-11378
▁Humanos	-11379
▁Papa	-11380
▁empleado	-11381
▁cáps	-11382
▁Palabras	-11383
▁juega	-11384
▁tuberías	-11385
▁entretenimiento	-11386
kar	-11387
▁murci	-11388
lici	-11389
▁8,	-11390
▁Especial	-11391
ING	-11392
▁devas	-11393
▁oscuros	-11394
hab	-11395
▁agar	-11396
ucky	-11397
▁incapacidad	-11398
▁selecciona	-11399
":	-11400
▁2014,	-11401
psis	-11402
Mo	-11403
▁amino	-11404
▁racismo	-11405
▁quedó	-11406
tión	-11407
▁lobos	-11408
▁ajustes	-11409
▁recolección	-11410
▁consideración	-11411
▁ama	-11412
▁eficazmente	-11413
▁Hacer	-11414
tenas	-11415
▁yoga	-11416
▁presas	-11417
ionistas	-11418
▁piensa	-11419
rarro	-11420
tades	-11421
▁SIDA	-11422
▁Declaración	-11423
AF	-11424
▁identifica	-11425
QL	-11426
▁LG	-11427
▁muere	-11428
ív	-11429
▁Ejemplo	-11430
▁Brig	-11431
▁cem	-11432
▁despre	-11433
▁PAR	-11434
▁Liber	-11435
▁hombros	-11436
▁devolver	-11437
▁experimental	-11438
▁Vea	-11439
▁consumidor	-11440
pendiendo	-11441
▁ocultar	-11442
▁Tienes	-11443
▁Proporciona	-11444
▁Aprendizaje	-11445
▁lanza	-11446
ímetros	-11447
grafos	-11448
▁estuvieron	-11449
▁presentaciones	-11450
▁2007,	-11451
▁confirmar	-11452
▁brotes	-11453
▁extendió	-11454
▁tejado	-11455
▁tomada	-11456
▁cazadores	-11457
▁resultando	-11458
▁bahía	-11459
▁Chris	-11460
todox	-11461
▁externo	-11462
-15	-11463
▁pele	-11464
▁corazones	-11465
▁creemos	-11466
▁Infec	-11467
▁Orig	-11468
cía	-11469
eman	-11470
▁mínima	-11471
▁danza	-11472
▁Escuch	-11473
▁90%	-11474
▁licenci	-11475
janos	-11476
▁pulgada	-11477
antemente	-11478
▁necesitaban	-11479
terales	-11480
▁primarias	-11481
my	-11482
▁Entender	-11483
lizado	-11484
▁Sigue	-11485
▁enormes	-11486
▁infectados	-11487
▁opio	-11488
▁viejo	-11489
▁Claro	-11490
ety	-11491
centes	-11492
▁revisa	-11493
▁asignación	-11494
ille	-11495
▁claves	-11496
▁extienden	-11497
▁Eli	-11498
▁gam	-11499
Quieres	-11500
▁creció	-11501
sius	-11502
ded	-11503
▁beta	-11504
▁trae	-11505
▁anillos	-11506
▁inflama	-11507
eland	-11508
▁encarcel	-11509
▁Pun	-11510
cadores	-11511
▁(3)	-11512
▁alimentaria	-11513
gencia	-11514
▁fluye	-11515
▁desempeña	-11516
▁encontré	-11517
▁prohibición	-11518
pensa	-11519
▁crecido	-11520
▁ecología	-11521
▁circular	-11522
▁adher	-11523
▁impreso	-11524
▁Encontra	-11525
";	-11526
plante	-11527
▁probabilidades	-11528
▁Quer	-11529
▁prácticos	-11530
inder	-11531
▁brus	-11532
▁disuel	-11533
▁hepatitis	-11534
▁Ash	-11535
▁cuadro	-11536
▁amante	-11537
▁Ri	-11538
▁permita	-11539
cter	-11540
▁entró	-11541
▁continúa	-11542
cioso	-11543
▁permiti	-11544
ioterapia	-11545
inn	-11546
urt	-11547
▁supervisión	-11548
▁bille	-11549
▁you	-11550
▁enum	-11551
▁astrona	-11552
▁persu	-11553
▁enfriamiento	-11554
▁turistas	-11555
ych	-11556
▁sinc	-11557
éricas	-11558
▁alfabe	-11559
▁off	-11560
▁Vers	-11561
▁contratos	-11562
▁administrar	-11563
ondas	-11564
▁variantes	-11565
▁jueces	-11566
tividades	-11567
▁propósitos	-11568
ulsiones	-11569
95	-11570
▁leído	-11571
▁establecidos	-11572
▁Utah	-11573
▁transfer	-11574
▁tratan	-11575
▁minuto	-11576
dd	-11577
▁libremente	-11578
▁antrop	-11579
▁térmica	-11580
▁operadores	-11581
▁cincuenta	-11582
▁contactos	-11583
▁HTML	-11584
▁recibi	-11585
▁influir	-11586
▁clari	-11587
hl	-11588
▁imaginar	-11589
▁afroamericanos	-11590
▁margin	-11591
▁absorber	-11592
▁aniversario	-11593
▁Miss	-11594
ob	-11595
discip	-11596
hop	-11597
▁morf	-11598
▁perse	-11599
rosa	-11600
▁diseñadores	-11601
fono	-11602
▁Europe	-11603
▁estaré	-11604
▁Espi	-11605
▁invis	-11606
▁centran	-11607
▁intensa	-11608
▁migra	-11609
uss	-11610
▁Jean	-11611
▁Comien	-11612
▁biblio	-11613
▁indis	-11614
▁abarcan	-11615
ML	-11616
▁intern	-11617
▁prósta	-11618
rit	-11619
▁Corán	-11620
▁Fondo	-11621
▁hilos	-11622
▁fiestas	-11623
▁marcado	-11624
▁causadas	-11625
▁inoc	-11626
▁Cruz	-11627
▁descrito	-11628
Su	-11629
▁pulso	-11630
▁inmigración	-11631
▁demócra	-11632
▁influyen	-11633
▁usan	-11634
▁actitudes	-11635
▁tropical	-11636
▁típico	-11637
▁frontal	-11638
▁esper	-11639
▁pasaría	-11640
▁bené	-11641
▁Robin	-11642
▁cansado	-11643
▁recibiendo	-11644
ológicamente	-11645
▁zinc	-11646
▁fertilidad	-11647
UT	-11648
▁codo	-11649
▁páncreas	-11650
▁narrativa	-11651
quin	-11652
dom	-11653
▁2017.	-11654
▁sufrió	-11655
dadura	-11656
▁llamas	-11657
▁Haga	-11658
▁dedo	-11659
▁extranjeras	-11660
▁calaba	-11661
▁lente	-11662
rey	-11663
▁Rock	-11664
▁óptica	-11665
▁funcionales	-11666
▁venen	-11667
▁desempeñar	-11668
▁distancias	-11669
▁glaci	-11670
keley	-11671
▁reseña	-11672
▁Cy	-11673
▁Hub	-11674
▁últimamente	-11675
ights	-11676
▁mantenido	-11677
▁religioso	-11678
▁competición	-11679
dices	-11680
▁grabación	-11681
▁documentación	-11682
▁1999	-11683
▁simbó	-11684
▁Tel	-11685
eto	-11686
Ver	-11687
▁esfor	-11688
ídas	-11689
▁(10	-11690
genda	-11691
very	-11692
▁tam	-11693
▁aprende	-11694
▁Domin	-11695
▁entrevistas	-11696
▁800	-11697
▁dolorosa	-11698
put	-11699
▁conocía	-11700
▁Jacob	-11701
▁Has	-11702
▁digestión	-11703
▁Phil	-11704
RS	-11705
▁80%	-11706
▁mediano	-11707
▁arquitectón	-11708
▁gastar	-11709
▁espectáculo	-11710
▁predomin	-11711
▁predicciones	-11712
▁oscuras	-11713
▁pide	-11714
mont	-11715
▁geografía	-11716
▁CN	-11717
▁pereg	-11718
▁Rojo	-11719
▁Química	-11720
▁desconocida	-11721
▁IC	-11722
▁lunes	-11723
egue	-11724
▁MP	-11725
▁gusto	-11726
ufra	-11727
▁Alab	-11728
▁encontradas	-11729
rid	-11730
egas	-11731
▁román	-11732
▁pecados	-11733
▁campañas	-11734
▁gratuitos	-11735
▁Lista	-11736
▁resistir	-11737
▁incidentes	-11738
▁consol	-11739
▁pantallas	-11740
▁Creo	-11741
▁privileg	-11742
▁coordin	-11743
▁lunar	-11744
▁Atlan	-11745
▁Marsh	-11746
▁oz	-11747
nidad	-11748
eds	-11749
▁parásitos	-11750
▁intu	-11751
▁experimentando	-11752
▁Institute	-11753
▁previas	-11754
▁Apoy	-11755
▁rigu	-11756
▁llenas	-11757
▁Che	-11758
▁DO	-11759
▁Trump	-11760
▁quemar	-11761
▁Buda	-11762
▁perpe	-11763
▁biológico	-11764
▁transmite	-11765
▁Leon	-11766
tari	-11767
trales	-11768
avi	-11769
▁Descri	-11770
▁fábricas	-11771
▁religiones	-11772
▁asesoramiento	-11773
estre	-11774
▁cubren	-11775
▁invertir	-11776
als	-11777
▁umb	-11778
DO	-11779
▁Connec	-11780
uld	-11781
▁ganador	-11782
▁diagnosticar	-11783
▁dígi	-11784
▁impiden	-11785
▁Sher	-11786
▁nom	-11787
▁entradas	-11788
▁buc	-11789
▁dejado	-11790
▁húmedo	-11791
▁ocular	-11792
isfer	-11793
▁créditos	-11794
▁cláus	-11795
▁hisp	-11796
tumbres	-11797
quir	-11798
▁manus	-11799
▁Noticias	-11800
red	-11801
▁especialistas	-11802
ult	-11803
quellos	-11804
▁ocurrió	-11805
▁Lar	-11806
▁hormigas	-11807
▁musicales	-11808
▁iniciar	-11809
▁útero	-11810
▁simbol	-11811
▁sabores	-11812
litos	-11813
▁musculares	-11814
ols	-11815
▁Definición	-11816
turo	-11817
▁Max	-11818
ónimo	-11819
▁erup	-11820
▁escritas	-11821
▁metodología	-11822
▁abur	-11823
bloque	-11824
▁primi	-11825
▁pensamos	-11826
reos	-11827
▁tinta	-11828
▁Página	-11829
▁femeninas	-11830
▁Way	-11831
▁rehabilitación	-11832
andes	-11833
▁asegúrate	-11834
Mi	-11835
vida	-11836
▁rebelión	-11837
mem	-11838
tex	-11839
▁orgullo	-11840
▁Allí	-11841
▁extranjera	-11842
▁horizontal	-11843
▁embarazada	-11844
▁Day	-11845
▁Prepara	-11846
▁adaptar	-11847
toma	-11848
▁labios	-11849
▁sano	-11850
▁Miller	-11851
.:	-11852
ínsula	-11853
▁cañón	-11854
▁hered	-11855
▁incluidos	-11856
▁Net	-11857
▁costas	-11858
mu	-11859
▁utilizará	-11860
▁Retri	-11861
LO	-11862
▁burbu	-11863
▁agrup	-11864
▁alergía	-11865
▁aleg	-11866
▁palma	-11867
▁requería	-11868
ilton	-11869
▁ingleses	-11870
▁automovil	-11871
▁Pon	-11872
▁une	-11873
▁rugos	-11874
▁desarrollada	-11875
▁requerido	-11876
▁desventajas	-11877
▁contrar	-11878
▁quieras	-11879
▁BBC	-11880
▁óptima	-11881
▁Tennes	-11882
▁interrum	-11883
▁larvas	-11884
▁Chi	-11885
▁vecino	-11886
lus	-11887
▁nitrógeno	-11888
▁matan	-11889
▁Océ	-11890
▁pira	-11891
▁aprendiz	-11892
▁Fund	-11893
2:	-11894
tural	-11895
▁astrónomos	-11896
guar	-11897
▁ponen	-11898
▁Alabama	-11899
uctu	-11900
▁Justicia	-11901
ximadamente	-11902
▁ingesta	-11903
gh	-11904
▁igno	-11905
▁círculos	-11906
▁entienden	-11907
▁deberá	-11908
apur	-11909
▁Austria	-11910
▁apropiadas	-11911
▁vaca	-11912
▁prelim	-11913
▁retir	-11914
▁corales	-11915
cr	-11916
▁Land	-11917
iete	-11918
voz	-11919
▁pimienta	-11920
▁iP	-11921
▁monas	-11922
peta	-11923
▁zanahorias	-11924
▁cristiano	-11925
▁sonris	-11926
rilla	-11927
▁predetermin	-11928
▁solicitar	-11929
▁Mayor	-11930
▁naranja	-11931
ese	-11932
▁Vene	-11933
▁despertar	-11934
He	-11935
▁dinastía	-11936
▁evacu	-11937
▁radicales	-11938
▁poemas	-11939
▁piensan	-11940
46	-11941
elle	-11942
▁redonde	-11943
Tienes	-11944
uci	-11945
▁reflexión	-11946
▁sostiene	-11947
tima	-11948
▁aproach	-11949
▁mencionados	-11950
▁aer	-11951
▁pluma	-11952
▁%	-11953
mería	-11954
▁modelado	-11955
▁siguiendo	-11956
▁solicitudes	-11957
▁alimenta	-11958
▁aprobado	-11959
▁15.	-11960
▁actualidad	-11961
▁Greg	-11962
▁picos	-11963
▁creativa	-11964
▁transmis	-11965
▁Misis	-11966
▁vitales	-11967
▁traje	-11968
▁funcione	-11969
canes	-11970
▁delitos	-11971
▁Noruega	-11972
▁corrupción	-11973
▁plato	-11974
▁infrarro	-11975
entalmente	-11976
▁dividen	-11977
▁pozo	-11978
▁natal	-11979
▁salmón	-11980
▁deterio	-11981
▁cargos	-11982
▁controver	-11983
▁hablantes	-11984
▁2016,	-11985
▁Child	-11986
▁mantequilla	-11987
▁desinfec	-11988
9%	-11989
▁delici	-11990
▁alcanzó	-11991
▁dando	-11992
▁pelos	-11993
▁mariposas	-11994
▁sellos	-11995
landés	-11996
▁seria	-11997
▁opuesto	-11998
▁Necesitamos	-11999
▁River	-12000
▁NY	-12001
izando	-12002
▁máscara	-12003
▁imprimir	-12004
▁dispuesto	-12005
▁vivió	-12006
▁hábito	-12007
▁discursos	-12008
▁Iowa	-12009
▁East	-12010
▁Kentucky	-12011
▁IT	-12012
▁dinosaurios	-12013
▁heridos	-12014
▁comandos	-12015
pue	-12016
señas	-12017
▁cicl	-12018
pson	-12019
istido	-12020
▁Monte	-12021
▁"¡	-12022
▁noble	-12023
▁Defensa	-12024
▁adoptado	-12025
▁cuántas	-12026
▁favoritos	-12027
▁tardía	-12028
▁Ku	-12029
▁ralen	-12030
▁cebolla	-12031
▁TH	-12032
▁sanguínea	-12033
▁Ellas	-12034
PV	-12035
hua	-12036
▁robot	-12037
▁definido	-12038
▁constitucional	-12039
▁praderas	-12040
▁fortaleza	-12041
▁cristales	-12042
▁expon	-12043
▁pesadas	-12044
3),	-12045
▁dependiente	-12046
▁contenga	-12047
▁lava	-12048
▁Nacionales	-12049
▁balón	-12050
7%	-12051
example	-12052
▁editores	-12053
inter	-12054
▁Well	-12055
▁departamentos	-12056
▁adecuadas	-12057
▁consideró	-12058
▁Tennessee	-12059
▁queden	-12060
▁votos	-12061
▁primarios	-12062
▁geográfica	-12063
erg	-12064
▁Prac	-12065
▁diseñó	-12066
▁fitness	-12067
▁asbes	-12068
▁dejó	-12069
▁actúan	-12070
▁notables	-12071
▁cargar	-12072
▁peda	-12073
▁frescos	-12074
.),	-12075
▁retira	-12076
▁Lor	-12077
▁desac	-12078
veda	-12079
▁Unidad	-12080
▁Siria	-12081
▁acusado	-12082
▁inspirado	-12083
ticidad	-12084
▁reunieron	-12085
▁Pr	-12086
▁envío	-12087
▁Diego	-12088
▁experimentación	-12089
2%	-12090
▁Grandes	-12091
▁alle	-12092
▁apasion	-12093
▁comunicar	-12094
IST	-12095
▁2000,	-12096
▁abstrac	-12097
éisbol	-12098
▁heredi	-12099
▁Afgan	-12100
▁Tienen	-12101
▁llegando	-12102
mej	-12103
▁amarilla	-12104
▁antig	-12105
▁cañones	-12106
▁dimensión	-12107
88	-12108
▁retiro	-12109
▁perforación	-12110
▁2021	-12111
doras	-12112
▁iones	-12113
▁entrenar	-12114
▁pimientos	-12115
ette	-12116
▁órgano	-12117
▁Vin	-12118
▁robus	-12119
▁nervio	-12120
▁detuvo	-12121
▁Sri	-12122
▁Área	-12123
▁Determin	-12124
▁Misisipi	-12125
▁brecha	-12126
▁formado	-12127
ject	-12128
▁interiores	-12129
▁complic	-12130
ficos	-12131
▁enseñanzas	-12132
▁sufr	-12133
▁numerosas	-12134
▁up	-12135
▁naz	-12136
▁diariamente	-12137
▁espada	-12138
▁Primer	-12139
▁novel	-12140
▁inclus	-12141
▁estrecho	-12142
▁dependientes	-12143
300	-12144
▁ubicada	-12145
▁ángulos	-12146
▁episodio	-12147
▁Esa	-12148
▁ax	-12149
▁envol	-12150
▁barato	-12151
redi	-12152
▁botellas	-12153
▁Kir	-12154
isto	-12155
▁malos	-12156
▁Cambio	-12157
▁transf	-12158
bola	-12159
▁30%	-12160
person	-12161
▁Prince	-12162
▁Bran	-12163
▁castillo	-12164
▁frecuente	-12165
▁posesión	-12166
vide	-12167
▁Tai	-12168
▁Sac	-12169
▁2006,	-12170
▁entidades	-12171
teza	-12172
▁lujo	-12173
▁síntesis	-12174
▁discíp	-12175
8%	-12176
▁contigo	-12177
▁reparar	-12178
▁afirmando	-12179
▁160	-12180
▁portátil	-12181
▁comisión	-12182
éricos	-12183
▁católicos	-12184
abezas	-12185
▁gerentes	-12186
▁fijo	-12187
▁riñón	-12188
▁frecuencias	-12189
GS	-12190
▁Qué	-12191
▁Mov	-12192
▁paralelo	-12193
▁anuncios	-12194
▁Ford	-12195
▁Afganistán	-12196
▁Clark	-12197
camente	-12198
lop	-12199
orio	-12200
alestina	-12201
▁resalta	-12202
▁determinan	-12203
▁Observa	-12204
▁preparados	-12205
▁Serv	-12206
istad	-12207
▁supon	-12208
▁estructurales	-12209
▁preocupados	-12210
▁cereales	-12211
▁ciudadanía	-12212
▁legíti	-12213
AB	-12214
▁españoles	-12215
▁correlación	-12216
▁espectadores	-12217
▁dada	-12218
▁Tipo	-12219
▁hin	-12220
▁suena	-12221
▁Obtener	-12222
▁Darwin	-12223
▁transportar	-12224
OP	-12225
▁proxim	-12226
▁hectáreas	-12227
▁Club	-12228
▁Fri	-12229
▁Bush	-12230
▁portu	-12231
▁puentes	-12232
izó	-12233
▁Adi	-12234
▁Puerto	-12235
▁quiera	-12236
▁2005,	-12237
▁Clima	-12238
▁querer	-12239
▁atribuye	-12240
▁certificados	-12241
▁enseñan	-12242
▁estatua	-12243
MI	-12244
▁Little	-12245
▁Psicología	-12246
▁Techn	-12247
▁talad	-12248
▁Neb	-12249
▁reconstrucción	-12250
▁octa	-12251
▁marcar	-12252
ricos	-12253
▁resili	-12254
▁Naturaleza	-12255
get	-12256
▁cocinar	-12257
▁Cuba	-12258
▁doctrina	-12259
▁reaccion	-12260
presidente	-12261
▁Independencia	-12262
▁estimar	-12263
▁Dra	-12264
▁neo	-12265
▁marcos	-12266
▁PR	-12267
▁vecindario	-12268
▁cruel	-12269
▁capitán	-12270
drás	-12271
▁Hem	-12272
▁Bell	-12273
▁oliva	-12274
▁vein	-12275
▁usado	-12276
▁Arthur	-12277
▁contraseñas	-12278
ividad	-12279
▁permanentes	-12280
tólica	-12281
▁suro	-12282
oth	-12283
viente	-12284
▁trono	-12285
▁deficiencias	-12286
kee	-12287
▁Oli	-12288
▁medieval	-12289
▁versus	-12290
▁Celsius	-12291
▁Dependiendo	-12292
▁urbana	-12293
▁gustaría	-12294
wick	-12295
▁sólidos	-12296
▁bloquear	-12297
mienda	-12298
▁heces	-12299
tencias	-12300
▁desaparecer	-12301
▁Math	-12302
▁pierden	-12303
▁fluores	-12304
▁not	-12305
▁gros	-12306
▁costumbres	-12307
▁Tenía	-12308
▁vivía	-12309
▁creativo	-12310
▁significados	-12311
istan	-12312
gaz	-12313
ilio	-12314
icon	-12315
alidad	-12316
▁tritura	-12317
▁viaja	-12318
▁distinción	-12319
▁torres	-12320
uter	-12321
▁Liga	-12322
▁microscóp	-12323
▁seguramente	-12324
▁Center	-12325
▁apropiados	-12326
▁Proce	-12327
▁Gri	-12328
kov	-12329
▁misteri	-12330
▁ceremon	-12331
▁obtenido	-12332
late	-12333
tificado	-12334
ículo	-12335
▁anex	-12336
▁Cuatro	-12337
▁1980	-12338
▁israel	-12339
▁Gh	-12340
▁afectando	-12341
ñar	-12342
▁goma	-12343
cran	-12344
ámico	-12345
▁quedarse	-12346
áce	-12347
▁Usar	-12348
▁criminales	-12349
▁Wy	-12350
▁adapta	-12351
▁mencionado	-12352
rich	-12353
▁azo	-12354
▁repente	-12355
▁adquisición	-12356
▁restaurantes	-12357
▁Scholar	-12358
▁fractura	-12359
▁Tratado	-12360
kies	-12361
▁Vuel	-12362
▁bonos	-12363
▁tirar	-12364
▁templos	-12365
ited	-12366
ástica	-12367
▁Suiza	-12368
▁ofens	-12369
▁regula	-12370
▁1998	-12371
▁odio	-12372
▁conoció	-12373
▁Niño	-12374
▁Muhammad	-12375
▁pasados	-12376
▁PRO	-12377
tidamente	-12378
▁Road	-12379
▁extendido	-12380
▁cerrada	-12381
▁Sw	-12382
▁menú	-12383
ígenas	-12384
▁claridad	-12385
85	-12386
▁psicológicos	-12387
LS	-12388
▁construyendo	-12389
▁NS	-12390
▁eco	-12391
▁tendrían	-12392
▁celebró	-12393
▁abogados	-12394
▁Comple	-12395
▁indio	-12396
radi	-12397
▁lac	-12398
▁costeras	-12399
▁economías	-12400
isco	-12401
▁falso	-12402
▁Elim	-12403
▁diosa	-12404
▁renal	-12405
▁baños	-12406
▁buques	-12407
▁pertenecen	-12408
▁acab	-12409
▁controlado	-12410
▁árabes	-12411
Mar	-12412
▁sabían	-12413
rence	-12414
▁Nobel	-12415
▁entiende	-12416
▁hablado	-12417
ert	-12418
▁mató	-12419
▁frescas	-12420
▁delic	-12421
▁expresó	-12422
▁planet	-12423
▁Parkinson	-12424
▁informan	-12425
▁forestales	-12426
▁sacrificio	-12427
▁idén	-12428
▁protegerse	-12429
dies	-12430
▁Dick	-12431
▁Alber	-12432
3:	-12433
lock	-12434
▁actores	-12435
▁10,	-12436
▁establecimiento	-12437
▁cruc	-12438
▁radiac	-12439
▁detiene	-12440
▁monitoreo	-12441
▁psicológica	-12442
like	-12443
▁Estación	-12444
▁Church	-12445
rillo	-12446
▁residuales	-12447
▁MIT	-12448
▁sobrevivientes	-12449
ficas	-12450
tenido	-12451
▁Mantener	-12452
▁programar	-12453
Tube	-12454
prin	-12455
fico	-12456
magn	-12457
▁mandato	-12458
izador	-12459
▁Sosten	-12460
▁nitrógen	-12461
▁perme	-12462
FS	-12463
▁británicas	-12464
▁apellido	-12465
chem	-12466
terráneo	-12467
▁bis	-12468
▁duró	-12469
▁fina	-12470
▁invad	-12471
▁dialec	-12472
▁reformas	-12473
▁lanzado	-12474
▁retiró	-12475
▁verdaderos	-12476
▁Kal	-12477
▁traducido	-12478
▁aux	-12479
▁llamaron	-12480
Como	-12481
▁Shi	-12482
▁multitud	-12483
▁cognitivo	-12484
▁40%	-12485
▁Otra	-12486
física	-12487
PDF	-12488
sea	-12489
▁episodios	-12490
day	-12491
▁utilidad	-12492
▁rele	-12493
▁Hop	-12494
▁fracas	-12495
▁jardinería	-12496
▁mutación	-12497
▁cha	-12498
▁barro	-12499
▁tragedia	-12500
asia	-12501
▁Hier	-12502
▁española	-12503
▁sostener	-12504
HO	-12505
▁hidra	-12506
▁Berkeley	-12507
norm	-12508
▁intervalos	-12509
▁santo	-12510
▁Reserva	-12511
▁Stanford	-12512
▁abundantes	-12513
edu	-12514
▁votar	-12515
▁descripciones	-12516
losos	-12517
monio	-12518
pha	-12519
cepción	-12520
▁pm	-12521
uertos	-12522
▁mueven	-12523
▁Lucas	-12524
▁isol	-12525
▁elefantes	-12526
lon	-12527
▁envuel	-12528
ioso	-12529
ucho	-12530
▁primario	-12531
venen	-12532
▁almo	-12533
▁Anne	-12534
critos	-12535
▁podido	-12536
▁generos	-12537
▁Nav	-12538
▁reclu	-12539
▁compac	-12540
▁visualización	-12541
-200	-12542
▁Caribe	-12543
▁Satur	-12544
▁italiano	-12545
▁Representantes	-12546
idel	-12547
▁adyac	-12548
▁arbi	-12549
▁establecida	-12550
▁Lt	-12551
▁chim	-12552
▁externas	-12553
gus	-12554
▁educar	-12555
▁Compar	-12556
▁Hazlo	-12557
▁Bitcoin	-12558
▁gusano	-12559
▁híbr	-12560
▁plasma	-12561
▁jab	-12562
▁Lear	-12563
▁seguida	-12564
▁vistos	-12565
▁museos	-12566
▁protecto	-12567
▁von	-12568
▁Clim	-12569
▁mentes	-12570
▁compró	-12571
▁Map	-12572
▁rompió	-12573
énior	-12574
▁Litera	-12575
▁completó	-12576
▁Jen	-12577
1/	-12578
▁manej	-12579
▁dirigidos	-12580
ishing	-12581
▁módulos	-12582
▁matemáticos	-12583
ánica	-12584
▁cron	-12585
▁pagan	-12586
▁hombro	-12587
▁6:	-12588
▁tiburones	-12589
colar	-12590
▁obtuvieron	-12591
▁encuentren	-12592
▁odi	-12593
▁subida	-12594
▁misterio	-12595
dela	-12596
▁cannab	-12597
piró	-12598
▁hack	-12599
▁enzima	-12600
▁Zo	-12601
tivar	-12602
mó	-12603
▁fij	-12604
▁bombas	-12605
▁Afric	-12606
tecnología	-12607
▁despli	-12608
▁náufra	-12609
▁explíci	-12610
▁inex	-12611
▁Adams	-12612
▁docen	-12613
▁continú	-12614
▁quim	-12615
▁hablamos	-12616
▁separado	-12617
▁Forma	-12618
dificación	-12619
▁similitudes	-12620
▁subsi	-12621
tiéndose	-12622
▁fundamentos	-12623
▁Prevención	-12624
▁85	-12625
▁exitosamente	-12626
▁noches	-12627
▁terrible	-12628
▁germin	-12629
▁involucró	-12630
▁McG	-12631
▁Mucho	-12632
mel	-12633
atía	-12634
▁preguntan	-12635
pita	-12636
inalmente	-12637
▁Benj	-12638
▁pánico	-12639
▁deportistas	-12640
▁encaj	-12641
▁tallo	-12642
▁playas	-12643
▁cemento	-12644
ramento	-12645
ffer	-12646
▁viajó	-12647
▁facilidad	-12648
elly	-12649
▁verg	-12650
▁Hong	-12651
▁BC	-12652
fn	-12653
aro	-12654
▁jam	-12655
ranía	-12656
▁galones	-12657
▁Space	-12658
▁pasaron	-12659
▁46	-12660
▁precisos	-12661
▁Einstein	-12662
▁envejecimiento	-12663
▁inspección	-12664
PD	-12665
▁cintura	-12666
▁supermer	-12667
▁gotas	-12668
▁renun	-12669
▁protegidas	-12670
▁masas	-12671
▁But	-12672
▁veteranos	-12673
▁54	-12674
▁frustra	-12675
▁ofreciendo	-12676
▁integrar	-12677
tagon	-12678
▁camiones	-12679
▁Maine	-12680
▁salvación	-12681
pole	-12682
▁estrecha	-12683
▁inhal	-12684
▁tesoro	-12685
▁demuestran	-12686
▁paradi	-12687
▁deje	-12688
RNA	-12689
▁fracción	-12690
▁encontrará	-12691
MD	-12692
hel	-12693
▁municipal	-12694
▁soldadura	-12695
shire	-12696
dico	-12697
piración	-12698
▁crema	-12699
▁sar	-12700
▁cortada	-12701
▁2020.	-12702
▁biomasa	-12703
▁colocó	-12704
▁verás	-12705
▁habitualmente	-12706
▁crecientes	-12707
ecía	-12708
▁alegría	-12709
▁atractivo	-12710
▁cena	-12711
▁sagrada	-12712
▁tome	-12713
▁Pear	-12714
Hz	-12715
▁caracteriza	-12716
▁ventilación	-12717
▁existir	-12718
▁desorden	-12719
▁pulmonar	-12720
▁estrang	-12721
▁Ency	-12722
▁Nada	-12723
▁Holoca	-12724
peci	-12725
orcio	-12726
▁literaria	-12727
▁preocupado	-12728
▁comerciantes	-12729
▁Ministro	-12730
▁Soy	-12731
inadas	-12732
▁representante	-12733
▁Mira	-12734
public	-12735
▁espi	-12736
lyn	-12737
▁soporte	-12738
▁presiones	-12739
▁9,	-12740
▁Pul	-12741
▁bolsas	-12742
▁deportivo	-12743
▁Dispon	-12744
▁Pier	-12745
trick	-12746
▁Océano	-12747
▁175	-12748
poración	-12749
▁urbanos	-12750
▁Afortunadamente	-12751
▁emergentes	-12752
teos	-12753
▁PhD	-12754
▁llamamos	-12755
▁subiendo	-12756
▁colonizadores	-12757
▁ladr	-12758
ambre	-12759
▁YouTube	-12760
▁matemático	-12761
▁tomen	-12762
istém	-12763
▁neutral	-12764
▁cuantita	-12765
▁estarían	-12766
▁Singapur	-12767
▁Young	-12768
ficado	-12769
iblemente	-12770
▁Yu	-12771
▁espinal	-12772
▁urin	-12773
▁introduce	-12774
▁Enrique	-12775
cadas	-12776
▁deform	-12777
▁NC	-12778
bablemente	-12779
UD	-12780
zamiento	-12781
▁armonía	-12782
omosex	-12783
▁decide	-12784
▁compasión	-12785
▁inund	-12786
▁contextos	-12787
▁desconocidos	-12788
drán	-12789
▁Mont	-12790
▁Constan	-12791
▁suicidio	-12792
▁asegu	-12793
▁2006.	-12794
▁túnel	-12795
▁Nigeria	-12796
▁aislamiento	-12797
▁moles	-12798
tricas	-12799
▁Hous	-12800
▁Aérea	-12801
▁pne	-12802
mpicos	-12803
▁capacitados	-12804
▁limón	-12805
▁reconocen	-12806
ika	-12807
▁notó	-12808
▁delgada	-12809
▁constantes	-12810
▁Terri	-12811
▁dinámicas	-12812
▁geometría	-12813
▁provincias	-12814
▁Spring	-12815
▁guitar	-12816
▁transformar	-12817
▁Tipos	-12818
▁sugerido	-12819
ól	-12820
▁ED	-12821
▁Albert	-12822
▁ortografía	-12823
▁Ejecu	-12824
▁rusos	-12825
▁provienen	-12826
eti	-12827
▁Eng	-12828
tname	-12829
▁piscina	-12830
▁revesti	-12831
▁fatal	-12832
▁By	-12833
losa	-12834
▁periodista	-12835
▁proporcionaron	-12836
▁valiosas	-12837
▁25%	-12838
▁Princip	-12839
▁melan	-12840
▁Bob	-12841
▁Thom	-12842
▁controversia	-12843
▁emocionante	-12844
▁coloque	-12845
kota	-12846
▁Equi	-12847
74	-12848
▁intentaron	-12849
▁lógico	-12850
98	-12851
▁And	-12852
▁persistente	-12853
éla	-12854
tadora	-12855
▁hijas	-12856
ída	-12857
▁ríg	-12858
▁1997	-12859
▁Pur	-12860
▁europeas	-12861
igen	-12862
▁cosm	-12863
▁apreci	-12864
▁SE	-12865
elson	-12866
▁obligación	-12867
▁comunitaria	-12868
nan	-12869
uerte	-12870
▁funcionando	-12871
▁ordin	-12872
▁Cuerpo	-12873
▁introducido	-12874
▁tazas	-12875
▁pir	-12876
óstol	-12877
▁desecho	-12878
▁financiado	-12879
tías	-12880
inidad	-12881
▁contag	-12882
▁Ambiental	-12883
▁2017,	-12884
Ne	-12885
sim	-12886
▁nidos	-12887
▁asistentes	-12888
▁Verde	-12889
▁Toronto	-12890
leaños	-12891
▁mamá	-12892
ful	-12893
ólica	-12894
▁pausa	-12895
▁llevaba	-12896
▁psicológico	-12897
▁Bul	-12898
▁operador	-12899
▁formaron	-12900
▁contabilidad	-12901
pel	-12902
PP	-12903
▁Jord	-12904
▁huele	-12905
▁empezando	-12906
istó	-12907
▁cumpleaños	-12908
▁demasiadas	-12909
▁5%	-12910
▁anorm	-12911
▁soldado	-12912
▁cuarta	-12913
▁enfrentaron	-12914
▁enfoca	-12915
terias	-12916
▁monet	-12917
▁refres	-12918
▁creados	-12919
▁secuenci	-12920
ayas	-12921
▁enco	-12922
▁jubil	-12923
estes	-12924
graph	-12925
tosis	-12926
▁Patri	-12927
▁dedicada	-12928
▁fec	-12929
▁polen	-12930
▁satisfec	-12931
▁reseñas	-12932
mm	-12933
76	-12934
▁LGBT	-12935
▁inse	-12936
▁béisbol	-12937
▁capturado	-12938
▁Vita	-12939
rimonio	-12940
▁transforma	-12941
▁señaló	-12942
▁desagra	-12943
tibles	-12944
▁Rub	-12945
▁Lago	-12946
▁laborales	-12947
▁mantuvieron	-12948
▁equivoc	-12949
▁95	-12950
tier	-12951
táce	-12952
▁Ras	-12953
▁gubernamental	-12954
▁Rea	-12955
▁demuestra	-12956
direc	-12957
▁Enfermedad	-12958
▁bit	-12959
▁fabricar	-12960
▁nuevamente	-12961
ínica	-12962
▁incu	-12963
▁espectaculares	-12964
amina	-12965
▁obligado	-12966
▁certeza	-12967
▁fascinante	-12968
▁gloria	-12969
▁esquemas	-12970
▁respaldo	-12971
ij	-12972
▁elabora	-12973
▁planeado	-12974
▁compresión	-12975
sun	-12976
▁encontrada	-12977
▁vuelos	-12978
▁biológicas	-12979
úpiter	-12980
▁repetir	-12981
fun	-12982
ómicos	-12983
▁PA	-12984
▁volvió	-12985
▁convulsiones	-12986
copios	-12987
▁sénior	-12988
versa	-12989
▁habitual	-12990
▁Rab	-12991
▁Incluye	-12992
▁organizado	-12993
▁Venus	-12994
▁polar	-12995
▁Cristi	-12996
▁investigando	-12997
▁designado	-12998
▁Actu	-12999
▁interferir	-13000
▁busque	-13001
▁Sho	-13002
▁elevado	-13003
▁retención	-13004
▁propens	-13005
efes	-13006
icar	-13007
▁Dur	-13008
▁lentes	-13009
▁internas	-13010
▁remon	-13011
▁aparatos	-13012
▁ecuaciones	-13013
▁Prác	-13014
▁traum	-13015
▁ant	-13016
▁cuántica	-13017
▁detallado	-13018
▁Superior	-13019
▁bols	-13020
▁Sy	-13021
▁Lugar	-13022
▁pedido	-13023
▁estimulación	-13024
▁gluten	-13025
▁182	-13026
▁Kenia	-13027
▁Nan	-13028
▁Earth	-13029
oce	-13030
▁Kong	-13031
▁herb	-13032
sch	-13033
▁leves	-13034
▁Apro	-13035
▁expuesto	-13036
▁ilustración	-13037
▁Brook	-13038
ramiento	-13039
▁demostración	-13040
▁Profes	-13041
imit	-13042
ciosa	-13043
OT	-13044
intestin	-13045
disciplin	-13046
▁elegidos	-13047
tea	-13048
▁comesti	-13049
▁ajo	-13050
▁permisos	-13051
▁recompensa	-13052
▁negociaciones	-13053
▁lana	-13054
▁barata	-13055
questa	-13056
▁Johns	-13057
▁gracia	-13058
▁morales	-13059
▁naval	-13060
▁Cle	-13061
▁césped	-13062
▁pisos	-13063
▁coloración	-13064
▁fric	-13065
▁insecti	-13066
tag	-13067
▁dividido	-13068
▁considerada	-13069
▁drama	-13070
▁desafiante	-13071
ificado	-13072
▁obispo	-13073
▁reunir	-13074
▁prefieren	-13075
estern	-13076
▁gobernante	-13077
bour	-13078
▁oce	-13079
▁incluía	-13080
▁estimado	-13081
▁Voy	-13082
tricos	-13083
▁Latina	-13084
▁ingrediente	-13085
▁paja	-13086
▁monumentos	-13087
▁equilibrada	-13088
cleros	-13089
▁tantas	-13090
pur	-13091
▁accesibles	-13092
bec	-13093
▁Oce	-13094
▁alianza	-13095
▁secues	-13096
hren	-13097
tonina	-13098
▁puestos	-13099
▁banderas	-13100
▁Avan	-13101
fines	-13102
▁indicador	-13103
▁bó	-13104
▁colectiva	-13105
▁resultante	-13106
▁suroeste	-13107
▁celda	-13108
egan	-13109
▁Luisiana	-13110
▁indios	-13111
▁Whit	-13112
▁43	-13113
▁ignora	-13114
▁espirituales	-13115
▁All	-13116
▁wa	-13117
▁palacio	-13118
▁satisfacción	-13119
▁Nad	-13120
▁sintió	-13121
▁profeta	-13122
▁mejorando	-13123
▁juegan	-13124
áp	-13125
Med	-13126
▁transferir	-13127
unde	-13128
▁vertebral	-13129
bell	-13130
isferio	-13131
▁ultrason	-13132
▁encontrarás	-13133
▁formatos	-13134
rida	-13135
▁Ark	-13136
ladores	-13137
▁prácticamente	-13138
cú	-13139
▁Gab	-13140
▁constituye	-13141
▁Dolor	-13142
▁Institución	-13143
▁situado	-13144
▁Sep	-13145
ulosa	-13146
▁impe	-13147
tillería	-13148
▁divina	-13149
▁americano	-13150
▁riego	-13151
▁inspiró	-13152
▁sencillas	-13153
▁ciudadano	-13154
▁superficiales	-13155
▁traza	-13156
▁atracción	-13157
ilandia	-13158
▁activistas	-13159
▁parada	-13160
▁medición	-13161
pper	-13162
▁ganando	-13163
▁FA	-13164
domen	-13165
illan	-13166
▁tranquilo	-13167
▁Júpiter	-13168
▁centrado	-13169
▁Lam	-13170
▁divisiones	-13171
UM	-13172
▁catá	-13173
▁alcalde	-13174
eved	-13175
▁aéreas	-13176
EST	-13177
▁informaciones	-13178
▁macho	-13179
▁ocurrencia	-13180
86	-13181
▁Enla	-13182
ort	-13183
▁alambre	-13184
inete	-13185
▁Respon	-13186
▁concluyó	-13187
▁2018.	-13188
▁automática	-13189
▁típica	-13190
▁rayo	-13191
▁cruzar	-13192
cipa	-13193
eber	-13194
▁beneficiarse	-13195
terno	-13196
▁adaptado	-13197
▁especímenes	-13198
Cuántas	-13199
▁desconec	-13200
amarca	-13201
▁miedos	-13202
▁provocar	-13203
▁naranjas	-13204
▁temporales	-13205
berry	-13206
▁emitió	-13207
▁realizando	-13208
▁UC	-13209
▁glaciares	-13210
▁saltar	-13211
▁antis	-13212
▁corren	-13213
pura	-13214
▁fre	-13215
▁nido	-13216
▁Commons	-13217
▁corrección	-13218
▁Ze	-13219
▁aumentará	-13220
▁protegido	-13221
▁Descripción	-13222
▁coronavirus	-13223
▁manipulación	-13224
▁rompen	-13225
▁estudiado	-13226
tems	-13227
▁Mars	-13228
▁ayudaron	-13229
resía	-13230
▁enviados	-13231
▁excelencia	-13232
bara	-13233
▁Paz	-13234
▁drás	-13235
▁Crear	-13236
▁masivo	-13237
▁ocurrido	-13238
▁Teoría	-13239
eller	-13240
▁Allen	-13241
alto	-13242
junto	-13243
▁procesador	-13244
hay	-13245
oras	-13246
▁plen	-13247
▁Acuerdo	-13248
▁sirviendo	-13249
entarios	-13250
▁combinaciones	-13251
▁universitarios	-13252
▁sépti	-13253
decu	-13254
▁nieb	-13255
VD	-13256
▁Morris	-13257
ils	-13258
▁Espiritu	-13259
▁gim	-13260
▁verificación	-13261
▁hermanas	-13262
▁GP	-13263
usta	-13264
▁óptimo	-13265
▁homosex	-13266
▁puntajes	-13267
▁amistad	-13268
▁águilas	-13269
▁exhaustiva	-13270
clerosis	-13271
▁bomberos	-13272
▁coral	-13273
uden	-13274
▁licenciatura	-13275
▁realizará	-13276
ltima	-13277
▁decre	-13278
▁explicaciones	-13279
▁agudo	-13280
▁experimentales	-13281
▁rum	-13282
glish	-13283
▁caras	-13284
▁colaboradores	-13285
▁pastel	-13286
▁Asegúrese	-13287
▁distribuir	-13288
▁Baja	-13289
▁neum	-13290
▁australianos	-13291
▁vej	-13292
▁haría	-13293
▁cómodos	-13294
▁alternativos	-13295
tech	-13296
gg	-13297
▁próstata	-13298
▁Sar	-13299
▁establecen	-13300
▁polím	-13301
▁comparan	-13302
dra	-13303
▁medicin	-13304
iscos	-13305
▁dieci	-13306
▁radar	-13307
▁compone	-13308
culas	-13309
**	-13310
▁Clase	-13311
▁sexto	-13312
▁funda	-13313
▁amigable	-13314
▁organismo	-13315
ills	-13316
▁arquitecto	-13317
▁Ucran	-13318
▁piano	-13319
▁rompec	-13320
▁disminuyendo	-13321
▁descubre	-13322
fí	-13323
abo	-13324
▁Junta	-13325
▁psico	-13326
▁cra	-13327
▁recepción	-13328
▁olvidar	-13329
▁Considere	-13330
▁EC	-13331
▁Españ	-13332
▁moderada	-13333
▁precisas	-13334
▁clasificar	-13335
▁urbano	-13336
▁compres	-13337
▁conectan	-13338
▁trenes	-13339
▁derivados	-13340
▁pist	-13341
▁nodos	-13342
▁desarrollen	-13343
▁Supremo	-13344
▁desarrolladas	-13345
▁resistente	-13346
▁coorden	-13347
iten	-13348
▁chances	-13349
▁computadores	-13350
ollo	-13351
▁espejo	-13352
▁Entren	-13353
▁quimioterapia	-13354
▁Work	-13355
garten	-13356
▁embaj	-13357
isés	-13358
▁acepta	-13359
▁Anderson	-13360
▁ordenador	-13361
▁Solar	-13362
▁chips	-13363
▁adversos	-13364
▁1995	-13365
iner	-13366
▁Materiales	-13367
▁cráneo	-13368
▁fallar	-13369
▁recetas	-13370
▁batallas	-13371
▁desech	-13372
▁Principi	-13373
▁patentes	-13374
ajero	-13375
▁2005.	-13376
▁envenen	-13377
▁enfermeras	-13378
▁Moder	-13379
▁sucediendo	-13380
▁Industri	-13381
▁Bow	-13382
▁japonesa	-13383
▁pasteles	-13384
▁correspondiente	-13385
▁protec	-13386
pic	-13387
▁reunió	-13388
▁precipi	-13389
▁repel	-13390
▁Aprender	-13391
▁ce	-13392
inten	-13393
▁Ah	-13394
▁Estás	-13395
ION	-13396
mouth	-13397
▁seleccionados	-13398
▁PH	-13399
▁Deja	-13400
tilidades	-13401
▁virtuales	-13402
▁fiabilidad	-13403
onato	-13404
SP	-13405
▁animan	-13406
cionista	-13407
▁recoja	-13408
▁escriben	-13409
▁nazis	-13410
▁Comercio	-13411
▁Visita	-13412
▁poderosas	-13413
▁enfrentando	-13414
▁Philip	-13415
▁dirigen	-13416
▁Consejos	-13417
▁forestal	-13418
▁terminal	-13419
ister	-13420
▁Rela	-13421
▁decidieron	-13422
▁í	-13423
▁Ms	-13424
▁étnicos	-13425
óbulos	-13426
▁rangos	-13427
▁delito	-13428
lahoma	-13429
▁Kan	-13430
terres	-13431
ónicas	-13432
▁2004,	-13433
▁estables	-13434
pado	-13435
▁10,000	-13436
▁inmers	-13437
▁History	-13438
▁có	-13439
▁confe	-13440
▁distingu	-13441
▁oy	-13442
▁sistemática	-13443
▁negoci	-13444
▁Asuntos	-13445
▁preocuparse	-13446
▁radical	-13447
ticut	-13448
▁unido	-13449
▁absoluta	-13450
▁dramática	-13451
▁gro	-13452
▁Semana	-13453
Pens	-13454
▁Open	-13455
▁piensas	-13456
▁vector	-13457
▁explorando	-13458
▁tru	-13459
▁famosas	-13460
inflama	-13461
▁opuesta	-13462
▁milla	-13463
▁tomas	-13464
▁Hamilton	-13465
▁legislación	-13466
▁agenda	-13467
▁juicios	-13468
▁elevación	-13469
▁precauciones	-13470
ules	-13471
▁masculino	-13472
▁homo	-13473
▁construidos	-13474
▁influencias	-13475
▁encuentro	-13476
▁eleva	-13477
▁Benjamin	-13478
titis	-13479
▁almohad	-13480
▁terapeuta	-13481
▁difundir	-13482
▁erupción	-13483
▁Tailandia	-13484
▁hip	-13485
▁Carl	-13486
▁abdomen	-13487
▁serios	-13488
▁41	-13489
ductores	-13490
▁Prote	-13491
pdf	-13492
tang	-13493
▁limitadas	-13494
400	-13495
gazine	-13496
oot	-13497
▁1996	-13498
▁toxicidad	-13499
▁bebe	-13500
our	-13501
viron	-13502
▁previs	-13503
rosis	-13504
▁barras	-13505
▁diap	-13506
▁fracturas	-13507
▁manipular	-13508
▁periodistas	-13509
▁gravita	-13510
▁confiables	-13511
▁climas	-13512
▁antiv	-13513
▁prospera	-13514
▁documental	-13515
▁2,000	-13516
▁Palestina	-13517
▁basó	-13518
▁Dinamarca	-13519
▁gastrointestin	-13520
▁campes	-13521
▁presentaron	-13522
▁guardar	-13523
wich	-13524
▁pil	-13525
▁sofis	-13526
▁trabajen	-13527
▁segmentos	-13528
▁actualizar	-13529
▁ampliar	-13530
▁pendientes	-13531
▁reconstruir	-13532
▁Fair	-13533
▁géneros	-13534
Par	-13535
▁muralla	-13536
▁ilegales	-13537
▁instituto	-13538
▁pajaro	-13539
▁1.5	-13540
jería	-13541
▁escribieron	-13542
▁Ucrania	-13543
▁16.	-13544
▁vient	-13545
▁cierra	-13546
▁rastrear	-13547
▁contengan	-13548
▁noroeste	-13549
▁Ren	-13550
▁recibe	-13551
▁impulsar	-13552
▁posee	-13553
▁venden	-13554
▁arbustos	-13555
▁matrimon	-13556
▁we	-13557
▁vacía	-13558
▁académicas	-13559
▁Penn	-13560
▁perdieron	-13561
▁incentivos	-13562
▁pescado	-13563
▁trasera	-13564
tedral	-13565
▁Connecticut	-13566
▁cuadradas	-13567
▁potente	-13568
▁válvula	-13569
▁Casi	-13570
riosidad	-13571
rosos	-13572
▁operan	-13573
▁Sarah	-13574
▁corpora	-13575
nah	-13576
▁Russ	-13577
▁meridi	-13578
▁peregr	-13579
▁perdida	-13580
▁vacaciones	-13581
▁Gand	-13582
▁Oklahoma	-13583
▁huracanes	-13584
▁Debes	-13585
▁Alma	-13586
▁frutas	-13587
▁anomalías	-13588
▁cirujano	-13589
ácidos	-13590
▁formando	-13591
▁invitado	-13592
▁escultura	-13593
▁exacto	-13594
▁derrota	-13595
garon	-13596
plica	-13597
)?	-13598
▁hallazgo	-13599
▁secretos	-13600
▁(7	-13601
42	-13602
▁Reb	-13603
▁Confe	-13604
▁comporta	-13605
▁culpable	-13606
▁interferencia	-13607
▁Dev	-13608
▁1950	-13609
▁individualmente	-13610
▁RE	-13611
▁Walter	-13612
▁Hoo	-13613
▁traduce	-13614
▁diplom	-13615
tiga	-13616
Sí	-13617
▁construyen	-13618
▁relacionan	-13619
abel	-13620
endiendo	-13621
▁beca	-13622
▁responde	-13623
▁peren	-13624
▁comprometer	-13625
▁peste	-13626
Do	-13627
ffe	-13628
▁sudor	-13629
▁dañinas	-13630
▁preferencia	-13631
▁(9	-13632
▁promueven	-13633
ARS	-13634
▁Sk	-13635
▁úl	-13636
▁Wright	-13637
▁confirma	-13638
▁verá	-13639
▁uñas	-13640
▁examinó	-13641
▁originó	-13642
▁escaleras	-13643
▁scrip	-13644
▁innovaciones	-13645
▁anch	-13646
▁cruzada	-13647
▁fotó	-13648
▁Carta	-13649
▁repetidamente	-13650
sex	-13651
▁rodea	-13652
▁maximizar	-13653
entamientos	-13654
▁fricción	-13655
▁contribuido	-13656
▁URL	-13657
illar	-13658
▁directora	-13659
▁electromagn	-13660
xi	-13661
abez	-13662
kers	-13663
bb	-13664
tent	-13665
▁declarado	-13666
▁preten	-13667
▁empresarial	-13668
▁monstr	-13669
▁estadio	-13670
▁monar	-13671
GA	-13672
▁judicial	-13673
▁sagrados	-13674
▁resonancia	-13675
tanol	-13676
▁llame	-13677
▁actualizado	-13678
ense	-13679
▁Sys	-13680
▁finas	-13681
▁propon	-13682
press	-13683
▁habili	-13684
▁perdiendo	-13685
▁abri	-13686
▁americana	-13687
▁Ross	-13688
▁teclado	-13689
orios	-13690
▁Wall	-13691
▁chip	-13692
▁revelan	-13693
socia	-13694
▁príncipe	-13695
▁Mez	-13696
▁Sólo	-13697
▁McK	-13698
▁oso	-13699
▁reconoció	-13700
▁Books	-13701
▁levadura	-13702
▁desacu	-13703
▁pastores	-13704
▁Hugh	-13705
▁Retrieved	-13706
▁sufrieron	-13707
VA	-13708
▁producida	-13709
enter	-13710
alición	-13711
()	-13712
▁diseña	-13713
▁reunirse	-13714
▁tamb	-13715
▁autop	-13716
▁arbitra	-13717
ericor	-13718
▁hebreo	-13719
uga	-13720
▁habrá	-13721
▁temática	-13722
▁demasiados	-13723
▁Pensa	-13724
▁Alta	-13725
▁Escriba	-13726
▁bucle	-13727
▁conmem	-13728
▁notado	-13729
▁Mateo	-13730
▁grama	-13731
Ac	-13732
▁imponer	-13733
▁tutorial	-13734
rop	-13735
▁2000.	-13736
▁Anth	-13737
▁éxitos	-13738
rará	-13739
▁Olí	-13740
▁favorita	-13741
▁prominente	-13742
tosa	-13743
▁amenaz	-13744
▁Simon	-13745
▁Asegúrate	-13746
▁Oriental	-13747
▁residual	-13748
▁Profeta	-13749
▁empleos	-13750
▁activación	-13751
▁variabilidad	-13752
▁Rol	-13753
oks	-13754
IH	-13755
▁perif	-13756
▁sho	-13757
▁cuenca	-13758
▁cómoda	-13759
▁realizados	-13760
▁receta	-13761
▁energías	-13762
▁Utilizar	-13763
▁despro	-13764
cano	-13765
▁sanos	-13766
▁subur	-13767
▁Científica	-13768
▁caminata	-13769
▁femenino	-13770
▁Newton	-13771
▁Proto	-13772
▁plantaciones	-13773
▁abdominal	-13774
▁bailar	-13775
▁protegidos	-13776
▁ferro	-13777
▁remoto	-13778
▁patente	-13779
▁componen	-13780
ping	-13781
▁costum	-13782
paró	-13783
▁1/2	-13784
▁crá	-13785
▁abstra	-13786
▁infectadas	-13787
venir	-13788
▁Wo	-13789
▁desay	-13790
▁realizadas	-13791
▁Trus	-13792
▁1990,	-13793
▁alquiler	-13794
▁Blanco	-13795
ezca	-13796
▁Infan	-13797
▁Glas	-13798
▁conservar	-13799
▁vía	-13800
▁calentar	-13801
▁especializados	-13802
▁alemanas	-13803
▁detalladas	-13804
▁fallos	-13805
▁sospecha	-13806
▁operativos	-13807
▁wh	-13808
▁espin	-13809
▁formul	-13810
▁pareció	-13811
ucara	-13812
ándolos	-13813
erald	-13814
▁costosos	-13815
▁responden	-13816
DR	-13817
tine	-13818
▁colapso	-13819
entadores	-13820
att	-13821
ugas	-13822
▁águila	-13823
tiza	-13824
ótico	-13825
▁melo	-13826
▁SC	-13827
▁falsas	-13828
▁Rena	-13829
orestación	-13830
▁TB	-13831
▁planea	-13832
▁Maria	-13833
▁diagnósticos	-13834
▁comunicado	-13835
▁Clara	-13836
mito	-13837
▁Mig	-13838
▁gás	-13839
▁camar	-13840
▁vegetal	-13841
▁parecían	-13842
▁vér	-13843
▁Negro	-13844
▁detenerse	-13845
▁opioides	-13846
▁Good	-13847
óticos	-13848
▁dudas	-13849
▁cancel	-13850
tain	-13851
▁emitir	-13852
gentina	-13853
▁guardi	-13854
▁aca	-13855
▁Trin	-13856
▁activas	-13857
estaciones	-13858
▁restricción	-13859
▁Púb	-13860
▁anemia	-13861
▁Sens	-13862
▁Impor	-13863
▁videos	-13864
fes	-13865
▁sul	-13866
▁condens	-13867
▁reducida	-13868
▁Pic	-13869
▁mue	-13870
▁endu	-13871
▁definen	-13872
▁70%	-13873
tto	-13874
▁aeropuerto	-13875
▁cera	-13876
▁2003,	-13877
4),	-13878
▁producidos	-13879
▁rusa	-13880
▁cuentan	-13881
▁india	-13882
▁cari	-13883
▁convin	-13884
▁700	-13885
▁sincron	-13886
▁Valley	-13887
▁Point	-13888
:5	-13889
▁retener	-13890
▁cuartos	-13891
▁GPS	-13892
▁core	-13893
▁extraordinaria	-13894
▁Moisés	-13895
▁esencialmente	-13896
▁sumer	-13897
bilizar	-13898
▁course	-13899
▁financiar	-13900
▁afil	-13901
▁niebla	-13902
▁Aquellos	-13903
▁revertir	-13904
▁Maestro	-13905
ason	-13906
▁Jefe	-13907
ager	-13908
▁levanta	-13909
▁flexibles	-13910
▁racional	-13911
cience	-13912
▁equivalentes	-13913
▁dígitos	-13914
aunque	-13915
▁liberal	-13916
▁descomposición	-13917
▁duran	-13918
▁sufriendiendo	-13919
▁denom	-13920
▁repite	-13921
▁asignar	-13922
▁salto	-13923
▁acostumb	-13924
▁publica	-13925
▁Depresión	-13926
▁facial	-13927
▁amanecer	-13928
PC	-13929
uevas	-13930
▁contribuyentes	-13931
▁Christo	-13932
▁segmento	-13933
▁lealtad	-13934
▁pájaros	-13935
▁sofistic	-13936
▁modern	-13937
600	-13938
ícula	-13939
▁fracaso	-13940
▁mecánico	-13941
▁Agrega	-13942
tiz	-13943
▁portátiles	-13944
▁Democ	-13945
▁depos	-13946
▁salen	-13947
head	-13948
▁irrig	-13949
▁hembra	-13950
▁asiento	-13951
ali	-13952
▁escape	-13953
▁Lyn	-13954
▁recuerdo	-13955
▁clor	-13956
▁fluctu	-13957
FA	-13958
▁fér	-13959
▁envían	-13960
iena	-13961
▁indo	-13962
▁(15	-13963
▁negativamente	-13964
▁TR	-13965
▁Harry	-13966
ata	-13967
▁recomendar	-13968
▁respiratorio	-13969
wo	-13970
▁caduco	-13971
▁Ninguna	-13972
into	-13973
ween	-13974
▁significación	-13975
▁1%	-13976
▁Publ	-13977
▁nadar	-13978
▁seguía	-13979
gri	-13980
▁autos	-13981
aman	-13982
▁cob	-13983
viar	-13984
▁impair	-13985
ury	-13986
culosis	-13987
▁mezclar	-13988
▁triun	-13989
▁aco	-13990
ments	-13991
▁Fra	-13992
▁esclavo	-13993
▁llevará	-13994
▁conformidad	-13995
▁publicaron	-13996
▁suavemente	-13997
▁reli	-13998
▁Llam	-13999
▁entrenados	-14000
▁medicación	-14001
▁destruido	-14002
▁sinté	-14003
▁viajando	-14004
▁18.	-14005
havi	-14006
tines	-14007
▁desencadenar	-14008
▁dejes	-14009
▁Nov	-14010
med	-14011
▁Moscú	-14012
▁Imagina	-14013
urez	-14014
▁Down	-14015
▁Blanca	-14016
ties	-14017
▁sentencia	-14018
osh	-14019
▁acor	-14020
▁rompecabezas	-14021
▁enseñó	-14022
▁renovación	-14023
▁Discu	-14024
Na	-14025
▁inj	-14026
tadoras	-14027
▁membresía	-14028
fren	-14029
▁IA	-14030
▁astronautas	-14031
▁Disponible	-14032
rist	-14033
▁terceros	-14034
▁cielos	-14035
▁irregular	-14036
▁realización	-14037
▁mencionó	-14038
▁cueva	-14039
▁billones	-14040
▁holandes	-14041
▁Muestra	-14042
▁obtenemos	-14043
▁llegue	-14044
▁migrantes	-14045
▁aumentaron	-14046
▁have	-14047
▁fraude	-14048
▁discuten	-14049
▁terminan	-14050
males	-14051
▁pollos	-14052
▁Him	-14053
▁prototipo	-14054
▁56	-14055
▁Lev	-14056
▁altar	-14057
indergarten	-14058
heit	-14059
▁uvas	-14060
▁botán	-14061
▁geométr	-14062
▁degradación	-14063
41	-14064
here	-14065
▁aborto	-14066
▁agresión	-14067
▁adjunto	-14068
▁dele	-14069
diera	-14070
eme	-14071
▁repetición	-14072
ómicas	-14073
▁umbral	-14074
▁Escuelas	-14075
▁Dub	-14076
▁cens	-14077
▁stock	-14078
▁Génesis	-14079
▁20.	-14080
▁conejos	-14081
▁consideraciones	-14082
ste	-14083
▁him	-14084
▁hindúes	-14085
▁relajación	-14086
flu	-14087
TER	-14088
leans	-14089
urrección	-14090
▁Lawrence	-14091
▁comparte	-14092
urus	-14093
▁subyacentes	-14094
▁fortun	-14095
▁categor	-14096
▁58	-14097
▁atrapado	-14098
▁hero	-14099
▁retraso	-14100
▁temporalmente	-14101
cista	-14102
▁enfermería	-14103
lins	-14104
letos	-14105
sta	-14106
▁recrea	-14107
▁saliva	-14108
▁Caracter	-14109
▁disfrutan	-14110
▁fijar	-14111
▁informados	-14112
anti	-14113
duzcan	-14114
▁gobernantes	-14115
▁involucrando	-14116
guas	-14117
élgica	-14118
▁viejas	-14119
▁dob	-14120
▁mandíbula	-14121
▁personalmente	-14122
▁SO	-14123
vancia	-14124
▁apnea	-14125
▁Investigaciones	-14126
43	-14127
▁inició	-14128
▁mejorada	-14129
▁contemporáneos	-14130
▁aceptado	-14131
2/	-14132
▁reclama	-14133
▁demand	-14134
▁alberga	-14135
▁posteriormente	-14136
▁ideales	-14137
▁retrato	-14138
▁desperdi	-14139
▁verse	-14140
▁Sto	-14141
▁Herram	-14142
▁diversión	-14143
Le	-14144
▁firmó	-14145
▁generan	-14146
entre	-14147
▁inal	-14148
▁cohete	-14149
▁Chap	-14150
▁Jona	-14151
▁articulación	-14152
▁isó	-14153
pidos	-14154
íticos	-14155
▁Christi	-14156
▁colocan	-14157
▁puro	-14158
▁seguirán	-14159
▁Aqu	-14160
clan	-14161
▁CEO	-14162
▁macro	-14163
▁configura	-14164
▁Publicaciones	-14165
▁retirarse	-14166
73	-14167
▁transcripción	-14168
▁clo	-14169
▁Extra	-14170
▁pronun	-14171
ibu	-14172
▁2018,	-14173
▁PS	-14174
▁Hojas	-14175
▁residuo	-14176
▁sonrisa	-14177
▁excepciones	-14178
▁tapa	-14179
▁Centros	-14180
▁paro	-14181
▁susceptible	-14182
iness	-14183
▁mortales	-14184
▁valiente	-14185
▁consistentes	-14186
▁2001,	-14187
inaciones	-14188
etín	-14189
▁permitieron	-14190
▁cerv	-14191
▁entusiasmo	-14192
▁llevaban	-14193
▁celebraciones	-14194
▁admisión	-14195
▁adhes	-14196
▁estuviera	-14197
Pre	-14198
▁One	-14199
▁sing	-14200
▁recaud	-14201
▁turbinas	-14202
▁Chile	-14203
▁continental	-14204
Rec	-14205
▁incomple	-14206
"),	-14207
▁Mirando	-14208
▁Métodos	-14209
▁explotación	-14210
▁establecidas	-14211
▁personalizado	-14212
▁orejas	-14213
▁raciales	-14214
▁restante	-14215
▁Edición	-14216
▁PV	-14217
▁relojes	-14218
▁my	-14219
▁justa	-14220
▁olvi	-14221
▁decidido	-14222
▁oculto	-14223
idae	-14224
▁huracán	-14225
▁talentos	-14226
▁Posteriormente	-14227
▁vulnerabilidad	-14228
istían	-14229
xo	-14230
▁arqueólogos	-14231
▁deschar	-14232
▁tumbas	-14233
▁explican	-14234
▁Carol	-14235
▁tóxico	-14236
▁Coloca	-14237
▁intercon	-14238
▁encontrarse	-14239
▁$5	-14240
eather	-14241
▁implan	-14242
▁controlan	-14243
▁Im	-14244
▁Orleans	-14245
▁liderado	-14246
▁excavación	-14247
▁Freder	-14248
▁recuperarse	-14249
▁modificado	-14250
▁villa	-14251
▁carteles	-14252
▁espíritu	-14253
▁ahorro	-14254
uchas	-14255
▁actuación	-14256
Clar	-14257
▁marcó	-14258
WS	-14259
▁entera	-14260
rául	-14261
órica	-14262
▁Registro	-14263
QU	-14264
▁Supon	-14265
nar	-14266
▁kilo	-14267
íe	-14268
▁héroes	-14269
▁ofreció	-14270
▁Gib	-14271
▁Eric	-14272
▁encer	-14273
▁protegen	-14274
▁Lín	-14275
▁Houston	-14276
emen	-14277
▁Derecho	-14278
raeli	-14279
▁intelectuales	-14280
▁degeneración	-14281
▁Perú	-14282
▁controlador	-14283
▁requerida	-14284
▁fama	-14285
ume	-14286
▁Khan	-14287
▁America	-14288
▁Plu	-14289
▁caro	-14290
▁auton	-14291
cientos	-14292
andro	-14293
▁this	-14294
▁Patrimonio	-14295
Ps	-14296
Res	-14297
▁2020,	-14298
timore	-14299
DC	-14300
ium	-14301
▁Tok	-14302
▁interrupción	-14303
▁Acces	-14304
▁asesor	-14305
▁costumbre	-14306
▁Nar	-14307
▁Will	-14308
▁competir	-14309
tream	-14310
▁magne	-14311
▁vó	-14312
▁merece	-14313
▁adquirir	-14314
▁PL	-14315
▁sobrepeso	-14316
▁píx	-14317
▁discípulos	-14318
▁reforzar	-14319
▁Antártica	-14320
▁nan	-14321
▁generador	-14322
▁picaduras	-14323
▁inscripción	-14324
▁alej	-14325
▁mix	-14326
▁Anal	-14327
▁grises	-14328
▁ocupado	-14329
▁proclam	-14330
▁aleatoria	-14331
4%	-14332
▁Nelson	-14333
▁identifican	-14334
ICA	-14335
▁falsos	-14336
[...]
