<unk>	0
<s>	0
</s>	0
b'\x01'	0
b'\x02'	0
b'\x03'	0
b'\x04'	0
b'\x05'	0
b'\x06'	0
b'\x07'	0
b'\x08'	0
b'\t'	0
b'\n'	0
b'\x0b'	0
b'\x0c'	0
b'\r'	0
b'\x0e'	0
b'\x0f'	0
b'\x10'	0
b'\x11'	0
b'\x12'	0
b'\x13'	0
b'\x14'	0
b'\x15'	0
b'\x16'	0
b'\x17'	0
b'\x18'	0
b'\x19'	0
b'\x1a'	0
b'\x1b'	0
b'\x1c'	0
b'\x1d'	0
b'\x1e'	0
b'\x1f'	0
b' '	0
b'!'	0
b'"'	0
b'#'	0
b'$'	0
b'%'	0
b'&'	0
b"'"	0
b'('	0
b')'	0
b'*'	0
b'+'	0
b','	0
b'-'	0
b'.'	0
b'/'	0
b'0'	0
b'1'	0
b'2'	0
b'3'	0
b'4'	0
b'5'	0
b'6'	0
b'7'	0
b'8'	0
b'9'	0
b':'	0
b';'	0
b'<'	0
b'='	0
b'>'	0
b'?'	0
b'@'	0
b'A'	0
b'B'	0
b'C'	0
b'D'	0
b'E'	0
b'F'	0
b'G'	0
b'H'	0
b'I'	0
b'J'	0
b'K'	0
b'L'	0
b'M'	0
b'N'	0
b'O'	0
b'P'	0
b'Q'	0
b'R'	0
b'S'	0
b'T'	0
b'U'	0
b'V'	0
b'W'	0
b'X'	0
b'Y'	0
b'Z'	0
b'['	0
b'\\'	0
b']'	0
b'^'	0
b'_'	0
b'`'	0
b'a'	0
b'b'	0
b'c'	0
b'd'	0
b'e'	0
b'f'	0
b'g'	0
b'h'	0
b'i'	0
b'j'	0
b'k'	0
b'l'	0
b'm'	0
b'n'	0
b'o'	0
b'p'	0
b'q'	0
b'r'	0
b's'	0
b't'	0
b'u'	0
b'v'	0
b'w'	0
b'x'	0
b'y'	0
b'z'	0
b'{'	0
b'|'	0
b'}'	0
b'~'	0
b'\x7f'	0
b'\xc2\x80'	0
b'\xc2\x81'	0
b'\xc2\x82'	0
b'\xc2\x83'	0
b'\xc2\x84'	0
b'\xc2\x85'	0
b'\xc2\x86'	0
b'\xc2\x87'	0
b'\xc2\x88'	0
b'\xc2\x89'	0
b'\xc2\x8a'	0
b'\xc2\x8b'	0
b'\xc2\x8c'	0
b'\xc2\x8d'	0
b'\xc2\x8e'	0
b'\xc2\x8f'	0
b'\xc2\x90'	0
b'\xc2\x91'	0
b'\xc2\x92'	0
b'\xc2\x93'	0
b'\xc2\x94'	0
b'\xc2\x95'	0
b'\xc2\x96'	0
b'\xc2\x97'	0
b'\xc2\x98'	0
b'\xc2\x99'	0
b'\xc2\x9a'	0
b'\xc2\x9b'	0
b'\xc2\x9c'	0
b'\xc2\x9d'	0
b'\xc2\x9e'	0
b'\xc2\x9f'	0
b'\xc2\xa0'	0
b'\xc2\xa1'	0
b'\xc2\xa2'	0
b'\xc2\xa3'	0
b'\xc2\xa4'	0
b'\xc2\xa5'	0
b'\xc2\xa6'	0
b'\xc2\xa7'	0
b'\xc2\xa8'	0
b'\xc2\xa9'	0
b'\xc2\xaa'	0
b'\xc2\xab'	0
b'\xc2\xac'	0
b'\xc2\xad'	0
b'\xc2\xae'	0
b'\xc2\xaf'	0
b'\xc2\xb0'	0
b'\xc2\xb1'	0
b'\xc2\xb2'	0
b'\xc2\xb3'	0
b'\xc2\xb4'	0
b'\xc2\xb5'	0
b'\xc2\xb6'	0
b'\xc2\xb7'	0
b'\xc2\xb8'	0
b'\xc2\xb9'	0
b'\xc2\xba'	0
b'\xc2\xbb'	0
b'\xc2\xbc'	0
b'\xc2\xbd'	0
b'\xc2\xbe'	0
b'\xc2\xbf'	0
b'\xc3\x80'	0
b'\xc3\x81'	0
b'\xc3\x82'	0
b'\xc3\x83'	0
b'\xc3\x84'	0
b'\xc3\x85'	0
b'\xc3\x86'	0
b'\xc3\x87'	0
b'\xc3\x88'	0
b'\xc3\x89'	0
b'\xc3\x8a'	0
b'\xc3\x8b'	0
b'\xc3\x8c'	0
b'\xc3\x8d'	0
b'\xc3\x8e'	0
b'\xc3\x8f'	0
b'\xc3\x90'	0
b'\xc3\x91'	0
b'\xc3\x92'	0
b'\xc3\x93'	0
b'\xc3\x94'	0
b'\xc3\x95'	0
b'\xc3\x96'	0
b'\xc3\x97'	0
b'\xc3\x98'	0
b'\xc3\x99'	0
b'\xc3\x9a'	0
b'\xc3\x9b'	0
b'\xc3\x9c'	0
b'\xc3\x9d'	0
b'\xc3\x9e'	0
b'\xc3\x9f'	0
b'\xc3\xa0'	0
b'\xc3\xa1'	0
b'\xc3\xa2'	0
b'\xc3\xa3'	0
b'\xc3\xa4'	0
b'\xc3\xa5'	0
b'\xc3\xa6'	0
b'\xc3\xa7'	0
b'\xc3\xa8'	0
b'\xc3\xa9'	0
b'\xc3\xaa'	0
b'\xc3\xab'	0
b'\xc3\xac'	0
b'\xc3\xad'	0
b'\xc3\xae'	0
b'\xc3\xaf'	0
b'\xc3\xb0'	0
b'\xc3\xb1'	0
b'\xc3\xb2'	0
b'\xc3\xb3'	0
b'\xc3\xb4'	0
b'\xc3\xb5'	0
b'\xc3\xb6'	0
b'\xc3\xb7'	0
b'\xc3\xb8'	0
b'\xc3\xb9'	0
b'\xc3\xba'	0
b'\xc3\xbb'	0
b'\xc3\xbc'	0
b'\xc3\xbd'	0
b'\xc3\xbe'	0
b'\xc3\xbf'	0
<1>	0
<2>	0
<3>	0
<4>	0
<5>	0
<6>	0
<7>	0
<8>	0
<9>	0
<10>	0
<11>	0
<12>	0
<13>	0
<14>	0
<15>	0
<16>	0
<17>	0
<18>	0
<19>	0
<20>	0
<21>	0
<22>	0
<23>	0
<24>	0
<25>	0
<26>	0
<27>	0
<28>	0
<29>	0
<30>	0
<EOS>	0
<0x00>	0
<0x01>	0
<0x02>	0
<0x03>	0
<0x04>	0
<0x05>	0
<0x06>	0
<0x07>	0
<0x08>	0
<0x09>	0
<0x0A>	0
<0x0B>	0
<0x0C>	0
<0x0D>	0
<0x0E>	0
<0x0F>	0
<0x10>	0
<0x11>	0
<0x12>	0
<0x13>	0
<0x14>	0
<0x15>	0
<0x16>	0
<0x17>	0
<0x18>	0
<0x19>	0
<0x1A>	0
<0x1B>	0
<0x1C>	0
<0x1D>	0
<0x1E>	0
<0x1F>	0
<0x20>	0
<0x21>	0
<0x22>	0
<0x23>	0
<0x24>	0
<0x25>	0
<0x26>	0
<0x27>	0
<0x28>	0
<0x29>	0
<0x2A>	0
<0x2B>	0
<0x2C>	0
<0x2D>	0
<0x2E>	0
<0x2F>	0
<0x30>	0
<0x31>	0
<0x32>	0
<0x33>	0
<0x34>	0
<0x35>	0
<0x36>	0
<0x37>	0
<0x38>	0
<0x39>	0
<0x3A>	0
<0x3B>	0
<0x3C>	0
<0x3D>	0
<0x3E>	0
<0x3F>	0
<0x40>	0
<0x41>	0
<0x42>	0
<0x43>	0
<0x44>	0
<0x45>	0
<0x46>	0
<0x47>	0
<0x48>	0
<0x49>	0
<0x4A>	0
<0x4B>	0
<0x4C>	0
<0x4D>	0
<0x4E>	0
<0x4F>	0
<0x50>	0
<0x51>	0
<0x52>	0
<0x53>	0
<0x54>	0
<0x55>	0
<0x56>	0
<0x57>	0
<0x58>	0
<0x59>	0
<0x5A>	0
<0x5B>	0
<0x5C>	0
<0x5D>	0
<0x5E>	0
<0x5F>	0
<0x60>	0
<0x61>	0
<0x62>	0
<0x63>	0
<0x64>	0
<0x65>	0
<0x66>	0
<0x67>	0
<0x68>	0
<0x69>	0
<0x6A>	0
<0x6B>	0
<0x6C>	0
<0x6D>	0
<0x6E>	0
<0x6F>	0
<0x70>	0
<0x71>	0
<0x72>	0
<0x73>	0
<0x74>	0
<0x75>	0
<0x76>	0
<0x77>	0
<0x78>	0
<0x79>	0
<0x7A>	0
<0x7B>	0
<0x7C>	0
<0x7D>	0
<0x7E>	0
<0x7F>	0
<0x80>	0
<0x81>	0
<0x82>	0
<0x83>	0
<0x84>	0
<0x85>	0
<0x86>	0
<0x87>	0
<0x88>	0
<0x89>	0
<0x8A>	0
<0x8B>	0
<0x8C>	0
<0x8D>	0
<0x8E>	0
<0x8F>	0
<0x90>	0
<0x91>	0
<0x92>	0
<0x93>	0
<0x94>	0
<0x95>	0
<0x96>	0
<0x97>	0
<0x98>	0
<0x99>	0
<0x9A>	0
<0x9B>	0
<0x9C>	0
<0x9D>	0
<0x9E>	0
<0x9F>	0
<0xA0>	0
<0xA1>	0
<0xA2>	0
<0xA3>	0
<0xA4>	0
<0xA5>	0
<0xA6>	0
<0xA7>	0
<0xA8>	0
<0xA9>	0
<0xAA>	0
<0xAB>	0
<0xAC>	0
<0xAD>	0
<0xAE>	0
<0xAF>	0
<0xB0>	0
<0xB1>	0
<0xB2>	0
<0xB3>	0
<0xB4>	0
<0xB5>	0
<0xB6>	0
<0xB7>	0
<0xB8>	0
<0xB9>	0
<0xBA>	0
<0xBB>	0
<0xBC>	0
<0xBD>	0
<0xBE>	0
<0xBF>	0
<0xC0>	0
<0xC1>	0
<0xC2>	0
<0xC3>	0
<0xC4>	0
<0xC5>	0
<0xC6>	0
<0xC7>	0
<0xC8>	0
<0xC9>	0
<0xCA>	0
<0xCB>	0
<0xCC>	0
<0xCD>	0
<0xCE>	0
<0xCF>	0
<0xD0>	0
<0xD1>	0
<0xD2>	0
<0xD3>	0
<0xD4>	0
<0xD5>	0
<0xD6>	0
<0xD7>	0
<0xD8>	0
<0xD9>	0
<0xDA>	0
<0xDB>	0
<0xDC>	0
<0xDD>	0
<0xDE>	0
<0xDF>	0
<0xE0>	0
<0xE1>	0
<0xE2>	0
<0xE3>	0
<0xE4>	0
<0xE5>	0
<0xE6>	0
<0xE7>	0
<0xE8>	0
<0xE9>	0
<0xEA>	0
<0xEB>	0
<0xEC>	0
<0xED>	0
<0xEE>	0
<0xEF>	0
<0xF0>	0
<0xF1>	0
<0xF2>	0
<0xF3>	0
<0xF4>	0
<0xF5>	0
<0xF6>	0
<0xF7>	0
<0xF8>	0
<0xF9>	0
<0xFA>	0
<0xFB>	0
<0xFC>	0
<0xFD>	0
<0xFE>	0
<0xFF>	0
▁de	-2.76226
.	-3.27486
,	-3.30335
▁la	-3.62981
▁y	-3.80414
▁en	-3.83891
▁el	-4.00497
▁que	-4.13389
▁a	-4.23748
▁los	-4.257
▁se	-4.51153
s	-4.66403
▁una	-4.71727
▁para	-4.75771
▁un	-4.85649
▁del	-5.03046
▁las	-5.03799
▁	-5.09929
▁con	-5.10982
▁es	-5.16228
▁por	-5.39007
▁o	-5.5003
▁no	-5.50304
▁más	-5.55033
▁como	-5.56366
▁(	-5.56639
:	-5.56994
▁su	-5.57899
▁La	-5.61625
▁El	-5.72065
▁"	-5.79476
▁al	-5.84314
▁lo	-5.88314
▁-	-5.99142
)	-6.04455
▁Los	-6.06959
▁En	-6.15673
▁sobre	-6.1801
▁puede	-6.25867
▁sus	-6.26424
▁son	-6.27147
▁ser	-6.35213
-	-6.35392
?	-6.45162
▁pueden	-6.50515
▁tu	-6.51812
▁ha	-6.57392
▁¿	-6.60479
▁Las	-6.61237
▁también	-6.61544
"	-6.61634
;	-6.63162
▁este	-6.65837
▁pero	-6.66063
▁si	-6.69836
n	-6.73086
▁entre	-6.77959
▁fue	-6.79061
▁cuando	-6.80079
es	-6.8146
▁años	-6.81528
a	-6.83632
▁solo	-6.93944
▁A	-6.94726
▁han	-6.96728
▁durante	-7.00837
o	-7.01544
r	-7.01704
▁está	-7.02715
▁dos	-7.02776
▁personas	-7.02947
▁todos	-7.03183
▁hay	-7.0382
▁tiempo	-7.04502
▁embargo	-7.06662
▁sin	-7.0693
▁agua	-7.09027
▁están	-7.09217
/	-7.10859
▁Si	-7.12451
▁manera	-7.1393
).	-7.15086
▁esta	-7.16938
▁cómo	-7.17293
▁niños	-7.17589
▁cada	-7.18675
▁*	-7.18812
▁Sin	-7.19011
▁Por	-7.19241
▁otros	-7.19957
▁hasta	-7.26371
▁todo	-7.26432
▁través	-7.26827
▁tiene	-7.30842
▁vida	-7.30967
▁hacer	-7.31805
▁información	-7.34902
▁Este	-7.35079
▁día	-7.36182
▁parte	-7.36727
▁Esto	-7.37547
▁Un	-7.37755
▁estudiantes	-7.37862
▁Se	-7.3853
▁Es	-7.40011
▁“	-7.4046
▁–	-7.4193
▁lugar	-7.41977
e	-7.42176
▁salud	-7.42564
▁sea	-7.42581
▁Para	-7.43381
▁dijo	-7.43534
▁mundo	-7.43911
▁desde	-7.45753
▁estado	-7.45817
▁menos	-7.46037
▁trabajo	-7.47404
▁estos	-7.47807
▁después	-7.48404
▁sistema	-7.48701
▁mucho	-7.4912
▁donde	-7.49687
▁qué	-7.50415
▁tienen	-7.51406
▁muy	-7.52869
▁esto	-7.53928
▁uno	-7.54334
'	-7.5514
▁No	-7.55172
▁era	-7.55403
▁historia	-7.55427
▁ejemplo	-7.55632
▁forma	-7.5565
▁uso	-7.55674
▁vez	-7.56712
!	-7.57258
▁antes	-7.57612
▁datos	-7.57768
▁importante	-7.6012
▁tanto	-7.60148
▁Estados	-7.60669
▁Unidos	-7.62246
▁fueron	-7.63297
),	-7.63492
▁investigación	-7.64775
l	-7.65074
▁diferentes	-7.65296
▁cualquier	-7.65461
do	-7.65744
▁energía	-7.66467
▁Además	-7.67261
".	-7.67497
Qué	-7.67716
▁mientras	-7.67957
▁Cuando	-7.68627
▁otras	-7.69434
▁mayor	-7.71087
▁muchos	-7.71092
▁Una	-7.71531
▁año	-7.71548
▁sido	-7.72678
▁mejor	-7.72737
▁gran	-7.7277
▁C	-7.73517
▁algunos	-7.73726
▁mismo	-7.7391
▁nuestra	-7.74197
▁ya	-7.74544
mente	-7.75076
▁tres	-7.75851
▁largo	-7.77011
▁ver	-7.77529
▁así	-7.79249
",	-7.80025
▁mayoría	-7.80571
y	-7.80994
▁le	-7.81806
▁estudio	-7.81819
▁tener	-7.82536
la	-7.82826
▁debido	-7.82865
▁Esta	-7.83264
▁debe	-7.83513
lo	-7.83652
▁desarrollo	-7.84426
▁alrededor	-7.84489
▁También	-7.84982
▁veces	-7.86133
da	-7.8701
▁problemas	-7.87745
▁podría	-7.88744
▁había	-7.89077
▁estas	-7.8913
▁De	-7.89235
▁hace	-7.89395
▁línea	-7.89763
se	-7.91246
▁1	-7.91663
▁cuerpo	-7.9187
en	-7.91932
▁porque	-7.92364
▁Hay	-7.92628
▁puedes	-7.93268
▁proceso	-7.93726
▁incluso	-7.94112
▁hacia	-7.94557
▁dentro	-7.94579
▁deben	-7.94602
▁obtener	-7.95626
▁estar	-7.96853
▁enfermedad	-7.97051
▁menudo	-7.97474
▁les	-7.97504
▁mujeres	-7.9889
▁tus	-7.99011
▁muchas	-7.99227
▁S	-7.99458
mos	-7.99771
▁contra	-7.99946
▁bien	-8.00084
ndo	-8.01063
▁Universidad	-8.014
▁tipo	-8.01649
▁casa	-8.02118
▁ahora	-8.02361
▁Y	-8.02419
▁B	-8.02696
t	-8.03026
▁te	-8.03234
▁|	-8.03399
▁persona	-8.03462
▁nuevo	-8.03737
▁dice	-8.03943
▁incluyendo	-8.04068
▁mi	-8.0444
▁significa	-8.04443
▁nivel	-8.05681
▁primera	-8.057
▁aquí	-8.05841
▁ellos	-8.0594
▁niño	-8.0607
▁2	-8.06365
▁D	-8.07782
▁tierra	-8.08277
▁utiliza	-8.08414
▁general	-8.08655
▁varias	-8.09855
▁otro	-8.11118
te	-8.11423
▁Su	-8.11958
▁riesgo	-8.12645
▁muestra	-8.12679
▁millones	-8.13659
▁M	-8.13687
▁3	-8.13954
."	-8.13981
▁encuentra	-8.1404
▁bajo	-8.14127
▁otra	-8.14649
▁sino	-8.14763
▁sí	-8.14916
A	-8.15078
▁cantidad	-8.15544
▁'	-8.15774
▁Aunque	-8.15838
▁tratamiento	-8.16348
d	-8.16391
▁ayuda	-8.16655
▁primer	-8.16864
▁gobierno	-8.17469
▁varios	-8.17482
▁cambio	-8.18076
C	-8.18174
▁Como	-8.18521
▁E	-8.19406
▁eran	-8.19431
▁alta	-8.19569
▁grande	-8.1983
▁nuestros	-8.19956
▁algunas	-8.20252
i	-8.20306
▁papel	-8.20339
▁fuera	-8.2061
▁tan	-8.20919
▁Dios	-8.20983
▁según	-8.21063
▁ayudar	-8.21226
▁momento	-8.21262
on	-8.21295
▁clase	-8.22184
S	-8.22373
▁programa	-8.22385
▁posible	-8.22702
▁estaba	-8.22748
▁ciudad	-8.23131
▁casi	-8.23476
á	-8.24034
▁encontrar	-8.24216
▁in	-8.24581
▁seguridad	-8.25058
▁control	-8.25143
▁poco	-8.2515
▁país	-8.25303
▁número	-8.25452
▁áreas	-8.2595
ción	-8.25996
▁siglo	-8.26102
▁objetivo	-8.26656
▁días	-8.26817
▁aprendizaje	-8.26954
▁algo	-8.26972
▁of	-8.27276
ba	-8.27285
▁10	-8.27503
D	-8.28439
▁Con	-8.28514
▁P	-8.28535
2	-8.28584
▁cosas	-8.28697
▁plantas	-8.28752
▁células	-8.29039
▁medio	-8.29236
▁nombre	-8.29311
▁5	-8.29355
▁animales	-8.29593
▁palabras	-8.29832
▁algún	-8.30028
os	-8.30099
▁grupo	-8.30138
▁educación	-8.30297
▁hoy	-8.30491
▁ella	-8.30823
▁comida	-8.31331
▁equipo	-8.31484
an	-8.31491
▁común	-8.31606
▁fuerza	-8.32087
▁aire	-8.32462
▁él	-8.32569
▁grandes	-8.32678
▁problema	-8.32681
▁mantener	-8.32745
▁nueva	-8.32839
▁1.	-8.33136
▁principal	-8.33181
▁libro	-8.33193
el	-8.33286
er	-8.33324
▁tecnología	-8.3343
▁utilizar	-8.336
▁re	-8.33872
▁niveles	-8.3435
▁artículo	-8.35178
▁utilizan	-8.35182
▁misma	-8.35579
ing	-8.35662
▁familia	-8.35693
▁cuatro	-8.35947
▁hombres	-8.36096
▁luego	-8.36101
▁siempre	-8.367
▁escuela	-8.37221
dos	-8.37485
▁crear	-8.37553
▁J	-8.37808
▁resultados	-8.38081
▁guerra	-8.38108
▁base	-8.38492
▁caso	-8.3855
▁especialmente	-8.38558
as	-8.3895
▁T	-8.39148
▁me	-8.39186
ía	-8.3974
▁Nueva	-8.39772
ar	-8.40589
▁pruebas	-8.40636
▁nuestro	-8.40805
▁recursos	-8.40819
▁Pero	-8.41288
▁productos	-8.4153
▁países	-8.41808
▁the	-8.41962
▁poder	-8.42005
▁habilidades	-8.42126
▁cuenta	-8.4241
▁mayores	-8.42588
▁hecho	-8.42986
▁mejorar	-8.4308
▁proporciona	-8.43083
▁Al	-8.43139
▁web	-8.43374
▁condiciones	-8.43464
▁Después	-8.43599
▁cáncer	-8.43906
▁estudios	-8.44242
▁sitio	-8.44426
▁investigadores	-8.44594
▁I	-8.44699
▁luz	-8.44879
▁usar	-8.45216
▁calidad	-8.45459
▁humanos	-8.45502
▁valor	-8.45773
▁sistemas	-8.45991
▁pacientes	-8.4621
▁comunes	-8.46218
▁tipos	-8.46399
▁punto	-8.46447
▁población	-8.46644
das	-8.46785
▁O	-8.4698
▁capacidad	-8.47005
▁utilizando	-8.47318
▁R	-8.47375
▁proyecto	-8.47741
▁reducir	-8.47911
▁cerca	-8.4798
▁incluyen	-8.47984
▁muerte	-8.48413
▁efectos	-8.48417
▁final	-8.48616
▁4	-8.48841
—	-8.4894
▁efecto	-8.49303
▁—	-8.49382
Cómo	-8.49471
▁proporcionar	-8.49566
▁clave	-8.49644
▁probablemente	-8.49952
▁síntomas	-8.50242
c	-8.50278
▁ley	-8.50317
▁F	-8.5043
▁G	-8.50502
▁entonces	-8.50629
▁campo	-8.50748
▁crecimiento	-8.50993
▁tienes	-8.51099
▁respuesta	-8.51394
▁rápidamente	-8.5155
▁difícil	-8.51613
m	-8.51632
▁tomar	-8.52098
▁Estos	-8.52313
▁área	-8.52586
los	-8.52646
▁quien	-8.53081
▁suficiente	-8.53335
▁H	-8.53897
▁ningún	-8.53926
▁principalmente	-8.5412
▁cambios	-8.54399
▁edad	-8.54519
▁materiales	-8.55161
▁espacio	-8.5518
▁científicos	-8.55218
▁Según	-8.55334
▁aunque	-8.5535
ban	-8.55525
▁fuente	-8.55583
▁2.	-8.55955
▁baja	-8.56027
▁comunidad	-8.56178
de	-8.5626
▁atención	-8.5636
▁[	-8.57086
▁casos	-8.57117
▁padres	-8.57223
▁nunca	-8.57431
▁fuerte	-8.57444
▁enfermedades	-8.57564
▁producción	-8.57648
▁K	-8.57676
▁completamente	-8.57729
▁mediante	-8.57952
no	-8.58036
▁desarrollar	-8.58049
▁piel	-8.58272
▁Dr	-8.58402
La	-8.58431
El	-8.58494
▁prueba	-8.58496
▁ese	-8.58606
▁siendo	-8.58767
▁e	-8.59103
▁L	-8.59126
▁permite	-8.59277
ó	-8.59715
▁dolor	-8.60055
▁causa	-8.60129
▁hombre	-8.60503
▁todavía	-8.60541
▁grupos	-8.60629
▁generalmente	-8.60681
▁especies	-8.60991
▁eso	-8.61092
▁decir	-8.61148
▁sigue	-8.61274
▁Tierra	-8.61283
án	-8.61619
▁principales	-8.61647
▁hacen	-8.61657
▁garantizar	-8.618
in	-8.61938
▁cinco	-8.62008
▁idea	-8.6212
▁actividades	-8.62276
▁suelo	-8.62422
▁evitar	-8.62683
▁20	-8.62988
▁¡	-8.62989
▁imagen	-8.63137
b	-8.63246
▁parece	-8.63594
ron	-8.63725
▁importantes	-8.63745
▁análisis	-8.63869
▁movimiento	-8.64167
▁Haz	-8.64675
▁15	-8.64693
▁tema	-8.64818
▁Nacional	-8.64851
▁resultado	-8.65275
▁página	-8.65306
▁haber	-8.65385
▁realidad	-8.65407
ra	-8.65603
▁siguiente	-8.65885
▁estás	-8.65888
▁política	-8.66092
▁presión	-8.66354
▁realmente	-8.664
▁derechos	-8.66501
▁diseño	-8.66557
▁acción	-8.66692
▁p	-8.6672
▁superficie	-8.66793
▁preguntas	-8.66918
▁miembros	-8.66941
▁N	-8.67079
▁apoyo	-8.67272
▁social	-8.67292
▁natural	-8.67557
▁red	-8.68119
▁servicios	-8.68177
▁color	-8.68232
▁aprender	-8.68329
▁nosotros	-8.68583
▁actividad	-8.69488
▁Lo	-8.69823
al	-8.70161
▁lista	-8.70412
le	-8.70712
▁buena	-8.70785
▁encuentran	-8.70953
▁nuevos	-8.7103
▁cual	-8.71445
▁clic	-8.71484
▁conocimiento	-8.71525
▁pérdida	-8.71773
▁empresa	-8.72038
▁allí	-8.72378
g	-8.72468
▁centro	-8.72505
▁construcción	-8.72556
▁estaban	-8.72844
▁superior	-8.72902
▁6	-8.73035
▁últimos	-8.7325
▁partes	-8.73558
com	-8.73692
▁and	-8.73729
▁función	-8.73737
▁fácil	-8.73943
▁cabeza	-8.74103
▁relación	-8.74133
▁Aquí	-8.7436
▁daño	-8.7439
N	-8.74703
▁12	-8.74739
]	-8.74838
▁real	-8.74919
▁práctica	-8.75079
▁San	-8.75149
▁The	-8.75262
▁factores	-8.75406
p	-8.75502
▁Algunos	-8.76191
▁temas	-8.76291
▁=	-8.76326
▁ti	-8.76472
▁tarde	-8.76597
▁impacto	-8.76669
▁horas	-8.76685
▁meses	-8.76778
▁naturaleza	-8.76829
▁experiencia	-8.77126
▁&	-8.77233
▁necesitan	-8.77297
▁sangre	-8.77505
▁acceso	-8.77603
▁total	-8.77956
▁empresas	-8.78137
▁serie	-8.78279
▁será	-8.78316
▁método	-8.78466
1	-8.78649
▁todas	-8.78842
▁métodos	-8.79017
▁jóvenes	-8.79055
▁sur	-8.79143
▁palabra	-8.79181
▁informe	-8.79368
▁llama	-8.79538
▁podemos	-8.79584
▁Puedes	-8.79664
▁tamaño	-8.80083
ed	-8.80194
▁futuro	-8.80198
▁llevar	-8.80231
▁público	-8.8024
▁pies	-8.80352
▁alguna	-8.80363
▁mejores	-8.8039
▁lugares	-8.80475
”,	-8.80788
▁saber	-8.80976
k	-8.81156
▁gestión	-8.81224
▁30	-8.81293
▁variedad	-8.81346
▁necesita	-8.81457
B	-8.81458
▁York	-8.81489
▁período	-8.81509
▁programas	-8.81514
ciones	-8.81913
ta	-8.82066
▁Estas	-8.82129
▁sociales	-8.82368
▁formas	-8.8245
las	-8.82482
▁completa	-8.82545
▁primeros	-8.82618
▁W	-8.8265
▁favor	-8.82705
▁personal	-8.82857
▁comer	-8.82888
▁material	-8.82988
▁aproximadamente	-8.83018
▁siguientes	-8.83253
▁visión	-8.83502
▁escuelas	-8.83539
”	-8.83617
▁comportamiento	-8.83723
▁cerebro	-8.8392
x	-8.83952
▁falta	-8.84099
▁similar	-8.84265
▁ciencia	-8.84379
▁peso	-8.84491
▁hojas	-8.84545
▁ellas	-8.84894
://	-8.85225
▁arte	-8.8527
▁norte	-8.85372
P	-8.85386
▁aquellos	-8.85527
▁3.	-8.85576
▁esa	-8.8577
▁libros	-8.85838
▁estructura	-8.8628
▁alimentos	-8.86364
▁incluye	-8.86389
▁corazón	-8.86398
▁alguien	-8.86454
▁diferente	-8.86483
▁India	-8.86863
▁nuevas	-8.86895
▁seguro	-8.87013
▁pasado	-8.87147
▁tenía	-8.87228
▁ni	-8.87253
▁hizo	-8.87286
▁mar	-8.87639
E	-8.87686
▁EE	-8.87965
▁mano	-8.88224
▁industria	-8.88389
▁hacerlo	-8.887
res	-8.88726
▁pequeñas	-8.88753
▁gente	-8.88904
u	-8.89065
▁nacional	-8.89162
▁región	-8.89382
▁8	-8.89549
▁temperatura	-8.89562
▁Más	-8.89651
▁juego	-8.89658
▁aumento	-8.89741
▁términos	-8.89862
▁pequeña	-8.89864
▁Centro	-8.8999
▁zona	-8.90001
▁características	-8.90096
▁V	-8.90108
▁texto	-8.90316
▁7	-8.90707
▁fuentes	-8.90775
▁<	-8.90875
▁sol	-8.91005
por	-8.91059
▁planta	-8.91174
▁causar	-8.91325
▁imágenes	-8.91407
▁seis	-8.91651
re	-8.91693
▁semana	-8.91854
▁evidencia	-8.91935
to	-8.91948
▁grado	-8.92172
é	-8.92197
▁trabajar	-8.92432
▁aumentar	-8.92441
|	-8.92556
▁necesario	-8.92747
▁enfoque	-8.92775
▁dinero	-8.9315
▁ambiente	-8.93169
▁carga	-8.93174
▁modelo	-8.93285
▁determinar	-8.93582
▁lado	-8.93763
▁beneficios	-8.94163
▁nuestras	-8.94258
F	-8.94573
▁ciento	-8.94901
▁gas	-8.95018
h	-8.95021
▁árboles	-8.95051
▁global	-8.9514
▁medida	-8.95492
▁fuego	-8.95537
▁llamado	-8.95578
▁16	-8.958
▁dientes	-8.95873
▁eventos	-8.95957
▁Sur	-8.96072
▁diferencia	-8.96075
▁John	-8.96157
▁seguir	-8.96228
▁sociedad	-8.96284
▁interés	-8.96351
me	-8.96519
ado	-8.96883
▁humano	-8.96884
▁noche	-8.96943
▁UU	-8.96954
▁debajo	-8.97042
un	-8.97073
▁demasiado	-8.97122
▁cuidado	-8.97224
▁sería	-8.97343
▁puntos	-8.97997
▁posición	-8.98018
us	-8.98098
▁estados	-8.98175
is	-8.98187
▁estamos	-8.98314
▁pesar	-8.98357
man	-8.9844
▁inglés	-8.98653
▁actual	-8.98707
▁mismos	-8.9872
▁conocido	-8.98882
▁flujo	-8.98884
▁comprensión	-8.99358
co	-8.9942
▁nos	-8.99528
▁cultura	-8.99639
▁atrás	-8.99652
f	-8.99708
▁música	-8.99709
▁servicio	-8.99771
▁madera	-8.99795
▁simplemente	-8.99808
▁comenzó	-8.99826
▁Ahora	-8.99918
▁plan	-8.99945
▁hablar	-8.99972
▁Re	-9.0001
O	-9.00159
▁estilo	-9.00224
▁China	-9.00259
▁disponibles	-9.00275
▁mercado	-9.0038
que	-9.00382
▁médico	-9.00663
▁paso	-9.00684
▁acuerdo	-9.00736
▁herramientas	-9.00753
▁propia	-9.0098
▁he	-9.0099
▁vista	-9.0118
M	-9.0118
▁locales	-9.01402
▁Mundial	-9.01414
▁ojos	-9.01515
▁convirtió	-9.01582
na	-9.01644
▁hijo	-9.01669
▁verdad	-9.01756
▁to	-9.02115
▁útil	-9.02374
▁exposición	-9.02504
▁escribir	-9.02548
▁estadounidenses	-9.02552
▁contenido	-9.02628
▁virus	-9.02737
▁estrés	-9.02788
▁relacionados	-9.0289
▁capa	-9.03072
▁adultos	-9.03319
▁requiere	-9.03325
Por	-9.03484
▁física	-9.03505
▁camino	-9.03597
3	-9.04106
▁libre	-9.0412
▁local	-9.04153
▁elementos	-9.0423
▁pequeño	-9.04244
▁lectura	-9.04329
▁río	-9.04332
▁Guerra	-9.04382
▁produce	-9.04512
les	-9.04932
▁solar	-9.04962
▁única	-9.05
▁derecho	-9.05192
▁construir	-9.0529
▁velocidad	-9.05413
z	-9.05529
▁razón	-9.05818
▁situación	-9.05922
▁ideas	-9.06438
▁juntos	-9.06525
▁junto	-9.06591
▁protección	-9.06633
▁entorno	-9.06671
▁viaje	-9.06801
▁etc	-9.06804
▁Norte	-9.06858
▁Europa	-9.06867
▁minutos	-9.07049
▁utilizado	-9.07146
▁Durante	-9.07163
G	-9.07238
▁único	-9.07582
▁documento	-9.07666
▁peces	-9.07886
▁comunidades	-9.07966
▁fuerzas	-9.0799
T	-9.07993
▁nada	-9.08006
ca	-9.08038
||	-9.08088
▁DE	-9.08212
▁organización	-9.08406
▁pregunta	-9.08503
▁entrenamiento	-9.08535
▁aplicación	-9.0862
▁leer	-9.08627
▁evaluación	-9.08713
nos	-9.08904
H	-9.09085
▁carbono	-9.09123
▁alto	-9.09146
▁manos	-9.09209
▁acciones	-9.09354
▁oportunidad	-9.09367
▁dieta	-9.09625
▁término	-9.09645
▁sentido	-9.09876
▁éxito	-9.09881
ismo	-9.09938
ia	-9.10076
(	-9.10172
▁pequeños	-9.10273
▁llamada	-9.10376
▁necesidades	-9.10477
▁Salud	-9.10528
_	-9.10602
▁m	-9.10847
▁alimento	-9.1087
▁trabajadores	-9.11072
,"	-9.11136
▁objetivos	-9.11342
▁tasa	-9.11553
▁directamente	-9.11603
▁aplicaciones	-9.11803
▁condición	-9.12053
▁dirección	-9.12399
▁quieres	-9.12399
▁habían	-9.12887
▁California	-9.12976
▁guía	-9.13047
▁familias	-9.13199
▁Muchos	-9.1327
▁comunicación	-9.13295
▁producir	-9.13308
▁teoría	-9.13349
▁autor	-9.13865
▁fácilmente	-9.13902
▁medios	-9.13912
▁comprender	-9.13993
▁lleva	-9.13996
▁América	-9.14007
▁Mientras	-9.14204
▁11	-9.14247
▁estudiante	-9.14308
▁sección	-9.14361
Es	-9.14464
▁debería	-9.14619
ir	-9.1467
▁humana	-9.14726
▁importancia	-9.14754
▁4.	-9.14893
▁25	-9.14958
▁altas	-9.1501
▁haciendo	-9.15013
▁14	-9.15094
▁esfuerzos	-9.15147
▁9	-9.15161
▁et	-9.15181
▁valores	-9.15208
▁hemos	-9.15222
▁Desde	-9.15263
▁caliente	-9.15374
▁Cada	-9.15412
▁disponible	-9.15424
▁climático	-9.15521
”.	-9.15607
L	-9.15739
R	-9.15761
▁último	-9.15873
▁50	-9.15895
▁tenían	-9.15928
▁Todos	-9.1593
▁da	-9.1614
▁naturales	-9.16322
ma	-9.16357
▁ejercicio	-9.16383
▁relaciones	-9.16598
idad	-9.16818
▁media	-9.16834
▁dispositivos	-9.17015
▁escritura	-9.17128
▁presidente	-9.1722
K	-9.17223
▁cambiar	-9.17425
▁sueño	-9.1748
V	-9.17562
▁ir	-9.17565
▁particularmente	-9.17636
▁necesidad	-9.17902
▁adicional	-9.17988
▁curso	-9.18006
▁expresión	-9.18022
▁hubiera	-9.18037
▁maestros	-9.18158
▁plazo	-9.18371
▁altos	-9.18456
▁técnicas	-9.18826
▁muestran	-9.18846
▁segundo	-9.18883
▁visto	-9.19057
▁proteger	-9.19339
▁escala	-9.19401
▁detalles	-9.19459
▁cuales	-9.19475
▁lejos	-9.19575
▁proyectos	-9.19638
▁ofrece	-9.19761
▁herramienta	-9.198
▁toda	-9.1983
▁Reino	-9.19835
▁verano	-9.19903
▁llegar	-9.1992
▁mitad	-9.19972
▁números	-9.19973
▁100	-9.19996
ver	-9.20114
▁grados	-9.20203
▁quienes	-9.20269
▁encontró	-9.2047
▁tarea	-9.2048
▁mal	-9.20496
▁aún	-9.20658
No	-9.20765
ían	-9.20783
▁principio	-9.20889
▁realizar	-9.20905
▁contiene	-9.21183
▁sitios	-9.21235
▁dar	-9.21287
▁tal	-9.2132
▁aceite	-9.21517
▁pueblo	-9.21694
▁memoria	-9.21772
▁código	-9.21944
▁producto	-9.21971
▁búsqueda	-9.2208
▁identificar	-9.22089
▁comenzar	-9.22185
▁U	-9.22371
▁padre	-9.22487
▁completo	-9.22509
▁pre	-9.22687
ada	-9.22839
▁prácticas	-9.22871
dor	-9.2329
▁software	-9.23291
▁estadounidense	-9.23313
▁médicos	-9.23415
▁fecha	-9.23458
▁original	-9.23505
▁orden	-9.23675
▁Gran	-9.23725
▁17	-9.2373
▁ensayo	-9.23813
▁fin	-9.23895
▁mental	-9.23936
▁fondo	-9.24026
▁cabo	-9.24033
▁proporcionan	-9.24038
▁opción	-9.24425
▁infección	-9.24498
▁18	-9.24515
▁entrada	-9.24532
▁opciones	-9.2483
▁mil	-9.25097
▁madre	-9.25119
▁aumenta	-9.25175
▁leche	-9.25217
▁mis	-9.25302
▁especie	-9.25312
▁segunda	-9.25357
▁además	-9.25379
▁haga	-9.25389
▁pública	-9.25403
▁primero	-9.25508
▁reciente	-9.25522
▁costo	-9.25774
4	-9.2584
▁marzo	-9.25844
▁Ley	-9.25897
▁propiedad	-9.26058
ton	-9.26127
▁creación	-9.26299
▁similares	-9.26304
▁Departamento	-9.26374
▁costos	-9.26474
▁24	-9.26556
▁riesgos	-9.26562
▁13	-9.26693
▁artículos	-9.26719
▁mucha	-9.26743
▁normal	-9.26782
▁podrían	-9.26821
▁considera	-9.26901
▁altamente	-9.2697
▁/	-9.27005
▁usuarios	-9.27465
>	-9.27529
▁pasa	-9.27558
▁iglesia	-9.27627
▁semanas	-9.27698
▁ambos	-9.27739
▁esfuerzo	-9.27744
▁entender	-9.27763
▁ciudades	-9.27764
▁perros	-9.27809
▁X	-9.27811
▁mujer	-9.28082
▁versión	-9.28229
▁conjunto	-9.28251
▁central	-9.28305
▁Ella	-9.28325
Y	-9.28442
▁líneas	-9.28461
▁menor	-9.28508
▁medicamentos	-9.28626
▁pueda	-9.28653
▁junio	-9.28699
▁paciente	-9.28748
▁potencial	-9.28761
▁decisiones	-9.28778
▁última	-9.29008
▁finalmente	-9.2913
▁solución	-9.29178
▁distancia	-9.29504
▁mes	-9.29549
▁profesor	-9.29579
▁corta	-9.29607
▁mente	-9.29616
▁particular	-9.29887
▁hora	-9.30149
▁abril	-9.30185
W	-9.30211
▁millas	-9.30324
▁leyes	-9.30332
▁rápido	-9.30479
▁Unido	-9.30502
▁políticas	-9.30589
▁anterior	-9.30673
v	-9.30791
▁Inglaterra	-9.30799
▁especial	-9.30841
▁pocos	-9.30918
www	-9.31038
▁calor	-9.3105
▁saludable	-9.31087
▁comparación	-9.31132
▁mayo	-9.31368
▁diabetes	-9.31374
▁estándar	-9.31504
▁costa	-9.31505
▁Jesús	-9.31517
▁claro	-9.31554
▁rendimiento	-9.31607
▁publicado	-9.31656
▁hijos	-9.31657
▁adicionales	-9.31777
▁per	-9.31827
▁ve	-9.31994
▁lograr	-9.31999
▁hogar	-9.32201
▁economía	-9.32396
▁lengua	-9.3245
▁siguen	-9.32512
th	-9.32604
▁mezcla	-9.32727
▁azúcar	-9.32966
▁árbol	-9.3303
▁invierno	-9.33108
▁colores	-9.33127
▁llevó	-9.33134
▁julio	-9.33493
▁considerar	-9.33517
▁medicina	-9.33559
▁organizaciones	-9.33639
▁ambas	-9.34008
▁sugiere	-9.34014
▁Canadá	-9.34071
▁esencial	-9.34219
▁pasar	-9.34228
▁masa	-9.34254
▁octubre	-9.34369
▁Otros	-9.34423
▁amigos	-9.34468
▁principios	-9.34494
▁septiembre	-9.34607
▁toma	-9.34656
▁objetos	-9.34691
▁terapia	-9.34825
▁igual	-9.34833
▁Washington	-9.34923
▁rey	-9.34985
▁Ha	-9.35158
▁dejar	-9.35242
▁conciencia	-9.35268
▁enseñanza	-9.35398
▁recientemente	-9.35398
▁medidas	-9.35733
▁probable	-9.35786
▁objeto	-9.3601
▁casas	-9.36085
▁clases	-9.36339
▁resolver	-9.36369
▁lenguaje	-9.36484
▁enero	-9.36614
▁fe	-9.36626
▁internacional	-9.36679
▁establecer	-9.36724
▁procesos	-9.36803
▁pensamiento	-9.36949
▁propio	-9.37034
▁Australia	-9.37273
▁respuestas	-9.37306
▁40	-9.37392
▁formación	-9.37518
▁Estado	-9.37588
▁i	-9.37592
▁ataque	-9.37606
▁In	-9.37638
▁nombres	-9.37728
▁frutos	-9.3779
▁responsabilidad	-9.37835
▁profesionales	-9.38096
▁contacto	-9.38222
▁encima	-9.38238
▁dispositivo	-9.38286
▁finales	-9.38314
▁refiere	-9.3834
▁diciembre	-9.38381
▁obra	-9.38404
▁tuvo	-9.38417
▁verduras	-9.38689
▁sub	-9.38777
▁+	-9.38778
▁negro	-9.38897
.”	-9.38898
▁larga	-9.38983
▁pueblos	-9.3915
ly	-9.39318
▁incluir	-9.39527
▁emisiones	-9.39549
▁pensar	-9.39632
▁propiedades	-9.39648
▁expertos	-9.39857
▁ejemplos	-9.39883
▁comidas	-9.39886
▁técnica	-9.39933
▁referencia	-9.4003
▁tenemos	-9.40038
▁vidas	-9.40067
▁África	-9.40078
ne	-9.40113
▁buscar	-9.40225
▁perro	-9.40315
▁rápida	-9.40321
▁apoyar	-9.40574
▁significativa	-9.40594
▁frente	-9.41006
▁miles	-9.41141
▁Hoy	-9.41202
▁conocida	-9.41295
▁diez	-9.41335
▁demanda	-9.41476
...	-9.41486
-19	-9.41607
▁anti	-9.41623
▁popular	-9.41645
j	-9.41785
con	-9.41796
▁dicen	-9.41799
▁mostrar	-9.41847
▁amplia	-9.41949
▁blanco	-9.42017
▁boca	-9.42123
▁interior	-9.42129
▁antigua	-9.42139
▁contaminación	-9.42151
▁hielo	-9.42168
▁trabajos	-9.42415
▁jardín	-9.42441
▁capaz	-9.42533
dores	-9.42569
▁decisión	-9.42651
▁tareas	-9.42659
sa	-9.42686
▁oro	-9.42831
▁libertad	-9.42857
▁...	-9.42881
org	-9.42889
▁serán	-9.429
▁historias	-9.43137
▁usuario	-9.43149
▁transporte	-9.43202
▁agosto	-9.43235
▁resistencia	-9.43256
▁d	-9.43351
▁noviembre	-9.43363
▁piedra	-9.43397
▁tabla	-9.43477
▁líderes	-9.43502
▁correo	-9.43584
▁demostrado	-9.43619
▁Solo	-9.43625
▁Algunas	-9.4373
▁oportunidades	-9.43746
▁colección	-9.43775
▁haz	-9.43775
Los	-9.43885
▁género	-9.43976
▁razones	-9.44049
▁correctamente	-9.44206
▁cosa	-9.44331
▁aves	-9.4436
▁modo	-9.44446
▁prevenir	-9.44524
▁ninguna	-9.44659
I	-9.44846
▁Internet	-9.44857
▁Mar	-9.44963
▁puedan	-9.44969
▁espera	-9.4516
▁5.	-9.45231
ación	-9.4533
▁temprano	-9.45333
J	-9.4542
▁allá	-9.45549
▁modelos	-9.45608
▁funciona	-9.45617
▁químicos	-9.45696
▁literatura	-9.45716
▁cree	-9.45806
▁auto	-9.45839
▁semillas	-9.45849
▁bienestar	-9.45908
▁Tu	-9.45913
▁correcta	-9.45977
▁x	-9.45999
▁profesional	-9.46138
▁específico	-9.46182
▁comprar	-9.46258
▁pasos	-9.46298
▁vivir	-9.46339
▁consumo	-9.46379
▁trabajando	-9.4649
▁origen	-9.46516
▁generación	-9.46583
▁inferior	-9.46671
▁temprana	-9.46693
▁afecta	-9.46694
▁componentes	-9.46733
▁ayudarte	-9.46752
▁unidad	-9.46784
En	-9.46813
▁parecen	-9.46861
▁diferencias	-9.46884
▁oficiales	-9.47003
▁carne	-9.47004
▁Luego	-9.47025
▁páginas	-9.47042
▁corto	-9.47126
▁convertirse	-9.47135
▁intentar	-9.47172
▁redes	-9.47403
▁creen	-9.47477
▁b	-9.47565
▁bacterias	-9.47631
▁pronto	-9.47643
▁representa	-9.4781
▁máquina	-9.48015
▁actualmente	-9.4811
▁Historia	-9.48143
ble	-9.48166
son	-9.4822
▁matemáticas	-9.48232
▁Instituto	-9.48279
▁altura	-9.48291
▁dio	-9.48345
▁verde	-9.48568
▁encontrado	-9.48711
▁patrones	-9.48813
▁miembro	-9.49002
▁flores	-9.49031
▁mejora	-9.49036
▁individuales	-9.49161
▁c	-9.4921
rse	-9.49338
▁for	-9.4934
▁maneras	-9.49382
▁agregar	-9.49395
▁ácido	-9.4957
▁esos	-9.49693
rá	-9.49767
▁abordar	-9.49844
▁Así	-9.49908
▁60	-9.50063
▁febrero	-9.50064
▁tasas	-9.50066
▁computadora	-9.50084
▁antiguo	-9.50124
▁Mi	-9.50194
▁funciones	-9.50212
▁encontraron	-9.50508
▁Investigación	-9.50541
▁hubo	-9.50614
▁haya	-9.50627
▁evaluar	-9.50644
▁tierras	-9.50706
▁amor	-9.50851
▁evento	-9.50863
go	-9.5095
▁electrónico	-9.51018
▁alcohol	-9.51112
ados	-9.51137
▁Otro	-9.51235
▁regiones	-9.51278
▁presencia	-9.51279
▁Londres	-9.51321
▁judíos	-9.5141
▁co	-9.51411
▁promedio	-9.51559
▁maestro	-9.51784
▁controlar	-9.51963
ter	-9.52014
▁Tal	-9.52126
▁obras	-9.52155
▁ciclo	-9.52215
▁específica	-9.52408
w	-9.52535
▁elegir	-9.52596
▁desarrollado	-9.52606
nte	-9.52729
▁comienza	-9.5275
▁tales	-9.52886
si	-9.5291
▁detrás	-9.52995
▁ciertos	-9.5312
▁Ellos	-9.53303
▁negocios	-9.53488
▁agricultura	-9.53527
▁Co	-9.53596
▁salida	-9.53603
▁permitir	-9.53673
▁estándares	-9.53732
▁capaces	-9.53739
http	-9.5375
▁negros	-9.53804
▁discusión	-9.5383
▁armas	-9.53901
▁ruta	-9.53928
▁reglas	-9.54008
▁comercio	-9.54019
▁Antes	-9.54104
▁eléctrica	-9.54139
ce	-9.54163
▁ubicación	-9.54178
za	-9.54185
▁publicación	-9.54212
▁explica	-9.54217
▁depresión	-9.54218
▁producen	-9.54364
▁frecuencia	-9.54377
▁juegos	-9.54521
▁Asociación	-9.54603
▁campos	-9.54617
▁com	-9.54835
▁médica	-9.54838
▁reunión	-9.54887
▁proteína	-9.54891
como	-9.54929
▁documentos	-9.55068
▁factor	-9.55163
▁huevos	-9.55273
▁contexto	-9.55375
▁conexión	-9.55416
▁bebé	-9.55538
▁eliminar	-9.55542
▁viento	-9.55596
▁ganado	-9.55818
▁contraste	-9.55871
▁describe	-9.55986
▁Francia	-9.56022
▁voz	-9.56083
▁revisión	-9.56129
▁clima	-9.56262
▁específicos	-9.56465
▁viven	-9.56498
▁animal	-9.56587
▁perspectiva	-9.5666
▁II	-9.56735
▁interesante	-9.56758
▁poner	-9.56803
▁William	-9.56832
▁estoy	-9.56862
▁escribió	-9.57033
▁laboratorio	-9.57063
▁longitud	-9.5711
▁rango	-9.57138
▁temperaturas	-9.57256
▁edificios	-9.57475
í	-9.57481
▁21	-9.57502
▁vitamina	-9.57511
▁Alemania	-9.57545
▁He	-9.57553
▁cuestión	-9.57583
▁almacenamiento	-9.57705
▁edición	-9.57753
▁van	-9.57944
▁tenido	-9.58124
▁reducción	-9.58141
▁correcto	-9.58302
▁equilibrio	-9.58337
▁cadena	-9.58427
▁Día	-9.58432
▁precio	-9.5846
▁participantes	-9.58605
▁dado	-9.58644
▁planes	-9.5871
▁arriba	-9.58723
▁utilizados	-9.58761
▁Puede	-9.5888
▁espacial	-9.58928
6	-9.58941
▁batalla	-9.59055
▁cumplir	-9.59137
▁Escuela	-9.59142
▁siete	-9.59184
▁estrategias	-9.59321
▁sonido	-9.59392
▁propias	-9.5945
▁familiar	-9.59523
▁progreso	-9.59593
▁relacionadas	-9.59603
▁David	-9.59674
▁seres	-9.5968
▁rayos	-9.59803
▁líder	-9.59866
▁hallazgos	-9.59876
ina	-9.59952
▁presente	-9.6003
▁pie	-9.60206
▁dificultades	-9.60242
▁combustible	-9.60367
▁tratar	-9.6037
▁miedo	-9.60419
▁edificio	-9.60684
7	-9.60837
▁--	-9.60855
mo	-9.6094
▁compartir	-9.61084
▁Japón	-9.61132
ización	-9.61183
▁ocho	-9.61245
▁ambientales	-9.61273
▁crea	-9.61341
▁usted	-9.61367
5	-9.61478
▁isla	-9.61534
▁recordar	-9.61546
▁bueno	-9.61557
▁necesitas	-9.61714
▁ayudan	-9.61918
▁Unión	-9.61994
▁cirugía	-9.62003
um	-9.62029
▁cantidades	-9.62079
▁partículas	-9.6221
▁desafíos	-9.6226
▁anteriores	-9.62267
▁temporada	-9.62302
▁fotografías	-9.62305
▁carrera	-9.62384
▁ropa	-9.62468
▁distribución	-9.62677
▁enlace	-9.62762
▁oeste	-9.62765
▁22	-9.62827
▁23	-9.62839
▁hechos	-9.6292
▁habla	-9.62942
▁trata	-9.62946
▁Internacional	-9.62982
▁época	-9.63145
▁ampliamente	-9.63177
▁0	-9.63256
▁español	-9.63273
▁ensayos	-9.6328
ja	-9.63291
▁Congreso	-9.6331
▁sucede	-9.63366
▁científico	-9.63382
▁comúnmente	-9.63473
▁fuertes	-9.63498
▁necesaria	-9.63655
▁presenta	-9.63763
▁suave	-9.63844
▁saludables	-9.63844
▁clientes	-9.63854
▁físico	-9.63864
▁blancos	-9.63877
▁menores	-9.63902
▁reduce	-9.63914
miento	-9.64029
▁escolar	-9.64053
▁oficial	-9.64106
▁federal	-9.64127
▁alcance	-9.64214
▁podían	-9.64303
▁Israel	-9.64388
▁significado	-9.64472
▁oxígeno	-9.64511
▁corte	-9.64565
▁hierro	-9.64597
▁tejido	-9.64626
▁confianza	-9.64664
▁máximo	-9.64686
▁registros	-9.64694
▁profesores	-9.647
▁científica	-9.64764
ro	-9.64814
▁ejército	-9.64885
▁exterior	-9.64974
di	-9.64975
▁poblaciones	-9.6504
▁revista	-9.65061
▁segura	-9.65062
▁genes	-9.65064
▁sean	-9.65095
▁indígenas	-9.65122
▁frecuentemente	-9.65255
▁tradicional	-9.65282
▁metros	-9.65295
▁has	-9.65335
▁utilizó	-9.6534
▁influencia	-9.65391
▁realiza	-9.65416
▁digital	-9.65623
▁promover	-9.65726
▁capital	-9.6585
una	-9.6585
▁alimentación	-9.65856
▁económico	-9.65951
▁independiente	-9.66045
▁misión	-9.66222
▁planeta	-9.66253
▁difíciles	-9.66253
▁sal	-9.66282
▁hicieron	-9.66367
▁siglos	-9.66379
▁estructuras	-9.66431
▁unos	-9.66459
▁propios	-9.66569
▁motor	-9.66584
▁aguas	-9.66662
▁requieren	-9.66692
▁va	-9.66713
▁archivos	-9.6674
▁adolescentes	-9.66797
▁efectivo	-9.66836
▁emociones	-9.66842
▁frío	-9.66856
▁Me	-9.66904
▁raíces	-9.66929
ga	-9.66997
▁archivo	-9.67003
▁paz	-9.67005
ando	-9.6701
▁mensaje	-9.67137
▁conservación	-9.6715
▁operaciones	-9.67184
▁bienes	-9.67201
▁antiguos	-9.67266
▁escrito	-9.6745
▁Debido	-9.67463
▁diagnóstico	-9.67499
▁ex	-9.67547
▁buscando	-9.6756
▁19	-9.67615
▁podía	-9.6774
▁coche	-9.67829
▁escuchar	-9.67869
▁actuales	-9.67878
▁quieren	-9.67895
▁joven	-9.67906
▁mí	-9.67937
▁mantiene	-9.68151
▁requisitos	-9.68214
▁Le	-9.68216
va	-9.68322
▁materia	-9.68381
▁pulgadas	-9.68419
▁Naciones	-9.68435
▁tejidos	-9.68442
▁James	-9.68557
▁28	-9.68574
▁ciudadanos	-9.6863
▁mañana	-9.68646
▁errores	-9.68669
▁idioma	-9.68715
▁basada	-9.68732
▁NASA	-9.68808
▁lesiones	-9.68868
▁consejos	-9.68892
▁proteínas	-9.68937
▁Educación	-9.69046
▁tecnologías	-9.69078
ry	-9.69107
▁amenaza	-9.69213
▁precios	-9.69337
ntes	-9.69425
▁registro	-9.69451
▁Medio	-9.69659
▁Entre	-9.698
▁tablas	-9.69837
▁excelente	-9.7002
▁drogas	-9.70364
▁soluciones	-9.70369
▁transmisión	-9.70393
▁basa	-9.7043
▁suele	-9.70458
▁militar	-9.70592
▁estará	-9.70648
▁ven	-9.70722
▁llevado	-9.70759
▁excepto	-9.70776
▁26	-9.70789
▁autores	-9.70862
▁fondos	-9.70884
▁recientes	-9.70906
▁equipos	-9.70991
▁estudiar	-9.71069
▁secundaria	-9.71138
▁química	-9.71346
▁llegó	-9.71359
▁simple	-9.71435
▁radio	-9.71441
▁creciente	-9.71465
▁violencia	-9.71494
▁prevención	-9.7155
ch	-9.71596
id	-9.71628
▁carbón	-9.71643
▁conoce	-9.71715
▁movimientos	-9.7172
▁buen	-9.71733
▁responsable	-9.71734
▁Sociedad	-9.71837
▁décadas	-9.71919
▁conflicto	-9.71964
▁cerebral	-9.72161
▁rojo	-9.723
ista	-9.72427
▁examen	-9.72537
▁Asia	-9.72583
▁sexual	-9.72607
▁exactamente	-9.72659
▁lucha	-9.72669
▁gracias	-9.72669
▁universidad	-9.72678
▁bebés	-9.72792
▁muestras	-9.72794
▁cocina	-9.72831
▁claramente	-9.72855
▁6.	-9.72956
▁experiencias	-9.73055
▁comentarios	-9.7314
ón	-9.73281
▁sola	-9.73286
▁Sus	-9.73336
io	-9.73345
▁tráfico	-9.73485
▁g	-9.73568
▁aspectos	-9.73582
▁ratones	-9.73641
▁XIX	-9.73713
▁impresión	-9.73781
▁normalmente	-9.73939
ti	-9.74038
▁dosis	-9.74089
▁entrar	-9.74104
▁contienen	-9.742
▁investigaciones	-9.74207
▁nutrientes	-9.74295
▁enseñar	-9.74406
▁tradicionales	-9.74433
▁religión	-9.74491
▁ataques	-9.74672
▁Oeste	-9.74733
Si	-9.74768
▁complejo	-9.74785
ría	-9.74798
▁noticias	-9.7481
ley	-9.7505
adas	-9.75056
▁27	-9.75116
▁Señor	-9.75143
▁derecha	-9.75182
▁México	-9.75307
▁ingeniería	-9.75404
▁trastornos	-9.75471
▁trabajan	-9.75552
et	-9.75598
▁espalda	-9.75683
▁patrón	-9.75775
▁ansiedad	-9.7584
▁deberían	-9.7602
▁km	-9.76034
▁legal	-9.76078
▁combinación	-9.76155
▁recibir	-9.76184
il	-9.76243
–	-9.7632
▁hueso	-9.76336
▁estrellas	-9.76358
▁explorar	-9.76398
▁General	-9.76588
▁brillante	-9.76614
▁medir	-9.76634
▁carta	-9.76634
▁justo	-9.7667
▁definición	-9.76692
▁económica	-9.76695
tion	-9.76744
▁indica	-9.76757
▁pobres	-9.76848
▁infecciones	-9.76876
▁efectiva	-9.76881
▁volumen	-9.76939
▁barco	-9.76956
▁Unidas	-9.77242
▁ello	-9.77286
▁George	-9.7741
▁publicó	-9.77426
▁explicar	-9.77436
▁pro	-9.77573
▁Google	-9.77753
▁cierto	-9.77773
▁cubierta	-9.77883
▁abierto	-9.78002
▁huesos	-9.78048
tes	-9.78102
▁estrategia	-9.78143
▁St	-9.78209
▁operación	-9.78224
▁Texas	-9.78235
▁insectos	-9.78258
▁Press	-9.78309
▁inteligencia	-9.7832
▁constante	-9.7835
▁relativamente	-9.78353
▁trastorno	-9.78435
▁bajos	-9.78436
▁probabilidad	-9.78554
▁marcha	-9.78572
▁posibles	-9.78643
8	-9.78768
▁negocio	-9.78807
▁caída	-9.78887
▁útiles	-9.78945
▁ocurrir	-9.7902
▁inicio	-9.79029
▁calefacción	-9.7908
▁crisis	-9.79095
▁suelen	-9.79118
li	-9.79188
istas	-9.79237
▁primavera	-9.79252
▁debes	-9.79325
▁bosques	-9.7936
▁recomienda	-9.79506
▁Fue	-9.79508
▁mundial	-9.7953
▁Iglesia	-9.79832
▁afirma	-9.79839
▁pantalla	-9.79933
▁izquierda	-9.79957
▁asociados	-9.79972
▁corriente	-9.80001
▁nacimiento	-9.8005
▁resolución	-9.80054
▁permiten	-9.80126
▁crítica	-9.80128
at	-9.80195
▁hierba	-9.80236
▁especiales	-9.80321
9	-9.80325
▁(19	-9.80355
▁próxima	-9.80496
▁raza	-9.80518
▁cortar	-9.80631
▁grasa	-9.80727
▁ingresos	-9.80729
▁hoja	-9.80851
▁petróleo	-9.81028
▁New	-9.8105
▁empleados	-9.81057
▁resto	-9.81061
▁intenta	-9.81117
▁peligro	-9.81142
▁película	-9.812
▁vuelta	-9.81229
▁Ver	-9.81302
▁fines	-9.81314
▁marco	-9.81318
▁cientos	-9.81324
▁unidades	-9.81479
▁Cristo	-9.81489
▁vacuna	-9.81607
▁cielo	-9.81785
▁individual	-9.81796
▁esenciales	-9.81812
▁habitación	-9.82003
▁plástico	-9.82108
▁anteriormente	-9.82118
▁introducción	-9.8213
▁regular	-9.82155
▁gama	-9.82179
▁v	-9.82219
▁elemento	-9.82322
▁etapa	-9.82403
qué	-9.82473
▁Todo	-9.82479
):	-9.82489
emos	-9.82526
▁azul	-9.82529
▁eres	-9.82552
ment	-9.82587
ni	-9.82612
▁medicinas	-9.82676
▁demás	-9.8274
▁profundo	-9.82744
▁notas	-9.82745
▁pocas	-9.82772
▁ganar	-9.82877
▁cara	-9.82938
je	-9.82976
▁reacción	-9.8318
▁error	-9.83216
▁ambiental	-9.83277
ten	-9.83375
▁anual	-9.83404
▁justicia	-9.83426
▁teléfono	-9.83465
▁tenga	-9.83521
▁pasó	-9.83643
▁afectar	-9.83659
▁ojo	-9.8366
▁XX	-9.83721
▁emergencia	-9.83834
ge	-9.83887
pe	-9.83999
▁negra	-9.84083
▁visita	-9.84105
▁Museo	-9.84111
bo	-9.8413
▁preocupación	-9.84141
▁precisión	-9.84152
▁líquido	-9.84167
▁traducción	-9.84187
▁enlaces	-9.84305
▁vídeo	-9.84307
ner	-9.84435
▁amigo	-9.8453
▁sabemos	-9.84587
▁músculos	-9.84592
▁CO	-9.84743
▁Te	-9.84777
▁abajo	-9.84812
▁residentes	-9.84912
▁identidad	-9.84938
▁habilidad	-9.84959
▁límites	-9.84968
▁próximo	-9.85062
▁Utiliza	-9.85088
▁residuos	-9.85111
▁hábitat	-9.85115
ha	-9.85154
▁consideran	-9.85211
▁nacionales	-9.85255
ido	-9.85265
▁moderna	-9.85323
▁señales	-9.8534
▁pan	-9.85424
▁pagar	-9.85427
▁ayudará	-9.85465
am	-9.85503
▁Era	-9.85603
▁arterial	-9.85628
▁tratamientos	-9.85633
▁diaria	-9.8564
▁pieza	-9.85641
▁elección	-9.85856
▁políticos	-9.85933
▁específicas	-9.86086
▁causas	-9.86087
▁inversión	-9.86105
▁concentración	-9.86187
▁crítico	-9.86196
▁situaciones	-9.86334
X	-9.86421
Las	-9.86425
▁signos	-9.86444
▁ruido	-9.86464
▁reconocer	-9.86497
▁Finalmente	-9.86593
▁estableció	-9.86767
▁cuerpos	-9.86834
▁comenzaron	-9.86843
▁responder	-9.8687
▁agricultores	-9.86954
▁Mr	-9.86965
▁participación	-9.87002
▁llamó	-9.8702
▁suaves	-9.87119
▁University	-9.87225
▁cámara	-9.87311
▁Nuevo	-9.87379
▁genética	-9.87492
▁Son	-9.87633
▁necesitamos	-9.87663
▁29	-9.87733
▁individuos	-9.87763
▁detener	-9.87765
▁café	-9.8778
▁parque	-9.87856
ana	-9.87881
▁personales	-9.8789
▁beneficio	-9.87988
▁post	-9.87996
▁capas	-9.88336
pa	-9.88463
▁di	-9.88585
▁marca	-9.88629
▁pp	-9.88711
▁hambre	-9.88835
▁basado	-9.88839
▁pobreza	-9.88856
▁sector	-9.88865
▁civil	-9.88916
▁Fundación	-9.8903
▁aplicar	-9.89112
▁Thomas	-9.8915
▁dólares	-9.89165
▁gripe	-9.89165
▁dónde	-9.89213
per	-9.89294
▁limpieza	-9.89303
▁piezas	-9.89306
ve	-9.8931
▁relacionado	-9.89451
▁contrario	-9.89517
▁vuelve	-9.89547
den	-9.89553
▁televisión	-9.89656
▁mantenimiento	-9.8966
▁puedo	-9.89668
der	-9.89848
▁representan	-9.89888
▁tradición	-9.9001
▁figura	-9.90111
▁mala	-9.9018
ya	-9.90192
▁70	-9.90219
▁mapa	-9.90249
▁convierte	-9.90256
era	-9.90292
▁diversidad	-9.90316
▁detectar	-9.90319
▁lluvias	-9.90376
);	-9.90434
▁crecer	-9.90442
▁espacios	-9.90447
▁porcentaje	-9.90472
▁creado	-9.90477
▁cultural	-9.90513
▁80	-9.90555
▁polvo	-9.90626
▁instituciones	-9.90751
▁Z	-9.90798
▁celular	-9.9085
▁esperanza	-9.90862
▁Dos	-9.9088
▁buenas	-9.90922
be	-9.90967
▁Robert	-9.90988
▁ciencias	-9.90996
▁inicial	-9.9101
▁paisaje	-9.91019
▁alcanzar	-9.91139
▁muertes	-9.91305
ers	-9.91344
▁regularmente	-9.91352
▁Lee	-9.91359
▁Americana	-9.91362
▁señal	-9.91372
▁hierbas	-9.91448
▁reales	-9.91527
?"	-9.91547
▁inmediatamente	-9.91548
▁Rusia	-9.91564
▁depende	-9.91638
▁Nuestra	-9.9165
▁pensamientos	-9.91665
tu	-9.91695
▁necesarios	-9.91771
▁utilizada	-9.91877
▁conocidos	-9.91889
tas	-9.9198
▁director	-9.92053
it	-9.92097
ria	-9.921
▁ciertas	-9.92113
▁recuperación	-9.92146
land	-9.92182
▁nación	-9.92234
▁pintura	-9.92381
▁Muchas	-9.92406
▁verdadera	-9.92495
▁posibilidad	-9.92604
▁clara	-9.92624
▁título	-9.92637
▁Consejo	-9.92648
▁Mo	-9.92748
▁intereses	-9.92834
▁nota	-9.92858
▁maíz	-9.92901
▁Recuerda	-9.92933
▁radiación	-9.9304
▁informes	-9.93046
▁puerta	-9.93063
▁basura	-9.93067
▁resumen	-9.93092
▁desarrolló	-9.93092
ida	-9.93258
▁seca	-9.93326
▁computadoras	-9.93349
st	-9.93356
▁opinión	-9.93428
▁financiamiento	-9.93481
▁presentación	-9.93646
▁guías	-9.93702
▁significativo	-9.93727
▁profunda	-9.93747
▁defensa	-9.93748
▁creó	-9.93787
▁bajas	-9.93801
▁desafío	-9.93933
▁capítulo	-9.93956
▁oral	-9.94013
▁"¿	-9.94022
▁formar	-9.94027
▁crédito	-9.94035
▁estación	-9.94038
▁procesamiento	-9.94074
▁esposa	-9.94081
▁nadie	-9.94177
▁calientes	-9.94193
▁Nota	-9.94217
▁frontera	-9.94261
▁seguros	-9.94305
vi	-9.94334
▁comercial	-9.94399
▁humo	-9.9444
▁soldados	-9.94456
▁completar	-9.94548
▁tendrá	-9.94646
▁Ejército	-9.94696
▁prensa	-9.94778
▁dis	-9.9482
▁conceptos	-9.94834
▁entrega	-9.94875
▁diseñado	-9.94898
▁continuar	-9.95026
or	-9.95059
▁forman	-9.95199
ic	-9.95267
ica	-9.95281
▁ADN	-9.95404
▁lectores	-9.95431
▁herencia	-9.95617
▁Segunda	-9.95636
▁autoridades	-9.95751
▁vivo	-9.95809
▁Oficina	-9.9583
cha	-9.95958
▁pareja	-9.95996
▁carretera	-9.96015
▁manejar	-9.96033
▁enviar	-9.96034
rio	-9.96064
▁campaña	-9.96086
▁ofrecen	-9.96087
▁romper	-9.96312
▁familiares	-9.96335
▁metal	-9.96369
ke	-9.96396
▁acero	-9.9642
ur	-9.96658
▁adelante	-9.96684
▁bosque	-9.96813
▁”	-9.96904
▁preguntar	-9.96995
▁descubrimiento	-9.97055
▁vio	-9.97159
▁político	-9.97176
▁barcos	-9.97178
▁fotografía	-9.97248
▁cosecha	-9.97423
▁océano	-9.97468
▁letras	-9.97495
▁centros	-9.97501
▁seguimiento	-9.97561
▁declaración	-9.97602
▁par	-9.9776
▁lección	-9.9777
▁preparación	-9.97792
Hay	-9.97893
▁7.	-9.97915
▁cuánto	-9.97924
▁vidrio	-9.97927
▁90	-9.98005
▁sabes	-9.98108
▁reconocimiento	-9.98133
▁autoridad	-9.98152
▁mesa	-9.98286
▁ante	-9.98424
ka	-9.98433
▁ríos	-9.98512
▁luna	-9.98567
▁piernas	-9.98667
▁rica	-9.98689
▁humedad	-9.98694
▁dan	-9.98899
▁comportamientos	-9.98975
▁consumidores	-9.99
▁describir	-9.99031
+	-9.99075
so	-9.99116
▁peor	-9.99117
▁inflamación	-9.99151
▁división	-9.99228
▁doctor	-9.99266
▁involucra	-9.99307
▁Biblia	-9.9935
▁diario	-9.994
▁vuelo	-9.99406
▁oficina	-9.99442
▁examinar	-9.9948
▁existencia	-9.99545
▁vuelto	-9.99565
▁regla	-9.99608
▁Revista	-9.99679
▁biblioteca	-9.99698
▁verdadero	-10
▁verdes	-10.001
▁Primero	-10.0011
▁sesión	-10.003
▁involucrados	-10.0043
▁Medicina	-10.0044
▁punta	-10.0045
▁fabricación	-10.0046
▁gatos	-10.0047
▁limpia	-10.0047
ts	-10.0048
▁populares	-10.0049
▁ritmo	-10.0063
▁impuestos	-10.0064
▁Gracias	-10.0064
ad	-10.0067
▁tensión	-10.0077
▁gobiernos	-10.0077
ie	-10.0088
▁inter	-10.0088
▁occidental	-10.0088
▁duración	-10.0092
U	-10.0097
▁asociado	-10.0104
▁murió	-10.0106
mer	-10.0112
▁participar	-10.0112
▁manejo	-10.0113
▁Na	-10.0117
▁perder	-10.0119
▁quizás	-10.0119
▁programación	-10.0127
▁fiesta	-10.0127
▁plataforma	-10.0129
▁infraestructura	-10.0132
▁fáciles	-10.0136
▁be	-10.0139
▁evolución	-10.0144
▁vuelven	-10.0153
▁calle	-10.0157
▁niñas	-10.0173
▁compuestos	-10.0179
▁cuarto	-10.0179
▁suministro	-10.0193
izar	-10.0198
des	-10.02
▁gradualmente	-10.0201
▁volver	-10.0201
▁potencia	-10.0203
▁propósito	-10.0211
▁consejo	-10.0226
▁estrella	-10.023
▁minerales	-10.0238
▁comerciales	-10.024
▁públicas	-10.0249
▁colaboración	-10.0254
=	-10.0255
▁planificación	-10.0261
▁estatal	-10.0263
▁fibra	-10.0267
▁200	-10.0267
▁lecciones	-10.0278
▁condado	-10.0285
ita	-10.0288
▁esperar	-10.0297
▁000	-10.0299
▁sentir	-10.0303
▁básicos	-10.0304
▁pared	-10.0304
▁siente	-10.0306
▁afectan	-10.0306
▁columna	-10.0314
▁jefe	-10.0317
▁31	-10.032
▁recibió	-10.0328
▁realizó	-10.0328
▁Bretaña	-10.0333
▁selección	-10.0338
▁máxima	-10.0348
▁Sol	-10.0352
▁n	-10.0362
▁gases	-10.0366
▁sirve	-10.0374
▁ocurre	-10.0374
▁libres	-10.0375
▁preocupaciones	-10.0377
▁internacionales	-10.0387
▁implementación	-10.0391
▁té	-10.0394
▁encuesta	-10.0395
▁jugar	-10.0395
▁estarán	-10.0399
▁abierta	-10.04
▁detección	-10.0405
▁vacunas	-10.0409
▁presentar	-10.041
ales	-10.0411
▁puesto	-10.0426
▁canal	-10.043
▁trigo	-10.0439
▁Man	-10.0441
▁Florida	-10.0443
men	-10.0445
▁causan	-10.0446
para	-10.0446
▁períodos	-10.0454
▁acceder	-10.0456
▁vino	-10.0457
▁Virginia	-10.0457
sh	-10.0459
▁embarazo	-10.0467
▁empezar	-10.0467
cu	-10.0468
▁llaman	-10.0471
▁descubrir	-10.0478
▁beber	-10.0479
▁vapor	-10.0488
▁primaria	-10.0492
▁procedimientos	-10.0495
▁elecciones	-10.0502
▁eficiencia	-10.0503
▁filosofía	-10.0504
▁cursos	-10.0512
▁Servicio	-10.0512
po	-10.0521
▁sabor	-10.0531
▁cortes	-10.0534
▁desarrollan	-10.0554
▁colocar	-10.0555
De	-10.0555
▁tendencia	-10.0555
▁partir	-10.0555
▁enfrentan	-10.0564
▁esté	-10.0567
mi	-10.0583
▁duro	-10.0587
▁llevan	-10.0588
tra	-10.0588
▁conocer	-10.0591
▁Desarrollo	-10.0593
▁Estamos	-10.0594
▁sostenible	-10.06
▁dulce	-10.0604
▁Todas	-10.0604
▁cuyo	-10.0604
▁Cómo	-10.0604
▁activos	-10.0611
▁caza	-10.0614
▁blanca	-10.0616
▁apariencia	-10.0627
▁esas	-10.0629
ven	-10.0639
▁arena	-10.0641
▁formato	-10.0645
▁corporal	-10.0662
▁tomó	-10.0663
ck	-10.0667
▁próximos	-10.0675
▁activo	-10.0688
▁Juan	-10.0689
▁índice	-10.0689
▁llena	-10.069
▁nieve	-10.0697
▁pares	-10.0697
ri	-10.0699
▁informó	-10.0699
▁estén	-10.0706
rán	-10.0707
▁cero	-10.0728
▁escribe	-10.073
▁disco	-10.073
tor	-10.0735
▁ideal	-10.0738
▁nuclear	-10.0755
▁necesarias	-10.0756
▁proviene	-10.0757
▁banda	-10.0758
ico	-10.0771
▁ofrecer	-10.0775
▁escolares	-10.0778
Re	-10.0799
▁Ciencia	-10.0808
▁arquitectura	-10.081
▁deja	-10.0813
▁mismas	-10.0819
▁pollo	-10.083
▁concepto	-10.083
▁oído	-10.0832
▁nativos	-10.0836
▁sanguíneo	-10.0849
▁discurso	-10.0858
▁composición	-10.0864
▁Pacífico	-10.0865
bles	-10.0872
▁responsables	-10.0878
▁tarjetas	-10.0882
▁paredes	-10.0882
▁bio	-10.0885
▁inteligente	-10.0886
▁Estoy	-10.0905
▁Control	-10.0908
▁copia	-10.091
▁conocimientos	-10.0915
▁civiles	-10.0919
Z	-10.0922
cos	-10.0923
▁Q	-10.093
ty	-10.0932
▁f	-10.0941
im	-10.0945
▁tomado	-10.0951
▁creo	-10.0953
▁glucosa	-10.0954
▁mantenerse	-10.096
▁caballos	-10.0963
▁ventana	-10.0967
▁basadas	-10.0967
ine	-10.0968
▁superiores	-10.0972
▁contar	-10.0981
▁creía	-10.0982
▁cliente	-10.0982
▁tesis	-10.0982
▁l	-10.0987
▁potenciales	-10.0988
▁duda	-10.0992
▁francés	-10.1
▁secuencia	-10.1002
▁culturales	-10.1011
▁oración	-10.1018
▁(18	-10.1019
tos	-10.1028
▁dolores	-10.1031
▁Ciencias	-10.1033
▁universo	-10.1046
▁tabaco	-10.1049
ber	-10.105
▁sonidos	-10.1062
2.	-10.1064
▁inmunológico	-10.1065
https	-10.1071
▁proveedores	-10.1074
sen	-10.1074
▁Li	-10.1082
▁noticia	-10.1084
▁graves	-10.109
▁automóviles	-10.109
▁2012	-10.1091
▁tiempos	-10.1103
▁originalmente	-10.1104
▁gusta	-10.112
▁ingreso	-10.1122
▁hermoso	-10.1123
▁micro	-10.1131
▁cardíaca	-10.1136
▁resulta	-10.1137
▁agrega	-10.1138
▁debemos	-10.1143
▁amplio	-10.1144
▁perdido	-10.1145
▁quién	-10.1153
▁máquinas	-10.1156
▁sólo	-10.1162
▁hígado	-10.1166
▁distrito	-10.1173
▁otoño	-10.1178
▁is	-10.118
▁hija	-10.1185
▁Egipto	-10.1192
▁experimentar	-10.12
▁cama	-10.12
▁instalación	-10.1204
▁nueve	-10.1206
▁superar	-10.1208
▁antibióticos	-10.1208
▁densidad	-10.1208
▁produjo	-10.1213
▁hogares	-10.1215
ste	-10.1234
▁desarrolla	-10.1238
▁demostrar	-10.1254
▁profundidad	-10.126
*	-10.1279
▁Información	-10.1283
▁fase	-10.1287
▁complejos	-10.129
▁extensión	-10.1293
▁nutrición	-10.1295
▁Per	-10.1295
▁emocional	-10.1297
▁aplica	-10.1301
▁basados	-10.1311
▁calorías	-10.1311
▁liderazgo	-10.1313
▁compañía	-10.1315
▁directa	-10.1318
▁compuesto	-10.1326
▁célula	-10.1329
▁variables	-10.1339
▁contenedor	-10.1352
▁propuesta	-10.1355
▁enfrentar	-10.137
▁COVID	-10.1378
,”	-10.1383
▁usualmente	-10.1392
▁Red	-10.1401
▁calcio	-10.1406
▁ligeramente	-10.1408
▁Seguridad	-10.1411
▁existe	-10.1412
▁Carolina	-10.1422
ul	-10.1428
▁síndrome	-10.1432
▁dominio	-10.1433
▁esclavos	-10.1436
▁República	-10.1447
▁restos	-10.145
▁Be	-10.1459
▁video	-10.1464
▁hospital	-10.1471
▁juicio	-10.1473
0	-10.1477
lin	-10.1488
▁trans	-10.149
▁instrucciones	-10.1492
▁vienen	-10.1499
▁gravedad	-10.1504
▁suficientemente	-10.1508
▁Roma	-10.151
iendo	-10.1515
▁Hasta	-10.1517
▁Pro	-10.152
▁implica	-10.1523
▁Río	-10.1538
▁actuar	-10.1542
▁aumentado	-10.1542
▁35	-10.1543
▁característica	-10.1551
▁activa	-10.1553
▁largas	-10.1554
▁territorio	-10.1558
▁)	-10.1558
ling	-10.1562
▁Ma	-10.1565
▁cartas	-10.1565
▁currículum	-10.1578
▁doble	-10.1579
▁cola	-10.1582
▁recomendaciones	-10.1582
▁caminar	-10.1584
▁Central	-10.1585
▁atmósfera	-10.1586
▁Organización	-10.1589
▁militares	-10.1594
▁abejas	-10.1596
▁respecto	-10.1609
▁positivo	-10.1623
▁suficientes	-10.1623
▁componente	-10.1626
▁Go	-10.1627
▁constantemente	-10.1631
▁comienzo	-10.1636
▁Smith	-10.164
▁2010	-10.164
▁descripción	-10.1643
▁símbolo	-10.1643
▁ejercicios	-10.1645
▁brillantes	-10.1645
▁grasas	-10.1655
▁limpiar	-10.166
▁España	-10.1662
▁sensación	-10.1675
▁múltiples	-10.1687
ci	-10.1695
▁artificial	-10.1698
▁sencillo	-10.1704
▁sustancias	-10.1704
nes	-10.1705
▁administración	-10.1708
▁islas	-10.1711
▁define	-10.1714
▁utilizadas	-10.1723
▁británicos	-10.1726
▁espectro	-10.1728
▁hablando	-10.1728
▁británico	-10.1731
▁iguales	-10.1733
▁tras	-10.1733
▁Italia	-10.1737
▁órganos	-10.174
▁An	-10.1742
▁agencias	-10.1742
▁relacionada	-10.1751
▁básica	-10.1758
▁compañeros	-10.1759
▁específicamente	-10.176
ano	-10.1761
▁drenaje	-10.1761
▁creencia	-10.1767
▁escena	-10.1769
▁cm	-10.1775
▁naciones	-10.1783
ces	-10.1793
▁busca	-10.1794
▁avión	-10.1794
▁teléfonos	-10.18
car	-10.1809
▁hábitos	-10.181
▁piedras	-10.1819
▁montañas	-10.1824
▁bebidas	-10.1824
▁cultivo	-10.1825
▁vehículos	-10.1825
▁2013	-10.1827
▁tela	-10.1831
▁poesía	-10.1845
▁comunicaciones	-10.1855
▁experimentos	-10.1855
▁electrónicos	-10.1856
▁ricos	-10.1859
▁visitantes	-10.186
▁descubrió	-10.1862
▁Richard	-10.1862
▁causado	-10.1865
tivo	-10.1869
▁multi	-10.1876
▁cambia	-10.1877
▁proporcionando	-10.1879
▁tercer	-10.188
▁hayan	-10.1881
▁estuvo	-10.1891
▁estima	-10.1894
▁establecido	-10.1897
ras	-10.19
▁supervivencia	-10.1909
su	-10.1916
Q	-10.1923
▁revisar	-10.1924
▁abuso	-10.1936
▁importa	-10.1938
▁Irlanda	-10.194
▁extra	-10.1941
▁hermosa	-10.1943
▁Comisión	-10.1945
▁visual	-10.1945
▁implementar	-10.1947
▁policía	-10.1956
▁roca	-10.1956
▁pedir	-10.1965
▁cubrir	-10.1966
tiva	-10.1966
▁interacción	-10.1972
▁personajes	-10.1977
▁infancia	-10.1977
▁ocasiones	-10.198
▁físicos	-10.1992
▁moléculas	-10.2001
Este	-10.201
▁creencias	-10.2016
▁tengan	-10.2017
▁8.	-10.2024
▁representación	-10.2026
▁trabaja	-10.203
▁Charles	-10.2031
▁parejas	-10.2051
▁vistas	-10.206
nt	-10.207
▁2011	-10.2076
▁respiración	-10.2077
▁gira	-10.208
▁industrial	-10.2084
▁quema	-10.2085
▁económicos	-10.209
▁cobre	-10.2093
▁destrucción	-10.2094
▁venta	-10.2097
▁(1	-10.21
▁capturar	-10.21
▁roja	-10.2101
▁lesión	-10.2107
▁centra	-10.2109
▁saben	-10.2111
▁fundamental	-10.2119
▁humanas	-10.2122
▁aviones	-10.2133
▁conexiones	-10.2133
▁bases	-10.2142
▁hermano	-10.2151
▁matrimonio	-10.2153
▁dura	-10.2155
idos	-10.2156
▁Niños	-10.216
▁Fuente	-10.2164
▁histórico	-10.2167
▁mensajes	-10.2174
▁gato	-10.2176
▁sabe	-10.2176
ol	-10.2179
▁Entonces	-10.2179
▁existentes	-10.2179
▁investigar	-10.2188
▁culturas	-10.2189
▁hubieran	-10.2194
▁gen	-10.22
▁inteligentes	-10.2203
▁observación	-10.2208
▁permitió	-10.2212
▁colesterol	-10.2214
▁conversación	-10.2215
▁mostró	-10.2223
▁tercera	-10.2223
▁pesca	-10.2234
▁templo	-10.224
▁Presidente	-10.2242
▁increíble	-10.2245
▁2017	-10.225
▁llegaron	-10.2253
▁toneladas	-10.2259
▁llamados	-10.2259
▁Ar	-10.2261
▁cristianos	-10.2261
▁blog	-10.2262
▁gastos	-10.2262
▁direcciones	-10.2264
▁públicos	-10.2267
▁afuera	-10.2275
▁legales	-10.2277
▁dental	-10.2278
▁consciente	-10.2278
▁luchar	-10.2283
▁digitales	-10.2293
▁moderno	-10.23
▁ácidos	-10.2302
▁aspecto	-10.2306
▁vuelva	-10.2308
▁puedas	-10.2309
▁positiva	-10.2323
▁continuación	-10.2323
▁1:	-10.2326
▁compromiso	-10.2331
▁reemplazar	-10.2331
▁ancho	-10.2337
▁45	-10.2354
jo	-10.2355
Has	-10.2356
1.	-10.236
▁presentes	-10.2363
▁idiomas	-10.2366
▁Biblioteca	-10.2367
▁asociación	-10.2369
▁pobre	-10.2376
▁taza	-10.2376
▁Estudios	-10.2377
▁intervención	-10.2383
ió	-10.2391
▁núcleo	-10.2392
▁sobrevivir	-10.2395
▁ventaja	-10.2399
▁dificultad	-10.2405
▁alternativa	-10.2406
ero	-10.2422
▁mirar	-10.2424
▁jardines	-10.2424
▁conclusión	-10.2424
mar	-10.243
▁París	-10.2434
▁nació	-10.2435
▁perfecto	-10.2444
▁Santa	-10.2444
▁reserva	-10.2451
▁conocen	-10.2451
▁sencilla	-10.2457
▁matar	-10.2462
▁mínimo	-10.2466
▁fósiles	-10.2466
▁recuerda	-10.2474
▁batería	-10.2475
▁fiebre	-10.2476
▁Comité	-10.2482
▁quería	-10.2488
▁caja	-10.2488
▁construyó	-10.249
▁adecuado	-10.2494
▁variedades	-10.2495
▁impactos	-10.2504
▁servidor	-10.2509
▁víctimas	-10.251
▁eventualmente	-10.2512
▁bomba	-10.2513
▁papeles	-10.2519
ham	-10.2523
▁reproducción	-10.2525
▁bandera	-10.2526
▁super	-10.2526
▁proveedor	-10.2527
▁caballo	-10.253
▁estés	-10.2533
▁2014	-10.2536
▁bloques	-10.2538
▁quiere	-10.2545
ran	-10.2551
▁reacciones	-10.2555
▁malo	-10.2556
▁llamadas	-10.2557
▁Chicago	-10.256
▁alemanes	-10.2564
▁internet	-10.2567
▁placa	-10.2568
▁coloca	-10.2569
▁probar	-10.257
▁Michael	-10.257
▁generar	-10.257
▁Inc	-10.2571
▁suerte	-10.2574
▁sexo	-10.2575
▁Paul	-10.2577
▁vigilancia	-10.2584
10	-10.2586
▁visitar	-10.2594
▁Navidad	-10.2596
▁utilizaron	-10.2605
▁serían	-10.2617
▁King	-10.2622
▁feliz	-10.2623
&	-10.263
▁1,	-10.2632
▁cambiado	-10.2639
▁puente	-10.2645
▁III	-10.2655
▁EL	-10.2656
▁Henry	-10.2656
▁mm	-10.2657
▁Estatal	-10.2659
▁Escocia	-10.2659
▁marcas	-10.2659
▁consiste	-10.2666
▁cortos	-10.2666
▁relevantes	-10.2667
▁lentamente	-10.267
▁Uno	-10.2682
▁eficiente	-10.2683
▁500	-10.2685
▁estatales	-10.2689
▁consecuencias	-10.2691
▁dijeron	-10.2692
▁departamento	-10.2692
▁honor	-10.2692
▁largos	-10.2695
▁LA	-10.2695
▁computación	-10.2696
▁directo	-10.271
▁use	-10.2714
▁mecanismo	-10.272
▁humanidad	-10.2724
▁creer	-10.2724
▁independencia	-10.2728
▁on	-10.2728
ger	-10.2734
▁garantiza	-10.2737
▁intercambio	-10.274
▁probables	-10.274
▁blancas	-10.2745
▁intentando	-10.2746
▁integral	-10.2746
▁vemos	-10.2747
▁esquema	-10.2755
▁observaciones	-10.2762
▁National	-10.2763
▁profundamente	-10.2763
▁segundos	-10.2765
▁referencias	-10.2776
▁muertos	-10.2784
▁empleo	-10.2786
gen	-10.2788
▁ventajas	-10.2791
▁cercana	-10.2793
▁críticos	-10.2796
▁Ca	-10.2796
cre	-10.2803
▁extremo	-10.2804
▁abrir	-10.281
▁permiso	-10.281
▁modernos	-10.2811
tar	-10.2811
▁breve	-10.2811
▁paquete	-10.2814
▁viajar	-10.2815
▁extiende	-10.2828
00	-10.2833
fe	-10.2836
▁hidrógeno	-10.2836
▁Porque	-10.2843
▁detalle	-10.2844
▁películas	-10.2852
▁obesidad	-10.2857
▁cuentas	-10.2858
▁ondas	-10.2858
ard	-10.286
ura	-10.2862
▁hacemos	-10.2864
▁cita	-10.2875
▁posterior	-10.2882
▁interesantes	-10.2883
▁retirar	-10.2883
▁elegido	-10.2885
▁simples	-10.2885
▁asistencia	-10.2887
mp	-10.2888
▁presupuesto	-10.2888
Se	-10.2896
▁federales	-10.2899
▁Mary	-10.2902
▁almacenar	-10.2911
▁europeos	-10.2916
▁universidades	-10.2921
▁Pre	-10.2922
▁interpretación	-10.2929
fi	-10.2931
the	-10.2934
▁lleno	-10.2935
▁normales	-10.294
▁tomando	-10.2946
▁sufrir	-10.2952
▁salvar	-10.2955
▁monedas	-10.2956
▁mantienen	-10.2974
ion	-10.2977
▁usando	-10.298
▁ingredientes	-10.2982
▁10.	-10.2983
▁||	-10.2985
▁Sistema	-10.2988
▁respeto	-10.2991
▁calles	-10.2997
gar	-10.2999
▁Recuperado	-10.3
▁antiguas	-10.3005
▁causando	-10.3011
▁globales	-10.3014
▁sugieren	-10.3015
▁instrumentos	-10.302
▁College	-10.3023
▁ISBN	-10.3024
▁móviles	-10.3027
▁detallada	-10.3027
▁secundarios	-10.3031
▁textos	-10.3037
▁gestionar	-10.3038
able	-10.3039
▁tuvieron	-10.3043
▁artistas	-10.305
▁descubierto	-10.3051
▁Constitución	-10.3055
▁poli	-10.3065
sin	-10.3075
ac	-10.3082
▁identificación	-10.3091
▁transición	-10.3092
▁canción	-10.3097
▁parecer	-10.3098
▁escritor	-10.3121
▁iluminación	-10.3132
▁generales	-10.3134
▁expansión	-10.3134
▁k	-10.3135
▁baño	-10.314
▁32	-10.3141
up	-10.3142
▁expresar	-10.3143
▁hermanos	-10.3143
▁disfrutar	-10.3149
▁montaña	-10.3149
▁generaciones	-10.3152
▁apoya	-10.3159
▁histórica	-10.3162
▁grave	-10.3162
▁cercano	-10.3164
▁bloque	-10.3166
▁cultivar	-10.3172
▁luces	-10.3185
▁realizado	-10.3193
▁agrícolas	-10.3201
▁renta	-10.3204
▁Trabajo	-10.3209
▁tendrán	-10.3213
▁consulta	-10.322
▁riqueza	-10.322
▁negativos	-10.3221
▁reuniones	-10.3227
▁Island	-10.3233
▁listo	-10.3234
▁lago	-10.3235
▁prisión	-10.3238
▁gubernamentales	-10.3242
▁Martin	-10.3247
▁oscuro	-10.3248
▁premio	-10.3251
▁VIH	-10.3256
▁ling	-10.3259
ah	-10.326
▁lector	-10.326
▁captura	-10.3261
▁entregar	-10.3264
▁preguntó	-10.3273
▁intención	-10.3278
ología	-10.3279
▁acerca	-10.328
▁Sa	-10.3286
em	-10.3286
▁crean	-10.3288
▁Condado	-10.329
▁agencia	-10.3294
▁afirmación	-10.3296
zo	-10.3302
▁estómago	-10.3307
▁contenedores	-10.332
▁calentamiento	-10.3325
▁fija	-10.333
▁vitaminas	-10.3336
▁nariz	-10.3337
▁etiqueta	-10.3338
▁tri	-10.3339
▁convertir	-10.3346
▁vehículo	-10.3348
▁establece	-10.335
▁presentan	-10.3352
▁buenos	-10.3354
▁Programa	-10.3354
▁sentirse	-10.3355
▁clínica	-10.3357
cia	-10.3357
▁combustibles	-10.3364
▁pone	-10.3368
▁examina	-10.337
▁suministros	-10.3371
▁dependiendo	-10.3373
▁viajes	-10.3375
▁Plan	-10.3375
▁financiera	-10.3377
▁interesados	-10.3377
▁$	-10.3378
ix	-10.3382
-3	-10.3387
▁fauna	-10.3388
▁Brown	-10.339
gan	-10.3394
▁Europea	-10.3394
▁puertas	-10.3395
▁famoso	-10.3401
▁jugadores	-10.3401
▁dormir	-10.3403
▁2015	-10.3412
▁West	-10.3414
min	-10.3415
▁Marte	-10.3424
▁tengo	-10.3426
▁oscura	-10.343
▁crece	-10.3432
fa	-10.3436
▁construido	-10.3441
▁analizar	-10.3443
▁museo	-10.3443
▁hipótesis	-10.3443
▁futuros	-10.3447
▁arroz	-10.3447
amiento	-10.3449
▁Pi	-10.345
▁cuanto	-10.345
▁tubo	-10.3454
▁alemán	-10.3457
▁invernadero	-10.3458
▁presentó	-10.3459
▁queremos	-10.346
▁mapas	-10.3462
12	-10.3471
Un	-10.3471
▁etapas	-10.3473
▁marrón	-10.3473
▁discriminación	-10.3486
▁regulaciones	-10.3491
▁300	-10.3494
▁llegado	-10.3495
▁mostrado	-10.35
▁fabricantes	-10.3504
▁Street	-10.3507
▁históricos	-10.351
▁crecen	-10.3512
ian	-10.3517
▁extremos	-10.3526
▁Peter	-10.3528
▁Rey	-10.3533
▁producido	-10.3534
▁2009	-10.3545
▁solicitud	-10.3546
▁caer	-10.355
ho	-10.3555
▁secciones	-10.3559
▁básicas	-10.3567
▁>	-10.357
▁cabello	-10.3575
▁libras	-10.3576
▁Francisco	-10.3584
▁metales	-10.3586
▁sabía	-10.3593
▁opiniones	-10.3597
▁hormonas	-10.3602
▁2,	-10.3606
▁deseo	-10.3619
▁relevante	-10.362
ré	-10.3622
▁reciben	-10.3629
▁Di	-10.3634
▁totalmente	-10.3634
mas	-10.3636
▁2016	-10.3642
▁permanente	-10.3643
▁continuo	-10.3643
▁tienden	-10.3648
▁medicamento	-10.3648
-1	-10.365
▁cobertura	-10.3651
▁esclavitud	-10.3651
▁década	-10.3654
▁compra	-10.3654
--	-10.3658
▁órdenes	-10.3667
▁instalaciones	-10.3673
▁granos	-10.3676
▁físicas	-10.3679
▁esperan	-10.368
▁comen	-10.3681
▁recibido	-10.3681
▁Recursos	-10.3686
▁dicho	-10.3694
▁2:	-10.3694
ji	-10.3699
▁explicación	-10.3699
▁personaje	-10.3702
▁dueños	-10.3705
net	-10.3715
▁rutas	-10.3719
▁sensores	-10.3724
▁Or	-10.3728
30	-10.3729
▁representar	-10.3736
▁falla	-10.3742
▁realizan	-10.3745
▁categoría	-10.3747
▁mueve	-10.3748
▁posiblemente	-10.3752
▁To	-10.3753
▁definir	-10.3765
Esto	-10.3776
▁baterías	-10.3778
▁clasificación	-10.3781
▁musulmanes	-10.3789
▁interna	-10.379
▁efectividad	-10.3805
▁pudiera	-10.3816
▁2018	-10.3816
▁biología	-10.3817
▁conocidas	-10.3817
▁t	-10.3818
▁Primera	-10.3818
▁mecanismos	-10.3819
▁hongos	-10.3829
▁tormenta	-10.3838
▁mama	-10.3849
▁severa	-10.3857
▁Ningún	-10.3857
▁aumentan	-10.386
▁limitada	-10.3863
▁periodo	-10.3864
▁traer	-10.3865
▁alumnos	-10.3868
▁electricidad	-10.3868
▁rocas	-10.3869
▁habitantes	-10.3871
▁aparece	-10.3881
▁computador	-10.3881
▁9.	-10.3882
▁ventanas	-10.3884
▁periódico	-10.3889
▁Ho	-10.3889
tal	-10.3889
▁circunstancias	-10.3902
▁interacciones	-10.3907
▁negativo	-10.3913
▁toman	-10.3919
q	-10.3924
▁categorías	-10.3927
▁Sea	-10.3928
▁caminos	-10.3931
▁creando	-10.3934
▁versiones	-10.3936
ex	-10.3936
▁practicar	-10.3937
▁dimensiones	-10.3937
▁Derechos	-10.394
▁lluvia	-10.3945
▁Energía	-10.395
▁estaciones	-10.3951
▁Agencia	-10.3954
▁psicología	-10.3961
▁Edad	-10.3961
▁aprendices	-10.3963
▁correr	-10.3968
▁conducir	-10.397
▁raíz	-10.3973
pi	-10.3978
▁investigador	-10.398
▁Ex	-10.3989
▁sabiduría	-10.3992
▁inundaciones	-10.3994
▁Ayuda	-10.4005
▁Mac	-10.4007
▁tempranos	-10.4007
▁unión	-10.4012
▁transmitir	-10.4013
▁decidir	-10.4019
dy	-10.4022
▁llamar	-10.4022
▁pasan	-10.4025
▁informa	-10.4026
▁electrónica	-10.4032
▁imposible	-10.4036
▁originales	-10.4038
▁eléctricos	-10.4047
▁visible	-10.4049
tri	-10.4051
▁significativos	-10.4052
▁crónica	-10.4067
▁servir	-10.4068
▁semilla	-10.407
▁2008	-10.4072
▁2000	-10.4073
▁seco	-10.4074
")	-10.4082
▁variable	-10.4083
▁ira	-10.409
▁Park	-10.4091
▁desarrollando	-10.4108
ster	-10.4109
icos	-10.4114
▁tú	-10.4119
pro	-10.4123
▁diversos	-10.4124
▁tropas	-10.4129
▁autismo	-10.4143
▁infantil	-10.4143
▁tendencias	-10.4145
▁conferencia	-10.4145
▁recolectar	-10.415
▁Du	-10.4151
▁preparar	-10.4156
▁refleja	-10.4159
▁normas	-10.4159
▁positivos	-10.4159
▁Corea	-10.416
▁gráficos	-10.4162
▁solares	-10.4163
by	-10.4164
▁gratuita	-10.4164
▁desea	-10.4166
▁concepción	-10.4167
▁comparar	-10.4168
▁Imperio	-10.417
▁negras	-10.4175
▁ingenieros	-10.4178
▁conectar	-10.418
▁plata	-10.4183
▁proporcionó	-10.4185
▁Han	-10.4189
▁tocar	-10.419
▁proporcionado	-10.4192
au	-10.4193
▁griego	-10.4194
▁circuito	-10.4195
▁agentes	-10.4197
ng	-10.4204
▁American	-10.4206
▁plano	-10.4209
▁intensidad	-10.4211
ieron	-10.4215
▁vi	-10.4215
▁reino	-10.4222
▁Sobre	-10.4227
▁col	-10.4227
▁centrales	-10.423
▁aprenden	-10.4234
▁salvajes	-10.4234
▁Agua	-10.4243
▁compleja	-10.4246
▁Corte	-10.4249
▁tratado	-10.4252
▁funcionan	-10.4258
▁bi	-10.4258
▁apropiado	-10.4262
▁Aún	-10.4263
▁puerto	-10.4269
▁comité	-10.4271
▁combate	-10.4272
▁vecinos	-10.4275
▁transferencia	-10.4278
3.	-10.4281
▁percepción	-10.4281
▁limitado	-10.4283
▁ramas	-10.4291
▁celulares	-10.4291
▁conscientes	-10.4299
▁enseña	-10.4299
▁móvil	-10.4304
▁insulina	-10.4304
▁agrícola	-10.4306
▁rurales	-10.4306
▁consulte	-10.4309
▁County	-10.4313
▁estatus	-10.4315
▁Columbia	-10.4324
▁enorme	-10.4336
▁utilizarse	-10.4342
▁mostraron	-10.4345
Con	-10.4346
▁sensibilidad	-10.4348
▁círculo	-10.4348
▁nervioso	-10.4349
▁levantar	-10.4353
▁planetas	-10.4354
▁peligroso	-10.4356
▁amenazas	-10.4359
▁diversas	-10.4367
▁lee	-10.4369
▁carbohidratos	-10.4373
▁Pueden	-10.438
▁gobernador	-10.4385
▁hecha	-10.4398
▁estadísticas	-10.4402
▁símbolos	-10.4405
▁Lake	-10.4405
▁aumentando	-10.4407
▁aceptar	-10.441
▁1)	-10.4411
▁cardiovascular	-10.4414
▁cal	-10.4414
▁primeras	-10.4415
▁tarjeta	-10.4416
▁hacía	-10.4419
ud	-10.4422
▁mercados	-10.4424
▁restricciones	-10.4429
▁enfrenta	-10.4433
▁personalidad	-10.4436
▁existen	-10.4438
cer	-10.445
Cuánto	-10.4451
▁plomo	-10.4451
▁extraño	-10.4451
ear	-10.4452
▁individuo	-10.4453
▁Windows	-10.4454
▁observar	-10.4456
▁fortalecer	-10.4456
▁explicó	-10.4456
▁decidió	-10.4461
▁virtual	-10.4461
▁valioso	-10.4462
▁nubes	-10.4462
▁siento	-10.4463
▁Partido	-10.4468
▁Tiene	-10.4469
▁difusión	-10.4475
▁Vida	-10.4478
▁artista	-10.4479
▁Casa	-10.4481
▁diarias	-10.4482
▁agregó	-10.449
▁escritos	-10.4491
▁necesitar	-10.4492
▁canciones	-10.4495
▁www	-10.4497
▁tribunal	-10.4499
▁naturalmente	-10.4503
▁letra	-10.4505
▁cabezas	-10.4509
▁conjuntos	-10.4512
▁moral	-10.4515
▁carácter	-10.4519
▁varía	-10.4532
▁Joseph	-10.4534
▁lógica	-10.4541
chi	-10.4543
▁Parte	-10.4545
▁granja	-10.4549
▁Alrededor	-10.4549
▁niña	-10.455
▁Journal	-10.4557
▁partidos	-10.4559
▁ministro	-10.456
▁teorías	-10.456
▁0.	-10.4562
▁onda	-10.4564
▁económicas	-10.4569
▁intestino	-10.457
▁Oxford	-10.4588
▁sirvió	-10.4589
▁So	-10.459
▁escrita	-10.4592
▁diseñados	-10.4592
▁mantuvo	-10.4595
izado	-10.4597
▁pérdidas	-10.4598
▁Times	-10.4598
▁felicidad	-10.4598
▁Norteamérica	-10.4601
▁banco	-10.4603
▁Está	-10.4609
▁vasos	-10.4618
▁sujetos	-10.4619
▁parámetros	-10.4622
▁evidente	-10.4625
▁espiritual	-10.4627
▁voluntad	-10.463
▁químico	-10.463
▁posiciones	-10.4631
▁terminar	-10.4632
▁Revolución	-10.4636
▁vive	-10.4648
Te	-10.4649
▁complejas	-10.4655
▁discapacidades	-10.4657
▁tiendas	-10.466
▁usa	-10.4664
▁religiosa	-10.4666
▁Ambiente	-10.4673
▁foto	-10.4675
▁contribuir	-10.4685
▁experto	-10.4688
▁implicaciones	-10.4693
▁conductores	-10.4695
▁peligros	-10.4698
▁estable	-10.4701
▁rico	-10.4701
▁funcionar	-10.4705
▁tradiciones	-10.4707
▁Bio	-10.4711
▁obtuvo	-10.4711
▁vacío	-10.4713
▁determina	-10.4717
▁Ni	-10.4721
▁Sudáfrica	-10.4721
▁señala	-10.4725
▁técnicos	-10.4727
▁lenguas	-10.473
▁experimento	-10.473
ios	-10.4737
▁figuras	-10.4739
▁firme	-10.4741
▁continuó	-10.4742
▁reconoce	-10.4742
▁liberación	-10.4744
▁Lu	-10.4745
ones	-10.4746
▁cálculo	-10.4747
▁EN	-10.4748
▁expresiones	-10.4748
▁convertido	-10.4749
▁muerto	-10.475
▁límite	-10.4754
▁tendrás	-10.4754
▁estilos	-10.476
ador	-10.476
▁orina	-10.4761
▁criterios	-10.4768
▁Gobierno	-10.4774
▁refugio	-10.4781
▁Fort	-10.4781
▁previamente	-10.4781
▁mo	-10.4783
▁encontramos	-10.4787
ció	-10.4788
▁belleza	-10.4789
rios	-10.479
▁entrevista	-10.4791
▁igualdad	-10.4794
ante	-10.4801
▁impuesto	-10.481
▁Ohio	-10.4821
ville	-10.4823
Cuando	-10.483
▁Enfermedades	-10.4836
▁Tecnología	-10.4837
▁diámetro	-10.4841
▁fiscal	-10.4842
▁Web	-10.4843
▁previa	-10.4843
▁fallo	-10.4843
▁excesiva	-10.4847
▁procedimiento	-10.4847
▁únicos	-10.4849
▁Johnson	-10.4855
▁Georgia	-10.4862
▁amarillo	-10.4866
▁laboral	-10.4869
▁150	-10.4871
▁proporción	-10.4872
▁fuertemente	-10.4872
▁Brasil	-10.4883
▁Proyecto	-10.4886
▁rojos	-10.4887
▁dioses	-10.4888
▁torre	-10.4893
▁sienten	-10.4894
▁meta	-10.4894
▁Real	-10.4896
▁provincia	-10.4896
tro	-10.4898
▁potencialmente	-10.4898
vo	-10.4898
▁aproximación	-10.4899
▁Dis	-10.49
▁frase	-10.49
▁metas	-10.4905
▁privada	-10.4907
osa	-10.491
▁cierta	-10.4912
▁poderes	-10.4912
▁lanzamiento	-10.4917
▁ayudó	-10.4919
▁inmigrantes	-10.492
▁extranjeros	-10.4924
▁informar	-10.4924
▁ejecutar	-10.4927
▁destruir	-10.493
▁intento	-10.4933
▁causada	-10.4936
▁organismos	-10.4937
▁50%	-10.4941
▁ocurren	-10.4941
▁momentos	-10.4942
▁sombra	-10.4942
ek	-10.4944
▁Boston	-10.4946
▁sentimientos	-10.4949
▁dióxido	-10.4955
▁adecuada	-10.4961
▁nube	-10.4962
▁etiquetas	-10.4964
tivos	-10.4968
iza	-10.497
▁tumores	-10.497
▁licencia	-10.497
▁formal	-10.4973
▁Análisis	-10.4975
▁eficaz	-10.4976
▁can	-10.4978
▁financieros	-10.4983
▁Facebook	-10.4987
wa	-10.4995
▁descanso	-10.4997
▁cuello	-10.5011
▁rojas	-10.5014
▁comentario	-10.5015
imos	-10.5016
▁sequía	-10.5016
▁afectados	-10.502
ES	-10.5021
▁extremadamente	-10.5023
▁importar	-10.5025
▁brazo	-10.5025
▁Academia	-10.5033
▁Ro	-10.5034
▁asociada	-10.5035
▁recurso	-10.5036
▁tallos	-10.5041
▁innovación	-10.5042
▁dañar	-10.5043
▁exploración	-10.5054
▁enfoques	-10.5057
▁reloj	-10.506
▁cubre	-10.5063
can	-10.5069
20	-10.507
▁pudo	-10.5074
▁efectivos	-10.5075
▁vital	-10.5078
▁Publicado	-10.5081
▁peligrosos	-10.5081
▁(1)	-10.5081
▁espaciales	-10.5093
▁restaurar	-10.5093
▁pecho	-10.5096
▁secos	-10.5098
▁navegación	-10.51
▁alma	-10.5103
eo	-10.511
▁fueran	-10.5111
▁millón	-10.5115
▁destino	-10.5117
▁moverse	-10.5119
▁36	-10.5124
tó	-10.5124
▁divertido	-10.5125
▁aprendido	-10.5127
▁ausencia	-10.5127
▁periódicos	-10.5127
▁Sir	-10.513
▁IP	-10.5131
hi	-10.5137
ncia	-10.5138
▁Lincoln	-10.5144
▁escritores	-10.5144
▁canales	-10.5146
▁Alzheimer	-10.515
▁Parque	-10.515
encia	-10.5155
▁Zelanda	-10.5157
▁sufrido	-10.5159
▁deuda	-10.5159
▁viernes	-10.5165
▁2020	-10.5166
▁asistir	-10.5166
▁confiable	-10.5167
▁judía	-10.517
▁crucial	-10.517
▁esperaba	-10.5171
▁Luna	-10.5171
▁lento	-10.5174
25	-10.5175
▁filtro	-10.5175
▁65	-10.5182
▁fronteras	-10.5184
▁pez	-10.5189
▁varían	-10.5192
▁Fecha	-10.5196
▁publicaciones	-10.52
edad	-10.5208
▁competencia	-10.5211
▁presa	-10.5213
▁discutir	-10.5214
▁2007	-10.5215
▁muscular	-10.522
▁cuándo	-10.5221
▁dirige	-10.5223
uk	-10.5228
▁cuidar	-10.5234
du	-10.5236
▁fría	-10.5237
▁Sal	-10.5239
▁manchas	-10.524
▁precisa	-10.524
▁químicas	-10.5244
▁industrias	-10.5245
▁cierre	-10.5248
ut	-10.5251
▁salvaje	-10.5252
antes	-10.5253
▁líquidos	-10.5254
eros	-10.5256
▁Nunca	-10.5263
▁limitar	-10.5264
▁igualmente	-10.5266
▁anualmente	-10.5266
▁Cu	-10.527
ak	-10.5278
▁cultivos	-10.5278
▁Occidental	-10.5282
▁quitar	-10.5287
▁colonias	-10.5303
',	-10.5305
▁heridas	-10.5305
▁terminó	-10.5307
▁relaciona	-10.5311
▁basándose	-10.5313
▁contaminantes	-10.5313
che	-10.5316
▁Mark	-10.5319
▁Hospital	-10.5321
▁cerebrales	-10.5325
▁temporal	-10.5327
▁utilizamos	-10.5333
▁verificar	-10.5345
ística	-10.5353
▁pandemia	-10.5356
▁Science	-10.5361
▁vender	-10.5365
▁eficacia	-10.5365
▁corrientes	-10.5366
▁Sí	-10.5368
▁edades	-10.5373
▁realizaron	-10.5378
Puedes	-10.5379
▁salir	-10.5381
▁Incluso	-10.5381
▁mide	-10.5383
▁exitoso	-10.5386
▁audio	-10.5387
▁zonas	-10.5389
▁Bo	-10.5395
▁ocasión	-10.54
tan	-10.5401
▁ganancias	-10.5401
▁Capítulo	-10.5401
▁teatro	-10.5402
▁ventas	-10.5403
▁acoso	-10.5406
▁voluntarios	-10.5411
▁revolución	-10.5412
▁viendo	-10.5416
▁recuperar	-10.5416
▁Nuestros	-10.5417
▁arco	-10.5422
▁vs	-10.5423
▁quiero	-10.543
▁Fe	-10.5432
▁barrera	-10.5433
▁efectivamente	-10.5434
▁Ne	-10.5434
▁artes	-10.5436
▁City	-10.5437
▁pulmones	-10.5443
▁Vi	-10.5445
▁novela	-10.5448
▁marcadores	-10.5454
▁33	-10.5457
▁eléctrico	-10.5458
▁resultar	-10.546
▁láser	-10.5471
▁clínicos	-10.5481
▁motivo	-10.5488
▁avanzada	-10.5492
▁diseñar	-10.5493
▁Federal	-10.5493
sis	-10.5493
▁capacidades	-10.5493
line	-10.5494
▁cortas	-10.5496
▁instrumento	-10.5497
▁School	-10.5502
▁felices	-10.5503
50	-10.5503
▁pelo	-10.5505
he	-10.551
▁creían	-10.5513
▁Cor	-10.5517
▁mover	-10.5528
tica	-10.5532
▁interfaz	-10.5532
▁respectivamente	-10.5534
lu	-10.5539
▁introducir	-10.5545
▁MD	-10.5547
ler	-10.5548
▁pasta	-10.5553
▁seguido	-10.5557
ity	-10.5557
▁pierna	-10.5558
▁rama	-10.5568
▁or	-10.557
▁Ka	-10.557
▁playa	-10.5571
▁comienzan	-10.5573
▁Colorado	-10.5574
▁llega	-10.5575
▁Vamos	-10.5578
▁tablero	-10.5581
▁profesora	-10.5582
ant	-10.5599
▁agujeros	-10.5604
▁Ben	-10.5605
▁educativos	-10.5605
-2	-10.561
▁gusanos	-10.5611
▁valle	-10.5616
▁pasando	-10.5617
▁Paso	-10.5617
▁adulto	-10.5619
field	-10.5621
▁hagan	-10.5623
▁ustedes	-10.5635
▁académico	-10.5636
▁Hill	-10.5638
▁so	-10.5643
▁considerado	-10.5647
▁iniciativa	-10.5647
▁diente	-10.565
▁cerrar	-10.5655
▁curación	-10.5666
▁Do	-10.5667
▁preservar	-10.5667
▁Bar	-10.5669
▁reducido	-10.5671
▁hábitats	-10.5673
▁paquetes	-10.5673
▁disminución	-10.5677
Lo	-10.5682
▁integración	-10.5684
▁complicaciones	-10.5686
▁manual	-10.5687
▁cables	-10.5688
▁bastante	-10.569
▁variación	-10.569
par	-10.5691
▁paneles	-10.5692
▁estabilidad	-10.5693
ze	-10.5695
▁Bay	-10.5695
▁editor	-10.5698
▁Tri	-10.5699
▁diseños	-10.5703
▁gráfico	-10.5703
▁vulnerables	-10.5708
ez	-10.571
ros	-10.5715
▁universal	-10.5722
▁parecía	-10.5731
ki	-10.5739
▁utilizaban	-10.5743
▁arcilla	-10.5746
ea	-10.5755
▁educativo	-10.5756
'.	-10.5769
▁accidentes	-10.5773
▁Massachusetts	-10.5773
▁necesariamente	-10.5777
▁comenzado	-10.5781
▁doi	-10.5784
▁régimen	-10.5784
▁cómodo	-10.5786
▁compuesta	-10.5788
▁convirtieron	-10.5793
▁indican	-10.5793
wood	-10.5807
amos	-10.5807
▁hará	-10.5812
▁juntas	-10.5814
▁fórmula	-10.582
▁Da	-10.5821
▁motores	-10.5823
▁botón	-10.5825
▁mostrando	-10.5829
qui	-10.5829
▁inmediato	-10.5832
▁disposición	-10.5837
▁corona	-10.5837
▁técnico	-10.5839
▁barreras	-10.5841
▁vídeos	-10.5842
nas	-10.5844
▁significativas	-10.585
▁terrenos	-10.5854
▁ángulo	-10.5856
▁morir	-10.5856
▁fresca	-10.5858
cal	-10.586
▁famosa	-10.5862
▁permitiendo	-10.5862
▁restauración	-10.5863
▁instrucción	-10.5864
19	-10.5872
2,	-10.5874
▁institución	-10.5874
▁Ko	-10.5882
▁huevo	-10.5882
▁animar	-10.5883
izada	-10.5886
▁alerta	-10.5888
▁Debe	-10.5889
▁dios	-10.5891
ford	-10.59
▁privado	-10.59
▁cuidados	-10.5905
▁operar	-10.5907
▁suma	-10.5912
▁Banco	-10.5916
▁Health	-10.5916
▁hiper	-10.5917
▁Cambridge	-10.5918
▁regulares	-10.5921
▁Pan	-10.5922
▁suplementos	-10.5928
▁configuración	-10.593
▁encontraba	-10.5931
▁orgánica	-10.5933
▁Par	-10.5933
▁conducción	-10.5937
▁variaciones	-10.5938
▁mortalidad	-10.5941
▁tienda	-10.5944
fer	-10.5946
▁2)	-10.5953
▁Tom	-10.5953
▁abiertos	-10.5954
▁ejecución	-10.5965
▁compañías	-10.5969
▁Ambos	-10.597
▁masiva	-10.5972
▁ficción	-10.5972
▁sanguíneos	-10.5972
▁Civil	-10.5972
▁Green	-10.5975
▁cable	-10.598
▁comando	-10.598
▁nativas	-10.5985
▁británica	-10.5988
▁asma	-10.5988
▁transformación	-10.5989
▁migración	-10.5989
ias	-10.599
▁fundación	-10.5991
▁vieron	-10.5993
▁diciendo	-10.5997
▁árabe	-10.5997
▁Po	-10.5998
▁borde	-10.6
▁kilómetros	-10.6008
▁piso	-10.6021
fo	-10.6022
▁básico	-10.6027
▁mantenga	-10.6028
▁considerable	-10.6028
▁motivación	-10.6032
▁IV	-10.6032
▁calcular	-10.6036
▁aumentó	-10.6037
▁financiero	-10.6042
mb	-10.6043
▁sesiones	-10.6044
anos	-10.6046
▁privadas	-10.6057
▁(2)	-10.6065
▁aparecen	-10.6071
▁conductor	-10.6071
▁pico	-10.6078
▁gráfica	-10.608
▁bolsa	-10.6083
▁Oriente	-10.6084
▁planos	-10.6085
▁alimentar	-10.6086
▁logrado	-10.6086
▁Cámara	-10.6097
cas	-10.6102
▁Grupo	-10.6103
▁(2	-10.6109
▁instalar	-10.6115
▁voto	-10.6116
▁tren	-10.6116
▁discusiones	-10.6119
▁rompe	-10.612
▁escenario	-10.612
▁Ad	-10.613
▁juventud	-10.6132
▁Ambas	-10.6132
▁dulces	-10.6133
gue	-10.6138
▁Harvard	-10.614
▁llevando	-10.6145
▁Van	-10.6155
▁imperio	-10.6155
ning	-10.6158
▁colonia	-10.6159
▁victoria	-10.6159
▁ganancia	-10.6165
▁placer	-10.6171
▁Santo	-10.6174
4.	-10.6174
▁alternativas	-10.6178
▁Ti	-10.6183
▁posibilidades	-10.6184
▁pasaje	-10.6195
▁Can	-10.6195
age	-10.62
▁basan	-10.6204
▁North	-10.6205
▁agente	-10.6213
▁marina	-10.6221
▁Mejora	-10.6223
▁sirven	-10.6225
▁durar	-10.6225
▁desarrollaron	-10.6232
▁tomaron	-10.6236
▁alemana	-10.6243
▁exitosa	-10.6246
▁do	-10.6248
▁orgánicos	-10.6253
▁fusión	-10.6255
▁independientes	-10.6256
ney	-10.6256
▁Jerusalén	-10.6258
▁indicar	-10.6259
▁Libro	-10.6264
▁publicada	-10.6271
▁órbita	-10.6285
▁sorprendente	-10.6287
▁absoluto	-10.6287
▁ganó	-10.6288
▁olas	-10.629
▁reina	-10.6294
▁Inglés	-10.6295
▁400	-10.6296
▁Guía	-10.6303
aciones	-10.6303
▁magnitud	-10.6312
▁perfecta	-10.6312
▁secas	-10.6312
▁concreto	-10.6313
▁concentraciones	-10.6314
▁superficies	-10.6314
▁rara	-10.6316
▁rodilla	-10.6317
OS	-10.6321
▁avanzado	-10.6325
▁ética	-10.6327
▁bo	-10.6328
▁cámaras	-10.633
▁Director	-10.634
ting	-10.6341
▁Hall	-10.6343
▁adaptarse	-10.6346
▁alas	-10.6353
▁News	-10.6357
▁experimentan	-10.6363
▁reservas	-10.6367
▁mono	-10.6373
▁piloto	-10.6373
▁cambiando	-10.6377
▁ratón	-10.6377
▁biológica	-10.6381
▁sodio	-10.6383
▁daños	-10.6384
ish	-10.6385
tin	-10.6386
▁desastres	-10.6388
▁envía	-10.6389
▁Pa	-10.639
ite	-10.6393
▁Gestión	-10.6393
and	-10.6398
▁na	-10.6399
▁totalidad	-10.6405
▁negativa	-10.6405
▁cambió	-10.6407
▁receptores	-10.641
▁revela	-10.6411
▁tendría	-10.6411
▁li	-10.6414
▁man	-10.6416
▁asociadas	-10.6417
▁susceptibles	-10.6418
▁aborda	-10.6419
▁cargo	-10.6422
▁contener	-10.6422
▁huella	-10.6426
▁funcional	-10.6426
▁culpa	-10.6431
▁nucleares	-10.6432
▁perfil	-10.6432
▁quede	-10.6434
▁Número	-10.6435
▁Ra	-10.6436
▁sueldo	-10.6438
▁75	-10.6439
▁http	-10.6441
▁10%	-10.6447
▁that	-10.6448
▁deporte	-10.6448
▁involucrado	-10.645
▁proporcione	-10.6456
▁garganta	-10.6458
▁Am	-10.6458
▁ocasionalmente	-10.6462
▁Ve	-10.6468
▁olor	-10.6468
▁vol	-10.6474
▁expresa	-10.6477
▁sensibles	-10.6479
▁impide	-10.6486
▁with	-10.6495
▁nutricional	-10.6499
▁fenómeno	-10.6505
▁entornos	-10.6508
▁2019	-10.6513
▁entra	-10.6516
▁Nuestro	-10.6517
1,	-10.6517
▁Chi	-10.6519
▁asuntos	-10.6524
▁conducta	-10.6526
▁visite	-10.6527
▁Pensilvania	-10.6531
▁intentan	-10.6532
▁lagos	-10.6532
▁disciplina	-10.6532
▁fundamentales	-10.6533
▁comparten	-10.6538
▁aquellas	-10.6539
▁tono	-10.6542
▁expectativas	-10.6542
▁contrato	-10.6558
▁enemigo	-10.6558
▁afirman	-10.6562
lla	-10.6569
▁sujeto	-10.657
▁fragmentos	-10.6571
▁préstamo	-10.6576
▁referirse	-10.6581
▁debate	-10.6581
▁Servicios	-10.6582
▁Com	-10.6583
▁griega	-10.6584
▁regional	-10.6586
11	-10.6588
▁describió	-10.6589
▁propietarios	-10.659
▁extraer	-10.6591
▁liberar	-10.6591
▁abarca	-10.6595
▁34	-10.6598
▁corteza	-10.6604
▁gigante	-10.6607
idas	-10.6611
▁religiosas	-10.6612
▁aparición	-10.6613
▁hermosas	-10.6616
▁PDF	-10.6619
▁almacena	-10.662
▁descarga	-10.6621
▁dueño	-10.6623
▁signo	-10.6628
▁conflictos	-10.6629
ser	-10.6631
▁superficial	-10.6631
▁Que	-10.6633
▁extranjero	-10.6635
▁dibujo	-10.6643
▁leyendo	-10.6646
▁hilo	-10.6647
▁pulgas	-10.6651
▁obtiene	-10.6651
▁tanque	-10.6656
▁resultó	-10.6658
Esta	-10.6659
▁bloqueo	-10.6659
▁frases	-10.666
▁ámbito	-10.6661
▁DNA	-10.6665
▁romanos	-10.6666
▁organizar	-10.6669
▁porción	-10.667
▁Normalmente	-10.6671
▁democracia	-10.6673
▁Daniel	-10.6673
▁viviendo	-10.6674
▁valiosa	-10.6682
▁describen	-10.6683
▁gratuito	-10.6683
▁Arte	-10.6688
▁refugiados	-10.669
▁("	-10.669
▁reemplazo	-10.669
▁regulación	-10.669
▁partida	-10.6691
▁productividad	-10.6691
15	-10.6695
▁exceso	-10.6695
▁cumplimiento	-10.6701
▁impulso	-10.6703
▁hardware	-10.6704
▁sostenibilidad	-10.6704
▁educadores	-10.6706
▁pecado	-10.6715
▁carreteras	-10.6716
▁DC	-10.6716
45	-10.6716
▁separación	-10.6717
▁chino	-10.6719
▁vivienda	-10.672
▁nativa	-10.6721
▁conecta	-10.6725
▁determinado	-10.6727
▁proporcionará	-10.6727
▁desastre	-10.6727
The	-10.6728
▁listas	-10.6728
▁judío	-10.6733
▁perspectivas	-10.6736
▁mg	-10.6736
▁renovable	-10.6738
▁unirse	-10.6745
▁excesivo	-10.6748
▁háganos	-10.6748
▁oposición	-10.6749
▁préstamos	-10.6749
▁XVIII	-10.6755
ier	-10.6756
▁conversión	-10.6756
▁ilegal	-10.6761
▁alergías	-10.6763
▁llenar	-10.677
▁sociedades	-10.6775
nd	-10.6781
tic	-10.6782
kin	-10.6786
▁subir	-10.6791
▁48	-10.6792
▁cercanos	-10.6793
Quién	-10.6793
▁extracción	-10.6793
▁contribución	-10.68
In	-10.6802
▁veinte	-10.6802
▁permitido	-10.6802
▁facilitar	-10.6808
▁tra	-10.681
▁Están	-10.6815
▁adicción	-10.6817
▁esposo	-10.6818
ías	-10.6821
▁granjas	-10.6821
▁industriales	-10.6823
▁tribus	-10.6823
▁sa	-10.6824
ko	-10.6826
▁posteriores	-10.6831
incluyendo	-10.6833
▁marinos	-10.6835
▁EPA	-10.6836
▁sufre	-10.6839
▁accidente	-10.6841
▁críticas	-10.6842
▁Pakistán	-10.6845
▁mamíferos	-10.6846
▁pista	-10.6847
▁azules	-10.6847
▁plantar	-10.6851
▁Figura	-10.6852
▁placas	-10.6856
▁diseñada	-10.6858
▁aplican	-10.6858
▁minimizar	-10.6861
▁AD	-10.6861
▁complejidad	-10.6863
▁3:	-10.6866
▁Post	-10.6867
bi	-10.6867
▁deficiencia	-10.6875
▁predecir	-10.6876
▁adoptar	-10.6877
▁by	-10.688
▁algodón	-10.6883
▁logro	-10.6884
▁chinos	-10.6891
▁caracteres	-10.6895
tter	-10.6896
▁bordo	-10.6897
▁buscan	-10.6899
▁dirigido	-10.69
▁Hemos	-10.6905
▁cuál	-10.6907
▁Míchigan	-10.6907
▁mirando	-10.6909
▁genético	-10.6911
▁flota	-10.6915
▁jugador	-10.692
▁escapar	-10.6928
▁supuesto	-10.6932
▁humedales	-10.6935
iva	-10.6945
▁Vietnam	-10.6948
▁quedan	-10.695
▁microorganismos	-10.6953
▁únicas	-10.6964
▁copias	-10.6969
cen	-10.6975
▁clásica	-10.6976
▁puso	-10.6976
-12	-10.6976
▁avanzar	-10.6984
▁h	-10.6985
oso	-10.6986
▁nave	-10.6993
via	-10.6994
berg	-10.7
ino	-10.7002
▁contribuciones	-10.7006
▁rueda	-10.7006
▁oficinas	-10.7011
▁creatividad	-10.7017
▁publicados	-10.7018
▁vientos	-10.7021
▁2006	-10.7022
ny	-10.7022
ice	-10.7024
▁protector	-10.7029
▁inmediata	-10.703
▁avances	-10.7034
▁últimas	-10.7037
▁Obama	-10.7039
▁académicos	-10.704
!"	-10.7042
▁tubos	-10.7043
▁Black	-10.7044
▁cinta	-10.7047
▁excelentes	-10.7048
▁viene	-10.705
ang	-10.7051
▁intervenciones	-10.7053
▁interesado	-10.7056
▁envió	-10.7057
▁Administración	-10.7062
▁artritis	-10.7062
▁Artículo	-10.7062
▁domésticos	-10.7064
▁cien	-10.7064
▁trabajó	-10.7066
▁agregando	-10.7068
▁diagrama	-10.7069
dis	-10.7069
tura	-10.7071
▁Conferencia	-10.7073
▁Ph	-10.7079
▁kg	-10.7079
▁circulación	-10.708
▁publicar	-10.7081
▁fruto	-10.7084
▁oraciones	-10.7085
▁evita	-10.7086
▁jugo	-10.7087
▁esperando	-10.7091
▁torrente	-10.7093
▁adulta	-10.7094
▁recibieron	-10.7096
].	-10.7097
▁existente	-10.7099
▁Laboratorio	-10.7101
▁colegas	-10.7107
▁combina	-10.7108
▁machos	-10.7109
▁fumar	-10.711
▁mentales	-10.7115
▁espiritu	-10.7116
▁Testamento	-10.712
▁frecuentes	-10.712
▁ca	-10.7127
▁iglesias	-10.7134
▁vamos	-10.7136
▁Foto	-10.7137
▁ruedas	-10.7153
▁izquierdo	-10.7157
▁calendario	-10.7157
ll	-10.7161
▁raro	-10.7169
cómo	-10.7174
▁pasajeros	-10.7174
▁gris	-10.7178
▁curva	-10.7178
▁glándulas	-10.7179
▁rápidos	-10.7179
▁panel	-10.718
▁cristiana	-10.7181
▁Intenta	-10.7182
▁expuestos	-10.7183
▁Aprende	-10.7185
▁variar	-10.7186
▁Distrito	-10.7187
▁experimentado	-10.7192
▁Car	-10.7193
▁Pública	-10.7193
ot	-10.7194
▁disponibilidad	-10.7195
▁37	-10.7196
▁Des	-10.7198
▁neuro	-10.7198
▁unió	-10.72
▁musical	-10.7204
▁sentarse	-10.7208
▁elimina	-10.7208
▁dibujar	-10.7209
aria	-10.7213
▁Protección	-10.7216
▁vocabulario	-10.7216
yo	-10.7222
▁orígenes	-10.7222
▁profundas	-10.7222
▁intelectual	-10.7222
▁vegetación	-10.7226
▁pH	-10.723
▁eje	-10.7234
ent	-10.7236
▁rota	-10.7246
ff	-10.7246
▁plagas	-10.7247
▁reveló	-10.7248
▁futuras	-10.7251
▁aprovechar	-10.7258
▁evaluaciones	-10.7259
▁previo	-10.7259
AS	-10.726
14	-10.7261
▁Estudio	-10.7261
▁censo	-10.7262
▁fibras	-10.7263
▁moneda	-10.7265
▁conectados	-10.7267
▁Wikipedia	-10.7267
▁pena	-10.7268
▁absorción	-10.7268
▁Cualquier	-10.7269
▁fundó	-10.727
18	-10.7272
▁médicas	-10.7281
▁cine	-10.7283
▁regresar	-10.7286
▁flor	-10.729
▁tratados	-10.7291
▁nacido	-10.7293
Al	-10.7298
▁vertical	-10.7305
▁aliviar	-10.7311
▁franceses	-10.7313
▁declaró	-10.7313
▁apropiada	-10.7319
adores	-10.732
▁parques	-10.7322
pp	-10.7322
▁asesinato	-10.7322
▁descargar	-10.7328
tus	-10.7331
▁distinguir	-10.7332
▁hospitales	-10.7341
▁anunció	-10.7341
ps	-10.7342
▁menciona	-10.7343
▁Nature	-10.7344
▁informado	-10.7347
ú	-10.7349
▁sucia	-10.7352
▁dejan	-10.7353
han	-10.7355
▁promueve	-10.7356
▁Toma	-10.7361
▁sientan	-10.7362
ju	-10.7368
▁permitirá	-10.7369
▁considerando	-10.7371
▁firma	-10.7372
ure	-10.7373
▁terminado	-10.7374
▁informaron	-10.7377
Estamos	-10.7379
ión	-10.7381
▁encontrados	-10.7383
▁consistente	-10.7384
▁llevaron	-10.7386
▁Vol	-10.7389
len	-10.7391
▁funcionamiento	-10.7392
▁fechas	-10.7395
lar	-10.7395
▁grasos	-10.7396
▁abrió	-10.7398
▁miel	-10.7399
well	-10.7401
▁from	-10.7401
▁códigos	-10.7402
▁tumor	-10.7402
▁Islas	-10.7408
▁cooperación	-10.7412
▁continente	-10.7416
▁civilización	-10.7417
▁adición	-10.7419
▁afectadas	-10.7427
▁soy	-10.7429
▁discapacidad	-10.7429
▁bajar	-10.7435
▁Mis	-10.7435
▁pastoreo	-10.7436
▁darle	-10.7437
▁automáticamente	-10.7438
▁dependencia	-10.7438
▁protocolo	-10.7438
▁Ciudad	-10.744
▁agradable	-10.7441
we	-10.7442
▁aprendiendo	-10.7442
▁torno	-10.7442
▁Mundo	-10.7445
▁2005	-10.7447
▁algas	-10.7447
▁genera	-10.7448
▁Introducción	-10.7451
▁Grecia	-10.7451
tivas	-10.7451
-18	-10.7453
▁colecciones	-10.7454
▁World	-10.7456
ren	-10.746
▁occidentales	-10.7463
▁incluido	-10.7468
▁sexuales	-10.7478
▁vivientes	-10.7479
▁golpe	-10.7481
aba	-10.7482
▁francesa	-10.7484
▁cosechas	-10.7486
ach	-10.7487
▁notable	-10.7489
hu	-10.7496
▁Bill	-10.7499
▁aprobación	-10.7502
▁División	-10.7505
▁either	-10.7508
▁pistas	-10.7511
▁AI	-10.7513
gov	-10.7516
▁demostró	-10.7516
▁Encuentra	-10.7517
▁tripulación	-10.7519
▁átomos	-10.7524
▁hi	-10.7527
ito	-10.7528
of	-10.753
▁CD	-10.7531
▁pesticidas	-10.7531
▁María	-10.7538
est	-10.7538
▁Tenemos	-10.754
▁Illinois	-10.7545
▁notar	-10.7552
▁continua	-10.7554
▁38	-10.7556
▁inversiones	-10.7559
ín	-10.7563
▁haberse	-10.7565
▁comprobar	-10.7565
13	-10.7568
ist	-10.7569
CO	-10.7569
▁debía	-10.757
▁vivían	-10.7571
▁regalo	-10.7573
▁ancianos	-10.7575
▁necesitaba	-10.7578
▁consentimiento	-10.7579
bilidad	-10.7593
▁científicas	-10.7593
▁resistentes	-10.7596
▁climáticos	-10.7596
▁vestidos	-10.7599
▁abre	-10.7599
▁reciclaje	-10.7603
▁Gales	-10.7603
▁pesados	-10.7606
▁Media	-10.7608
▁distritos	-10.7612
▁Microsoft	-10.7627
▁brazos	-10.7627
▁hacerse	-10.7628
▁continuamente	-10.7633
▁seleccionar	-10.7634
▁membrana	-10.7635
▁Social	-10.7637
▁bar	-10.7639
▁inglesa	-10.7652
ker	-10.7652
▁logros	-10.7653
▁Atlántico	-10.7657
nce	-10.766
▁mecánica	-10.7661
▁anuales	-10.7663
▁creciendo	-10.7665
▁pajaros	-10.7682
17	-10.7685
▁Sam	-10.7686
▁Inter	-10.7688
▁mitología	-10.7691
▁bacteria	-10.7692
Pa	-10.7696
one	-10.7696
▁olla	-10.7703
▁inferiores	-10.7704
▁descendientes	-10.7704
▁Grande	-10.7707
van	-10.7707
▁Java	-10.7708
gas	-10.7709
▁deberías	-10.771
▁Shakespeare	-10.7711
▁Cha	-10.7712
▁motivos	-10.7717
16	-10.7724
▁plataformas	-10.7733
▁profundos	-10.7734
▁termina	-10.7735
▁casó	-10.7739
iera	-10.7744
▁modificar	-10.7746
▁Parlamento	-10.775
▁japonés	-10.7751
ificación	-10.7753
▁ánimo	-10.7754
▁Ser	-10.7762
▁poderoso	-10.7764
▁eliminación	-10.777
pre	-10.7771
▁débil	-10.7772
▁tribu	-10.7774
▁XXI	-10.7775
▁Usando	-10.7779
▁Abraham	-10.778
▁Utilizando	-10.7796
▁neuronas	-10.7796
▁gramos	-10.7797
▁equivalente	-10.7797
▁sufren	-10.7798
▁Compañía	-10.7802
▁almacenes	-10.7803
▁conversaciones	-10.7805
▁americanos	-10.7809
▁rápidas	-10.781
▁Ya	-10.781
▁inundación	-10.7814
▁considere	-10.7815
▁Física	-10.7819
▁partido	-10.782
▁Twitter	-10.7821
también	-10.7827
▁UE	-10.7828
▁molecular	-10.7829
▁dirigió	-10.783
▁Tres	-10.783
ray	-10.7833
▁cuerdas	-10.7833
▁Jo	-10.7835
▁biológicos	-10.784
▁Leer	-10.7844
▁confusión	-10.7845
▁manzanas	-10.7848
▁ambientes	-10.7849
▁leyenda	-10.7853
▁certificado	-10.7858
▁lidiar	-10.7858
▁Mantenga	-10.7859
ius	-10.7863
▁popularidad	-10.7863
▁percepciones	-10.7865
▁taller	-10.7865
html	-10.7866
▁Global	-10.7867
▁fila	-10.7871
▁ámbitos	-10.7873
ándose	-10.7874
▁identificado	-10.7878
▁abiertas	-10.7882
▁africanos	-10.7883
▁Senado	-10.7884
▁55	-10.7884
ness	-10.7887
▁Agricultura	-10.7889
▁bebida	-10.789
▁asocia	-10.7893
▁ed	-10.7898
▁prioridad	-10.7907
▁visuales	-10.7908
▁giro	-10.791
▁Siempre	-10.7912
illa	-10.7913
▁pagos	-10.7913
▁pues	-10.7915
bu	-10.7915
aje	-10.7916
▁combatir	-10.7922
cho	-10.7925
▁afirmaciones	-10.7926
▁Fa	-10.7928
▁hermosos	-10.7932
▁terreno	-10.7932
▁sensible	-10.7934
▁Alaska	-10.7938
▁causó	-10.7939
▁fuegos	-10.794
▁músculo	-10.794
▁chocolate	-10.7941
▁42	-10.7943
▁cadenas	-10.7944
▁Edward	-10.7947
▁reforma	-10.7948
▁dirigida	-10.7952
▁defensores	-10.7953
▁HIV	-10.7954
▁murieron	-10.7958
▁apoyan	-10.7963
ris	-10.7974
▁compras	-10.7974
▁romano	-10.7974
▁adaptación	-10.7978
▁módulo	-10.7979
▁asistente	-10.7983
▁aluminio	-10.7989
▁compañero	-10.7995
▁pesado	-10.8005
60	-10.8008
▁Alimentos	-10.801
▁Har	-10.8012
▁huellas	-10.8013
▁celebrar	-10.802
▁llegada	-10.8023
▁seguidores	-10.8026
▁cubiertas	-10.8026
▁Arizona	-10.8029
▁establecieron	-10.803
▁ubicado	-10.803
▁marcador	-10.8032
▁estimación	-10.8032
▁semi	-10.8032
▁enviado	-10.8033
▁duros	-10.8035
▁socios	-10.8045
▁deriva	-10.8046
▁Jackson	-10.8047
▁raramente	-10.8048
▁hembras	-10.8049
▁productores	-10.805
▁Ministerio	-10.8054
▁Ba	-10.8056
▁ciclos	-10.8057
▁1000	-10.8057
▁pulmón	-10.8059
▁involucran	-10.806
▁rostro	-10.8073
▁corre	-10.8075
sal	-10.8075
▁habitaciones	-10.8077
▁imaginación	-10.8079
▁desierto	-10.808
▁avanzados	-10.8081
▁ejecutivo	-10.8088
▁Dan	-10.8093
pero	-10.8098
▁enzimas	-10.8102
▁ecosistemas	-10.8102
▁desconocido	-10.8104
▁cura	-10.8108
▁religiosos	-10.8111
▁Pablo	-10.8112
▁pago	-10.8118
%	-10.8118
▁Frank	-10.812
▁modificaciones	-10.8123
▁Recientemente	-10.8125
jan	-10.8127
▁diccionario	-10.8131
▁explosión	-10.8135
▁colon	-10.8137
▁ahorrar	-10.8137
000	-10.814
▁tormentas	-10.8141
▁abandonar	-10.8142
iz	-10.8145
▁vea	-10.8151
ive	-10.8151
▁contribuyen	-10.8152
▁incluyeron	-10.8156
▁abogado	-10.8158
▁ruptura	-10.8158
pur	-10.8159
ey	-10.8163
▁dominante	-10.8166
▁tropicales	-10.8169
▁riñones	-10.8169
▁doce	-10.8174
[	-10.8175
▁razonable	-10.8175
▁listos	-10.8178
▁Toda	-10.818
▁correspondiente	-10.8182
más	-10.8182
▁emisión	-10.819
▁habría	-10.8192
▁Sub	-10.8199
▁agregado	-10.8199
▁construye	-10.8202
▁2012.	-10.8206
▁vacunación	-10.8207
▁contenidos	-10.8207
▁20%	-10.8209
▁platos	-10.8209
6.	-10.821
▁Ta	-10.821
2)	-10.8212
▁Británica	-10.8214
▁Sha	-10.8214
▁señalar	-10.8215
▁perfectamente	-10.8218
▁caen	-10.8218
▁bibliotecas	-10.8222
▁aéreo	-10.8226
▁valiosos	-10.8226
▁Ingeniería	-10.8235
▁Obtenga	-10.8237
▁racial	-10.8237
▁moda	-10.8238
▁velocidades	-10.8241
▁desarrolladores	-10.8241
▁matemática	-10.8248
▁planear	-10.8248
▁Mc	-10.825
▁pinturas	-10.8252
▁org	-10.8254
▁Padre	-10.826
▁Col	-10.8264
▁Espacial	-10.8265
▁limpio	-10.8266
▁mejoras	-10.8268
▁Encontrar	-10.8268
▁cuadrados	-10.8269
▁erosión	-10.827
▁rural	-10.8272
▁it	-10.8275
don	-10.8278
▁severo	-10.8279
▁sucedió	-10.8279
▁Tan	-10.828
▁minería	-10.8286
▁candidatos	-10.8287
ted	-10.8288
▁White	-10.8298
▁Resumen	-10.83
▁fresco	-10.8301
▁fútbol	-10.8302
70	-10.8305
▁audición	-10.8306
way	-10.8306
▁peligrosa	-10.8308
▁mineral	-10.831
▁ajuste	-10.8319
▁44	-10.8326
▁MS	-10.8329
▁lanzar	-10.8335
▁State	-10.8335
▁aparecer	-10.8336
▁propietario	-10.8336
▁aproacho	-10.8339
▁desarrollados	-10.8342
▁entero	-10.8342
▁pudieran	-10.8344
▁requerir	-10.8345
▁du	-10.8348
▁celebra	-10.8349
▁satélite	-10.835
▁Valle	-10.8351
▁privacidad	-10.8351
▁Tra	-10.8357
▁antioxidantes	-10.8358
▁diarrea	-10.8361
▁Wilson	-10.8362
▁libera	-10.8365
▁nacidos	-10.8366
▁tiroides	-10.8371
▁silvestre	-10.8373
▁deportes	-10.8377
▁ubicaciones	-10.8378
▁misiones	-10.838
▁expedición	-10.8381
▁actitud	-10.8382
itis	-10.8386
▁regionales	-10.8388
▁come	-10.8388
▁bicicleta	-10.8391
▁Países	-10.8395
bio	-10.8399
▁cánceres	-10.8399
ung	-10.84
▁demencia	-10.8401
▁océanos	-10.8405
Cuál	-10.8405
▁divide	-10.8412
▁3,	-10.8413
▁audiencia	-10.8414
ide	-10.8417
▁puntuación	-10.8419
▁sufrimiento	-10.8421
▁extinción	-10.8421
▁rosa	-10.8426
▁fiscales	-10.8426
▁obtienen	-10.8429
▁agujero	-10.8433
▁meditación	-10.8435
▁As	-10.8435
tón	-10.844
▁nervios	-10.844
▁Scott	-10.8443
▁bandas	-10.8446
▁Jr	-10.8447
▁afectado	-10.845
▁accesible	-10.8452
▁numerosos	-10.8455
▁2010.	-10.8457
nia	-10.8464
▁silvestres	-10.8469
▁Sistemas	-10.8471
▁acumulación	-10.8474
zos	-10.8474
▁extraña	-10.8477
ru	-10.8477
▁secreto	-10.8479
▁publicidad	-10.8479
▁china	-10.8479
▁Golfo	-10.848
▁apertura	-10.8481
▁únicamente	-10.8483
té	-10.8484
▁venga	-10.8484
▁Bajo	-10.8486
bar	-10.8486
▁récord	-10.8493
▁corporales	-10.8494
▁cae	-10.8501
aron	-10.8505
▁Mujeres	-10.8505
ye	-10.8507
▁promesa	-10.8508
▁judías	-10.8509
▁hablan	-10.851
▁involucrar	-10.8511
▁privados	-10.8512
▁Bu	-10.8512
izó	-10.8512
tt	-10.8513
mann	-10.8514
▁lados	-10.8515
Me	-10.8516
mm	-10.8519
▁tamaños	-10.8521
▁2011.	-10.8522
ii	-10.8526
▁intentó	-10.8528
▁kit	-10.8535
▁Victoria	-10.8536
op	-10.854
▁ra	-10.8541
▁sacar	-10.8542
▁cuidadosamente	-10.8545
▁incorporar	-10.8548
▁cubierto	-10.8548
▁incluyó	-10.8549
US	-10.8553
ella	-10.8553
▁flexibilidad	-10.8556
Puede	-10.8556
▁lineal	-10.8556
▁rutina	-10.8556
▁corregir	-10.8562
▁dependen	-10.8564
Mi	-10.8564
▁aprobó	-10.8565
dia	-10.8569
▁ayudarlos	-10.8571
▁Islam	-10.8572
28	-10.8573
▁ninguno	-10.8573
▁r	-10.8575
▁efectivas	-10.858
SA	-10.8584
▁serio	-10.8586
▁historiadores	-10.8587
▁Hu	-10.8588
ong	-10.8589
▁arma	-10.8591
my	-10.8595
▁Ke	-10.8595
▁cerdo	-10.8596
▁parto	-10.8596
▁visitas	-10.8597
▁invasión	-10.8598
▁procesar	-10.8601
▁lanzó	-10.8606
▁roto	-10.8612
▁US	-10.8612
▁madres	-10.8613
▁ballenas	-10.8615
▁eficientes	-10.8618
▁vías	-10.8619
▁comunicarse	-10.862
▁diarios	-10.8623
▁Conservación	-10.8624
▁receptor	-10.8624
▁hechas	-10.8625
▁treinta	-10.8626
▁Ángeles	-10.8628
▁somos	-10.8629
▁discute	-10.8633
▁at	-10.8635
▁eruditos	-10.8638
24	-10.8639
▁We	-10.864
▁parcial	-10.8642
▁robots	-10.8646
▁vuelvan	-10.8647
▁atacar	-10.865
tz	-10.8657
▁satisfacer	-10.8657
▁marinas	-10.8659
▁orientación	-10.8663
▁fundador	-10.8666
ndice	-10.8667
▁indígena	-10.8669
21	-10.8672
▁rotación	-10.8673
▁Gar	-10.8678
mon	-10.868
▁ro	-10.868
▁parcialmente	-10.8681
ena	-10.8683
del	-10.8685
▁Res	-10.8686
▁UN	-10.8687
▁Pe	-10.8689
rd	-10.8691
▁barra	-10.8691
low	-10.8694
▁emergencias	-10.8696
▁materna	-10.8699
▁preocupa	-10.87
▁ligero	-10.8701
▁alimentan	-10.8702
ID	-10.8703
▁venir	-10.8703
▁cuya	-10.8705
▁esperamos	-10.8705
▁selecciona	-10.8707
▁triste	-10.8707
36	-10.8708
32	-10.8713
ab	-10.8713
▁Convención	-10.8715
▁cuestiones	-10.8716
▁oscuridad	-10.8719
▁Segundo	-10.872
▁teniendo	-10.8722
▁garantía	-10.8722
▁guerras	-10.8724
▁combustión	-10.873
▁papas	-10.873
▁emperador	-10.8734
▁reducen	-10.8737
▁escribiendo	-10.8739
▁externos	-10.8742
til	-10.8745
▁seguras	-10.8745
▁juez	-10.875
▁subterránea	-10.875
▁martes	-10.8752
▁impresionante	-10.8753
▁pila	-10.8757
▁nueces	-10.8757
▁revistas	-10.8758
▁39	-10.8762
▁representantes	-10.8762
▁anillo	-10.8764
▁lavado	-10.8765
▁alguno	-10.8766
▁metabolismo	-10.8768
▁Hitler	-10.8768
▁Cáncer	-10.877
▁tolerancia	-10.8773
▁educativa	-10.8778
▁Respuesta	-10.8779
▁depósitos	-10.8782
▁completado	-10.8782
ring	-10.8784
▁práctico	-10.8787
▁sé	-10.8787
▁ecuación	-10.8788
▁Mayo	-10.8788
▁Biología	-10.8788
▁dedicado	-10.879
▁Profesor	-10.8793
▁diseñadas	-10.8794
▁sale	-10.8799
▁mascota	-10.88
▁glándula	-10.8802
▁inyección	-10.8803
▁europea	-10.8807
▁transacciones	-10.8808
▁inicialmente	-10.8808
▁Premio	-10.8811
ente	-10.8812
▁epidemia	-10.8816
▁2013.	-10.8819
▁grano	-10.8822
▁querían	-10.8825
▁FDA	-10.8826
Pero	-10.8827
▁ola	-10.8831
▁diálogo	-10.8836
▁pidió	-10.8839
▁orilla	-10.884
▁tóxicos	-10.8844
▁internos	-10.8845
▁demandas	-10.8846
▁carreras	-10.8847
▁leve	-10.8848
▁Men	-10.8849
▁lucro	-10.8851
▁ricas	-10.8855
▁iniciales	-10.8856
▁XVI	-10.8862
▁dibujos	-10.8863
MS	-10.8863
▁fotos	-10.8868
▁bancos	-10.8876
▁Wi	-10.8877
▁juguetes	-10.8878
▁junta	-10.8878
▁cap	-10.8878
▁11.	-10.888
▁Diseño	-10.888
▁caído	-10.8881
▁defectos	-10.8883
▁consecuencia	-10.8886
▁quedar	-10.8889
75	-10.889
▁(3	-10.889
▁huecos	-10.8897
▁modificación	-10.89
▁emocionales	-10.8901
▁car	-10.8904
▁curar	-10.8904
▁reflejan	-10.8913
▁roles	-10.8914
▁abundancia	-10.8914
▁víctima	-10.8914
▁reputación	-10.8916
▁enemigos	-10.8923
▁Minnesota	-10.8923
▁cargas	-10.8923
▁raros	-10.8926
▁ferrocarril	-10.8927
▁higiene	-10.8935
▁académica	-10.8937
▁estimaciones	-10.8939
izados	-10.8941
▁sagrado	-10.8946
▁adolescente	-10.8948
▁oficialmente	-10.8951
▁eléctricas	-10.8952
▁Soviética	-10.8953
lan	-10.8956
▁CDC	-10.8956
▁preparado	-10.8959
▁VI	-10.8962
tis	-10.8962
▁contribuye	-10.8963
▁geo	-10.8965
▁CA	-10.8969
▁profesión	-10.897
▁herida	-10.897
▁algoritmo	-10.8972
ible	-10.8973
▁siguió	-10.8973
▁Ja	-10.898
día	-10.8983
▁viejos	-10.8983
▁sustancia	-10.8984
▁correctas	-10.8985
▁caluroso	-10.8985
▁test	-10.8986
▁Big	-10.899
▁Datos	-10.8991
▁aliados	-10.8993
▁encuestas	-10.8994
▁argumentos	-10.8999
ig	-10.9008
▁utilizaba	-10.9009
▁construida	-10.9011
▁ma	-10.9012
▁preguntando	-10.9012
▁columnas	-10.9013
▁pe	-10.9013
▁protege	-10.9014
ña	-10.9019
▁algoritmos	-10.9021
27	-10.9021
▁ocupación	-10.9023
bra	-10.9024
Su	-10.9024
▁Preguntas	-10.9025
▁separados	-10.9027
▁mosquitos	-10.9027
▁supone	-10.9028
▁positivas	-10.903
dar	-10.9031
▁crimen	-10.9033
▁externa	-10.9036
▁físicamente	-10.904
▁sentidos	-10.9044
▁mirada	-10.9044
ation	-10.9044
▁Ge	-10.9049
▁futura	-10.9053
mis	-10.9054
▁Pregunta	-10.9055
▁alcanza	-10.9056
▁oferta	-10.9057
▁japoneses	-10.9057
▁navegar	-10.9058
ies	-10.9062
ini	-10.9064
▁oculta	-10.9068
▁2010,	-10.9069
▁pozos	-10.907
▁argumento	-10.9072
▁Ed	-10.9072
▁Mu	-10.9072
ski	-10.9074
▁Actualmente	-10.908
0.	-10.9087
▁procedencia	-10.9091
▁Alexander	-10.9093
▁exámenes	-10.9096
jas	-10.9097
▁declaraciones	-10.9103
ines	-10.9104
mit	-10.9104
▁estadística	-10.9104
▁compartido	-10.9112
▁dentista	-10.9112
cy	-10.9113
40	-10.9116
ato	-10.9117
▁exacta	-10.9119
▁famosos	-10.9122
▁disminuye	-10.9129
▁Maryland	-10.9129
▁orgánico	-10.9131
▁XVII	-10.9132
▁financieras	-10.9132
▁modernas	-10.9133
▁retirada	-10.9133
dora	-10.9134
▁dividir	-10.9135
ona	-10.9135
▁usos	-10.9135
▁sectores	-10.9136
mu	-10.9142
▁recomiendan	-10.9143
▁antepasados	-10.9146
▁espectacular	-10.9149
▁determinación	-10.9152
ell	-10.9155
▁sede	-10.9156
▁cardíaco	-10.9157
▁desempeñan	-10.916
▁peligrosas	-10.916
sk	-10.916
▁Va	-10.9161
▁My	-10.9164
amente	-10.9166
▁premios	-10.9167
01	-10.9167
▁comenzando	-10.9168
▁House	-10.9169
cus	-10.9169
Estás	-10.9169
▁Ejemplos	-10.9174
▁hacían	-10.9176
Una	-10.9177
▁cerámica	-10.9179
▁Pedro	-10.9181
▁campus	-10.9182
▁soya	-10.9184
▁inmunológica	-10.9187
▁Elizabeth	-10.9189
▁volar	-10.919
▁dieron	-10.9194
▁doméstica	-10.9203
ianos	-10.9206
▁falsa	-10.9208
eg	-10.9209
▁2014.	-10.921
▁avanzadas	-10.9211
▁respondió	-10.9212
▁acondicionado	-10.9213
▁Research	-10.9213
▁regalos	-10.9216
mal	-10.9218
▁Company	-10.9218
▁avance	-10.9223
▁prisioneros	-10.9224
▁propuestas	-10.9226
▁sugerir	-10.9227
26	-10.9231
let	-10.9231
▁cansancio	-10.9236
▁embarazadas	-10.9242
▁mando	-10.9244
▁femenina	-10.9252
▁significar	-10.9253
▁acelerar	-10.9257
▁maestra	-10.9258
cher	-10.9261
▁genéticos	-10.9265
▁marino	-10.9266
▁operativo	-10.9269
▁interpretar	-10.927
gi	-10.927
▁bordes	-10.927
uri	-10.9281
▁Jones	-10.9281
icas	-10.9281
▁Consulte	-10.9284
▁crees	-10.9287
7.	-10.9288
▁sala	-10.9288
▁extrema	-10.9292
▁ayudando	-10.9298
▁ruso	-10.9299
▁terremoto	-10.9299
▁pino	-10.9302
▁Samuel	-10.9306
▁Papa	-10.9317
▁Lord	-10.9323
▁cruz	-10.9325
▁invención	-10.9328
▁ju	-10.9328
▁prevalencia	-10.9329
▁enfermos	-10.9329
▁Dar	-10.933
▁conclusiones	-10.9334
▁completos	-10.9336
▁sensor	-10.9337
▁2012,	-10.9337
▁43	-10.9339
▁seguirá	-10.934
▁hermana	-10.9343
▁previos	-10.9344
▁Batalla	-10.9347
▁cambian	-10.9347
▁reinado	-10.9348
▁turismo	-10.935
▁1990	-10.9351
▁Sch	-10.9351
▁dejando	-10.9361
▁harina	-10.9362
▁magnético	-10.9363
▁cuentos	-10.9363
▁pierde	-10.9365
▁determinada	-10.9369
▁tiro	-10.937
▁manteniendo	-10.9372
▁significan	-10.9372
▁cortado	-10.9373
▁probado	-10.9373
inos	-10.9373
▁convierten	-10.9374
ás	-10.9375
▁navegador	-10.9376
▁plantación	-10.9378
Ha	-10.9379
▁clínico	-10.9382
▁introdujo	-10.9388
▁incorrecta	-10.939
▁Mal	-10.9391
▁presentado	-10.9395
▁sábado	-10.9395
▁Python	-10.9399
▁viva	-10.9399
tre	-10.9403
▁defender	-10.9408
▁tristeza	-10.9409
9.	-10.941
▁sugerencias	-10.9411
▁regreso	-10.9412
▁adopción	-10.9422
ario	-10.9425
▁trabajador	-10.943
▁aceites	-10.943
▁gasolina	-10.9431
ik	-10.9435
▁aceptable	-10.9435
▁ingeniero	-10.9437
▁guiar	-10.9441
cio	-10.9443
▁Política	-10.9446
▁Informe	-10.9447
▁exposiciones	-10.9449
▁Andrew	-10.9455
ep	-10.9458
▁120	-10.9459
▁ilustraciones	-10.946
val	-10.9462
▁queso	-10.9462
▁terrestre	-10.9464
▁combinar	-10.9467
▁lanza	-10.9468
▁tumba	-10.9474
enza	-10.9476
▁Pascua	-10.9477
▁observa	-10.9478
▁cerrado	-10.9479
▁identifica	-10.9481
iano	-10.9481
▁traducir	-10.9485
rias	-10.949
▁Volumen	-10.9492
▁convencional	-10.9492
▁Star	-10.9495
▁ta	-10.9497
▁RNA	-10.9499
ns	-10.9499
▁South	-10.95
▁quinto	-10.9501
▁integridad	-10.9508
▁afectada	-10.9509
▁Luis	-10.9514
▁malas	-10.9515
▁tempranas	-10.9516
▁dinámica	-10.9516
▁restantes	-10.9517
▁2004	-10.9518
▁cerveza	-10.9522
ejemplo	-10.9522
▁conectado	-10.9525
ani	-10.9525
▁aterrizaje	-10.9525
▁lateral	-10.9526
▁aumentada	-10.9527
▁100%	-10.9529
▁severos	-10.953
▁Podemos	-10.9532
▁genéticas	-10.9534
▁Jersey	-10.9536
▁tortugas	-10.9536
▁predadores	-10.9537
▁cu	-10.9538
▁Código	-10.9538
▁obligados	-10.9539
▁fabricante	-10.954
▁educativas	-10.9542
▁Long	-10.9544
▁síntoma	-10.9546
▁Ana	-10.9547
▁excepción	-10.9553
▁Turquía	-10.9554
▁zapatillas	-10.9555
▁retorno	-10.9558
▁trabajado	-10.9563
▁genéticamente	-10.9566
▁acres	-10.9567
▁PA	-10.9569
▁2015.	-10.9572
▁41	-10.9574
▁llenos	-10.9574
/>	-10.9577
Ma	-10.9577
▁dato	-10.9585
38	-10.9585
▁podríamos	-10.9588
iana	-10.9593
▁definiciones	-10.9596
80	-10.9596
▁formó	-10.9598
nu	-10.96
▁canadiense	-10.9602
▁demasiada	-10.9606
▁sueños	-10.9607
▁sostenibles	-10.961
▁Lewis	-10.961
▁fundada	-10.9613
▁silla	-10.9616
▁4,	-10.9617
▁Tiempo	-10.9619
▁Polonia	-10.9619
▁bits	-10.9621
▁Wisconsin	-10.9628
▁ovejas	-10.9629
▁data	-10.9629
▁filas	-10.9633
PS	-10.9634
▁mutaciones	-10.9636
▁UV	-10.9637
▁tardío	-10.9637
▁veterinario	-10.9638
▁dispuestos	-10.9639
▁construyeron	-10.9644
▁ecosistema	-10.9646
▁$1	-10.965
ST	-10.9652
▁explora	-10.9652
▁articulaciones	-10.9653
▁Hawái	-10.9653
▁favorito	-10.9668
▁Eso	-10.9669
▁escuchado	-10.9669
▁obstáculos	-10.967
▁(3)	-10.9671
▁costoso	-10.9678
▁alivio	-10.968
▁minas	-10.9683
▁toque	-10.9684
▁históricas	-10.9688
▁ayudarán	-10.9691
▁cuerda	-10.9698
▁residencia	-10.9702
▁plana	-10.9703
▁tronco	-10.9704
▁poema	-10.9704
▁pasajes	-10.9705
▁energética	-10.9706
▁Evaluación	-10.971
▁controles	-10.9711
▁Fuerza	-10.9712
▁magnética	-10.9713
▁galaxias	-10.9717
▁Davis	-10.972
▁asumir	-10.9721
▁limitaciones	-10.9723
▁serpientes	-10.9724
▁desarrollarse	-10.9725
▁terapias	-10.9727
▁exclusivamente	-10.9728
▁res	-10.9728
▁mundiales	-10.9729
zi	-10.973
5.	-10.9733
▁sienta	-10.9734
▁actúa	-10.974
▁reparación	-10.9741
▁cima	-10.9745
▁suelos	-10.9748
▁Creek	-10.9754
▁Che	-10.9756
▁desplazamiento	-10.9756
▁gramática	-10.976
▁desigualdad	-10.9761
▁Bor	-10.9762
▁ajustar	-10.9763
PA	-10.9765
▁Jefferson	-10.9769
▁centró	-10.977
▁colina	-10.9771
▁Gen	-10.9776
▁opera	-10.9776
▁fallas	-10.9789
▁reyes	-10.9789
ple	-10.9793
▁involucradas	-10.9793
▁tomates	-10.9799
stra	-10.9801
▁caídas	-10.9803
▁revelar	-10.9804
Pro	-10.9805
▁comiendo	-10.9806
%)	-10.9809
▁hueco	-10.9809
▁crímenes	-10.9813
▁Armada	-10.9814
▁3)	-10.9816
▁mina	-10.9816
▁magnesio	-10.9818
▁circuitos	-10.982
▁Bi	-10.982
ec	-10.9827
▁emoción	-10.9827
▁Val	-10.9827
▁respirar	-10.9828
▁artificiales	-10.9832
▁tribunales	-10.9832
Co	-10.9833
▁consideraba	-10.9833
▁Use	-10.9834
▁monitorizar	-10.9835
▁marketing	-10.9835
▁celebración	-10.9838
▁Natural	-10.9839
▁sucesivamente	-10.984
▁limitados	-10.9842
▁inmunidad	-10.9842
▁preciso	-10.9844
▁mascotas	-10.9844
▁especialista	-10.9845
▁cuyos	-10.9845
▁unen	-10.9846
85	-10.9847
▁Irán	-10.985
▁causados	-10.985
▁utilización	-10.9854
▁encontraban	-10.9856
▁pesada	-10.9859
▁asesinado	-10.986
▁actualización	-10.986
▁cor	-10.9861
ula	-10.9861
▁nutricionales	-10.9861
edu	-10.9869
▁voltaje	-10.9872
▁reflejar	-10.9875
▁Parece	-10.9877
▁tinta	-10.988
▁visibles	-10.9881
▁condados	-10.9885
▁laboratorios	-10.9886
▁conduce	-10.9888
▁pendiente	-10.9889
▁animación	-10.9891
▁2011,	-10.9892
▁1,000	-10.9894
▁contraseña	-10.9896
▁trae	-10.9902
▁cumplen	-10.9906
▁extraordinaria	-10.9906
▁paisajes	-10.9908
▁anfitrión	-10.9909
▁registrado	-10.9912
▁recién	-10.9913
▁escucha	-10.9915
▁Amazon	-10.9917
▁viaja	-10.9917
izadas	-10.9918
▁poeta	-10.9919
▁separar	-10.992
▁satélites	-10.9921
▁climática	-10.9921
IA	-10.9923
▁Rev	-10.9923
▁Imagen	-10.9923
▁recomendación	-10.9929
▁habló	-10.9931
48	-10.9932
▁%	-10.9935
▁Lista	-10.9936
▁pelota	-10.9938
▁Tribunal	-10.9938
▁electro	-10.9938
▁MA	-10.9939
8.	-10.9943
▁Bell	-10.9944
▁negativas	-10.9944
500	-10.9945
57	-10.9946
▁pasión	-10.995
▁fábrica	-10.9951
▁Gu	-10.9951
eta	-10.9954
▁nombrado	-10.9954
▁reservados	-10.9957
▁traza	-10.9958
▁secundario	-10.9964
▁Mor	-10.9968
▁postura	-10.997
▁inspiración	-10.9975
▁culto	-10.9983
inas	-10.9984
▁2003	-10.9985
▁permita	-10.999
▁candidato	-10.9994
▁Indonesia	-10.9995
▁negó	-10.9995
▁asesinados	-11.0001
▁Documento	-11.0002
▁Acción	-11.0007
▁Acto	-11.001
▁dirigir	-11.0015
▁entretenimiento	-11.0018
39	-11.0019
▁Med	-11.0022
▁criminal	-11.0024
▁pato	-11.0024
▁verbo	-11.0032
▁cuadrado	-11.0033
▁asociaciones	-11.0038
▁sp	-11.0039
22	-11.0039
▁recuerdos	-11.0039
▁reconocido	-11.0042
▁tercio	-11.0045
▁hu	-11.0046
▁Suecia	-11.005
▁Pat	-11.0052
var	-11.0053
▁clínicas	-11.0059
▁cuáles	-11.006
▁proporcionada	-11.0063
▁biodiversidad	-11.0066
▁escenas	-11.0066
▁w	-11.0067
▁ADHD	-11.0068
▁urbanas	-11.0069
▁relativa	-11.0069
▁gasto	-11.007
▁discos	-11.0073
▁tengas	-11.0074
▁Shi	-11.0075
▁inflación	-11.0078
▁mercurio	-11.008
▁totales	-11.008
▁certificación	-11.008
aw	-11.008
▁logró	-11.0085
▁esfera	-11.0086
▁maestría	-11.0087
▁Kansas	-11.009
▁Tratamiento	-11.0093
▁poderosa	-11.0093
▁baile	-11.0095
▁cálculos	-11.0099
▁64	-11.0104
▁volúmenes	-11.0108
▁ahorros	-11.011
▁enfoca	-11.0113
▁territorios	-11.0114
▁viviendas	-11.0115
▁estudiando	-11.012
▁metano	-11.0123
▁bronce	-11.0124
pas	-11.0125
cional	-11.013
▁talleres	-11.0132
▁razas	-11.0134
▁sólida	-11.0138
▁observó	-11.0139
▁revisa	-11.0139
tur	-11.0141
▁incidencia	-11.0145
▁débiles	-11.0145
▁genoma	-11.0146
▁expandir	-11.0146
▁zapatos	-11.0148
▁confirmar	-11.0152
▁afirmó	-11.0154
▁potasio	-11.0159
ró	-11.0162
29	-11.0164
▁Prueba	-11.0165
▁Mon	-11.017
▁increíbles	-11.0171
▁controla	-11.0172
▁entrenar	-11.0172
▁Espero	-11.0179
▁Secretario	-11.0184
▁tubería	-11.0186
▁pulso	-11.0186
▁PC	-11.0187
▁fa	-11.0187
▁domingo	-11.0188
▁iniciativas	-11.0189
▁desarrollos	-11.0192
▁malaria	-11.0199
▁4:	-11.0201
▁oídos	-11.0201
▁supuestamente	-11.0202
▁Costa	-11.0204
▁castigo	-11.0204
90	-11.021
▁secuencias	-11.021
bel	-11.021
▁Linux	-11.0214
▁cayó	-11.0215
▁Cal	-11.0216
▁Kennedy	-11.0217
▁silencio	-11.0217
▁ayudarnos	-11.0218
jar	-11.0219
▁perdió	-11.0222
od	-11.0222
bil	-11.0222
remos	-11.0226
▁luchando	-11.0228
less	-11.0228
▁exitosos	-11.0228
▁Haga	-11.0229
▁notablemente	-11.0231
ct	-11.0243
▁crónicas	-11.0243
▁experimental	-11.0246
▁Ku	-11.0249
idades	-11.0249
$	-11.0254
▁fruta	-11.0255
tina	-11.0255
▁oriental	-11.0256
Para	-11.0258
▁Antiguo	-11.0264
▁pa	-11.0265
sch	-11.0268
▁consultar	-11.0269
pul	-11.0271
▁ave	-11.0272
pan	-11.0273
99	-11.0273
▁humor	-11.0274
ther	-11.0275
▁leído	-11.0276
▁Jan	-11.0278
▁mu	-11.0279
▁hongo	-11.028
AC	-11.0281
▁claras	-11.0285
▁Sigue	-11.0285
▁continúa	-11.0286
▁disminuir	-11.0287
▁deseado	-11.0288
cor	-11.0288
▁Ontario	-11.0289
▁escalas	-11.029
▁despertar	-11.0291
▁énfasis	-11.0295
▁interactuar	-11.0297
▁atributos	-11.0297
▁autoestima	-11.0297
▁90%	-11.0299
▁amenazadas	-11.0304
▁selva	-11.0304
▁constitucional	-11.0308
▁ecología	-11.0308
▁conferencias	-11.0312
▁parientes	-11.0313
▁movilidad	-11.0314
▁registrar	-11.0317
ue	-11.0318
▁Esperamos	-11.0318
▁juega	-11.032
▁pertenece	-11.032
AR	-11.032
▁z	-11.0322
▁doctorado	-11.0323
bre	-11.0323
▁Sección	-11.033
▁gerente	-11.0333
▁propuesto	-11.0335
▁Orden	-11.0337
▁Bajos	-11.0338
▁2001	-11.0339
▁Síndrome	-11.0339
▁ordenó	-11.034
▁rescate	-11.0344
▁romana	-11.0344
▁prepararse	-11.0345
▁banca	-11.0346
▁dejado	-11.0348
▁ceremonia	-11.0351
▁servidores	-11.0354
▁abundante	-11.0355
▁danza	-11.0355
▁Jack	-11.0356
▁cubiertos	-11.0357
▁Escritura	-11.0358
▁tracto	-11.0358
▁proporcionados	-11.0358
▁2009.	-11.0358
▁consume	-11.0361
▁47	-11.0364
▁At	-11.0369
▁12.	-11.0369
▁incorrecto	-11.0371
▁consumidor	-11.0373
▁raras	-11.0375
47	-11.0375
▁nativo	-11.0375
▁46	-11.0376
▁Nombre	-11.0376
illo	-11.0379
▁historiador	-11.0379
▁osos	-11.0382
23	-11.0382
▁logra	-11.0383
▁sorpresa	-11.0384
▁serpiente	-11.0386
▁Artes	-11.0387
▁metodología	-11.0387
44	-11.0388
▁manzana	-11.0393
▁observado	-11.0394
iente	-11.0396
▁significaba	-11.0398
▁po	-11.0398
▁consumación	-11.04
▁botella	-11.04
▁establecimiento	-11.0406
▁monumento	-11.0408
▁Williams	-11.0409
▁$2	-11.0412
▁fluido	-11.0413
▁modos	-11.0413
▁dará	-11.0414
▁Cruz	-11.0414
▁Otras	-11.0415
arse	-11.0422
▁regresó	-11.0423
▁unieron	-11.0423
▁europeo	-11.0424
▁comandante	-11.0424
IP	-11.0425
▁Pruebas	-11.0426
▁Asamblea	-11.0428
▁Don	-11.0431
▁Proporciona	-11.0433
vas	-11.0433
3,	-11.0438
▁aguda	-11.0438
▁confiar	-11.0441
▁mudó	-11.0443
▁doméstico	-11.0444
▁puertos	-11.0444
▁dinastía	-11.0445
toria	-11.0447
▁Fondo	-11.0449
▁intentos	-11.0452
▁apareció	-11.0452
▁cristal	-11.0453
▁autobús	-11.0455
oma	-11.0457
▁go	-11.0457
▁separada	-11.0458
▁querido	-11.0459
▁promoción	-11.0463
ap	-11.0463
▁vivos	-11.0466
▁cría	-11.0467
sta	-11.0467
▁defecto	-11.047
▁hormona	-11.0477
▁ayudado	-11.048
▁literalmente	-11.0481
▁vacas	-11.0482
ov	-11.0482
sos	-11.0483
▁coordinación	-11.0486
if	-11.0487
ima	-11.0496
▁aérea	-11.0496
▁molécula	-11.0497
OR	-11.0505
▁cognitiva	-11.051
▁(17	-11.0513
▁Filipinas	-11.0513
▁extender	-11.0513
▁Reina	-11.0514
▁Tabla	-11.0519
▁sacerdote	-11.052
▁Rojo	-11.0523
▁redujo	-11.0527
▁River	-11.0534
▁mínima	-11.0535
▁capítulos	-11.0536
▁propagación	-11.0538
tive	-11.0543
▁mejorado	-11.0543
▁interno	-11.0547
▁descubrieron	-11.0547
▁reduciendo	-11.0548
▁Za	-11.055
▁Berlín	-11.0553
▁intentado	-11.0554
▁Stephen	-11.0555
cri	-11.0557
▁ocultar	-11.0558
▁dentales	-11.0565
▁corriendo	-11.0565
kh	-11.0568
▁International	-11.0569
▁Filadelfia	-11.057
▁plumas	-11.057
▁Autor	-11.0575
▁Ab	-11.0579
▁Institute	-11.0584
▁gastar	-11.0588
example	-11.0588
▁contactar	-11.059
▁galaxia	-11.0595
▁clásico	-11.0597
sion	-11.0599
▁realizada	-11.06
55	-11.0609
▁80%	-11.061
ding	-11.0612
▁Reserva	-11.0616
He	-11.0617
▁traje	-11.0618
▁Trans	-11.062
▁telescopio	-11.0625
▁constitución	-11.0626
▁fluye	-11.0627
▁Matemáticas	-11.0628
SC	-11.0631
▁argumentación	-11.0632
▁héroe	-11.0635
▁hayas	-11.0636
port	-11.0638
for	-11.0638
▁Franklin	-11.064
▁queda	-11.0641
▁Roosevelt	-11.0645
▁2009,	-11.0645
és	-11.0646
▁Tener	-11.0648
▁(5	-11.0648
▁Bur	-11.0648
▁intestinal	-11.0651
▁canadienses	-11.0652
▁49	-11.0652
▁violación	-11.0657
▁incapacidad	-11.066
▁concentrarse	-11.066
▁indicadores	-11.0661
▁desempeña	-11.0662
TM	-11.0662
▁Química	-11.0663
▁esencia	-11.0663
▁separadas	-11.0665
▁poca	-11.0666
▁Les	-11.0669
▁vestido	-11.0674
▁griegos	-11.0676
▁enteros	-11.0677
▁Ac	-11.0677
▁divertida	-11.0678
▁trauma	-11.0679
95	-11.068
▁recompensa	-11.0681
▁haces	-11.0684
▁250	-11.0685
▁acuerdos	-11.0686
▁Ártico	-11.0687
vin	-11.0688
▁uniforme	-11.0689
▁Juegos	-11.0691
▁gruesa	-11.0692
CA	-11.0692
▁sospecha	-11.0705
▁ba	-11.0711
▁necesites	-11.0714
65	-11.0718
▁Del	-11.0719
ivo	-11.0719
▁gigantes	-11.0719
▁extremas	-11.0721
▁600	-11.0724
▁frías	-11.0724
46	-11.0727
▁Ru	-11.0729
▁materias	-11.0729
ram	-11.073
▁escáner	-11.0733
▁iniciar	-11.0735
▁Deja	-11.0735
▁campamento	-11.0737
wan	-11.0741
▁renovables	-11.0742
▁codo	-11.0744
▁circular	-11.0746
▁hablado	-11.0749
▁representando	-11.0751
▁Vea	-11.0758
▁cementerio	-11.0759
▁caliza	-11.0763
▁Carlos	-11.0763
sia	-11.0764
▁advertencia	-11.0767
qua	-11.0768
▁Año	-11.0769
▁preservación	-11.0773
▁verlo	-11.0773
▁produciendo	-11.0773
▁estimular	-11.0774
▁modelado	-11.0777
▁aniversario	-11.078
▁pudieron	-11.0781
▁pimienta	-11.0788
▁José	-11.0788
▁adecuados	-11.0788
▁pin	-11.0789
▁cansado	-11.079
▁30%	-11.079
▁colonial	-11.0792
mento	-11.0795
▁anuncio	-11.0795
▁convencer	-11.0799
▁poderosos	-11.0802
▁esquina	-11.0804
▁aceptación	-11.0805
CI	-11.0806
▁actualizaciones	-11.0806
▁cuarenta	-11.0806
▁flexible	-11.0807
▁entran	-11.0807
Estoy	-11.0811
▁sacerdotes	-11.0811
▁socio	-11.0812
▁cuyas	-11.0813
▁peores	-11.0814
▁Véase	-11.0816
▁Irak	-11.0816
Mo	-11.0817
-10	-11.0817
▁aumentos	-11.0819
▁Monte	-11.0822
ata	-11.0824
▁filtros	-11.0828
98	-11.0835
▁sueldos	-11.084
▁estructural	-11.0843
▁sientes	-11.0846
▁imp	-11.0853
▁cristianismo	-11.0858
▁STEM	-11.0861
ow	-11.0862
▁plásticos	-11.0863
▁viral	-11.0866
▁pura	-11.0873
▁predicción	-11.0874
▁patrimonio	-11.0875
35	-11.0875
▁calificación	-11.088
▁suceder	-11.088
▁Ese	-11.0884
▁puntaje	-11.0885
▁educar	-11.0888
▁piensa	-11.0889
▁compensación	-11.0891
mes	-11.0896
rina	-11.0896
▁considerados	-11.0899
▁palma	-11.09
▁votantes	-11.0902
▁Ann	-11.0906
▁enfermo	-11.0909
▁tomadas	-11.091
▁Her	-11.0911
▁subyacente	-11.0911
▁bahía	-11.0917
54	-11.092
ate	-11.092
▁Austria	-11.0922
▁calificaciones	-11.0922
▁incidente	-11.0924
▁separa	-11.0924
▁entidad	-11.0928
▁párrafo	-11.0929
▁sólido	-11.0933
▁católica	-11.0933
▁simulación	-11.0934
▁terrestres	-11.0936
64	-11.0937
▁Water	-11.0943
▁podrías	-11.0946
▁Jim	-11.0946
42	-11.0947
▁potable	-11.0948
▁acto	-11.0948
▁Mrs	-11.0952
yer	-11.0952
▁resalta	-11.0952
▁incendios	-11.0954
ys	-11.0956
▁medias	-11.096
▁2016.	-11.0966
▁hipertensión	-11.0968
▁diagnosticar	-11.097
▁Super	-11.0973
▁cuidadores	-11.0973
dio	-11.0974
41	-11.0976
▁viejo	-11.0976
▁Problemas	-11.0976
▁compara	-11.0976
▁cercanas	-11.0977
▁horno	-11.0978
▁remoción	-11.098
lia	-11.098
▁pajeros	-11.0983
▁limita	-11.099
▁RE	-11.0991
▁nano	-11.0991
▁convencionales	-11.0992
lis	-11.0992
▁Taylor	-11.0993
▁activamente	-11.0994
▁textura	-11.0994
▁enfrentó	-11.0994
▁abarcan	-11.1001
33	-11.1006
▁tejado	-11.1007
▁Oregon	-11.101
▁levantamiento	-11.101
ieran	-11.1012
▁incertidumbre	-11.1015
▁crecido	-11.1017
▁muere	-11.1021
31	-11.1022
▁severas	-11.1024
▁planea	-11.1024
▁esperado	-11.1025
▁crema	-11.1026
▁up	-11.1026
▁voces	-11.103
▁pide	-11.1031
▁persecución	-11.1031
▁escenarios	-11.1032
▁asentamiento	-11.1035
▁climáticas	-11.1035
▁exhibición	-11.1037
ction	-11.1037
▁52	-11.1038
▁deseos	-11.104
▁tragedia	-11.1041
imiento	-11.1041
▁bloquear	-11.1042
▁crearon	-11.1043
▁ingesta	-11.1051
▁desempeñar	-11.1051
▁ido	-11.1051
▁Suprema	-11.1053
▁escombros	-11.1055
CC	-11.1056
▁brevemente	-11.1058
▁inclusión	-11.106
▁NO	-11.1061
▁protocolos	-11.1063
▁are	-11.1064
sión	-11.1067
▁conseguir	-11.1068
uro	-11.1069
gu	-11.107
▁térmica	-11.107
▁atraer	-11.1071
▁reseña	-11.1072
▁East	-11.1073
>.	-11.1073
▁refieren	-11.1074
▁eficaces	-11.1076
▁AP	-11.1076
▁Bre	-11.108
49	-11.1082
▁colinas	-11.1084
▁Fi	-11.1085
▁pi	-11.1086
▁2008,	-11.1089
▁dolorosa	-11.109
▁pot	-11.1092
▁PM	-11.1095
▁lobos	-11.1097
▁Claro	-11.1099
▁asignación	-11.1099
56	-11.1101
▁doctrina	-11.1102
0.000	-11.1102
ob	-11.1103
▁invitados	-11.1104
▁viajan	-11.1104
▁creada	-11.1107
86	-11.1107
-20	-11.1114
▁fenómenos	-11.1116
▁mediciones	-11.1116
▁beta	-11.1121
▁empleado	-11.1122
▁Apple	-11.1125
▁amarilla	-11.1126
▁racismo	-11.113
▁digestivo	-11.1132
▁preferencias	-11.1132
▁vaca	-11.1133
forma	-11.1134
02	-11.1135
▁War	-11.1135
▁fríos	-11.1136
▁consideración	-11.1142
▁manufactura	-11.1142
▁Crea	-11.1144
▁Alimentación	-11.1147
▁Visita	-11.1148
▁pasada	-11.115
Ver	-11.1151
▁cerebros	-11.1153
lle	-11.1154
▁(4	-11.1154
▁mortal	-11.1155
▁Palabras	-11.1157
▁matriz	-11.1158
▁títulos	-11.1163
eh	-11.1165
▁alimentaria	-11.1166
▁comunicar	-11.117
▁crónico	-11.1172
ium	-11.1176
▁fertilizantes	-11.1178
▁toxinas	-11.118
▁Humanos	-11.1182
▁geografía	-11.1182
▁acusado	-11.1183
▁recolección	-11.1184
▁ilustra	-11.1185
▁yoga	-11.1186
▁empleadores	-11.119
▁antig	-11.1192
▁“¿	-11.1195
▁cincuenta	-11.1195
▁regula	-11.1196
▁omega	-11.1198
▁Declaración	-11.1199
▁tanques	-11.1203
▁SIDA	-11.1203
▁lecturas	-11.1205
▁conocía	-11.1206
▁robot	-11.1207
ft	-11.1209
▁actos	-11.1209
▁retiro	-11.121
▁Ali	-11.1211
▁estrecha	-11.1214
▁extendió	-11.1216
red	-11.1218
itas	-11.122
▁High	-11.1223
esta	-11.1225
▁Wood	-11.1227
▁Ju	-11.1228
AL	-11.123
▁reparar	-11.1234
▁papa	-11.1237
▁800	-11.1237
▁supera	-11.1238
Le	-11.1239
▁encontré	-11.124
▁Ejemplo	-11.1244
▁hepatitis	-11.1244
▁Aprendizaje	-11.1244
▁sencillos	-11.1244
▁pasaría	-11.1245
▁Jane	-11.1245
▁tomada	-11.1245
▁produjeron	-11.1246
▁estuvieron	-11.1246
▁ajustes	-11.1247
▁influir	-11.1248
▁externo	-11.1252
out	-11.1252
▁tardía	-11.1255
▁creció	-11.1264
▁pulgada	-11.1265
()	-11.1267
sha	-11.1269
▁óptica	-11.1269
doras	-11.1273
▁enfriamiento	-11.1273
▁pensando	-11.1275
▁acepta	-11.1275
▁Tenía	-11.1278
▁Entender	-11.1279
▁patógenos	-11.1281
▁lenta	-11.1281
▁latín	-11.1282
▁2021	-11.1282
EC	-11.1283
▁prohibición	-11.1283
▁tuberías	-11.1286
off	-11.1291
▁extraños	-11.1292
▁oscuros	-11.1293
int	-11.1293
▁pelos	-11.1303
▁cazadores	-11.1305
▁2008.	-11.1307
▁hombros	-11.1308
▁tratan	-11.1312
52	-11.1315
▁intensa	-11.1316
▁supervisión	-11.1318
▁cena	-11.1319
▁Creo	-11.1319
▁Jacob	-11.132
▁Utah	-11.1324
gnificativamente	-11.1324
▁zinc	-11.1325
▁Trump	-11.1328
▁levanta	-11.1331
▁Yo	-11.1331
▁probabilidades	-11.1331
▁presentaciones	-11.1333
▁eficazmente	-11.1333
▁brotes	-11.1335
▁minuto	-11.1336
▁anillos	-11.1338
tions	-11.134
▁oliva	-11.1341
▁descubrimientos	-11.1343
43	-11.1343
▁afroamericanos	-11.1344
sky	-11.1347
▁frontal	-11.1351
ms	-11.1354
▁amante	-11.1354
▁presas	-11.1355
▁administrar	-11.1359
▁citas	-11.1362
ístico	-11.1363
TA	-11.1364
rum	-11.1368
▁divina	-11.1372
▁sugerido	-11.1379
▁operadores	-11.1382
▁corazones	-11.1384
▁HTML	-11.1386
▁tropical	-11.1389
▁necesitaban	-11.1392
▁40%	-11.1393
▁infectados	-11.1394
▁1995	-11.1398
▁centran	-11.1399
ance	-11.1404
▁2013,	-11.1405
▁May	-11.1406
▁típico	-11.1408
▁2002	-11.1411
ip	-11.1415
▁fertilidad	-11.1415
tir	-11.1415
▁contratos	-11.1415
Quieres	-11.1423
king	-11.1423
▁transportar	-11.1424
34	-11.1424
▁usan	-11.1427
▁extienden	-11.1431
▁mamá	-11.1432
▁quedó	-11.1435
▁olvidar	-11.1435
▁labios	-11.1436
▁narrativa	-11.1445
▁jueces	-11.1447
▁solicitar	-11.145
▁Indiana	-11.1452
▁inmigración	-11.1452
▁Ram	-11.1453
▁Corán	-11.1455
▁mantenido	-11.1457
▁Clark	-11.1463
itos	-11.1463
▁resultando	-11.1464
▁cocinar	-11.1464
▁turistas	-11.1465
Ba	-11.1466
ves	-11.1468
▁húmedo	-11.1469
▁creemos	-11.1475
▁naranja	-11.1475
▁influyen	-11.148
▁Bra	-11.1482
▁Mont	-11.1484
▁grabación	-11.1487
▁5%	-11.1488
▁transformar	-11.1494
▁Puerto	-11.1497
▁Ministro	-11.1497
▁hilos	-11.1498
▁Tienes	-11.1499
▁funcionales	-11.1501
ela	-11.1503
▁LED	-11.1505
▁resistir	-11.1506
▁Lea	-11.1511
").	-11.1511
ides	-11.1516
▁dedos	-11.1518
▁correctos	-11.1518
▁2015,	-11.1519
▁Ga	-11.152
▁recibiendo	-11.1521
▁cuadro	-11.1521
▁extranjeras	-11.1522
▁Liga	-11.1523
▁útero	-11.1524
▁enormes	-11.1524
este	-11.1528
▁gusto	-11.1531
▁Kar	-11.1537
▁1980	-11.1537
IT	-11.1537
▁hormigas	-11.1537
▁entró	-11.154
▁secundarias	-11.1541
▁óptima	-11.1545
▁diseñadores	-11.1547
▁Pensa	-11.1548
▁actitudes	-11.1549
▁Cuba	-11.1549
▁nitrógeno	-11.1553
torio	-11.1555
▁suena	-11.1558
▁completas	-11.156
▁espectáculo	-11.1562
▁epi	-11.1562
▁orgullo	-11.1564
▁Ban	-11.1575
▁religiones	-11.1575
dura	-11.1576
▁Usar	-11.1576
▁extranjera	-11.1577
▁invertir	-11.1577
shi	-11.158
SI	-11.1585
▁últimamente	-11.1587
▁libremente	-11.1589
▁variantes	-11.159
▁atribuye	-11.1591
like	-11.1593
▁Esa	-11.1594
▁fiestas	-11.1596
▁sostiene	-11.1596
▁lunes	-11.1598
96	-11.16
representaciones	-11.1601
▁goma	-11.1602
▁digestión	-11.1602
▁absorber	-11.1602
har	-11.1604
TE	-11.1606
▁vas	-11.1607
▁descrito	-11.1611
ería	-11.1612
▁desconocida	-11.1613
▁plato	-11.1617
▁Bush	-11.1619
▁prácticos	-11.162
▁claros	-11.1622
char	-11.1622
▁religioso	-11.1622
▁requerido	-11.1623
SS	-11.1624
▁horizontal	-11.1624
▁pausa	-11.1624
▁coches	-11.1627
▁Mes	-11.1627
gra	-11.1629
▁psicológica	-11.1631
07	-11.1633
▁alergía	-11.1633
▁predicciones	-11.1634
▁Far	-11.1638
▁Alabama	-11.1638
▁cañón	-11.1638
SP	-11.1639
end	-11.164
▁sano	-11.164
bit	-11.1642
Fi	-11.1643
▁sellos	-11.1651
▁utilizará	-11.1655
ben	-11.1655
▁documentación	-11.1657
▁encontradas	-11.1657
uma	-11.1658
▁sabores	-11.166
▁Justicia	-11.1662
▁asesoramiento	-11.1664
▁flu	-11.1664
▁primarias	-11.1665
fri	-11.1665
▁not	-11.1666
▁Definición	-11.1666
▁Tratado	-11.1667
▁lunar	-11.1668
▁mantequilla	-11.1669
▁Espera	-11.167
▁adaptar	-11.1673
oides	-11.1674
▁transmite	-11.1674
▁AL	-11.1675
SE	-11.1676
▁deberá	-11.1677
ua	-11.1678
▁embarazada	-11.1683
▁caracteriza	-11.1683
▁pozo	-11.1685
▁parásitos	-11.1686
▁Miller	-11.169
all	-11.1693
▁establecidos	-11.1695
▁rebelión	-11.1695
▁Road	-11.1696
▁salmón	-11.1697
pt	-11.1697
▁asegúrate	-11.1698
ene	-11.1699
▁funcione	-11.17
▁sufrió	-11.1701
AP	-11.1702
nar	-11.1703
▁ocurrió	-11.1704
▁Bitcoin	-11.1704
▁actualidad	-11.1704
▁51	-11.1705
▁impiden	-11.1705
200	-11.1707
▁eco	-11.1711
▁biológico	-11.1711
▁experimentando	-11.1714
▁opuesto	-11.1715
▁musicales	-11.1717
▁desventajas	-11.1718
▁ocular	-11.1719
▁hidro	-11.1719
▁tome	-11.172
▁entienden	-11.1721
▁CON	-11.1722
▁Prof	-11.1723
▁adoptado	-11.1723
gel	-11.1724
wi	-11.173
▁oscuras	-11.173
▁incidentes	-11.1731
AT	-11.1734
▁5:	-11.1736
vis	-11.1738
▁lava	-11.1738
▁Defensa	-11.1742
Ra	-11.1746
IC	-11.1752
tch	-11.1754
▁Allí	-11.1756
uno	-11.1757
▁creativa	-11.1758
ema	-11.1759
▁ingleses	-11.1763
▁BBC	-11.1764
▁aprobado	-11.1767
▁envío	-11.1768
▁metro	-11.177
▁competición	-11.1771
▁especialistas	-11.1772
▁causadas	-11.1775
▁Página	-11.1775
▁Ken	-11.1776
▁previas	-11.1776
▁Sta	-11.1778
▁larvas	-11.178
▁eleva	-11.1784
▁perforación	-11.1784
▁pos	-11.1785
▁ortografía	-11.1786
▁hábito	-11.1786
▁Cap	-11.1788
arios	-11.1792
▁desarrollada	-11.1794
▁Er	-11.1794
▁cubren	-11.1795
▁propósitos	-11.1797
▁Wall	-11.1797
63	-11.1802
▁marcado	-11.1802
ise	-11.1803
▁ganador	-11.1806
troalimentación	-11.1806
▁Maria	-11.1807
▁contactos	-11.1807
ight	-11.181
▁entrevistas	-11.1813
▁páncreas	-11.1816
▁25%	-11.1819
▁Sri	-11.1822
▁siguiendo	-11.1823
▁encuentras	-11.1824
▁dependiente	-11.1824
▁incluidos	-11.1824
▁registra	-11.1828
▁votar	-11.1834
▁seda	-11.1839
▁gratuitos	-11.1839
▁Ri	-11.184
▁experimenta	-11.1841
▁fortaleza	-11.1843
▁ponen	-11.1845
▁pensamos	-11.1847
▁2007.	-11.185
▁pecados	-11.185
▁consideró	-11.1851
87	-11.1854
▁musculares	-11.1855
▁ubicada	-11.1857
▁solicitudes	-11.1858
04	-11.186
▁poemas	-11.1861
▁Noticias	-11.1863
▁54	-11.1863
▁rehabilitación	-11.1865
▁lujo	-11.1867
▁terrible	-11.1867
▁cintura	-11.1868
▁enseñan	-11.187
▁2007,	-11.1871
siderablemente	-11.1871
iv	-11.1875
▁cristiano	-11.1875
1)	-11.1876
▁astrónomos	-11.1876
▁estatua	-11.1879
03	-11.188
▁Siria	-11.188
▁Mayor	-11.1881
▁heridos	-11.1882
▁vivía	-11.1884
▁IN	-11.1886
▁72	-11.1888
▁fi	-11.1888
ee	-11.189
▁vecino	-11.1891
▁Pu	-11.1893
▁trono	-11.1894
▁Ger	-11.1897
ai	-11.1898
▁"¡	-11.1898
Tienes	-11.1902
▁fábricas	-11.1903
▁monitor	-11.1903
▁brecha	-11.1904
▁dispuesto	-11.1905
▁debilidad	-11.1909
▁dietas	-11.1909
▁créditos	-11.191
▁Hong	-11.191
▁cebolla	-11.1912
inter	-11.1912
▁AM	-11.1912
▁espada	-11.192
pu	-11.192
▁sanguínea	-11.192
▁praderas	-11.1922
▁Aérea	-11.1926
▁plasma	-11.1927
▁you	-11.1929
▁corrupción	-11.1932
▁95	-11.1933
gui	-11.1936
yn	-11.1936
▁definido	-11.1938
▁Sun	-11.1943
▁vivió	-11.1944
▁contenga	-11.1945
▁corales	-11.195
▁barato	-11.195
▁escritas	-11.1954
▁femeninas	-11.1955
▁alcanzó	-11.1955
pin	-11.1955
▁encanta	-11.1956
▁fu	-11.1956
▁reflexión	-11.1957
▁piensan	-11.196
TO	-11.1961
▁fitness	-11.1961
100	-11.1962
▁Kentucky	-11.1963
▁experimentación	-11.1964
▁Nada	-11.1967
▁Océano	-11.1968
▁derrota	-11.1968
▁imaginar	-11.1971
▁coloque	-11.1971
▁integrar	-11.1972
▁Baja	-11.1975
▁Noruega	-11.1975
53	-11.1977
▁geográfica	-11.1977
▁dando	-11.1977
▁Iowa	-11.1978
▁Necesitamos	-11.1978
▁Little	-11.1979
▁zanahorias	-11.1982
▁disputa	-11.1984
▁requería	-11.1985
▁círculos	-11.1987
68	-11.1989
▁fabricar	-11.1993
▁guardar	-11.1993
▁diseña	-11.1996
▁Diego	-11.1996
rlo	-11.1997
▁comandos	-11.2001
▁cuarta	-11.2002
▁radicales	-11.2008
▁portátil	-11.2008
▁iones	-11.201
▁Área	-11.2017
▁vitales	-11.2017
ables	-11.202
▁seria	-11.2021
▁objetiva	-11.2034
97	-11.2034
▁frecuente	-11.2035
▁imprimir	-11.2037
▁Primer	-11.204
▁Darwin	-11.2041
▁castillo	-11.2042
▁2014,	-11.2043
▁Misisipi	-11.2045
▁Tennessee	-11.2047
▁campañas	-11.2049
▁diariamente	-11.2049
▁estrecho	-11.205
▁diseñó	-11.2051
▁quieras	-11.2053
▁llenas	-11.2056
▁comunicado	-11.2056
▁contigo	-11.2057
▁Hacer	-11.2058
▁pantallas	-11.2058
▁llegando	-11.2058
▁cuántas	-11.2059
▁Unidad	-11.2059
▁armonía	-11.2061
▁balón	-11.2063
▁decide	-11.2063
▁mencionados	-11.2065
▁episodio	-11.2066
▁toca	-11.2068
▁mor	-11.2069
▁Tienen	-11.2073
▁mandato	-11.2074
▁cañones	-11.2075
vol	-11.2075
▁equilibrada	-11.2076
▁Art	-11.2078
▁usado	-11.2078
▁Wa	-11.2078
▁reunieron	-11.2081
▁pulmonar	-11.2083
▁soldadura	-11.2084
▁im	-11.2085
▁apropiadas	-11.2085
▁huele	-11.2086
▁Cambio	-11.2089
▁dimensión	-11.2089
▁numerosas	-11.2089
▁síntesis	-11.2096
▁pesadas	-11.2097
▁hablantes	-11.2097
▁Bal	-11.2099
08	-11.2099
▁dada	-11.2099
▁On	-11.21
▁cereales	-11.21
▁formado	-11.2103
▁cargos	-11.211
▁odio	-11.2116
▁SE	-11.2116
▁Obtener	-11.2123
▁fijo	-11.2124
▁creativo	-11.2124
▁urbana	-11.2127
▁órgano	-11.2129
dan	-11.2129
sur	-11.213
ward	-11.2132
EN	-11.2135
▁Acuerdo	-11.2141
▁hectáreas	-11.2143
gia	-11.2144
▁Grandes	-11.2146
▁notables	-11.2147
▁quemar	-11.2148
▁Niño	-11.2151
ick	-11.2152
▁capitán	-11.2153
▁primarios	-11.2157
▁Tipo	-11.2158
yl	-11.2158
▁favoritos	-11.2162
▁reconstrucción	-11.2163
▁Psicología	-11.217
▁departamentos	-11.2171
▁mariposas	-11.2172
▁afirmando	-11.2173
▁correlación	-11.2174
▁Excel	-11.2175
▁vecindario	-11.2177
▁católicos	-11.2178
▁medieval	-11.218
▁editores	-11.218
61	-11.2181
▁soldado	-11.2181
▁chi	-11.2182
▁actúan	-11.2183
83	-11.2183
▁comisión	-11.2188
▁Ash	-11.2188
▁Albert	-11.2189
▁estimar	-11.219
▁espectadores	-11.2191
▁estructurales	-11.2197
▁santo	-11.2198
▁saliva	-11.2199
▁Nacionales	-11.22
▁cristales	-11.2201
▁dinosaurios	-11.2203
▁posesión	-11.2203
▁gustaría	-11.2205
▁56	-11.2206
▁frescos	-11.2208
▁85	-11.2209
house	-11.2209
▁picos	-11.2211
▁Club	-11.2211
xi	-11.2211
▁adecuadas	-11.2212
ari	-11.2219
▁Naturaleza	-11.2219
▁Afganistán	-11.2222
▁pimientos	-11.2225
ks	-11.2226
71	-11.2226
▁quiera	-11.2226
▁alcalde	-11.223
enta	-11.2243
▁club	-11.2243
ibles	-11.2243
▁interiores	-11.2245
cc	-11.2246
▁discursos	-11.2248
▁nervio	-11.2249
▁Anne	-11.225
▁menú	-11.2252
▁permanecer	-11.2255
▁Ford	-11.2255
▁elevado	-11.2256
▁dependientes	-11.2256
▁clasificar	-11.2259
side	-11.226
▁prepara	-11.2261
▁contraseñas	-11.2262
▁mencionado	-11.2262
▁anuncios	-11.2263
▁riñón	-11.2264
▁alimenta	-11.2266
▁determinan	-11.2266
▁Center	-11.2268
▁distancias	-11.2269
▁preocupados	-11.2273
▁publica	-11.2276
▁Cuerpo	-11.2276
▁Rock	-11.2278
▁Arthur	-11.2284
▁dia	-11.2286
▁Simon	-11.2287
▁paralelo	-11.2287
▁constituye	-11.2288
tones	-11.2289
tta	-11.229
▁residuales	-11.229
▁ejecuta	-11.2291
▁preparados	-11.2294
▁Nobel	-11.2294
kar	-11.2295
09	-11.2299
▁Teoría	-11.23
▁indio	-11.23
▁Ze	-11.23
osos	-11.2301
ins	-11.2302
mor	-11.2313
▁detuvo	-11.2313
▁adquisición	-11.2315
▁heces	-11.2315
▁introduce	-11.2317
▁repente	-11.2318
▁nitrógen	-11.232
▁exhaustiva	-11.2322
▁costumbres	-11.2323
aban	-11.2324
ef	-11.2326
▁tendrían	-11.2326
▁mató	-11.2328
▁paja	-11.2328
▁extendido	-11.233
▁Blue	-11.2331
ett	-11.2331
▁ciudadanía	-11.2333
74	-11.2334
▁restaurantes	-11.2334
▁cerrada	-11.2335
▁delitos	-11.2337
▁Hazlo	-11.2339
▁votos	-11.2339
▁gerentes	-11.234
▁Superior	-11.234
▁13.	-11.2342
▁mira	-11.2345
▁celebró	-11.2345
ara	-11.2345
▁Pra	-11.2346
▁Celsius	-11.2348
▁entidades	-11.235
▁querer	-11.2351
▁costas	-11.2357
▁lanzado	-11.2358
▁criminales	-11.2361
▁claridad	-11.2362
▁Semana	-11.2364
lie	-11.2369
▁afectando	-11.2369
▁obtenido	-11.2373
town	-11.2376
▁ángulos	-11.2377
▁Dependiendo	-11.2379
▁separado	-11.2381
▁controlado	-11.2381
▁Cita	-11.2385
▁construyendo	-11.2385
▁geometría	-11.2385
▁quedarse	-11.2385
▁Bien	-11.2387
▁pierden	-11.2387
"?	-11.2388
▁monitoreo	-11.239
Po	-11.2395
▁persistente	-11.2396
▁distinción	-11.2398
nder	-11.2402
▁Young	-11.2403
▁Scholar	-11.2404
▁renal	-11.2404
pal	-11.2405
▁seguramente	-11.2406
▁Independencia	-11.2406
HS	-11.2407
ancia	-11.2408
▁fatal	-11.2408
▁sacrificio	-11.2412
tel	-11.2412
▁respaldo	-11.2413
▁sólidos	-11.2419
▁deficiencias	-11.242
▁dejó	-11.2422
▁agenda	-11.2425
▁entradas	-11.2427
37	-11.2432
▁malos	-11.2432
lí	-11.2433
▁cognitivo	-11.2433
▁sabían	-11.2437
▁versus	-11.2439
▁permanentes	-11.2439
▁existir	-11.244
▁Ven	-11.2443
▁argumenta	-11.2444
▁Cuatro	-11.2447
▁ho	-11.245
ou	-11.2453
▁Suiza	-11.2454
▁norma	-11.2458
▁absoluta	-11.2459
▁pánico	-11.2459
▁traducido	-11.2461
▁gloria	-11.2463
▁Parkinson	-11.2466
▁actores	-11.2467
▁levadura	-11.2468
▁certificados	-11.2468
▁pertenecen	-11.247
▁Corta	-11.2472
▁fina	-11.2472
▁dañinos	-11.2475
▁españoles	-11.2476
▁jardinería	-11.2477
▁queden	-11.2478
▁recomendar	-11.2479
PDF	-11.248
oc	-11.2481
din	-11.2482
▁misterio	-11.2484
▁botellas	-11.2485
▁costeras	-11.2486
▁hombro	-11.2487
▁és	-11.2487
▁entiende	-11.2487
▁maneja	-11.2488
▁Jean	-11.2488
▁falso	-11.2489
▁informan	-11.249
76	-11.2491
CT	-11.2492
▁alberga	-11.2493
▁diosa	-11.2495
lay	-11.2502
▁ocurrido	-11.2503
";	-11.2504
▁2017.	-11.2504
▁alegría	-11.2505
▁balance	-11.2507
▁forestales	-11.251
▁saltar	-11.2513
▁Tar	-11.2513
▁aprende	-11.2516
ites	-11.2516
▁planeado	-11.2517
ag	-11.2519
▁abogados	-11.2519
▁Nigeria	-11.252
▁Muhammad	-11.252
▁retiró	-11.2526
▁Otra	-11.2527
tico	-11.2527
05	-11.2529
▁elefantes	-11.2529
▁cemento	-11.2531
▁bonos	-11.2533
▁seguida	-11.2533
72	-11.2534
bin	-11.254
▁vertebral	-11.2542
▁puentes	-11.2543
▁desencadenar	-11.2543
ful	-11.2546
▁reformas	-11.2547
▁inicia	-11.2548
▁encantado	-11.2549
▁53	-11.255
▁tiburones	-11.2554
▁CE	-11.2558
▁llamas	-11.256
bert	-11.2561
▁multitud	-11.2561
▁posee	-11.2564
▁conoció	-11.2566
▁expresó	-11.2569
▁utilidad	-11.2569
ls	-11.257
▁MIT	-11.2573
ich	-11.2575
▁rodea	-11.2576
▁4)	-11.2577
idae	-11.2577
▁2016,	-11.2585
▁duró	-11.2586
sum	-11.2586
▁Mucho	-11.2588
▁sénior	-11.259
▁protegerse	-11.2593
▁contabilidad	-11.2596
▁mueven	-11.2597
▁Buda	-11.2605
▁abundantes	-11.2606
▁Estación	-11.2607
▁frescas	-11.2609
ib	-11.261
▁Prevención	-11.261
▁baños	-11.2611
▁financiado	-11.2617
▁primario	-11.2618
▁piano	-11.2618
ens	-11.2621
▁llamaron	-11.2622
ere	-11.2624
▁Mira	-11.2627
▁soporte	-11.2628
▁española	-11.2629
Com	-11.2629
▁psicológicos	-11.2634
▁actualizar	-11.2636
AD	-11.2637
▁mutación	-11.2637
▁torres	-11.2638
▁subida	-11.2639
▁templos	-11.2641
▁It	-11.2642
▁tallo	-11.2644
Como	-11.2647
▁sobrevivientes	-11.2648
▁intervalos	-11.265
▁radical	-11.265
▁gusano	-11.2651
▁von	-11.2653
▁Adam	-11.2655
▁enzima	-11.2658
62	-11.266
▁completó	-11.2661
▁Ste	-11.2662
tum	-11.2663
▁italiano	-11.2664
nza	-11.2664
▁apellido	-11.2664
OC	-11.2665
▁establecida	-11.2666
▁apropiados	-11.2666
yan	-11.2668
▁Adams	-11.2668
▁podido	-11.2668
▁marcos	-11.2669
▁Blanco	-11.2671
▁hablamos	-11.2673
▁2000,	-11.2673
▁Solar	-11.2673
rs	-11.268
anas	-11.2681
ér	-11.2682
▁lente	-11.2683
▁buques	-11.269
▁episodios	-11.269
TH	-11.2692
▁AC	-11.2692
▁operador	-11.2693
▁preocupado	-11.2701
▁cloro	-11.2701
ical	-11.2702
▁árabes	-11.2707
▁IT	-11.2707
▁Einstein	-11.2712
▁Berkeley	-11.2714
lic	-11.2715
-17	-11.2719
▁Ch	-11.272
▁encuentren	-11.2721
▁my	-11.2721
▁túnel	-11.2722
▁Louis	-11.2722
ile	-11.2732
▁suicidio	-11.2732
ay	-11.2732
▁rompió	-11.2736
▁Ki	-11.2738
▁Anti	-11.2739
▁atractivo	-11.2739
▁representante	-11.274
▁1%	-11.2741
▁matemático	-11.2741
▁descubre	-11.2749
▁She	-11.2749
esto	-11.275
▁tomen	-11.2751
▁responde	-11.2752
▁transferir	-11.2753
▁británicas	-11.2755
▁ofreciendo	-11.2756
▁visualización	-11.2756
ED	-11.2759
fn	-11.276
▁Singapur	-11.2761
IN	-11.2761
key	-11.2768
▁matemáticos	-11.2771
▁Stanford	-11.2774
▁vulnerabilidad	-11.2775
▁ka	-11.2775
▁enseñanzas	-11.2782
NA	-11.2786
▁1968	-11.2786
▁capturado	-11.2786
▁predominante	-11.2787
▁envejecimiento	-11.2789
▁psico	-11.279
rin	-11.279
▁tesoro	-11.279
▁detiene	-11.2791
▁revelado	-11.2794
▁estimado	-11.2795
▁compró	-11.2798
▁asignar	-11.2798
▁alarma	-11.2798
▁Lucas	-11.2799
▁similitudes	-11.28
-14	-11.28
▁viajó	-11.2803
▁claves	-11.2805
cel	-11.2807
▁externas	-11.2807
▁verg	-11.2808
▁tapa	-11.2811
▁2006,	-11.2811
66	-11.2812
▁dirigidos	-11.2813
▁Vo	-11.2816
▁controversia	-11.2818
▁exitosamente	-11.2818
rlos	-11.2824
Ex	-11.2826
▁99	-11.2827
▁habitualmente	-11.2827
▁demuestran	-11.2829
▁compasión	-11.283
▁ri	-11.2831
cker	-11.2833
▁obtuvieron	-11.2835
▁Casi	-11.2835
▁Math	-11.2835
▁deportistas	-11.2835
▁facilidad	-11.2837
▁Pen	-11.2837
▁Enrique	-11.2838
▁Maine	-11.2839
ial	-11.2839
sor	-11.284
nota	-11.2841
▁preguntan	-11.2846
69	-11.2849
▁Representantes	-11.2851
▁inspección	-11.2853
▁bombas	-11.2853
▁programar	-11.2854
▁Mer	-11.2854
▁2005,	-11.2855
▁salvación	-11.2855
burg	-11.2856
▁aislamiento	-11.2857
82	-11.2862
▁encontrará	-11.2869
▁introducido	-11.2873
▁sagrada	-11.2875
▁radar	-11.2876
▁Gas	-11.2877
NO	-11.2878
▁gotas	-11.2879
form	-11.2881
ientes	-11.2881
▁emergentes	-11.2882
▁pasaron	-11.2882
▁descripciones	-11.2882
▁Ir	-11.2883
▁deportivo	-11.2884
▁cortada	-11.2884
▁comerciantes	-11.2884
▁verdaderos	-11.2885
▁involucró	-11.2885
▁impulsar	-11.2887
▁colocó	-11.2887
bri	-11.2888
có	-11.2888
▁llegue	-11.2889
▁biomasa	-11.2889
▁pm	-11.2889
▁protegidas	-11.289
▁espinal	-11.289
dica	-11.2891
▁1/2	-11.2892
▁YouTube	-11.2892
▁Verde	-11.2896
▁disfruta	-11.2896
MP	-11.2896
pen	-11.2899
▁Micro	-11.2899
sas	-11.29
rus	-11.2901
▁estaré	-11.2903
▁fundamentos	-11.2905
▁Nivel	-11.2905
dd	-11.2905
▁Junta	-11.2908
ries	-11.2908
▁1999	-11.2908
▁módulos	-11.291
▁veteranos	-11.2911
ala	-11.2911
▁delgada	-11.2912
▁verás	-11.2912
eb	-11.2915
gon	-11.2915
éis	-11.2916
▁polen	-11.2919
CH	-11.2923
▁Gra	-11.2924
▁frecuencias	-11.2924
▁cumpleaños	-11.2926
▁barata	-11.2927
▁indicador	-11.2927
06	-11.2928
▁Power	-11.293
▁Incluye	-11.293
tado	-11.2933
▁camiones	-11.2934
▁conservar	-11.2935
▁protesta	-11.2938
▁Kong	-11.2947
▁literaria	-11.2947
sing	-11.2949
her	-11.2949
▁urbanos	-11.2954
81	-11.2955
▁tirar	-11.296
▁llamamos	-11.2962
▁significados	-11.2962
▁Agrega	-11.2963
▁certeza	-11.2963
▁designado	-11.2965
▁limón	-11.2968
zar	-11.2969
▁intentaron	-11.2969
ary	-11.297
▁comunitaria	-11.2971
▁inf	-11.2973
▁museos	-11.2974
▁desecho	-11.2975
▁ventilación	-11.2977
ale	-11.2978
79	-11.2984
CS	-11.2984
▁notó	-11.2985
▁precisos	-11.2986
▁fracción	-11.2989
qu	-11.2991
ísticas	-11.2993
▁busque	-11.2994
ama	-11.2995
▁organizado	-11.2997
▁subiendo	-11.2999
▁Cultura	-11.3001
▁galones	-11.3001
▁Coloca	-11.3002
▁Afortunadamente	-11.3003
▁Alta	-11.3003
▁her	-11.3003
▁estarían	-11.3004
▁colonizadores	-11.3004
▁Day	-11.3005
▁marcar	-11.3014
▁piscina	-11.3016
▁presiones	-11.3017
4,	-11.302
▁capacitados	-11.3021
Vi	-11.3022
▁sistemática	-11.3023
▁dinámicas	-11.3023
nan	-11.3024
▁desconocidos	-11.3024
▁fascinante	-11.3027
▁llame	-11.303
▁reconocen	-11.3032
▁llevaba	-11.3034
ltima	-11.3035
▁dividido	-11.304
▁empezando	-11.3041
▁(16	-11.3043
▁obligación	-11.3046
▁Ellas	-11.3049
▁2022	-11.3052
▁fo	-11.3054
▁gubernamental	-11.3055
51	-11.3056
67	-11.3059
▁proporcionaron	-11.3064
▁provienen	-11.3067
mus	-11.3069
▁recoja	-11.3078
▁financiar	-11.3079
▁Os	-11.3079
▁economías	-11.3087
▁peste	-11.309
▁encontrada	-11.3091
▁demuestra	-11.3092
▁contacta	-11.3092
▁Muestra	-11.3094
▁retira	-11.3099
59	-11.3099
▁retención	-11.31
▁emocionante	-11.3101
▁(15	-11.3103
TC	-11.3107
▁reseñas	-11.3108
▁béisbol	-11.3109
▁ad	-11.3112
▁tos	-11.3113
▁nidos	-11.3115
▁interferencia	-11.3115
▁laborales	-11.3116
▁amb	-11.3117
▁Sar	-11.3117
▁ru	-11.3121
▁Latina	-11.3122
▁licenciatura	-11.3123
▁Tor	-11.3125
▁periodista	-11.3126
▁Considere	-11.3126
RS	-11.3128
▁gluten	-11.3129
ette	-11.3133
▁alianza	-11.3134
▁ingrediente	-11.3136
▁PhD	-11.3137
88	-11.3138
▁Point	-11.3139
pos	-11.3141
Cuántas	-11.3141
▁Lago	-11.3141
DS	-11.3142
▁1950	-11.3142
▁ecuaciones	-11.3142
▁psicológico	-11.3143
ividad	-11.3143
▁detallado	-11.3145
ping	-11.3145
▁riego	-11.3148
▁incierto	-11.3148
▁milla	-11.3148
▁Comp	-11.3148
▁lógico	-11.3149
▁Enfermedad	-11.3149
▁Luisiana	-11.315
▁bolsas	-11.3152
91	-11.3152
▁espectaculares	-11.3154
▁Kenia	-11.316
spec	-11.3164
▁obligado	-11.3165
▁pedido	-11.3165
▁playas	-11.3172
▁ES	-11.3172
▁Toronto	-11.3173
bro	-11.3174
▁mantuvieron	-11.3175
▁gracia	-11.3176
▁enfrentaron	-11.3176
ual	-11.3176
▁formaron	-11.3177
▁Ambiental	-11.318
▁Tipos	-11.3182
▁habitual	-11.3185
▁Venus	-11.3188
RE	-11.3189
emia	-11.3192
▁interferir	-11.3193
▁Walter	-11.3193
LE	-11.3193
▁sexto	-11.3197
▁confirma	-11.32
OL	-11.3204
▁colectiva	-11.3206
▁ciudadano	-11.3206
ph	-11.3207
▁expuesto	-11.3209
58	-11.321
▁desafiante	-11.321
84	-11.3211
▁ampliar	-11.3213
▁Auto	-11.3216
▁Paz	-11.3224
▁coloración	-11.3225
▁dedicada	-11.3231
▁valiosas	-11.3232
▁ligera	-11.3232
▁Gi	-11.3236
▁hijas	-11.3236
▁Neuro	-11.3237
▁césped	-11.3238
rar	-11.324
▁americano	-11.324
▁70%	-11.3243
▁prominente	-11.3244
▁Sen	-11.3245
▁considerada	-11.3247
art	-11.3247
▁típica	-11.3248
▁hipo	-11.3251
▁57	-11.3253
▁Allen	-11.3253
▁investigando	-11.3256
bas	-11.326
▁aparatos	-11.326
▁profeta	-11.3265
▁Dolor	-11.3266
▁quimioterapia	-11.3268
▁coral	-11.3269
TS	-11.3273
▁protegido	-11.3274
▁prefieren	-11.3276
▁compresión	-11.3277
▁ajo	-11.3278
nis	-11.328
▁ganan	-11.3282
▁pescado	-11.3282
▁funcionando	-11.3285
▁lámpara	-11.3291
▁incluía	-11.3292
▁resultante	-11.3293
▁volvió	-11.3293
▁nuevamente	-11.3294
IE	-11.3294
▁señaló	-11.3295
▁naval	-11.3297
94	-11.3302
▁morales	-11.3302
▁u	-11.3303
▁tele	-11.3303
▁divisiones	-11.3305
▁aprendiz	-11.3307
▁unir	-11.3307
▁IC	-11.3308
▁demostración	-11.3309
▁Busca	-11.3312
▁europeas	-11.3315
▁emitió	-11.3316
▁vacía	-11.3316
ev	-11.332
▁satisfacción	-11.3321
ola	-11.3322
▁comparte	-11.3322
▁rusos	-11.3324
ibilidad	-11.3327
▁ordenador	-11.3329
▁corren	-11.3329
▁provincias	-11.3332
▁Jefe	-11.3332
▁nido	-11.3332
▁tazas	-11.3334
▁inventario	-11.3336
mina	-11.3337
siones	-11.3339
bus	-11.3341
▁obispo	-11.3347
▁lentes	-11.335
▁compone	-11.3351
PC	-11.3351
▁(6	-11.3352
▁gobernante	-11.3356
▁Ten	-11.3358
▁lealtad	-11.3358
▁rastrear	-11.3361
▁cruzar	-11.3361
▁demasiadas	-11.3362
▁Espiritu	-11.3365
▁Earth	-11.3366
▁decidido	-11.3367
▁Crear	-11.3368
▁patio	-11.3369
▁juegan	-11.337
▁glaciares	-11.3373
▁agudo	-11.3379
▁centrado	-11.338
▁ocurrencia	-11.338
▁vistos	-11.3381
▁adaptado	-11.3382
▁procesador	-11.3385
▁palacio	-11.3385
RO	-11.3386
Sí	-11.3386
gal	-11.3387
▁corrección	-11.3389
▁mata	-11.3389
▁otorga	-11.3389
Ro	-11.339
▁macho	-11.339
▁Movimiento	-11.3391
▁situado	-11.3392
▁medición	-11.3393
logía	-11.3393
▁cráneo	-11.3397
▁cre	-11.3398
ches	-11.3403
▁alambre	-11.3404
▁ilustración	-11.3404
▁crecientes	-11.3404
▁chips	-11.3405
▁estimulación	-11.3405
▁realizando	-11.3406
iga	-11.3407
▁celda	-11.3408
▁contribuido	-11.3408
▁mejorando	-11.3408
▁notado	-11.3412
▁suroeste	-11.3412
▁resonancia	-11.3413
RI	-11.3414
▁asistentes	-11.3417
▁rayo	-11.3417
▁amigable	-11.3422
▁Kim	-11.3422
▁resistente	-11.3423
▁convulsiones	-11.3424
PI	-11.3425
tación	-11.3426
▁empresarial	-11.3426
▁aumentará	-11.3428
▁indios	-11.3429
▁conquista	-11.3429
▁pisos	-11.343
▁haría	-11.343
▁moderada	-11.3431
▁tantas	-11.3431
▁compost	-11.3431
▁especímenes	-11.3432
ken	-11.3435
▁sana	-11.3436
▁Kan	-11.3437
▁58	-11.3439
tha	-11.3445
▁estudiado	-11.3446
▁Imagina	-11.3447
▁negociaciones	-11.3448
▁vuelos	-11.345
▁explicaciones	-11.3451
▁Caribe	-11.3451
kan	-11.3452
abilidad	-11.3452
▁distribuir	-11.3455
▁permisos	-11.3455
▁aéreas	-11.3456
▁Benjamin	-11.3456
▁cuántica	-11.3457
▁espirituales	-11.3457
▁constantes	-11.3459
▁masivo	-11.346
▁Ob	-11.346
▁automática	-11.3462
▁arquitecto	-11.3464
▁pasados	-11.3465
▁Blanca	-11.3465
▁tranquilo	-11.3466
ál	-11.3467
▁contextos	-11.3467
▁activistas	-11.3467
▁inspiró	-11.3471
▁mentes	-11.3471
77	-11.3472
▁Institución	-11.3473
tero	-11.3473
▁operan	-11.3474
▁opuesta	-11.3476
▁reunió	-11.3478
ew	-11.3481
▁concluyó	-11.3483
▁óptimo	-11.3485
ien	-11.3487
▁difundir	-11.3488
▁masas	-11.3493
▁1998	-11.3495
▁biológicas	-11.3498
▁invitado	-11.3499
▁colapso	-11.3501
▁electrón	-11.3505
▁prácticamente	-11.3506
▁excelencia	-11.3508
▁dirigen	-11.3511
▁cargar	-11.3511
▁else	-11.3515
▁mezclar	-11.3516
▁espejo	-11.3517
▁Land	-11.3522
93	-11.3523
▁Fu	-11.3523
▁!	-11.3524
tino	-11.3527
▁coronavirus	-11.3527
▁Profeta	-11.3527
▁temporales	-11.353
▁sintió	-11.3531
▁beneficiarse	-11.3533
▁disminuyendo	-11.3534
▁esquemas	-11.3534
▁Descripción	-11.3538
▁superficiales	-11.3539
▁rompen	-11.3539
▁experimentales	-11.3539
▁ganando	-11.3549
?”	-11.3551
▁atracción	-11.3552
▁portador	-11.3556
▁Espacio	-11.3556
▁sirviendo	-11.3559
ivos	-11.3559
▁ayudaron	-11.3563
▁Ross	-11.3566
▁combinaciones	-11.3567
▁niebla	-11.3568
▁toxicidad	-11.3569
▁almacen	-11.357
▁am	-11.3571
▁Clase	-11.3572
Bo	-11.3578
yu	-11.3578
▁accesibles	-11.3578
▁merece	-11.3578
▁leves	-11.3579
IR	-11.3579
▁Bob	-11.3579
▁muralla	-11.358
▁pajaro	-11.358
▁revertir	-11.3581
▁terror	-11.3581
▁internas	-11.3582
▁asesor	-11.3585
▁entera	-11.3586
tribu	-11.3586
▁coco	-11.3586
▁For	-11.3587
▁Júpiter	-11.3588
SU	-11.359
nie	-11.3591
▁realizará	-11.3593
▁2006.	-11.3594
rup	-11.3595
▁próstata	-11.3599
▁dramática	-11.36
▁japonesa	-11.36
▁conectan	-11.3601
▁águilas	-11.3602
▁virtuales	-11.3604
▁Cre	-11.3606
▁modificado	-11.361
▁colaboradores	-11.361
▁Anderson	-11.3612
▁monumentos	-11.3616
▁alternativos	-11.3621
▁decidieron	-11.3621
▁temática	-11.3623
▁bomberos	-11.3624
▁derivados	-11.3626
▁encontrarás	-11.3628
▁BC	-11.3628
▁informaciones	-11.3632
dra	-11.3632
▁desarrollen	-11.3635
▁vector	-11.3638
▁manipulación	-11.3638
▁recepción	-11.3641
ores	-11.3642
▁pluma	-11.3644
▁urbano	-11.3645
▁Asegúrese	-11.365
▁verificación	-11.3653
▁SS	-11.3654
gos	-11.3655
▁corresponde	-11.3657
▁elegidos	-11.366
ku	-11.3662
▁manipular	-11.3662
▁sencillas	-11.3662
▁Ucrania	-11.3663
▁establecen	-11.3669
▁peri	-11.3669
▁caduco	-11.367
▁organismo	-11.3671
▁66	-11.3672
▁flash	-11.3674
▁pu	-11.3676
▁Comercio	-11.3679
▁Bel	-11.368
▁2020.	-11.3681
▁vende	-11.3682
▁enfrentando	-11.3683
▁sentencia	-11.3683
▁naranjas	-11.3686
und	-11.3686
▁ID	-11.3687
▁enviados	-11.3689
▁creados	-11.3691
col	-11.3693
inger	-11.3693
▁1996	-11.3695
▁Supremo	-11.3696
▁fracaso	-11.3696
▁Ur	-11.3698
▁chances	-11.37
▁preferencia	-11.37
PP	-11.3701
▁terapeuta	-11.3702
▁adversos	-11.3704
SD	-11.3706
▁reconstruir	-11.3707
▁Hamilton	-11.3707
rro	-11.3708
▁habrá	-11.3709
▁cirujano	-11.3709
▁repetir	-11.3713
▁cierra	-11.3713
▁1981	-11.3713
▁fiabilidad	-11.3716
▁Tailandia	-11.3718
▁desarrolladas	-11.3718
▁McC	-11.3726
▁sostener	-11.3726
rían	-11.3729
▁huracanes	-11.3731
▁Fo	-11.3731
▁fractura	-11.3733
hr	-11.3734
iles	-11.3734
▁Mantener	-11.3734
▁concurso	-11.3738
▁abdomen	-11.374
▁sucediendo	-11.374
▁computadores	-11.374
▁encuentro	-11.3741
▁History	-11.3743
-15	-11.3745
▁forestal	-11.3745
▁india	-11.3747
▁6:	-11.3747
▁terminal	-11.3748
rit	-11.3752
▁racional	-11.3757
▁calcula	-11.3761
▁Commons	-11.3762
▁válvula	-11.3763
▁universitarios	-11.3763
▁pasteles	-11.3764
▁quita	-11.3764
▁hermanas	-11.3766
EM	-11.3766
hay	-11.3768
▁trasera	-11.377
▁devolver	-11.3771
▁potente	-11.3772
▁escriben	-11.3773
ques	-11.3776
▁Materiales	-11.3778
▁Tim	-11.3779
89	-11.3779
▁instituto	-11.3782
▁nazis	-11.3782
rie	-11.3786
gin	-11.3786
▁enfermeras	-11.3787
▁10,000	-11.3788
▁componen	-11.3789
uch	-11.3789
▁queja	-11.3792
▁amar	-11.3795
▁banderas	-11.3795
mia	-11.3795
pdf	-11.3796
▁Word	-11.3796
▁favorita	-11.3797
▁trabajen	-11.3797
stru	-11.3798
▁mediana	-11.3798
dí	-11.3799
▁escape	-11.38
3%	-11.3807
▁seleccionados	-11.3807
-6	-11.3808
sar	-11.3809
▁trenes	-11.381
▁Carl	-11.3811
▁noroeste	-11.3814
▁amistad	-11.3816
▁noches	-11.3816
▁fijar	-11.3817
▁Francis	-11.3821
▁puestos	-11.3822
▁destruido	-11.3827
▁puntajes	-11.3827
▁estables	-11.3829
entes	-11.383
▁gar	-11.3832
▁originó	-11.3834
▁Wright	-11.3835
▁animan	-11.3836
▁relacionan	-11.3837
ky	-11.3838
▁étnicos	-11.3838
▁incentivos	-11.3839
▁Científica	-11.384
▁producida	-11.3842
▁vacaciones	-11.3844
▁culpable	-11.3845
▁Soy	-11.3847
92	-11.3853
lam	-11.3853
▁pastel	-11.3857
▁Old	-11.3857
▁australianos	-11.3857
▁recibe	-11.386
▁preocuparse	-11.3862
▁maximizar	-11.3864
▁reemplaza	-11.3864
▁capilla	-11.3866
▁judicial	-11.3866
▁Palestina	-11.3867
▁declarado	-11.3871
▁TB	-11.3871
▁Disponible	-11.3872
rat	-11.3873
▁calentar	-11.3874
▁URL	-11.3876
▁$3	-11.3877
73	-11.3878
▁em	-11.3878
▁presentaron	-11.3879
▁vientre	-11.3881
▁barras	-11.3883
▁deber	-11.3885
▁patente	-11.3885
▁1.5	-11.3893
▁elevación	-11.3893
▁imponer	-11.3897
▁legislación	-11.39
▁62	-11.3902
▁escaleras	-11.3903
▁explorando	-11.3903
▁cuadradas	-11.3905
▁perdieron	-11.3905
▁mini	-11.3907
▁formando	-11.3911
▁piensas	-11.3911
▁60%	-11.3912
▁Asuntos	-11.3912
▁actualizado	-11.3912
▁Is	-11.3921
ólogo	-11.3923
▁Sarah	-11.3924
▁basó	-11.3926
▁apreciar	-11.3927
▁juicios	-11.3929
▁ilegales	-11.393
▁fracturas	-11.3931
▁Pesca	-11.3934
▁160	-11.3935
▁patentes	-11.3935
▁Escriba	-11.3937
▁anomalías	-11.3939
▁escultura	-11.3939
▁course	-11.3939
▁hallazgo	-11.394
▁venden	-11.3941
▁documental	-11.3942
▁2,000	-11.3942
)|	-11.3942
▁Especial	-11.3943
▁erupción	-11.3945
▁príncipe	-11.3948
▁recetas	-11.3949
▁Descarga	-11.3949
▁estadio	-11.3954
▁aleatoria	-11.3955
sp	-11.3957
▁cruzada	-11.396
sco	-11.396
icia	-11.3961
▁escribieron	-11.3962
▁exacto	-11.3963
▁Dor	-11.3967
▁masculino	-11.3968
▁Sp	-11.3971
▁copyright	-11.3975
▁precauciones	-11.3975
▁estuviera	-11.398
▁robar	-11.398
▁segmentos	-11.3981
▁alquiler	-11.3983
▁formatos	-11.3983
▁Au	-11.3983
▁teclado	-11.3985
▁sudor	-11.3988
▁cómodos	-11.3988
▁residual	-11.3992
▁elevar	-11.3992
▁desplaza	-11.3993
▁agregue	-11.3993
▁Sci	-11.3996
▁precisas	-11.3997
▁unido	-11.3999
▁urgente	-11.3999
▁repetidamente	-11.3999
▁Ber	-11.4
▁verá	-11.4001
▁ne	-11.4001
▁bucle	-11.4003
▁ganadería	-11.4007
▁receta	-11.4009
▁repite	-11.4015
▁beneficia	-11.4016
▁paradigma	-11.4018
3)	-11.402
▁cohete	-11.4021
▁individualmente	-11.4022
izan	-11.4023
▁frutas	-11.4025
▁Asegúrate	-11.4026
▁periodistas	-11.4027
▁variabilidad	-11.4028
▁Down	-11.4033
asa	-11.4033
▁contengan	-11.4035
▁innovaciones	-11.4035
▁Bro	-11.4038
▁uñas	-11.4038
▁Dinamarca	-11.4041
▁seguía	-11.4041
▁fricción	-11.4043
▁cantar	-11.4044
▁Sólo	-11.4045
▁perdida	-11.4046
▁Hi	-11.4046
▁amanecer	-11.4049
▁inevitable	-11.4054
ship	-11.4055
cin	-11.4056
▁tutorial	-11.4057
mol	-11.4057
▁directora	-11.4058
▁retener	-11.406
▁examinó	-11.406
osas	-11.4061
tom	-11.4062
▁confiables	-11.4062
▁arbustos	-11.4067
▁limitadas	-11.4068
▁Oklahoma	-11.4071
▁Douglas	-11.4072
▁cómoda	-11.4073
▁caras	-11.4075
▁poderosas	-11.4075
▁construidos	-11.4075
▁rol	-11.4075
▁traduce	-11.4076
▁Connecticut	-11.4077
▁Británico	-11.4079
▁águila	-11.4079
▁Negro	-11.408
▁influye	-11.4081
▁2017,	-11.4082
▁reconoció	-11.4085
▁14.	-11.4088
▁NC	-11.4089
▁emp	-11.4092
▁cifrado	-11.4103
▁700	-11.4105
chen	-11.4106
▁pendientes	-11.4106
▁Mars	-11.4108
▁Ol	-11.4109
met	-11.4111
Sin	-11.4118
▁j	-11.4119
▁construyen	-11.412
▁Médica	-11.4121
▁Oriental	-11.4121
▁hebreo	-11.4122
▁abdominal	-11.4122
tia	-11.4128
▁neo	-11.4129
▁perdiendo	-11.4131
ui	-11.4133
▁responden	-11.4133
▁reducida	-11.4134
▁membresía	-11.4135
▁sufrieron	-11.414
▁horizonte	-11.4141
▁Newton	-11.4141
▁aeropuerto	-11.4143
▁revelan	-11.4144
▁americana	-11.4146
▁).	-11.4146
▁reunirse	-11.4148
▁caminata	-11.415
▁segmento	-11.4151
],	-11.4152
rón	-11.4153
▁dañinas	-11.4154
▁pastores	-11.4154
▁cuenca	-11.4155
DR	-11.4158
▁One	-11.416
▁académicas	-11.4161
ism	-11.4166
▁gradual	-11.4167
▁especifica	-11.417
▁juguete	-11.417
▁famosas	-11.4175
▁remoto	-11.4176
▁sonrisa	-11.4177
▁rusa	-11.4186
om	-11.4188
▁plantaciones	-11.4188
▁promueven	-11.4189
▁delito	-11.4191
▁Estás	-11.4194
cul	-11.4197
CP	-11.4201
ER	-11.4203
▁Cabo	-11.4203
▁activación	-11.4203
300	-11.4208
▁clasifica	-11.4208
▁vale	-11.4209
▁cera	-11.421
▁asiento	-11.4211
far	-11.4212
▁Max	-11.4213
▁vegetal	-11.4213
▁trama	-11.4218
▁Open	-11.4218
▁secretos	-11.4219
▁sagrados	-11.422
pes	-11.422
▁Consejos	-11.4226
Sa	-11.4228
▁anemia	-11.4229
ert	-11.423
▁Debes	-11.4231
▁protegidos	-11.4236
▁femenino	-11.424
▁Retrieved	-11.4241
RA	-11.4241
▁recuerdo	-11.4242
▁mandíbula	-11.4242
-4	-11.4243
▁escritorio	-11.4244
▁NY	-11.4245
▁GPS	-11.4247
▁sugeren	-11.4248
▁59	-11.4249
stein	-11.425
▁mecánico	-11.4253
▁especializados	-11.4255
▁pareció	-11.4256
▁infectadas	-11.426
▁dígitos	-11.4261
▁viajando	-11.4264
▁enfermería	-11.4266
rra	-11.4269
▁oso	-11.4271
▁realizadas	-11.4271
▁golpear	-11.4275
▁fraude	-11.4278
▁Anna	-11.4279
▁tolerar	-11.4283
▁enterrado	-11.4283
▁facial	-11.4285
▁1930	-11.4287
▁Mateo	-11.4289
aunque	-11.429
▁Forma	-11.4291
▁Pri	-11.4291
▁parecían	-11.4297
rea	-11.4304
▁apnea	-11.4305
▁pájaros	-11.4305
▁we	-11.431
▁detenerse	-11.4313
▁aceptado	-11.4313
▁rompecabezas	-11.4314
78	-11.4316
▁All	-11.4317
cada	-11.4317
tr	-11.4317
set	-11.432
▁llevará	-11.4322
▁salto	-11.4322
▁63	-11.4323
▁tar	-11.4325
▁descomposición	-11.4327
▁Valley	-11.4329
▁Moore	-11.4329
▁atrapado	-11.4331
▁abuela	-11.4332
▁Maestro	-11.4333
▁Moscú	-11.4334
▁Grant	-11.4336
fen	-11.4336
br	-11.4339
cis	-11.4346
▁destacar	-11.4347
▁fallos	-11.4348
▁retrasar	-11.4349
win	-11.4349
▁esencialmente	-11.4349
▁Aquellos	-11.435
▁respiratorio	-11.4351
▁realizados	-11.4352
▁vivido	-11.4354
▁AS	-11.4355
▁Life	-11.4356
▁contribuyentes	-11.4358
▁umbral	-11.4358
cida	-11.436
mat	-11.436
▁terminan	-11.436
▁sanos	-11.4362
▁Nu	-11.4363
▁acumula	-11.4364
▁orador	-11.4368
▁encarga	-11.4368
▁hembra	-11.4369
▁negativamente	-11.4373
▁titulado	-11.4373
ló	-11.4374
▁definen	-11.4374
▁Sh	-11.4376
▁hindúes	-11.4377
▁salen	-11.4377
▁Mel	-11.4378
stone	-11.4379
▁mencionó	-11.4379
▁engañar	-11.4381
DA	-11.4383
▁adjunto	-11.4384
▁1997	-11.439
▁finas	-11.439
▁Depresión	-11.439
▁men	-11.4392
▁sorprende	-11.4395
SO	-11.4396
▁publicaron	-11.4397
▁costosos	-11.4397
▁opioides	-11.44
▁cueva	-11.44
▁recta	-11.4401
▁tomas	-11.4402
▁Min	-11.4402
▁expone	-11.4403
▁2004,	-11.4405
▁America	-11.4406
ough	-11.4407
▁operativos	-11.4407
▁cuentan	-11.4413
▁(4)	-11.4418
▁mancha	-11.442
▁aborto	-11.4421
iones	-11.4421
▁reproducir	-11.4422
▁sufriendiendo	-11.4422
ux	-11.4423
▁flexibles	-11.4426
▁obtenemos	-11.4428
▁Sierra	-11.443
▁reforzar	-11.4432
▁provocar	-11.4435
▁declarar	-11.4435
▁Canal	-11.4435
▁have	-11.4439
▁significación	-11.444
▁Comer	-11.444
▁vía	-11.4444
▁puro	-11.4444
▁retrato	-11.4445
▁mejorada	-11.4446
▁repetición	-11.4446
▁conformidad	-11.4452
bal	-11.4453
▁videos	-11.4455
▁Lawrence	-11.4456
▁obtenga	-11.4458
▁droga	-11.4458
▁falsas	-11.4459
▁Cuidado	-11.4459
▁influencias	-11.4459
af	-11.4464
▁renovación	-11.4464
-16	-11.4464
▁olvida	-11.4465
▁celebraciones	-11.4465
san	-11.4465
▁Chile	-11.4466
▁prototipo	-11.4466
▁temporalmente	-11.4467
▁desayuno	-11.447
▁batallas	-11.4471
▁oculto	-11.4472
▁Joe	-11.4477
▁esclavo	-11.4478
▁desaparecer	-11.4479
▁detalladas	-11.448
▁Fra	-11.4482
▁viejas	-11.4483
▁rangos	-11.4483
▁espíritu	-11.4484
MA	-11.4484
▁Op	-11.4485
▁equivalentes	-11.4485
▁empleos	-11.4485
▁restricción	-11.4486
▁Port	-11.4488
LA	-11.4488
▁explotación	-11.4489
▁posteriormente	-11.4493
▁colocan	-11.4494
▁retraso	-11.4496
▁ama	-11.4497
▁estaría	-11.4498
▁Diccionario	-11.45
▁2018.	-11.4501
▁polar	-11.4501
▁Oro	-11.4503
▁emitir	-11.4504
▁disfrutan	-11.4504
nio	-11.4504
▁comp	-11.4505
▁Pur	-11.4505
▁justa	-11.4506
▁portátiles	-11.4508
ous	-11.4509
▁involucrando	-11.4511
▁inició	-11.4511
▁enseñó	-11.4512
▁medicación	-11.4512
▁Khan	-11.4514
▁this	-11.4515
▁extracto	-11.4524
▁astronautas	-11.4525
▁lu	-11.4525
▁consideraciones	-11.4527
▁uvas	-11.4528
▁61	-11.4528
▁billones	-11.453
GA	-11.4531
ane	-11.4531
▁Génesis	-11.4532
▁migrantes	-11.4532
grafía	-11.4532
▁climas	-11.4533
▁IA	-11.4533
cle	-11.4535
▁esquí	-11.4535
try	-11.4538
▁Terapia	-11.4542
▁tortura	-11.4542
▁flora	-11.4544
▁Investigaciones	-11.4544
▁transcripción	-11.4545
more	-11.4547
rri	-11.4548
▁discuten	-11.4554
▁realización	-11.4555
▁envían	-11.4556
▁CEO	-11.4557
▁suavemente	-11.4558
▁valiente	-11.4559
▁turbinas	-11.4559
▁Digital	-11.4561
▁diversión	-11.4562
lon	-11.4563
▁compensar	-11.4564
▁relajación	-11.4566
▁terceros	-11.4569
▁Will	-11.457
cita	-11.4572
▁dudas	-11.4572
▁agresión	-11.4572
▁arqueólogos	-11.4573
▁líquida	-11.4573
▁dividen	-11.4574
▁continental	-11.4574
▁Familia	-11.4574
▁Métodos	-11.4574
▁reunir	-11.4575
▁proximidad	-11.4576
▁susceptible	-11.4577
▁entusiasmo	-11.4578
▁ideales	-11.4578
▁aumentaron	-11.4578
▁costumbre	-11.4579
▁Royal	-11.458
▁activar	-11.4583
▁secreta	-11.4584
▁entrenados	-11.4584
▁cruce	-11.4585
▁curiosidad	-11.4586
▁Moisés	-11.4586
▁fortuna	-11.459
ega	-11.459
tradicionalmente	-11.459
▁Camp	-11.4591
▁competir	-11.4592
▁Harry	-11.4593
▁residuo	-11.4594
▁controlador	-11.4598
▁2005.	-11.4602
FS	-11.4605
▁restante	-11.4606
▁combinado	-11.4606
log	-11.4607
▁permitieron	-11.4608
▁Publicaciones	-11.4608
▁Orleans	-11.461
▁informática	-11.461
▁1800	-11.461
▁depender	-11.4613
fil	-11.4613
▁articulación	-11.4614
▁aman	-11.4617
▁Ninguna	-11.4619
▁zorro	-11.4619
▁degradación	-11.4622
▁ratio	-11.4623
ller	-11.4624
▁producidos	-11.4626
▁liderado	-11.463
▁localizar	-11.463
▁Trust	-11.4635
▁entrenador	-11.4637
itz	-11.4637
▁secretario	-11.4639
▁personalizado	-11.464
▁comido	-11.4643
▁alemanas	-11.4643
▁contemporáneos	-11.4646
▁fla	-11.4646
▁integrado	-11.4647
▁asignado	-11.4649
sey	-11.4653
▁ahorro	-11.4654
▁(10	-11.4657
EA	-11.4658
▁68	-11.4658
▁Chris	-11.4658
▁bal	-11.4659
▁conejos	-11.466
▁tornillos	-11.466
▁requerida	-11.466
▁fosfato	-11.4661
▁Hojas	-11.4661
▁copiar	-11.4662
▁gel	-11.4662
MO	-11.4662
▁Roja	-11.4662
▁Radio	-11.4665
▁admisión	-11.4666
▁huracán	-11.4668
▁interrupción	-11.4668
▁generan	-11.467
▁verse	-11.4672
▁robótica	-11.4672
light	-11.4674
head	-11.4675
▁seguirán	-11.4676
▁Antártica	-11.4676
▁recomendado	-11.4678
▁cumpla	-11.4679
▁verbal	-11.468
▁definida	-11.4681
▁surgir	-11.4684
BC	-11.4686
▁cuartos	-11.4686
pon	-11.4686
▁Edición	-11.4686
▁6,	-11.4686
▁nodos	-11.4689
▁bur	-11.469
▁mon	-11.4691
▁Patrimonio	-11.4692
▁prolongada	-11.4693
▁chip	-11.4694
▁firmó	-11.4694
ON	-11.4696
▁recuperarse	-11.4696
▁stock	-11.4697
▁mortales	-11.4698
▁Agregue	-11.4703
▁aparente	-11.4703
▁SC	-11.4703
▁Derecho	-11.4704
▁Revisa	-11.4705
▁Books	-11.4705
▁Mirando	-11.4705
▁marcó	-11.4706
▁sobrepeso	-11.4708
▁ignorar	-11.4711
▁establecidas	-11.4711
▁Eric	-11.4712
DE	-11.4714
▁coli	-11.4718
▁Houston	-11.4719
fin	-11.472
▁fama	-11.4721
▁excavación	-11.4722
IV	-11.4722
IL	-11.4722
Di	-11.4722
▁Marina	-11.4723
▁was	-11.4723
▁macro	-11.4723
▁tumbas	-11.4724
▁orejas	-11.4725
▁tóxico	-11.4726
▁nadar	-11.4726
▁prosperidad	-11.4727
▁prolongado	-11.4729
▁diagnósticos	-11.4734
▁descenso	-11.4734
▁actuación	-11.4735
▁gobernantes	-11.474
▁apoyado	-11.4741
▁excepciones	-11.4743
▁tensiones	-11.4748
▁grises	-11.4749
▁Tech	-11.475
nal	-11.4751
▁controlan	-11.4753
▁1977	-11.4753
▁Manual	-11.4754
lt	-11.4755
part	-11.4756
▁ofreció	-11.4757
▁personalmente	-11.4761
▁barro	-11.4763
EP	-11.4763
▁adquirir	-11.4764
▁asigna	-11.4764
▁activas	-11.4765
▁tor	-11.4766
▁africano	-11.4767
▁Lectura	-11.4768
▁ayude	-11.4772
ub	-11.4772
▁Juntos	-11.4773
▁ocupado	-11.4773
media	-11.4774
▁suplemento	-11.4776
▁consistentes	-11.4783
▁impresa	-11.4783
▁héroes	-11.4784
▁choque	-11.4785
cano	-11.4788
▁géneros	-11.4789
▁1970	-11.479
▁Nelson	-11.4793
▁protegen	-11.4794
▁explican	-11.4797
TP	-11.48
▁brote	-11.48
Do	-11.4802
▁identifican	-11.4802
▁deportiva	-11.4803
▁anticipación	-11.4805
▁optimizar	-11.4807
▁relojes	-11.4807
▁Dakota	-11.4811
▁llevaban	-11.4812
▁aventura	-11.4812
▁informados	-11.4813
▁desafiar	-11.4814
▁presidencial	-11.4818
▁subyacentes	-11.4819
▁Up	-11.4819
▁generador	-11.482
▁afirmar	-11.4821
▁astronomía	-11.4821
▁siguieron	-11.4823
▁terrorismo	-11.4826
ifica	-11.4828
▁reportado	-11.4829
▁retirarse	-11.483
▁picaduras	-11.4831
▁encontrarse	-11.4832
▁empatía	-11.4835
▁presiona	-11.4836
▁descubierta	-11.4836
▁Carta	-11.4836
▁reciba	-11.4837
▁visitó	-11.484
▁cohetes	-11.4841
▁inspirar	-11.4843
▁2003,	-11.4845
▁robo	-11.4845
▁Posteriormente	-11.4846
▁MP	-11.4847
▁instalado	-11.4849
CE	-11.4851
▁Luther	-11.4854
▁aéreos	-11.4855
▁Palacio	-11.4856
▁ancha	-11.4856
▁republicanos	-11.4858
▁deberes	-11.486
▁negar	-11.4861
▁Delhi	-11.4863
▁Registro	-11.4863
▁mineros	-11.4863
▁trabajaba	-11.4866
tismo	-11.4867
▁guitarra	-11.4868
MI	-11.4868
▁Libertad	-11.487
Fue	-11.4871
▁remedios	-11.4871
▁Cinco	-11.4872
ern	-11.4874
▁borrador	-11.4874
600	-11.4874
▁Howard	-11.4875
▁raciales	-11.4875
TER	-11.488
▁arreglo	-11.4881
ísticos	-11.4881
▁duradera	-11.4881
Pre	-11.4881
▁asume	-11.4885
▁1990,	-11.4886
iéndose	-11.4886
▁Perú	-11.4888
vir	-11.489
▁carteles	-11.4895
▁coordenadas	-11.4897
icidad	-11.4898
▁inscripción	-11.49
▁alterar	-11.4901
▁cucharadita	-11.4901
▁ocupa	-11.4902
▁residente	-11.4905
▁determinó	-11.4906
▁Human	-11.4907
▁Americano	-11.4907
▁explotar	-11.4908
▁ocurrieron	-11.4908
ografía	-11.4909
▁resaltar	-11.4912
▁realista	-11.4912
PE	-11.4913
▁ci	-11.4913
▁intra	-11.4914
▁liberado	-11.4915
▁cognitivas	-11.4915
▁00	-11.4921
▁deje	-11.4924
pl	-11.4925
▁hindú	-11.4927
▁Nepal	-11.4927
▁consta	-11.4928
▁extensiva	-11.4929
▁falsos	-11.4929
▁Escrito	-11.493
cro	-11.4933
IO	-11.4937
▁Actividades	-11.4939
▁paro	-11.4942
rre	-11.4943
rías	-11.4945
▁absolutamente	-11.495
▁Fahrenheit	-11.4951
▁incluya	-11.4953
▁teología	-11.4953
▁bicicletas	-11.4956
▁soberanía	-11.4957
▁soportar	-11.4958
mont	-11.496
table	-11.4964
▁uniones	-11.4965
izo	-11.4965
lly	-11.4967
:10.	-11.4967
▁escudo	-11.4967
▁Utilizar	-11.4968
DI	-11.497
▁Isaac	-11.4974
▁fallar	-11.4977
▁debían	-11.4977
▁Philip	-11.498
▁estímulo	-11.4981
▁extrañas	-11.4981
▁naves	-11.4983
▁Copyright	-11.4984
nta	-11.4984
▁Steve	-11.4984
▁obtenidos	-11.4984
bor	-11.4985
▁siga	-11.4986
▁loco	-11.4987
▁Nevada	-11.4987
▁Em	-11.4988
▁Bélgica	-11.4989
▁consumir	-11.4989
▁destruyó	-11.4993
▁pollos	-11.4993
▁rebeldes	-11.4994
Son	-11.4995
UR	-11.4996
▁intelectuales	-11.4998
▁sensorial	-11.5
▁tonos	-11.5002
▁calienta	-11.5002
▁1900	-11.5005
▁protestas	-11.5007
▁cometa	-11.5011
▁sesgo	-11.5013
▁cielos	-11.5013
▁Aprender	-11.5014
▁degeneración	-11.5017
▁encantados	-11.5019
anti	-11.5022
▁ilustrar	-11.5024
AM	-11.5029
▁queridos	-11.503
eva	-11.503
▁aroma	-11.5031
▁pagado	-11.5032
▁colonización	-11.5032
▁deseados	-11.5033
▁obtienes	-11.5034
▁fundadores	-11.5036
▁justificar	-11.5037
▁discípulos	-11.5038
▁Encyclopedia	-11.5039
▁testigos	-11.5039
▁clasifican	-11.5039
ath	-11.504
ticos	-11.5041
▁versos	-11.5042
▁prioridades	-11.5047
▁transparencia	-11.5047
▁Hazte	-11.505
aka	-11.5053
▁helado	-11.5054
▁Ray	-11.5055
▁Hijo	-11.5056
posición	-11.5057
▁león	-11.5057
▁consistencia	-11.5059
▁evidentemente	-11.5059
▁1940	-11.5063
▁cláusula	-11.5064
▁considerarse	-11.5064
use	-11.5065
▁comenzará	-11.5068
▁ministerio	-11.5068
▁concentrado	-11.507
mper	-11.5072
▁usas	-11.5075
▁Baltimore	-11.5077
▁min	-11.5078
▁dejes	-11.5082
▁Vitamina	-11.5083
▁prescripción	-11.5084
cto	-11.5084
▁prueban	-11.5086
▁jurisdicción	-11.5092
▁VIII	-11.5092
▁Geo	-11.5093
▁precaución	-11.5094
▁carpeta	-11.5094
▁administradores	-11.5094
▁deportivos	-11.5094
▁consideraban	-11.5094
▁retirado	-11.5095
▁ocultos	-11.5096
▁beneficioso	-11.5096
▁liderar	-11.5097
▁adoptó	-11.51
▁madurez	-11.5102
▁Seattle	-11.5102
PO	-11.5102
▁tercero	-11.5103
▁deshacer	-11.5108
▁Escuelas	-11.5109
▁cha	-11.511
▁Guinea	-11.5113
▁partícula	-11.5114
▁Tengo	-11.5115
NC	-11.5116
▁aficionados	-11.5116
▁Win	-11.5116
▁Im	-11.5119
▁corrosión	-11.5119
▁desigualdades	-11.5121
▁Federación	-11.5121
▁nombró	-11.5123
▁67	-11.5126
OT	-11.5127
▁costosa	-11.513
Nuestra	-11.5132
▁construidas	-11.5134
▁pescadores	-11.5135
▁Católica	-11.514
▁deseada	-11.5142
▁01	-11.5144
▁Economía	-11.5146
ológica	-11.5146
▁criar	-11.5147
▁Fox	-11.515
▁universitario	-11.5153
▁recto	-11.5154
▁municipal	-11.5156
mó	-11.5159
▁2000.	-11.5159
IM	-11.516
▁Origen	-11.516
cula	-11.5163
▁pensó	-11.5166
▁Antonio	-11.5168
▁transparente	-11.5171
bol	-11.5173
Eso	-11.5173
mpa	-11.5176
▁condena	-11.5177
▁solitario	-11.5178
FA	-11.518
ture	-11.5182
▁vómito	-11.5183
▁tarda	-11.5183
zu	-11.5185
Ahora	-11.5185
▁Mil	-11.5185
▁instancia	-11.5186
fre	-11.5187
eza	-11.5189
▁coste	-11.5192
▁Ltd	-11.5193
▁demasiados	-11.5193
Li	-11.5193
▁cultiva	-11.5194
▁once	-11.5197
rick	-11.5197
▁Donald	-11.5198
▁nudos	-11.5199
▁guardias	-11.52
▁relevancia	-11.5202
▁net	-11.5203
▁(8	-11.5203
tens	-11.5203
▁Enlaces	-11.5204
▁gemelos	-11.5205
▁compartida	-11.5207
▁Margaret	-11.521
tle	-11.5211
▁localmente	-11.5217
▁bu	-11.5218
▁hotel	-11.522
▁Farm	-11.5222
EL	-11.5222
ds	-11.5223
rm	-11.5223
▁Hopkins	-11.5223
▁aleja	-11.5224
▁2001,	-11.5225
▁Medicine	-11.5226
▁leones	-11.5226
LS	-11.5226
▁circundante	-11.5233
▁elemental	-11.5234
▁dirigidas	-11.5234
▁Air	-11.5235
▁tercios	-11.5236
▁apelación	-11.5237
▁insuficiente	-11.5238
▁Argentina	-11.5238
▁empresariales	-11.5239
▁XIV	-11.524
▁egipcios	-11.524
▁Malasia	-11.524
▁Qué	-11.5242
▁Medical	-11.5243
▁abandonó	-11.5245
▁alfabeto	-11.5245
▁tiende	-11.5245
1%	-11.5245
▁vinculado	-11.5247
▁átomo	-11.525
▁arreglos	-11.5251
izando	-11.5252
vel	-11.5255
▁Bangladés	-11.5255
":	-11.5256
▁semanal	-11.5256
▁1850	-11.5256
▁decía	-11.5259
▁criaturas	-11.5261
▁Ce	-11.5262
eras	-11.5263
▁senderos	-11.5267
Mar	-11.5268
▁obligaciones	-11.527
▁lápiz	-11.527
▁prominentes	-11.5272
▁embalaje	-11.5273
lect	-11.5274
▁Ci	-11.5276
▁proporcionen	-11.5277
▁diseñador	-11.5278
▁rechazar	-11.5278
uta	-11.5279
▁ultra	-11.5281
izaciones	-11.5281
▁Efectos	-11.5281
▁Voy	-11.5282
▁firmar	-11.5283
▁involucrada	-11.5283
▁membranas	-11.5283
▁Acceso	-11.5286
▁severamente	-11.5286
▁Hal	-11.5287
▁detecta	-11.5287
▁golpes	-11.5287
▁fósil	-11.5287
ire	-11.5289
bla	-11.5289
▁dignidad	-11.529
▁Je	-11.5291
▁cubo	-11.5292
▁cerrados	-11.5293
▁subvenciones	-11.5294
▁seleccionado	-11.5298
▁modificados	-11.5298
▁abuelo	-11.53
uda	-11.5301
▁resuelve	-11.5301
▁Modelo	-11.5302
▁diversa	-11.5303
▁inclinación	-11.5304
▁artillería	-11.5305
▁1994	-11.5306
▁marítimo	-11.5311
▁OS	-11.5311
Ar	-11.5313
▁firmado	-11.5313
▁rechaza	-11.5314
▁malvado	-11.5314
▁clásicos	-11.5314
▁Tenga	-11.5314
5,000	-11.5315
cina	-11.5316
▁reparaciones	-11.5318
▁revisado	-11.5319
▁comporta	-11.5322
▁trajo	-11.5323
virus	-11.5323
pus	-11.5326
▁apoyando	-11.5328
▁Técnica	-11.5329
▁absorbe	-11.5329
lio	-11.533
▁Ham	-11.5331
▁1920	-11.5332
▁inspirado	-11.5335
▁mantengan	-11.5336
sti	-11.5337
▁Marshall	-11.5337
▁0,	-11.5338
▁ayuden	-11.5339
▁indicación	-11.5341
▁Donde	-11.5342
▁cuchillos	-11.5348
ele	-11.5352
▁drones	-11.5354
▁Mountain	-11.5355
▁95%	-11.5355
ges	-11.5356
▁deberán	-11.5359
▁Poder	-11.5361
▁éticos	-11.5364
▁cibernética	-11.5365
▁depósito	-11.5365
▁calmar	-11.5367
▁característicos	-11.5368
▁cuchillo	-11.537
mientos	-11.5371
▁cintas	-11.5371
▁baratos	-11.5373
cía	-11.5373
▁Yale	-11.5373
▁presentada	-11.5374
▁domésticas	-11.5375
▁escasez	-11.5376
ahora	-11.538
▁ce	-11.538
▁intensivo	-11.5383
▁éxitos	-11.5383
▁exteriores	-11.5384
▁ecológica	-11.5385
▁Nutrición	-11.5385
▁trabajaron	-11.5386
IS	-11.5386
▁mat	-11.5386
▁juvenil	-11.5387
▁veneno	-11.5389
▁aplicado	-11.5391
▁presentados	-11.5392
▁Estudiantes	-11.5394
▁embrión	-11.5394
▁moderado	-11.5395
▁XV	-11.5396
▁múltiple	-11.5396
▁15%	-11.5398
mática	-11.5398
▁alumno	-11.5402
▁lin	-11.5406
▁ligeros	-11.5406
▁pronunciación	-11.5407
▁asentamientos	-11.5407
▁respiratorias	-11.5409
▁Grand	-11.541
▁Review	-11.541
▁protegida	-11.5412
▁triángulo	-11.5412
▁out	-11.5414
▁amarillas	-11.5414
▁PE	-11.5415
▁viajeros	-11.5416
▁Home	-11.5417
▁Mah	-11.5418
▁alcanzan	-11.542
▁diferenciar	-11.5422
▁art	-11.5425
▁interactivo	-11.5425
▁decaimiento	-11.5426
▁participaron	-11.5427
▁Sabemos	-11.5428
▁Climático	-11.5428
DC	-11.5429
▁actualizada	-11.5432
▁duradero	-11.5436
▁Autoridad	-11.5437
▁favorable	-11.5437
▁casco	-11.5439
▁reaccionar	-11.5441
4%	-11.5444
ok	-11.5446
hor	-11.5448
▁Mill	-11.5449
▁distracción	-11.545
eno	-11.5453
▁estimula	-11.5456
▁Histórica	-11.5457
▁grietas	-11.5458
▁creador	-11.5458
▁examinando	-11.5459
▁sacos	-11.546
▁Ly	-11.546
▁consumen	-11.5461
▁Space	-11.5462
▁obligatorio	-11.5462
▁empleador	-11.5463
▁eficientemente	-11.5463
▁Clinton	-11.5464
▁Cri	-11.5466
▁conjunta	-11.5467
▁1910	-11.5467
EE	-11.5468
▁USA	-11.547
▁girar	-11.5471
▁trabajamos	-11.5474
▁libra	-11.5482
▁entendimiento	-11.5482
▁anchura	-11.5483
▁sucias	-11.5487
▁conectarse	-11.5488
▁emiten	-11.5488
▁situada	-11.5489
ei	-11.549
▁húmedos	-11.549
6,	-11.5491
▁1979	-11.5493
▁180	-11.5493
▁desempeño	-11.5494
gs	-11.5495
▁Education	-11.5497
▁dólar	-11.5498
▁simultáneamente	-11.5499
▁CH	-11.5499
▁Saturn	-11.55
▁romperse	-11.5501
▁wa	-11.5502
▁transmiten	-11.5503
▁Obviamente	-11.5505
▁Madre	-11.5506
Que	-11.5507
▁emite	-11.5507
rt	-11.5508
▁1880	-11.5509
▁jugando	-11.5509
▁traducciones	-11.551
▁dedica	-11.5512
▁1890	-11.5513
▁legalmente	-11.5513
▁deportivas	-11.5517
▁combinada	-11.5518
▁longitudes	-11.552
lig	-11.5521
▁creyó	-11.5521
▁USDA	-11.5521
▁expuestas	-11.5521
▁1989	-11.5522
bb	-11.5522
sol	-11.5523
▁nasal	-11.5523
RC	-11.5526
▁Local	-11.5526
▁101	-11.5527
▁diagnostica	-11.553
▁cromosomas	-11.5534
▁Rosa	-11.5535
▁africana	-11.5536
▁maduros	-11.5536
▁SA	-11.5537
cé	-11.5538
▁fundido	-11.5538
▁jamás	-11.5538
▁Gal	-11.554
▁autenticación	-11.5541
▁sonar	-11.5541
▁usó	-11.5542
▁resultan	-11.5542
ónico	-11.5545
▁abandonado	-11.5548
▁gl	-11.5549
▁eterna	-11.555
▁malvados	-11.5552
▁Libros	-11.5552
▁tardar	-11.5552
pla	-11.5556
▁your	-11.5558
▁concluye	-11.556
▁ángeles	-11.556
▁lleguen	-11.556
▁Áreas	-11.5562
▁yogur	-11.5563
▁observadores	-11.5563
▁cartón	-11.5565
eri	-11.5567
▁convierta	-11.5567
▁infarto	-11.5569
ila	-11.5569
▁aceleración	-11.5571
▁venas	-11.5571
▁Uso	-11.5574
▁iluminar	-11.5574
▁santos	-11.5574
▁Lanka	-11.5575
BA	-11.5576
▁Cho	-11.5577
▁cualquiera	-11.5577
cept	-11.5578
▁extensa	-11.5579
-13	-11.5581
▁reacciona	-11.5581
▁Cambios	-11.5581
▁veía	-11.5581
▁levantado	-11.5582
▁130	-11.5582
zas	-11.5584
▁Matthew	-11.5585
▁infantería	-11.5585
▁especializado	-11.5588
▁darles	-11.559
▁crudo	-11.5591
▁transacción	-11.5591
pel	-11.5593
▁sedimento	-11.5597
▁cresta	-11.5598
HA	-11.5602
▁reguladores	-11.5603
▁VII	-11.5604
nus	-11.5604
ika	-11.5605
view	-11.5606
▁Enmienda	-11.5609
▁Base	-11.5614
fu	-11.5615
▁foco	-11.5616
▁grabaciones	-11.5618
▁organizó	-11.5618
▁Camino	-11.5622
▁vulnerable	-11.5623
▁pionero	-11.5625
▁Reforma	-11.5626
▁rodean	-11.5627
▁demócratas	-11.5627
▁contraparte	-11.5629
▁monos	-11.563
▁ban	-11.563
▁ascendencia	-11.5633
▁ferrocarriles	-11.5635
▁interpreta	-11.5635
▁permitidos	-11.5636
▁levantó	-11.564
▁oxidación	-11.5642
pto	-11.5643
▁Clínica	-11.5645
▁rechazo	-11.5647
▁ga	-11.565
▁microscopio	-11.5652
▁ansiosos	-11.5652
▁Qui	-11.5654
▁Originalmente	-11.5655
▁filósofo	-11.5656
▁casarse	-11.5657
▁AR	-11.5658
▁ético	-11.5661
▁pen	-11.5667
▁Wang	-11.5667
▁bas	-11.5668
eth	-11.5668
▁fertilizante	-11.567
▁fiables	-11.5671
▁espuma	-11.5672
▁evolucionado	-11.5674
tres	-11.5675
▁surge	-11.5676
▁cortadas	-11.5676
▁100,000	-11.5677
▁disciplinas	-11.5678
▁esferas	-11.5678
over	-11.5678
▁erupciones	-11.5681
▁revelación	-11.5682
▁Lin	-11.5682
▁Alianza	-11.5683
▁Síntomas	-11.5685
▁Energy	-11.5685
▁formales	-11.5685
▁Título	-11.5686
▁Parques	-11.5688
▁agricultor	-11.5689
▁catálogo	-11.569
lina	-11.5692
▁intermedio	-11.5693
▁moleculares	-11.5693
▁enfermera	-11.5695
▁habido	-11.5697
volu	-11.5698
our	-11.5699
▁cilindro	-11.57
▁2018,	-11.5701
▁superan	-11.5701
pat	-11.5702
▁marihuana	-11.5703
▁equipamiento	-11.5703
▁sabido	-11.5703
▁gra	-11.5708
tract	-11.5709
▁laterales	-11.571
▁Rose	-11.5712
▁aprobada	-11.5712
▁cortados	-11.5712
▁estimó	-11.5714
ence	-11.5717
▁séptimo	-11.5718
▁2004.	-11.572
▁SI	-11.5722
▁English	-11.5723
▁controlada	-11.5723
▁óptico	-11.5724
▁Gor	-11.5725
<	-11.5725
▁74	-11.5726
▁procesados	-11.5726
▁votación	-11.5726
▁fallido	-11.5727
▁refugios	-11.5731
▁Char	-11.5735
▁Rep	-11.5735
▁almacenan	-11.5736
▁observando	-11.5737
▁1960	-11.5742
tol	-11.5744
▁Susan	-11.5744
▁Mol	-11.5747
▁talento	-11.5747
▁Hol	-11.5748
▁Iniciativa	-11.5748
▁mediano	-11.575
▁irlandeses	-11.575
▁IoT	-11.5751
▁ataca	-11.5756
▁Padres	-11.5758
dera	-11.5761
▁destacado	-11.5764
▁rodeado	-11.5765
Podría	-11.5766
▁Free	-11.5766
▁practica	-11.5767
▁autobuses	-11.5768
Cuántos	-11.577
▁curvas	-11.577
▁110	-11.5774
itch	-11.5776
▁respiratoria	-11.5777
▁fases	-11.5777
▁Factores	-11.5777
▁cruel	-11.5778
▁Montana	-11.578
▁intervalo	-11.5781
▁artística	-11.5782
▁creativos	-11.5784
▁caro	-11.5785
▁experimentados	-11.5785
ld	-11.5788
▁ocurriendo	-11.5788
▁Temas	-11.5789
▁pastor	-11.579
▁2020,	-11.5791
▁contador	-11.5791
▁fármacos	-11.5792
▁Mur	-11.5792
▁Cro	-11.5793
▁jerarquía	-11.5793
▁misiles	-11.5793
▁facilita	-11.5793
▁rub	-11.5796
▁cifras	-11.5797
▁Fin	-11.58
LO	-11.5803
ware	-11.5806
▁participan	-11.5806
▁túneles	-11.5807
▁78	-11.5808
▁puntuaciones	-11.5809
doi	-11.5811
Nueva	-11.5813
▁vocales	-11.5815
▁Bas	-11.5817
▁aviación	-11.5818
▁coincide	-11.5818
▁Mag	-11.582
▁Considera	-11.582
▁consideradas	-11.5821
▁Arkansas	-11.5825
Claro	-11.5826
▁petición	-11.5827
▁alcanzado	-11.5828
ric	-11.5829
▁]	-11.583
▁picado	-11.5831
▁Objetivos	-11.5831
▁Planta	-11.5831
▁impulsa	-11.5832
▁colisión	-11.5834
▁bacterial	-11.5835
▁iso	-11.5841
▁biografía	-11.5842
▁ciertamente	-11.5842
!)	-11.5844
▁ST	-11.5847
▁Quiero	-11.5847
400	-11.5847
▁negociar	-11.5849
▁Ag	-11.5849
▁Vuelva	-11.5851
▁2002,	-11.5854
▁implantes	-11.5854
▁Alan	-11.5855
▁NE	-11.5857
▁informal	-11.5858
▁portavoz	-11.5859
▁off	-11.5859
▁OMS	-11.5859
▁principiantes	-11.5868
▁Popular	-11.5868
▁infectado	-11.5869
▁MB	-11.5871
▁san	-11.5873
▁saca	-11.5876
▁cigarrillos	-11.5878
zer	-11.5878
▁Yu	-11.588
▁sugerencia	-11.588
▁canto	-11.5881
▁formulario	-11.5883
▁Robinson	-11.5884
▁albergar	-11.5886
ética	-11.5886
▁duran	-11.5886
▁secado	-11.5887
▁Saber	-11.5887
BI	-11.5888
cat	-11.5889
▁(7	-11.589
▁Dia	-11.5891
▁tarifa	-11.5891
▁1962	-11.5892
▁caridad	-11.5893
▁cultivan	-11.5895
▁anatomía	-11.5895
▁verticales	-11.5898
▁perfiles	-11.5899
▁glóbulos	-11.5901
▁69	-11.5902
▁Tragicamente	-11.5902
▁Abu	-11.5903
▁marrones	-11.5903
back	-11.5904
chu	-11.5904
▁organiza	-11.5905
▁barba	-11.5907
▁desaparecido	-11.5908
cil	-11.5911
mun	-11.5912
▁náufrago	-11.5912
▁guarda	-11.5913
▁benefician	-11.5913
BS	-11.5914
▁plástica	-11.5917
VA	-11.5917
bur	-11.5917
▁epilepsia	-11.5918
▁caminando	-11.592
▁pop	-11.5922
▁pioneros	-11.5922
▁atender	-11.5924
▁Enseñanza	-11.5925
▁directos	-11.5928
▁creyentes	-11.5928
▁Hudson	-11.5932
▁140	-11.5933
▁graduados	-11.5934
uni	-11.5935
▁gafas	-11.5937
▁sube	-11.5937
To	-11.5938
▁quiénes	-11.5939
▁UK	-11.5939
▁amantes	-11.594
▁impreso	-11.5941
▁registrados	-11.5942
▁Especies	-11.5942
uff	-11.5943
▁colocando	-11.5945
▁nombrar	-11.5947
▁cuadrada	-11.5948
▁asiáticos	-11.5949
▁proporcional	-11.595
dale	-11.5951
▁Penso	-11.5952
ving	-11.5952
ís	-11.5953
▁implementado	-11.5955
▁representó	-11.5955
ug	-11.5958
:||	-11.596
▁obliga	-11.5965
▁monasterio	-11.5965
ave	-11.5966
▁identificó	-11.5969
▁hice	-11.5969
▁pintar	-11.5969
▁fijos	-11.597
▁Wal	-11.5971
▁multiplicación	-11.5975
▁Isla	-11.5976
▁jefes	-11.5978
▁Romano	-11.5979
▁Cook	-11.598
dal	-11.598
▁destruye	-11.5984
▁económicamente	-11.5986
▁lavar	-11.5989
▁extraordinario	-11.599
▁exhiben	-11.5991
▁talón	-11.5991
▁mitos	-11.5992
▁mezclas	-11.5992
▁Finlandia	-11.5994
▁Th	-11.5995
(3)	-11.5999
▁Gandhi	-11.5999
▁bambú	-11.6001
gran	-11.6002
▁muerta	-11.6003
gur	-11.6003
▁palo	-11.6004
▁1961	-11.6007
time	-11.6011
▁guantes	-11.6014
▁Arabia	-11.6014
▁cookies	-11.6015
▁1966	-11.6015
▁Libre	-11.6015
▁divertidas	-11.6016
▁cavidades	-11.6016
▁Médico	-11.6017
▁simulaciones	-11.6018
▁deshacerse	-11.6019
▁examinaron	-11.6023
▁vocal	-11.6025
▁inversionistas	-11.6026
▁coincidencia	-11.6026
▁agregados	-11.6027
▁VA	-11.603
▁desventaja	-11.6031
▁detenido	-11.6031
▁1992	-11.6032
▁Poli	-11.6032
▁transplante	-11.6033
▁intercambiar	-11.6033
▁Centros	-11.6034
▁Rico	-11.6036
▁grueso	-11.6038
▁destinado	-11.6038
▁Transporte	-11.6041
▁Guías	-11.6041
▁estudia	-11.6041
▁evidentes	-11.6041
▁negociación	-11.6042
▁Ap	-11.6042
▁Clima	-11.6044
▁músicos	-11.6044
▁top	-11.6046
▁lineales	-11.6048
▁Zo	-11.6049
▁ME	-11.6049
cion	-11.6049
▁Corazón	-11.605
CR	-11.605
zen	-11.605
lum	-11.6052
▁fatiga	-11.6052
PT	-11.6052
▁virtud	-11.6053
▁configurar	-11.6054
▁retro	-11.6054
▁Cat	-11.6055
▁Reyes	-11.6056
▁detalla	-11.6057
▁movió	-11.6059
▁aprenda	-11.606
ólogos	-11.6065
▁comprometido	-11.6067
▁grabar	-11.6068
Mu	-11.6068
▁reclamaciones	-11.6069
▁contribuyente	-11.6069
▁Comienza	-11.6072
▁señor	-11.6072
▁donación	-11.6072
▁Existen	-11.6075
▁Ms	-11.6075
▁osteoporosis	-11.6075
▁mariscos	-11.6075
▁turbina	-11.6075
▁Morgan	-11.6076
Tu	-11.6076
▁cubriendo	-11.6078
▁77	-11.6081
▁estudian	-11.6081
▁5)	-11.6081
▁disminuido	-11.6082
▁IBM	-11.6083
▁email	-11.6084
▁vínculos	-11.6084
▁islámica	-11.6084
▁herpes	-11.6085
▁veo	-11.6087
Google	-11.6089
email	-11.6091
▁bienvenido	-11.6092
5,	-11.6092
▁eólica	-11.6092
▁publicadas	-11.6096
món	-11.6098
▁reclamar	-11.6098
▁vestuario	-11.6099
nge	-11.6102
▁murallas	-11.6102
▁1982	-11.6102
osis	-11.6104
▁modelar	-11.6105
▁Mat	-11.6108
sson	-11.611
▁agrava	-11.6111
▁expresan	-11.6111
▁administra	-11.6112
ora	-11.6114
ami	-11.6114
▁automovil	-11.6115
▁delgado	-11.6115
▁dispersión	-11.612
▁imperial	-11.612
▁registró	-11.6122
▁Russell	-11.6124
▁saliendo	-11.6125
▁bit	-11.6126
▁sedimentos	-11.6127
▁continuaron	-11.6129
▁pr	-11.6132
rk	-11.6134
ttle	-11.6134
▁Mejores	-11.6135
Ho	-11.6138
bos	-11.614
▁Viena	-11.6141
nea	-11.6142
vea	-11.6143
▁dobles	-11.6143
cra	-11.6143
▁dual	-11.6145
▁acuario	-11.6146
▁mitigar	-11.6147
▁Tro	-11.6148
▁colocación	-11.6149
▁Gre	-11.615
▁UC	-11.6151
▁contaminada	-11.6152
▁derivado	-11.6155
▁exportación	-11.6156
fí	-11.6157
▁extrae	-11.6157
▁aplicada	-11.6158
▁orillas	-11.6158
▁Mad	-11.6159
CD	-11.616
▁derrotar	-11.616
uc	-11.6161
▁leen	-11.6166
▁miden	-11.6166
▁Public	-11.6167
▁húmedas	-11.6167
▁altar	-11.6167
▁surgido	-11.6168
▁Brian	-11.6168
▁fundado	-11.6168
▁bienvenida	-11.6169
▁escalar	-11.617
▁pal	-11.6171
▁negación	-11.6172
▁Portugal	-11.6173
py	-11.6176
▁éticas	-11.6179
▁ejercer	-11.6181
CM	-11.6181
/2	-11.6182
▁opuestos	-11.6184
▁Papel	-11.6185
▁prohibido	-11.6186
eto	-11.6186
▁elige	-11.6186
▁Harris	-11.6187
▁Morris	-11.6187
▁magnéticos	-11.6188
▁ritual	-11.6188
▁molesta	-11.6189
▁Beneficios	-11.6191
VI	-11.6191
▁detallados	-11.6191
▁cortando	-11.6192
▁coro	-11.6195
ston	-11.6196
▁retina	-11.62
Cl	-11.62
▁monto	-11.6201
▁1983	-11.6203
▁Hy	-11.6203
▁armados	-11.6204
▁seriamente	-11.6205
▁corredor	-11.6206
▁postal	-11.6207
él	-11.6207
▁lucharon	-11.6208
▁Quizás	-11.6209
▁colocado	-11.6209
▁litros	-11.6211
▁trampa	-11.6216
▁garantizando	-11.6218
▁Misuri	-11.6219
▁seguidos	-11.6219
kes	-11.6221
zan	-11.6222
▁LOS	-11.6223
lé	-11.6224
gio	-11.6224
▁energético	-11.6224
▁facultad	-11.6226
▁matando	-11.6227
ox	-11.6229
▁darte	-11.6233
ori	-11.6233
▁esperaban	-11.6235
▁bra	-11.6235
▁pronuncia	-11.6237
▁Tomar	-11.6238
▁examinamos	-11.624
ándolos	-11.624
ington	-11.6241
▁automático	-11.6242
▁atrae	-11.6242
act	-11.6242
▁llave	-11.6244
▁proyección	-11.6244
▁delante	-11.6245
▁costera	-11.6246
▁subterráneo	-11.6248
▁Olímpicos	-11.6249
▁dinámico	-11.6249
AI	-11.625
▁Apollo	-11.625
▁operando	-11.6251
aire	-11.6253
wing	-11.6254
▁restaurante	-11.6254
▁1870	-11.6255
▁Templo	-11.6256
llo	-11.6256
▁recomiendo	-11.6258
▁qui	-11.6258
▁76	-11.6259
▁húmeda	-11.626
▁huelga	-11.626
sto	-11.6264
▁Inicialmente	-11.6266
▁Consulta	-11.6268
spi	-11.6269
eu	-11.6271
▁lana	-11.6275
▁etiquetado	-11.6276
▁iba	-11.6276
aya	-11.6276
▁generado	-11.6276
cm	-11.6276
▁Cam	-11.6278
▁CT	-11.628
▁evalúa	-11.6281
▁residenciales	-11.6281
hem	-11.6281
▁regulador	-11.6282
▁liberan	-11.6282
▁preguntado	-11.6283
▁Fuerzas	-11.6283
ule	-11.6284
▁Good	-11.6284
▁molino	-11.6285
▁cruzado	-11.6285
▁registrada	-11.6285
▁horario	-11.6289
sil	-11.6289
▁divino	-11.6289
▁diagramas	-11.629
sus	-11.629
▁núcleos	-11.6291
hen	-11.6292
esh	-11.6295
▁Hor	-11.6296
▁convertirá	-11.6296
▁Europeo	-11.63
▁progresiva	-11.6302
▁Gro	-11.6305
▁acumulado	-11.6307
▁ping	-11.631
-30	-11.631
▁relativo	-11.6311
▁vicepresidente	-11.6311
tá	-11.6311
sub	-11.6312
lica	-11.6314
▁neto	-11.6314
▁detención	-11.6314
▁estratégica	-11.6316
▁transforma	-11.6317
▁distintas	-11.6317
▁especificar	-11.6317
▁cl	-11.6317
▁cuesta	-11.6321
▁olvidado	-11.6321
▁beneficiosos	-11.6323
▁zoo	-11.6324
▁pasadas	-11.6327
oli	-11.633
▁creativas	-11.633
▁cuidadosa	-11.6332
htm	-11.6334
▁Fuentes	-11.6335
▁oler	-11.6336
▁Shah	-11.6337
jos	-11.6337
▁Android	-11.6337
▁Dentro	-11.6337
▁7,	-11.634
▁emergente	-11.6341
▁Bru	-11.6342
▁duraderos	-11.6346
▁Fer	-11.6347
▁equilibrar	-11.6347
▁minorías	-11.6348
▁mostrará	-11.6348
▁coma	-11.6349
▁exitosas	-11.6353
war	-11.6354
▁pagan	-11.6355
▁autonomía	-11.6356
▁narra	-11.6357
▁cannabis	-11.6359
▁desviar	-11.6361
▁compradores	-11.6361
9%	-11.6365
especificaciones	-11.6366
▁Quebec	-11.6371
▁comience	-11.6371
▁trabajaban	-11.6371
oni	-11.6371
▁aldea	-11.6375
▁celebran	-11.6376
▁liberal	-11.6376
▁históricamente	-11.6377
▁Maestros	-11.6377
▁nacimientos	-11.6377
▁daña	-11.6379
▁tácticas	-11.638
▁Económica	-11.6383
▁avanzando	-11.6383
▁tuberculosis	-11.6383
▁1918	-11.6383
▁corredores	-11.6384
▁devuelve	-11.6384
▁delfines	-11.6386
▁formaciones	-11.6386
▁golpea	-11.6386
▁poseer	-11.6386
▁codificación	-11.6387
ology	-11.6388
▁1860	-11.6388
▁analiza	-11.6389
▁kindergarten	-11.639
▁apoyó	-11.639
"),	-11.6391
▁Características	-11.6393
▁pensado	-11.6395
▁irritación	-11.6396
▁competidores	-11.6396
▁alérgica	-11.6402
ense	-11.6403
▁asamblea	-11.6404
▁73	-11.6404
▁compromisos	-11.6406
▁protestantes	-11.6406
▁sopa	-11.6407
▁Censo	-11.6409
▁88	-11.6411
▁impulsado	-11.6414
▁Beach	-11.6415
▁canta	-11.6417
▁condenado	-11.6418
ili	-11.6418
▁improbable	-11.6419
▁contemporánea	-11.642
llen	-11.6421
9,	-11.6425
▁proporciones	-11.6426
▁constipación	-11.6426
▁necesitarás	-11.6427
▁densa	-11.643
▁azar	-11.6431
UN	-11.6432
▁Dec	-11.6433
▁dados	-11.6433
▁asalto	-11.6434
▁lograron	-11.6435
▁esteroides	-11.6435
▁virales	-11.6436
▁surgió	-11.6436
▁Tre	-11.6438
▁Seis	-11.6438
▁Etiopía	-11.644
▁pieles	-11.6443
▁bipolar	-11.6443
▁cuevas	-11.6443
▁convención	-11.6444
▁pasiva	-11.6446
▁CPU	-11.6447
▁trayectoria	-11.6448
▁aleatorios	-11.6448
Más	-11.645
▁haremos	-11.6452
▁asbesto	-11.6452
▁Bla	-11.6452
ño	-11.6453
▁requeridos	-11.6453
alrededor	-11.6454
shire	-11.6456
worth	-11.6458
▁sostenido	-11.6458
▁mensual	-11.6459
▁Mike	-11.6459
▁preocupan	-11.6461
nda	-11.6463
▁novelas	-11.6464
day	-11.6465
▁hazlo	-11.6466
▁Hubo	-11.6467
▁honrar	-11.6468
▁olvides	-11.6468
▁Christopher	-11.647
▁públicamente	-11.647
▁84	-11.6471
▁Missouri	-11.6472
▁Princeton	-11.6472
▁PARA	-11.6473
▁comprometidos	-11.6473
▁bóveda	-11.6473
++	-11.6473
az	-11.6474
▁soledad	-11.6476
stan	-11.648
▁emitido	-11.6481
▁dragón	-11.6481
▁recomendable	-11.6481
▁sirvieron	-11.6484
▁violaciones	-11.6485
▁ja	-11.6489
▁ruinas	-11.6489
▁irrigación	-11.649
▁TV	-11.649
sign	-11.6491
▁guerreros	-11.6492
▁generalizada	-11.6492
▁asignaciones	-11.6493
▁asteroides	-11.6495
▁aproach	-11.6497
▁islam	-11.65
▁consumición	-11.6501
entre	-11.6501
bia	-11.6502
▁debida	-11.6503
▁prop	-11.6505
▁mel	-11.6506
tera	-11.6509
▁definitiva	-11.6509
▁sensoriales	-11.6509
▁deberás	-11.651
¿	-11.651
cción	-11.6512
▁Fig	-11.6513
▁grosor	-11.6516
▁hago	-11.6516
▁may	-11.6518
▁jabón	-11.6518
▁continuada	-11.652
eve	-11.652
▁confirmó	-11.652
wo	-11.6522
▁Sudán	-11.6522
Ta	-11.6522
▁mph	-11.6524
▁vendió	-11.6526
fund	-11.6526
▁pulgar	-11.6527
▁capturados	-11.6528
▁mueren	-11.6529
II	-11.6529
▁Aristóteles	-11.653
▁evangelio	-11.653
▁Daily	-11.6531
▁Sitio	-11.6532
tología	-11.6534
▁parámetro	-11.6534
▁patología	-11.6535
▁Bruce	-11.6535
MR	-11.6535
▁galería	-11.654
▁Industrial	-11.6544
▁Relaciones	-11.6545
▁octavo	-11.6545
▁resuelto	-11.6545
Na	-11.6545
▁ves	-11.6545
▁$5	-11.6546
▁ceremonias	-11.6547
▁CBD	-11.6547
▁palanca	-11.6547
▁lámparas	-11.6549
▁psicólogo	-11.6549
▁irregulares	-11.6549
▁automatización	-11.655
cks	-11.6552
▁difiere	-11.6552
▁parada	-11.6554
▁botones	-11.6555
▁Poco	-11.6555
▁1991	-11.6556
▁Madison	-11.6557
mil	-11.6558
▁desperdicio	-11.656
vor	-11.656
tte	-11.656
ae	-11.6561
▁Fri	-11.6561
▁1972	-11.6561
▁1941	-11.6561
véase	-11.6562
tró	-11.6562
▁consisten	-11.6562
▁productor	-11.6562
▁flujos	-11.6563
▁perdidos	-11.6564
▁1919	-11.6565
▁suelta	-11.6565
▁Escribir	-11.6568
▁conserva	-11.6568
▁estudió	-11.6569
▁probados	-11.6569
▁monjes	-11.6571
ngu	-11.6572
dic	-11.6572
▁luchan	-11.6572
▁parlamento	-11.6576
isa	-11.6577
▁Fair	-11.6577
▁Gold	-11.6578
▁incendio	-11.6579
▁diamante	-11.6581
▁Walker	-11.6583
▁dedicados	-11.6584
ivas	-11.6584
ete	-11.6584
▁martillo	-11.6585
▁permanentemente	-11.6585
▁tío	-11.6586
▁Patrick	-11.6587
▁protectora	-11.6588
trop	-11.6589
lip	-11.6591
▁César	-11.6594
▁armadas	-11.6594
hl	-11.6596
SL	-11.6597
tí	-11.6597
▁Español	-11.6598
▁Tur	-11.6598
▁conteniendo	-11.6598
▁administrador	-11.66
▁interactúan	-11.6601
▁observador	-11.6602
▁Data	-11.6606
▁musulmán	-11.6606
▁pala	-11.6606
▁remonta	-11.6606
▁reclamación	-11.6607
▁PMID	-11.6609
▁Notas	-11.661
▁margen	-11.6611
▁reemplazado	-11.6611
▁narrador	-11.6612
▁MO	-11.6612
="	-11.6619
▁noble	-11.662
ball	-11.6621
▁ganaron	-11.6622
▁utilizarán	-11.6622
▁significó	-11.6623
▁1944	-11.6624
▁viabilidad	-11.6624
▁conectadas	-11.6624
▁vegetales	-11.6625
vers	-11.6626
▁Congo	-11.6628
4)	-11.6628
▁floración	-11.6628
▁voluntario	-11.6631
▁75%	-11.6634
▁podrá	-11.6634
▁olores	-11.6635
▁Group	-11.6636
▁Dun	-11.6638
▁enfatiza	-11.6639
▁podamos	-11.6639
▁IX	-11.6639
▁96	-11.664
mir	-11.664
▁malware	-11.6641
NET	-11.6642
▁movido	-11.6643
▁Palabra	-11.6643
nombre	-11.6644
▁controlados	-11.6648
▁Tesoro	-11.6648
uca	-11.665
▁CC	-11.6652
▁cancerosas	-11.6653
▁máscara	-11.6653
▁enseñando	-11.6659
▁residencial	-11.666
▁Reducir	-11.666
ings	-11.6662
▁concluir	-11.6663
Tenemos	-11.6663
▁Busque	-11.6663
▁sexualmente	-11.6665
▁Sho	-11.6665
▁més	-11.6668
▁recolectados	-11.6668
ans	-11.6669
▁respiratorios	-11.6671
▁identificados	-11.6671
!”	-11.6674
▁vínculo	-11.6676
▁reducciones	-11.6676
▁cos	-11.6676
ret	-11.668
▁1993	-11.668
▁Mediterráneo	-11.668
▁his	-11.6681
aj	-11.6682
▁nicotina	-11.6682
▁Plantas	-11.6683
igo	-11.6683
▁resina	-11.6683
▁masivas	-11.6684
▁boda	-11.6684
én	-11.6686
PM	-11.6687
▁SQL	-11.6688
▁neutral	-11.6688
▁Austin	-11.669
▁Singh	-11.6691
▁burbujas	-11.6692
▁muertas	-11.6693
▁anticuerpos	-11.6693
▁recibirá	-11.6697
▁amenazada	-11.6698
▁orugas	-11.67
▁penal	-11.6704
▁confirmado	-11.6704
▁remota	-11.6706
▁2003.	-11.6707
▁apunta	-11.6707
▁jubilación	-11.6707
Dónde	-11.6707
ille	-11.6707
▁convertiría	-11.6709
▁cebollas	-11.6712
▁paga	-11.6712
▁presionar	-11.6713
▁Mus	-11.6713
▁provisiones	-11.6714
▁obteniendo	-11.6714
▁enviando	-11.6715
▁verdaderas	-11.6715
▁liberados	-11.6715
ugh	-11.6716
▁hiciera	-11.6718
▁Jardín	-11.6719
▁dureza	-11.672
▁mega	-11.672
▁amplias	-11.6721
▁rodillas	-11.6722
Be	-11.6722
▁Memoria	-11.6723
ío	-11.6724
▁biopsia	-11.6725
▁mecánicos	-11.6727
▁espero	-11.6727
▁inmunológicas	-11.6731
▁temporadas	-11.6734
MC	-11.6734
▁Isabel	-11.6735
▁Cy	-11.6735
▁avanza	-11.6735
uz	-11.6738
nica	-11.6742
illos	-11.6742
tru	-11.6743
hasta	-11.6745
▁Nacido	-11.6746
▁7:	-11.6748
▁comestibles	-11.675
▁documentar	-11.6751
donde	-11.6753
▁entrenadores	-11.6755
▁Indígenas	-11.6758
▁investiga	-11.676
▁ala	-11.676
▁dije	-11.6762
▁oír	-11.6763
▁realistas	-11.6765
▁sostienen	-11.6766
▁prosperar	-11.6767
▁Tam	-11.6768
▁1976	-11.6769
▁vendedores	-11.6771
▁Mass	-11.6775
▁tortuga	-11.6776
▁academia	-11.6777
▁desean	-11.6777
▁Forest	-11.678
▁estática	-11.6781
▁trágica	-11.6781
▁3,000	-11.6781
▁plural	-11.6783
-5	-11.6784
▁salón	-11.6784
▁pres	-11.6786
ith	-11.6787
▁shock	-11.6788
Per	-11.6788
▁---	-11.6788
▁picada	-11.6791
▁Capitán	-11.6792
▁Marco	-11.6792
▁seguían	-11.6792
▁descansar	-11.6793
▁1975	-11.6796
▁Enseña	-11.6798
▁deforestación	-11.68
▁Enlace	-11.6802
▁editar	-11.6802
▁índices	-11.6806
2%	-11.6807
cur	-11.6808
▁Aire	-11.681
▁Mount	-11.6813
ava	-11.6814
▁sh	-11.6814
▁cordón	-11.6815
▁negligencia	-11.6817
▁pasará	-11.6817
▁coincidir	-11.6817
▁declinación	-11.6819
phi	-11.682
▁comparado	-11.6824
▁vivieron	-11.6824
▁organizada	-11.6826
▁Entrenamiento	-11.6827
▁Bol	-11.6828
▁funcionalidad	-11.6829
itaria	-11.683
▁moscas	-11.6831
▁Cer	-11.6834
▁testigo	-11.6837
▁reconocida	-11.684
▁serios	-11.684
▁Mas	-11.6841
▁genómica	-11.6841
▁1946	-11.6842
og	-11.6843
▁Rob	-11.6843
rich	-11.6844
▁regresa	-11.6846
▁precedentes	-11.6847
▁reactor	-11.6848
tada	-11.685
▁Alberta	-11.6853
culo	-11.6854
▁nazi	-11.6854
▁memorias	-11.6854
▁obligatoria	-11.6855
pha	-11.6855
▁mitigación	-11.6855
▁extremamente	-11.6856
▁propensos	-11.6856
▁ISO	-11.6858
▁quejas	-11.6858
▁produzca	-11.6858
▁herido	-11.6859
▁requerirá	-11.6859
▁ópera	-11.6859
▁adapta	-11.6861
▁evolutiva	-11.6862
gre	-11.6862
▁cortó	-11.6862
▁durabilidad	-11.6863
tín	-11.6864
duc	-11.6865
▁Nov	-11.6866
▁alfa	-11.6868
▁contracción	-11.6869
▁producirá	-11.6869
▁Luz	-11.6869
▁capitalismo	-11.687
mbra	-11.6871
▁Estructura	-11.6871
▁correos	-11.6871
▁orgánicas	-11.6872
▁compuestas	-11.6874
▁onzas	-11.6876
-25	-11.6877
▁XII	-11.6877
▁intenciones	-11.688
▁sepa	-11.6881
▁ABC	-11.6883
▁bombardeo	-11.6885
▁Gil	-11.6886
▁desempleo	-11.6887
▁motivar	-11.6889
board	-11.689
▁Ay	-11.6893
▁dañado	-11.6894
▁2001.	-11.6894
▁étnica	-11.6895
▁ganadores	-11.6895
▁marido	-11.6897
▁Naturales	-11.6897
▁2%	-11.6897
▁sirvientes	-11.6898
▁argumentar	-11.69
rah	-11.6902
▁tornillo	-11.6903
nic	-11.6903
▁atrapados	-11.6905
▁Colombia	-11.6905
tio	-11.6905
▁SO	-11.6905
▁determinados	-11.6907
▁bancas	-11.6907
▁ecológico	-11.6908
▁válvulas	-11.6908
▁rigidez	-11.691
▁refería	-11.6912
stre	-11.6913
▁71	-11.6916
▁mol	-11.6919
▁comemos	-11.692
▁rompimiento	-11.6921
▁locura	-11.6922
▁tranquila	-11.6925
▁santuario	-11.6925
▁confundir	-11.6926
dir	-11.6927
▁Alex	-11.693
jó	-11.6931
▁hornos	-11.6931
▁flecha	-11.6931
▁1971	-11.6931
▁autora	-11.6931
▁API	-11.6932
▁psicólogos	-11.6933
▁1938	-11.6934
▁especias	-11.6935
▁revisada	-11.6936
▁juveniles	-11.6938
ska	-11.6939
▁Matt	-11.694
vid	-11.694
▁silicón	-11.694
▁impresiones	-11.694
▁conservadores	-11.6943
▁estrógeno	-11.6943
▁troncos	-11.6944
▁host	-11.6946
▁forzar	-11.6948
▁Cleveland	-11.6948
enda	-11.695
▁ranas	-11.6953
▁donantes	-11.6953
▁parroquia	-11.6954
7,	-11.6954
▁argumentan	-11.6954
▁escalera	-11.6954
▁agresivo	-11.6956
▁térmico	-11.6958
▁(20	-11.696
▁XIII	-11.696
▁bloquea	-11.6963
▁but	-11.6963
▁Música	-11.6965
▁sesenta	-11.6965
▁uranio	-11.6966
▁caos	-11.6966
▁formalmente	-11.6966
zca	-11.6967
▁dirigieron	-11.6968
▁genocidio	-11.6968
PR	-11.6968
▁pirámide	-11.6969
ético	-11.697
▁néctar	-11.6971
▁insecticidas	-11.6972
Hola	-11.6973
▁Literatura	-11.6973
▁ácreas	-11.6973
▁estigma	-11.6975
▁superado	-11.6981
▁1969	-11.6981
▁saco	-11.6982
▁tro	-11.6983
▁Jonathan	-11.6986
▁1964	-11.6986
▁Gordon	-11.6989
▁Personas	-11.699
plica	-11.6991
▁hip	-11.6993
▁faciales	-11.6998
▁Aproximadamente	-11.6998
▁Field	-11.7001
▁vivimos	-11.7001
▁unidos	-11.7002
mio	-11.7003
▁fluidos	-11.7005
▁desconoce	-11.7007
Man	-11.7008
▁cerradas	-11.7009
▁Memorial	-11.701
▁79	-11.7011
▁molinos	-11.7012
gres	-11.7014
▁conmigo	-11.7016
▁diseñan	-11.7016
▁falló	-11.7018
▁sabios	-11.7018
▁sello	-11.7018
-8	-11.7019
▁1965	-11.7019
▁bíblica	-11.7021
▁porciones	-11.7021
▁Evita	-11.7021
▁reciclar	-11.7022
▁1949	-11.7022
▁mueva	-11.7024
▁moldear	-11.7024
▁retratos	-11.7025
ENT	-11.7027
kov	-11.7028
▁legisladores	-11.7028
▁entrando	-11.7028
▁Páginas	-11.7028
▁llamando	-11.703
▁Baker	-11.703
▁implicación	-11.7031
▁propuso	-11.7032
ull	-11.7033
▁demostraron	-11.7033
▁huésped	-11.7034
▁invisible	-11.7035
jes	-11.7035
▁dividida	-11.7036
▁masculinos	-11.7038
▁comunitario	-11.7039
▁ignora	-11.704
lítica	-11.704
▁beneficiar	-11.704
▁aquel	-11.7041
▁impresos	-11.7044
▁elegibles	-11.7044
▁Mental	-11.7047
▁98	-11.7047
▁despliegue	-11.7048
▁invasivas	-11.7048
▁Marx	-11.705
▁Sídney	-11.705
▁Mezcla	-11.7053
▁argumentó	-11.7053
▁pelea	-11.7054
▁ideología	-11.7055
▁asientos	-11.7056
▁rayas	-11.7056
▁actuando	-11.7058
▁sentimiento	-11.7059
▁reconocidos	-11.7061
▁lotería	-11.7061
▁calentador	-11.7062
▁picar	-11.7066
usa	-11.7066
▁Zoo	-11.7066
▁terroristas	-11.7066
▁automóvil	-11.707
▁82	-11.707
▁Selecciona	-11.7071
▁Julio	-11.7072
▁Archivo	-11.7073
ñ	-11.7073
RP	-11.7073
▁expuesta	-11.7073
▁proyecciones	-11.7073
▁Napoleón	-11.7073
▁Vista	-11.7075
▁moviéndose	-11.7076
▁dramáticamente	-11.7077
gus	-11.7077
▁guardia	-11.7079
▁CS	-11.7081
ánica	-11.7083
▁aceptables	-11.7083
wer	-11.7083
▁prohibir	-11.7084
▁Mapa	-11.7085
▁ecológicos	-11.7086
clu	-11.7087
▁continuidad	-11.7089
▁previene	-11.709
▁Has	-11.7092
▁Industria	-11.7092
av	-11.7095
▁espiral	-11.7098
▁centímetros	-11.71
▁hemorragia	-11.7102
▁incorpora	-11.7104
▁modificada	-11.7107
▁Alice	-11.7107
▁villa	-11.7108
erg	-11.7109
▁consenso	-11.7112
▁few	-11.7113
water	-11.7113
cultura	-11.7114
▁cajas	-11.7116
▁Dado	-11.7116
▁1978	-11.7117
nor	-11.7117
▁1936	-11.7118
gle	-11.7118
▁Book	-11.7118
vio	-11.7119
▁mundialmente	-11.712
▁diagnosticados	-11.7121
▁paciencia	-11.7122
lim	-11.7125
▁hemisferio	-11.7125
fra	-11.7127
fort	-11.7128
▁$4	-11.7129
Oh	-11.713
▁contrarrestar	-11.713
▁bondad	-11.7131
▁Reduce	-11.7131
▁cat	-11.7132
▁tamaña	-11.7133
▁Eu	-11.7134
gg	-11.7134
▁profesiones	-11.7135
stro	-11.7136
▁Miles	-11.7137
▁Limpia	-11.7137
▁conceptual	-11.7137
WS	-11.7137
▁1915	-11.7139
▁hicimos	-11.714
-22	-11.7142
▁cri	-11.7142
▁Enfoque	-11.7143
▁geología	-11.7143
▁directorio	-11.7146
▁ordenado	-11.7148
thi	-11.7153
▁Científicos	-11.7153
▁cicatrices	-11.7153
▁decoración	-11.7154
▁1912	-11.7154
▁Int	-11.7156
Aunque	-11.7157
▁veían	-11.7157
▁segregación	-11.716
▁previsto	-11.7161
▁elevan	-11.7162
agua	-11.7162
▁frustración	-11.7164
▁mesas	-11.7165
▁poseen	-11.7166
▁8:	-11.7166
grada	-11.7166
▁Utilice	-11.7166
▁distintos	-11.7167
▁disturbios	-11.7169
▁recorda	-11.717
news	-11.7171
▁budismo	-11.7172
▁desconocidas	-11.7173
▁incorrectamente	-11.7173
▁1916	-11.7179
▁1939	-11.718
▁Proporcione	-11.7182
Car	-11.7183
▁debates	-11.7184
lá	-11.7184
▁hermosura	-11.719
▁Shu	-11.7191
▁amenazados	-11.7191
▁arquitectos	-11.7192
▁magia	-11.7193
nz	-11.7195
▁Herramientas	-11.7195
rás	-11.7196
▁portadores	-11.7198
▁cerró	-11.72
▁inserta	-11.7203
▁interruptor	-11.7205
▁campesinos	-11.7205
ME	-11.7206
▁electrónes	-11.7208
▁natal	-11.721
▁Había	-11.721
▁contribuyó	-11.721
▁aprendieron	-11.7211
ese	-11.7211
▁86	-11.7213
▁intersección	-11.7216
▁supremo	-11.7216
▁obstáculo	-11.7217
▁Guardia	-11.7217
▁fiel	-11.7219
▁Antigua	-11.7219
▁favoritas	-11.7219
▁lavarse	-11.7222
▁sobrecarga	-11.7222
▁testimonio	-11.7222
▁llamaba	-11.7226
▁pasamos	-11.7226
▁viola	-11.7226
▁directas	-11.7228
▁colisiones	-11.7232
fish	-11.7232
▁masacre	-11.7232
▁muebles	-11.7233
mber	-11.7233
gh	-11.7234
▁Karl	-11.7234
▁enojado	-11.7235
▁sabio	-11.7235
Donde	-11.7236
dé	-11.7237
▁Food	-11.7238
duct	-11.724
vision	-11.7241
▁abs	-11.7242
▁sintieron	-11.7242
FI	-11.7243
▁quedaron	-11.7245
▁Probablemente	-11.7247
▁adaptan	-11.7247
▁delgadas	-11.7247
▁cualidades	-11.7248
▁programado	-11.7248
▁precisamente	-11.7248
▁participante	-11.7252
▁Escribe	-11.7254
▁correspondencia	-11.7256
▁empresarios	-11.7257
▁adolescencia	-11.7258
▁fósforo	-11.7263
▁excusa	-11.7263
▁fundaciones	-11.7263
▁utilidades	-11.7265
▁brillo	-11.7265
▁Atlanta	-11.7265
▁usarla	-11.7269
ill	-11.727
▁luchó	-11.7271
2).	-11.7273
interpretaciones	-11.7275
▁sentía	-11.7276
▁buque	-11.7277
nc	-11.7277
▁nobles	-11.7277
▁Puedo	-11.7281
▁Salvador	-11.7281
▁alojamiento	-11.7281
▁ozono	-11.7281
▁bol	-11.7281
dom	-11.7287
▁1942	-11.7289
▁cortesía	-11.7289
lógicos	-11.729
▁abordan	-11.7291
▁esquinas	-11.7292
▁faro	-11.7292
▁salidas	-11.7294
▁italianos	-11.7295
▁resta	-11.7295
▁Kin	-11.7296
▁Silvestre	-11.7297
▁Campbell	-11.7297
▁Á	-11.7297
▁cuidadoso	-11.73
▁Inicia	-11.7301
▁brindar	-11.7302
rc	-11.7303
▁cuántos	-11.7306
▁mejoramiento	-11.7306
bs	-11.7307
elli	-11.7307
▁zorros	-11.7313
▁pintor	-11.7316
▁esporas	-11.7316
▁varones	-11.7316
▁Referencias	-11.7318
▁cuero	-11.7319
▁quince	-11.732
▁inherente	-11.7321
▁tomados	-11.7322
▁golf	-11.7323
▁restringir	-11.7323
▁Atenas	-11.7323
gua	-11.7325
▁procesa	-11.7325
▁1967	-11.7325
▁polares	-11.7328
▁sabrá	-11.733
ár	-11.7331
▁nodo	-11.7332
▁simular	-11.7332
eas	-11.7332
▁NOAA	-11.7333
▁vejiga	-11.7334
▁Kent	-11.7334
▁influyentes	-11.7334
▁mencionar	-11.7336
▁editorial	-11.7336
▁ben	-11.7336
▁vectores	-11.7337
▁filtra	-11.7337
▁ur	-11.7338
amo	-11.734
▁vaso	-11.7341
▁Law	-11.7341
▁bolsillo	-11.7344
▁especializadas	-11.7345
▁2002.	-11.7346
▁Top	-11.7349
▁(5)	-11.7349
▁atómica	-11.735
▁Políticas	-11.7351
▁creadas	-11.7352
ira	-11.7355
▁Visual	-11.7357
▁huir	-11.7359
▁1973	-11.7359
▁orales	-11.7359
▁sorprendido	-11.7363
▁invasiva	-11.7365
▁leyendas	-11.7365
▁pidiendo	-11.7366
▁aleatorio	-11.7368
tras	-11.7368
▁fumadores	-11.7369
▁fri	-11.737
ACI	-11.7372
▁cur	-11.7374
▁Hubble	-11.7374
▁venido	-11.7375
▁1861	-11.7376
▁Frederick	-11.7376
▁inventó	-11.7379
▁Holocausto	-11.7379
▁Animales	-11.738
ming	-11.7383
enberg	-11.7386
▁Anthony	-11.7387
▁tarifas	-11.7391
▁muestre	-11.7392
▁UNESCO	-11.7393
▁aceptada	-11.7394
cent	-11.7395
▁TI	-11.7396
▁Wil	-11.7396
▁investigado	-11.7397
▁finanzas	-11.7397
▁ministros	-11.7398
▁identidades	-11.7398
▁Rh	-11.74
▁1945	-11.74
▁vendedor	-11.74
ats	-11.74
▁proporcionarán	-11.7402
▁Professor	-11.7403
ore	-11.7405
▁ofensiva	-11.7408
▁dramático	-11.7408
tend	-11.741
▁picadura	-11.7411
▁dedicó	-11.7411
▁Explique	-11.7413
▁disposiciones	-11.7414
▁Aplicaciones	-11.7414
▁ambig	-11.7414
▁Project	-11.7416
▁asignados	-11.7417
lus	-11.742
cciones	-11.7421
▁dañino	-11.7421
▁cromosoma	-11.7421
▁adquirido	-11.7422
▁1948	-11.7423
▁verbos	-11.7423
▁Ebola	-11.7425
▁resumir	-11.7427
▁propone	-11.7427
▁1959	-11.7428
▁existía	-11.7428
▁escuchó	-11.7429
▁tomografía	-11.7429
illas	-11.743
▁aprendió	-11.7431
mora	-11.7434
▁lobo	-11.7435
▁colectivo	-11.7438
▁alternativo	-11.7438
▁ponga	-11.7438
▁alrededores	-11.7439
▁recompensas	-11.7439
▁mantenerlo	-11.7439
▁generadores	-11.7439
▁provoca	-11.7442
▁aborígenes	-11.7443
▁mito	-11.7443
▁configuraciones	-11.7443
▁gratuitas	-11.7444
bes	-11.7445
▁Pin	-11.7445
▁bacterio	-11.7447
PD	-11.7447
▁deliberadamente	-11.7447
▁Zi	-11.745
-24	-11.745
▁Cross	-11.745
pio	-11.7454
vil	-11.7456
ensis	-11.7457
▁Descubre	-11.7459
book	-11.7463
pend	-11.7465
▁camp	-11.7465
▁Permite	-11.7466
ónica	-11.7466
▁2019.	-11.7467
▁Hart	-11.747
OP	-11.7473
▁Animal	-11.7474
▁interfaces	-11.7475
▁gamma	-11.7475
▁9,	-11.7477
cimiento	-11.7477
▁hidró	-11.748
color	-11.7481
▁integra	-11.7482
▁cápsula	-11.7485
WA	-11.7488
▁personalizada	-11.7488
▁Cree	-11.749
▁Instituciones	-11.7491
▁consultas	-11.7493
figura	-11.7493
▁aliento	-11.7494
▁progresión	-11.7502
bot	-11.7502
▁Carter	-11.7503
CL	-11.7504
▁viable	-11.7504
tain	-11.7505
▁conejo	-11.7505
▁cro	-11.7505
▁Actividad	-11.7506
▁bebe	-11.7507
▁cinturón	-11.7518
▁1999,	-11.7518
▁TE	-11.7519
▁joyería	-11.752
▁razonamiento	-11.7521
zy	-11.7522
▁acuáticos	-11.7523
ude	-11.7523
rn	-11.7527
▁permitan	-11.7527
fect	-11.7529
▁Contiene	-11.7529
▁permitiría	-11.753
▁cuantitativa	-11.7531
▁Thompson	-11.7531
Figura	-11.7533
▁1929	-11.7533
▁dependerá	-11.7533
ática	-11.7535
▁regimiento	-11.7535
bury	-11.7538
▁caballería	-11.7539
▁valles	-11.7539
▁contratar	-11.754
Nota	-11.754
▁velas	-11.7541
▁promesas	-11.7542
eña	-11.7543
▁ladrillo	-11.7543
▁honra	-11.7545
▁budistas	-11.7545
has	-11.7546
▁fármaco	-11.7546
▁Evite	-11.7547
▁escasa	-11.7548
▁Nuestras	-11.7549
▁1917	-11.755
▁Imágenes	-11.755
▁Lady	-11.7551
▁aminoácidos	-11.7551
▁Sostenible	-11.7553
▁asocian	-11.7554
trans	-11.7555
▁cenizas	-11.7556
▁constituyen	-11.7556
▁series	-11.7558
fina	-11.756
▁1958	-11.7562
▁vean	-11.7562
▁sanas	-11.7563
▁mucus	-11.7564
▁Time	-11.7566
▁Detroit	-11.7566
▁Society	-11.7566
row	-11.7569
▁mejoren	-11.7569
▁precipitación	-11.757
▁comparaciones	-11.7572
nch	-11.7573
▁cortan	-11.7573
chas	-11.7573
▁innovadores	-11.7573
ech	-11.7574
▁proba	-11.7575
▁IL	-11.7577
▁adyacentes	-11.7578
▁Tamaño	-11.758
▁8,	-11.7581
▁accesibilidad	-11.7582
▁remedio	-11.7585
-21	-11.7587
▁Enero	-11.7587
▁Magazine	-11.7588
▁Mala	-11.7588
▁prematura	-11.7589
▁lleve	-11.7589
(2)	-11.7589
▁australiano	-11.7592
▁1957	-11.7593
▁Programas	-11.7593
hum	-11.7593
▁Pul	-11.7594
/10	-11.7595
▁termo	-11.7595
LT	-11.7596
▁repetidos	-11.7597
▁marcada	-11.7597
▁filtrar	-11.7598
tox	-11.7599
▁esquizofrenia	-11.7599
▁Doctor	-11.7601
▁Taiwán	-11.7601
▁pensaba	-11.7604
▁pilotos	-11.7605
▁utilice	-11.7606
▁Kit	-11.7607
hy	-11.7608
▁liberales	-11.7609
▁fracciones	-11.7612
▁calabaza	-11.7614
▁comunista	-11.7615
▁contribuyendo	-11.7616
▁garantizan	-11.7618
▁Grado	-11.7622
▁grabado	-11.7623
ison	-11.7624
▁Imperial	-11.7626
▁Método	-11.7626
▁Color	-11.7627
▁opuestas	-11.7628
▁finalizar	-11.7629
▁aparentemente	-11.7632
▁Estuve	-11.7633
tting	-11.7633
tric	-11.7634
▁EC	-11.7636
▁Cornell	-11.7637
ñe	-11.7637
▁propaganda	-11.7638
▁chinas	-11.7639
▁saque	-11.7639
▁descendiente	-11.7639
▁Nilo	-11.7639
▁inyecciones	-11.7639
▁ordenar	-11.7641
▁Trabajando	-11.7641
▁mas	-11.7642
▁Lagos	-11.7642
▁CI	-11.7644
▁marítima	-11.7644
▁Oct	-11.7645
▁impedir	-11.7645
▁1956	-11.7645
▁miedos	-11.7645
lock	-11.7652
▁nu	-11.7652
▁polímeros	-11.7653
▁Nosotros	-11.7655
tería	-11.7655
cuando	-11.7656
▁molde	-11.7656
ets	-11.7657
ments	-11.7658
▁Delaware	-11.7658
▁92	-11.7659
▁Referencia	-11.7661
▁interesa	-11.7661
▁MRI	-11.7662
▁aviso	-11.7664
▁aparato	-11.7666
torios	-11.7667
tics	-11.7667
▁dedicar	-11.7667
▁oculares	-11.7668
▁Pas	-11.7669
▁limpias	-11.7669
▁APA	-11.767
▁arañas	-11.767
▁literario	-11.7672
▁incluidas	-11.7675
▁civilizaciones	-11.7676
rito	-11.7676
▁Over	-11.7676
▁1937	-11.7677
▁telescopios	-11.7677
DD	-11.7677
▁Tokio	-11.7678
▁misericordia	-11.768
▁Var	-11.7681
▁rover	-11.7681
▁OR	-11.7682
▁Hampshire	-11.7683
▁jueves	-11.7683
▁conectada	-11.7683
▁globalización	-11.7686
▁prefiere	-11.7687
▁sensaciones	-11.7689
año	-11.7691
▁muriendo	-11.7692
▁(9	-11.7692
pó	-11.7693
▁ladrillos	-11.7693
▁bendición	-11.7694
▁aumente	-11.7694
▁filósofos	-11.7696
▁Oak	-11.7696
▁compatible	-11.7697
uf	-11.7697
▁Roger	-11.7698
▁veremos	-11.7698
▁Saint	-11.7698
ali	-11.7702
▁jo	-11.7702
▁Christian	-11.7703
▁elegida	-11.7705
▁defensor	-11.7706
mic	-11.7707
▁separan	-11.7709
▁comprometer	-11.771
▁aprenderán	-11.771
)?	-11.7711
▁Boy	-11.7711
▁madura	-11.7711
▁elevada	-11.7712
▁masaje	-11.7713
poli	-11.7714
▁9:	-11.772
▁fan	-11.772
▁81	-11.772
gate	-11.7721
▁feto	-11.7724
link	-11.7725
▁volcán	-11.7725
▁explicando	-11.7726
▁350	-11.7726
▁cifra	-11.7727
patía	-11.7729
▁contó	-11.7729
▁87	-11.7731
▁British	-11.7732
▁mantenerlos	-11.7733
▁sombrero	-11.7734
▁emocionados	-11.7736
▁dañados	-11.774
▁prescritos	-11.7744
▁usarlo	-11.7745
▁Luc	-11.7747
▁almas	-11.7747
▁atractiva	-11.7747
▁mejoran	-11.7747
▁83	-11.7748
▁Licencia	-11.7749
▁irlandés	-11.7749
ello	-11.7751
tados	-11.7751
▁Jun	-11.7752
hara	-11.7753
▁Negocios	-11.7754
▁favorables	-11.7756
med	-11.7758
AN	-11.776
▁natación	-11.776
▁Estadística	-11.7761
▁ritos	-11.7761
▁Wei	-11.7761
▁1914	-11.7761
▁expulsión	-11.7763
▁tránsito	-11.7765
▁Way	-11.7766
▁bulbos	-11.7766
▁insecto	-11.7767
▁atribuir	-11.7768
▁literarias	-11.777
gó	-11.777
▁asegura	-11.7772
▁píxeles	-11.7772
ase	-11.7775
ilo	-11.7775
GS	-11.7776
▁Bon	-11.7776
▁fallecido	-11.7777
▁tóxicas	-11.7778
▁traído	-11.7781
▁levemente	-11.7781
▁salió	-11.7782
▁invertido	-11.7783
▁Sy	-11.7784
▁expresado	-11.7786
▁Algo	-11.7787
▁Macbeth	-11.7788
▁sulfuro	-11.7792
▁More	-11.7792
▁soviético	-11.7792
▁proporcionadas	-11.7793
▁Colegio	-11.7796
▁Watson	-11.7796
anza	-11.7796
▁arqueológicos	-11.7796
▁auditoría	-11.7797
▁joyas	-11.7798
▁93	-11.78
▁Union	-11.7801
mé	-11.7801
▁complementar	-11.7801
▁Habla	-11.7804
▁narración	-11.7804
▁Bridge	-11.7805
nell	-11.7806
Fig	-11.7806
▁retroceso	-11.7807
▁fre	-11.7807
long	-11.7808
RNA	-11.7814
▁escáneres	-11.7818
▁bri	-11.7819
▁folleto	-11.7819
old	-11.7821
▁capacitado	-11.7822
▁destacados	-11.7826
▁will	-11.7826
▁1911	-11.7828
▁Meta	-11.7829
▁arqueología	-11.7829
▁enseñado	-11.783
▁papelera	-11.7831
MB	-11.7832
▁repetidas	-11.7833
▁(12	-11.7836
▁Necesitas	-11.7836
▁centrada	-11.7837
▁comunistas	-11.7838
▁verdades	-11.784
TI	-11.784
▁Vermont	-11.7841
▁elefante	-11.7842
▁trece	-11.7842
▁remotas	-11.7842
▁libertades	-11.7842
▁seleccione	-11.7842
▁bautismo	-11.7843
▁masculina	-11.7844
▁varilla	-11.7845
▁adjunta	-11.7846
▁Lyme	-11.7848
▁Publishing	-11.7848
▁hambrientos	-11.7849
▁nocturna	-11.785
lación	-11.785
▁sujeta	-11.7853
▁asesoría	-11.7853
▁esperanzas	-11.7853
▁teóricos	-11.7854
burn	-11.7855
▁Regional	-11.7856
▁pureza	-11.786
▁productiva	-11.786
▁RA	-11.7862
▁veas	-11.7863
▁cardíacas	-11.7864
▁1963	-11.7865
▁Ruta	-11.7866
▁definidos	-11.7867
▁diagnosticado	-11.7868
▁Collins	-11.7868
▁comunitarios	-11.7869
▁Ren	-11.7869
▁nerviosas	-11.7871
](	-11.7873
Todos	-11.7873
▁temores	-11.7875
ición	-11.7876
▁disparar	-11.7877
▁matan	-11.7881
▁ofertas	-11.7881
▁innovadoras	-11.7881
▁reptiles	-11.7882
▁Estaba	-11.7883
▁regeneración	-11.7886
▁eliminado	-11.7887
▁Queensland	-11.7888
▁Bull	-11.7889
▁proyecta	-11.7889
▁trabajadora	-11.7889
▁merecen	-11.789
▁diamantes	-11.789
▁Fauna	-11.7893
amp	-11.7896
▁trágico	-11.7898
▁1974	-11.7899
▁femeninos	-11.7902
▁Miss	-11.7905
▁Resultados	-11.7906
▁ollas	-11.7906
▁enormemente	-11.7907
▁opresión	-11.7909
▁vo	-11.791
▁consigo	-11.7911
prim	-11.7911
▁fabrican	-11.7912
▁clubes	-11.7912
▁salada	-11.7915
▁identificaron	-11.7916
▁coloniales	-11.7917
▁soviéticos	-11.7917
▁lideró	-11.7918
▁doloroso	-11.792
▁Corporation	-11.7921
▁Smithsonian	-11.7921
▁representado	-11.7921
berry	-11.7923
▁baloncesto	-11.7924
▁1980,	-11.7929
▁97	-11.7932
▁maquinaria	-11.7932
dad	-11.7933
▁1955	-11.7935
▁ilusión	-11.7938
▁1863	-11.7938
▁electrones	-11.7939
▁cho	-11.794
As	-11.7941
aco	-11.795
▁irregular	-11.7951
▁Head	-11.7952
▁limpios	-11.7953
nk	-11.7954
▁carro	-11.7955
▁enferma	-11.7958
post	-11.7958
▁escuchando	-11.7959
▁dibuja	-11.7962
▁Helen	-11.7963
▁temer	-11.7964
▁influenza	-11.7964
▁etanol	-11.7968
▁concesión	-11.7968
▁recordatorio	-11.7969
▁mezclan	-11.797
▁personalizados	-11.797
▁asunto	-11.7971
▁diagnóstica	-11.7971
▁AB	-11.7972
▁tratando	-11.7973
▁hablante	-11.7974
ING	-11.7974
ET	-11.7974
aga	-11.7975
▁repentinamente	-11.7976
▁salsa	-11.7976
▁tira	-11.7976
▁profetas	-11.7977
▁Dur	-11.7979
▁presidencia	-11.7979
▁Jorge	-11.798
▁United	-11.798
▁02	-11.7984
ificar	-11.7985
▁accidentalmente	-11.7986
▁gravemente	-11.7988
▁pseudo	-11.7988
▁1913	-11.799
▁críticamente	-11.7992
▁HPV	-11.7992
adi	-11.7992
▁ahorra	-11.7993
▁comunica	-11.7998
▁blogs	-11.8
▁labor	-11.8001
Pueden	-11.8003
▁Stalin	-11.8003
▁Learning	-11.8006
▁citado	-11.801
▁adoración	-11.8011
▁quedado	-11.8012
▁Fred	-11.8012
▁inconsciente	-11.8015
[...]
